// Auto-generated by export_tflite.py — do not edit
// Model size: 20904 bytes (20.4 KB)
// SHA256 prefix: c8e4c40c2fbf2d56
// Exported: 2026-03-06T22:44:30Z

#ifndef BEAT_MODEL_DATA_H
#define BEAT_MODEL_DATA_H

#define BEAT_MODEL_HASH "c8e4c40c2fbf2d56"
#define BEAT_MODEL_SIZE 20904

static alignas(8) const unsigned char beat_model_data[] = {
  0x20, 0x00, 0x00, 0x00, 0x54, 0x46, 0x4c, 0x33, 0x00, 0x00, 0x00, 0x00,
  0x14, 0x00, 0x20, 0x00, 0x1c, 0x00, 0x18, 0x00, 0x14, 0x00, 0x10, 0x00,
  0x0c, 0x00, 0x00, 0x00, 0x08, 0x00, 0x04, 0x00, 0x14, 0x00, 0x00, 0x00,
  0x1c, 0x00, 0x00, 0x00, 0x88, 0x00, 0x00, 0x00, 0xe0, 0x00, 0x00, 0x00,
  0x34, 0x28, 0x00, 0x00, 0x44, 0x28, 0x00, 0x00, 0x9c, 0x50, 0x00, 0x00,
  0x03, 0x00, 0x00, 0x00, 0x01, 0x00, 0x00, 0x00, 0x04, 0x00, 0x00, 0x00,
  0x06, 0xd3, 0xff, 0xff, 0x0c, 0x00, 0x00, 0x00, 0x1c, 0x00, 0x00, 0x00,
  0x3c, 0x00, 0x00, 0x00, 0x0f, 0x00, 0x00, 0x00, 0x73, 0x65, 0x72, 0x76,
  0x69, 0x6e, 0x67, 0x5f, 0x64, 0x65, 0x66, 0x61, 0x75, 0x6c, 0x74, 0x00,
  0x01, 0x00, 0x00, 0x00, 0x04, 0x00, 0x00, 0x00, 0x94, 0xff, 0xff, 0xff,
  0x33, 0x00, 0x00, 0x00, 0x04, 0x00, 0x00, 0x00, 0x0b, 0x00, 0x00, 0x00,
  0x6f, 0x75, 0x74, 0x70, 0x75, 0x74, 0x5f, 0x63, 0x6f, 0x6e, 0x76, 0x00,
  0x01, 0x00, 0x00, 0x00, 0x04, 0x00, 0x00, 0x00, 0x66, 0xd8, 0xff, 0xff,
  0x04, 0x00, 0x00, 0x00, 0x09, 0x00, 0x00, 0x00, 0x6d, 0x65, 0x6c, 0x5f,
  0x69, 0x6e, 0x70, 0x75, 0x74, 0x00, 0x00, 0x00, 0x02, 0x00, 0x00, 0x00,
  0x34, 0x00, 0x00, 0x00, 0x04, 0x00, 0x00, 0x00, 0xdc, 0xff, 0xff, 0xff,
  0x36, 0x00, 0x00, 0x00, 0x04, 0x00, 0x00, 0x00, 0x13, 0x00, 0x00, 0x00,
  0x43, 0x4f, 0x4e, 0x56, 0x45, 0x52, 0x53, 0x49, 0x4f, 0x4e, 0x5f, 0x4d,
  0x45, 0x54, 0x41, 0x44, 0x41, 0x54, 0x41, 0x00, 0x08, 0x00, 0x0c, 0x00,
  0x08, 0x00, 0x04, 0x00, 0x08, 0x00, 0x00, 0x00, 0x35, 0x00, 0x00, 0x00,
  0x04, 0x00, 0x00, 0x00, 0x13, 0x00, 0x00, 0x00, 0x6d, 0x69, 0x6e, 0x5f,
  0x72, 0x75, 0x6e, 0x74, 0x69, 0x6d, 0x65, 0x5f, 0x76, 0x65, 0x72, 0x73,
  0x69, 0x6f, 0x6e, 0x00, 0x37, 0x00, 0x00, 0x00, 0x50, 0x27, 0x00, 0x00,
  0x48, 0x27, 0x00, 0x00, 0x20, 0x27, 0x00, 0x00, 0x04, 0x27, 0x00, 0x00,
  0xe8, 0x26, 0x00, 0x00, 0xc0, 0x26, 0x00, 0x00, 0xac, 0x26, 0x00, 0x00,
  0x94, 0x26, 0x00, 0x00, 0x78, 0x26, 0x00, 0x00, 0x50, 0x26, 0x00, 0x00,
  0x3c, 0x26, 0x00, 0x00, 0x20, 0x26, 0x00, 0x00, 0x04, 0x26, 0x00, 0x00,
  0xec, 0x25, 0x00, 0x00, 0x9c, 0x25, 0x00, 0x00, 0x6c, 0x25, 0x00, 0x00,
  0x3c, 0x25, 0x00, 0x00, 0x0c, 0x25, 0x00, 0x00, 0xfc, 0x18, 0x00, 0x00,
  0xcc, 0x18, 0x00, 0x00, 0x9c, 0x18, 0x00, 0x00, 0x6c, 0x18, 0x00, 0x00,
  0xdc, 0x17, 0x00, 0x00, 0xd4, 0x17, 0x00, 0x00, 0xc4, 0x0b, 0x00, 0x00,
  0x34, 0x0b, 0x00, 0x00, 0x64, 0x01, 0x00, 0x00, 0x5c, 0x01, 0x00, 0x00,
  0x54, 0x01, 0x00, 0x00, 0x4c, 0x01, 0x00, 0x00, 0x44, 0x01, 0x00, 0x00,
  0x3c, 0x01, 0x00, 0x00, 0x34, 0x01, 0x00, 0x00, 0x2c, 0x01, 0x00, 0x00,
  0x24, 0x01, 0x00, 0x00, 0x1c, 0x01, 0x00, 0x00, 0x14, 0x01, 0x00, 0x00,
  0x0c, 0x01, 0x00, 0x00, 0x04, 0x01, 0x00, 0x00, 0xfc, 0x00, 0x00, 0x00,
  0xf4, 0x00, 0x00, 0x00, 0xec, 0x00, 0x00, 0x00, 0xe4, 0x00, 0x00, 0x00,
  0xdc, 0x00, 0x00, 0x00, 0xd4, 0x00, 0x00, 0x00, 0xcc, 0x00, 0x00, 0x00,
  0xc4, 0x00, 0x00, 0x00, 0xbc, 0x00, 0x00, 0x00, 0xb4, 0x00, 0x00, 0x00,
  0xac, 0x00, 0x00, 0x00, 0xa4, 0x00, 0x00, 0x00, 0x9c, 0x00, 0x00, 0x00,
  0x94, 0x00, 0x00, 0x00, 0x74, 0x00, 0x00, 0x00, 0x04, 0x00, 0x00, 0x00,
  0xba, 0xd9, 0xff, 0xff, 0x04, 0x00, 0x00, 0x00, 0x60, 0x00, 0x00, 0x00,
  0x0c, 0x00, 0x00, 0x00, 0x08, 0x00, 0x0e, 0x00, 0x08, 0x00, 0x04, 0x00,
  0x08, 0x00, 0x00, 0x00, 0x10, 0x00, 0x00, 0x00, 0x28, 0x00, 0x00, 0x00,
  0x00, 0x00, 0x06, 0x00, 0x08, 0x00, 0x04, 0x00, 0x06, 0x00, 0x00, 0x00,
  0x04, 0x00, 0x00, 0x00, 0x01, 0x00, 0x00, 0x00, 0xeb, 0x03, 0x00, 0x00,
  0x0c, 0x00, 0x18, 0x00, 0x14, 0x00, 0x10, 0x00, 0x0c, 0x00, 0x04, 0x00,
  0x0c, 0x00, 0x00, 0x00, 0xcc, 0x78, 0x05, 0x67, 0xf9, 0x14, 0x1c, 0x40,
  0x02, 0x00, 0x00, 0x00, 0x02, 0x00, 0x00, 0x00, 0x04, 0x00, 0x00, 0x00,
  0x06, 0x00, 0x00, 0x00, 0x32, 0x2e, 0x32, 0x30, 0x2e, 0x30, 0x00, 0x00,
  0x26, 0xda, 0xff, 0xff, 0x04, 0x00, 0x00, 0x00, 0x10, 0x00, 0x00, 0x00,
  0x32, 0x2e, 0x33, 0x2e, 0x30, 0x00, 0x00, 0x00, 0x00, 0x00, 0x00, 0x00,
  0x00, 0x00, 0x00, 0x00, 0x70, 0xb2, 0xff, 0xff, 0x74, 0xb2, 0xff, 0xff,
  0x78, 0xb2, 0xff, 0xff, 0x7c, 0xb2, 0xff, 0xff, 0x80, 0xb2, 0xff, 0xff,
  0x84, 0xb2, 0xff, 0xff, 0x88, 0xb2, 0xff, 0xff, 0x8c, 0xb2, 0xff, 0xff,
  0x90, 0xb2, 0xff, 0xff, 0x94, 0xb2, 0xff, 0xff, 0x98, 0xb2, 0xff, 0xff,
  0x9c, 0xb2, 0xff, 0xff, 0xa0, 0xb2, 0xff, 0xff, 0xa4, 0xb2, 0xff, 0xff,
  0xa8, 0xb2, 0xff, 0xff, 0xac, 0xb2, 0xff, 0xff, 0xb0, 0xb2, 0xff, 0xff,
  0xb4, 0xb2, 0xff, 0xff, 0xb8, 0xb2, 0xff, 0xff, 0xbc, 0xb2, 0xff, 0xff,
  0xc0, 0xb2, 0xff, 0xff, 0xc4, 0xb2, 0xff, 0xff, 0xc8, 0xb2, 0xff, 0xff,
  0xcc, 0xb2, 0xff, 0xff, 0xd0, 0xb2, 0xff, 0xff, 0xd4, 0xb2, 0xff, 0xff,
  0xaa, 0xda, 0xff, 0xff, 0x04, 0x00, 0x00, 0x00, 0xc0, 0x09, 0x00, 0x00,
  0x1e, 0x04, 0x08, 0xfe, 0xfe, 0xf9, 0xf8, 0xfa, 0xfb, 0xf8, 0xf8, 0xf4,
  0xf2, 0xf6, 0xf0, 0x05, 0xe6, 0xf6, 0xfb, 0x05, 0xf5, 0x04, 0x0e, 0x11,
  0x11, 0x0b, 0x51, 0x50, 0x4d, 0x45, 0x47, 0x42, 0x42, 0x4a, 0x49, 0x51,
  0x57, 0x5e, 0x63, 0x67, 0x6d, 0x76, 0x72, 0x6e, 0x68, 0x66, 0x74, 0x70,
  0x5a, 0x50, 0x46, 0x41, 0xff, 0xf8, 0xd4, 0xc5, 0xc0, 0xc1, 0xbc, 0xbf,
  0xbd, 0xbb, 0xb5, 0xaa, 0xa7, 0xa7, 0x97, 0xaf, 0x94, 0x98, 0xac, 0xa8,
  0x81, 0x8a, 0xa2, 0xa5, 0xa1, 0xa2, 0xe4, 0xe0, 0xee, 0xe7, 0xe9, 0xeb,
  0xe8, 0xe7, 0xe8, 0xe2, 0xe1, 0xd8, 0xd5, 0xd1, 0xc9, 0xcd, 0xb8, 0xb8,
  0xba, 0xbc, 0x81, 0x85, 0x95, 0x90, 0x8a, 0x8c, 0xf9, 0x06, 0x07, 0x04,
  0x08, 0x05, 0x06, 0x06, 0x04, 0x06, 0x08, 0x07, 0x0a, 0x0a, 0x11, 0x0f,
  0x11, 0x11, 0x12, 0x13, 0x1d, 0x24, 0x21, 0x20, 0x24, 0x24, 0x18, 0x23,
  0x0c, 0x11, 0x0f, 0x0d, 0x0f, 0x0e, 0x0f, 0x12, 0x15, 0x18, 0x1e, 0x23,
  0x28, 0x27, 0x32, 0x30, 0x29, 0x33, 0x66, 0x60, 0x54, 0x58, 0x66, 0x5f,
  0x02, 0x02, 0x01, 0x02, 0x01, 0x01, 0x01, 0x01, 0x01, 0x01, 0x01, 0x01,
  0x02, 0x02, 0x03, 0x02, 0x03, 0x03, 0x03, 0x03, 0x04, 0x02, 0x03, 0x02,
  0x02, 0x02, 0x00, 0xff, 0x00, 0x00, 0xff, 0x00, 0xff, 0xff, 0xff, 0xff,
  0xfe, 0xff, 0xff, 0xff, 0x00, 0x01, 0xff, 0x00, 0x00, 0x00, 0x00, 0x02,
  0xff, 0xfe, 0xfe, 0xfe, 0x01, 0x00, 0x02, 0x01, 0xfe, 0x00, 0xfe, 0x03,
  0xff, 0x01, 0xff, 0xfc, 0x08, 0xfe, 0x03, 0x07, 0x03, 0x0a, 0x08, 0x0a,
  0x18, 0x81, 0x10, 0x0a, 0x09, 0x09, 0xfc, 0x00, 0xfe, 0x00, 0x00, 0xfe,
  0x02, 0xfe, 0xff, 0xfe, 0x02, 0x00, 0x00, 0x00, 0xff, 0xfd, 0x01, 0xff,
  0xfc, 0xf8, 0xff, 0xfc, 0xfd, 0x0b, 0xfd, 0x0e, 0xf9, 0xee, 0xf7, 0xfd,
  0xfb, 0xfe, 0xfb, 0xfe, 0xfc, 0xfe, 0xfc, 0xfb, 0xfa, 0xfb, 0xf9, 0xf4,
  0xf7, 0xeb, 0xeb, 0xe1, 0xd3, 0xce, 0xc5, 0x87, 0xb2, 0x81, 0x07, 0x02,
  0x08, 0x06, 0x03, 0x00, 0x00, 0x01, 0xff, 0x00, 0x02, 0x00, 0x03, 0x06,
  0x09, 0x08, 0x10, 0x11, 0x0d, 0x1d, 0x41, 0x4e, 0x4f, 0x5d, 0x66, 0x6a,
  0xdd, 0xdf, 0xf1, 0xe0, 0xe1, 0xdf, 0xda, 0xd8, 0xd6, 0xce, 0xc7, 0xc0,
  0xb7, 0xb2, 0xa6, 0xc2, 0x9b, 0xaa, 0xb1, 0xc1, 0x81, 0xa7, 0xb9, 0xb9,
  0xbb, 0xb6, 0xf3, 0x05, 0x03, 0xff, 0x04, 0x01, 0x01, 0x04, 0x07, 0x08,
  0x08, 0x09, 0x0b, 0x0c, 0x0d, 0x0e, 0x11, 0x10, 0x0f, 0x0f, 0x12, 0x0f,
  0x09, 0x04, 0x01, 0x00, 0x27, 0x41, 0x10, 0x27, 0x25, 0x23, 0x26, 0x29,
  0x2d, 0x33, 0x36, 0x39, 0x42, 0x47, 0x50, 0x30, 0x58, 0x4e, 0x4a, 0x31,
  0x67, 0x4b, 0x40, 0x39, 0x36, 0x3f, 0x00, 0x00, 0x00, 0x01, 0x01, 0x00,
  0x01, 0x01, 0x01, 0x01, 0x01, 0x01, 0x02, 0x01, 0x02, 0x02, 0x02, 0x01,
  0x03, 0x02, 0x04, 0x04, 0x05, 0x03, 0x05, 0x05, 0xfd, 0xfe, 0xff, 0xff,
  0x00, 0xff, 0xff, 0xff, 0xfe, 0xff, 0xfe, 0xfe, 0x00, 0xfe, 0xff, 0xff,
  0x00, 0xff, 0xff, 0xff, 0xff, 0x00, 0x02, 0x03, 0x02, 0x02, 0x00, 0xfd,
  0x03, 0xfc, 0x01, 0x00, 0xff, 0x02, 0xfe, 0x03, 0xfd, 0x03, 0x04, 0x01,
  0x01, 0x08, 0x0b, 0xd4, 0x09, 0x09, 0x0c, 0x12, 0x16, 0x81, 0x1b, 0x1a,
  0xcf, 0xe8, 0x00, 0x00, 0x0c, 0x18, 0x26, 0x31, 0x3b, 0x4e, 0x55, 0x5a,
  0x64, 0x6e, 0x7a, 0x76, 0x7f, 0x75, 0x64, 0x40, 0x54, 0x2e, 0x0e, 0xfa,
  0xe6, 0xe6, 0x29, 0x75, 0x2d, 0xfd, 0xf8, 0xf3, 0xf8, 0xf1, 0xf0, 0xf9,
  0xfd, 0xfd, 0x04, 0x02, 0x05, 0x09, 0x0c, 0x0c, 0x0d, 0x09, 0x13, 0x11,
  0x0c, 0x0e, 0x11, 0x0d, 0x61, 0x46, 0xe8, 0xec, 0xe5, 0xdf, 0xd8, 0xd2,
  0xcb, 0xc2, 0xbe, 0xb1, 0xaf, 0xa4, 0x97, 0x82, 0xa0, 0xa3, 0xab, 0xae,
  0xba, 0xda, 0xe3, 0xec, 0xfb, 0xfc, 0x20, 0x1c, 0x0b, 0x08, 0x07, 0x04,
  0x04, 0x02, 0x02, 0x03, 0x03, 0x03, 0x02, 0x02, 0x02, 0x02, 0x02, 0x02,
  0x01, 0x00, 0x01, 0x01, 0x00, 0x01, 0x00, 0x01, 0x7f, 0x1a, 0x02, 0xfd,
  0xfd, 0xfc, 0xfd, 0xfd, 0xfd, 0xfe, 0xfe, 0xfe, 0xfe, 0xff, 0xfe, 0xfd,
  0xfe, 0xfe, 0xfe, 0xff, 0x00, 0x01, 0x02, 0x01, 0x03, 0x03, 0x41, 0x02,
  0xfa, 0xfb, 0xfb, 0xfc, 0xfd, 0xfe, 0xff, 0xff, 0xff, 0xff, 0xfe, 0xff,
  0xff, 0x00, 0xfe, 0xff, 0xfe, 0x00, 0xff, 0xff, 0xff, 0xff, 0x01, 0x00,
  0xf7, 0xed, 0xeb, 0xe7, 0xef, 0xee, 0xee, 0xeb, 0xef, 0xeb, 0xeb, 0xe9,
  0xea, 0xe6, 0xe8, 0xe7, 0xe8, 0xea, 0xe7, 0xe8, 0xdf, 0xe8, 0xe8, 0xe9,
  0xf1, 0xee, 0xe3, 0x0f, 0x27, 0x2d, 0x2e, 0x2f, 0x35, 0x35, 0x38, 0x43,
  0x45, 0x47, 0x49, 0x4a, 0x50, 0x56, 0x51, 0x4c, 0x46, 0x3e, 0x46, 0x3f,
  0x2e, 0x26, 0x1d, 0x1e, 0x7f, 0x7c, 0x16, 0xef, 0xe7, 0xe5, 0xe4, 0xe2,
  0xe0, 0xe1, 0xdf, 0xde, 0xe2, 0xdd, 0xdd, 0xd3, 0xe0, 0xdc, 0xde, 0xdd,
  0xe9, 0xe3, 0xea, 0xee, 0xf6, 0xf7, 0xfd, 0xfe, 0xff, 0x00, 0x00, 0x00,
  0x00, 0x00, 0x00, 0x01, 0x01, 0x01, 0x01, 0x01, 0x01, 0x00, 0x02, 0x01,
  0x01, 0x00, 0x00, 0x00, 0xff, 0xff, 0xff, 0xff, 0x1b, 0x20, 0x11, 0x09,
  0x07, 0x05, 0x04, 0x03, 0x02, 0x02, 0x02, 0x02, 0x01, 0x01, 0x00, 0x00,
  0x00, 0x00, 0x00, 0x00, 0x01, 0x01, 0x00, 0x00, 0x01, 0x01, 0x7f, 0x12,
  0xfe, 0xfd, 0xfd, 0xfd, 0xfd, 0xfd, 0xfd, 0xfe, 0xfe, 0xfe, 0xfe, 0xfe,
  0xfe, 0xff, 0xfe, 0xff, 0xff, 0x00, 0xff, 0x00, 0x00, 0x01, 0x01, 0x01,
  0x0e, 0x0c, 0x05, 0x06, 0x04, 0x03, 0x04, 0x02, 0x03, 0x01, 0x02, 0x02,
  0x03, 0x02, 0x01, 0x01, 0x01, 0x01, 0x01, 0x01, 0x02, 0x02, 0x01, 0x00,
  0x02, 0x01, 0x86, 0xfa, 0xff, 0x04, 0x03, 0x02, 0x03, 0x01, 0x01, 0x00,
  0x00, 0x02, 0x01, 0x00, 0x01, 0x01, 0x02, 0x04, 0x02, 0x04, 0x02, 0x01,
  0x00, 0x00, 0xfe, 0xfc, 0x81, 0xfa, 0x00, 0x03, 0x01, 0x01, 0x01, 0x00,
  0x00, 0xff, 0xfe, 0xfe, 0xff, 0xfe, 0xfe, 0xfc, 0xff, 0xff, 0xfe, 0xfe,
  0xff, 0xfe, 0x00, 0xfe, 0xfe, 0x01, 0xde, 0xe5, 0xef, 0xf2, 0xf6, 0xf6,
  0xfb, 0xfa, 0xf6, 0xf7, 0xf3, 0xf5, 0xf1, 0xe8, 0xec, 0xec, 0xe7, 0xe6,
  0xe9, 0x02, 0x00, 0x20, 0x2f, 0x41, 0x5e, 0x6c, 0xf9, 0xf3, 0xf2, 0xfb,
  0x01, 0xff, 0x03, 0x00, 0xfd, 0xf9, 0xf8, 0xfe, 0xf0, 0xe7, 0xf0, 0xeb,
  0xda, 0xe1, 0xec, 0x07, 0xfd, 0x22, 0x37, 0x4d, 0x67, 0x7f, 0xf4, 0xeb,
  0xff, 0x03, 0x08, 0x07, 0x09, 0x05, 0x01, 0xff, 0xfa, 0x02, 0xec, 0xe5,
  0xe6, 0xfc, 0xc9, 0xd1, 0xd6, 0xf1, 0xcd, 0xe7, 0x03, 0x1a, 0x37, 0x21,
  0x01, 0x01, 0xfe, 0x00, 0x00, 0xff, 0xff, 0xff, 0xff, 0xff, 0x00, 0xff,
  0x01, 0x00, 0x01, 0x01, 0x02, 0x02, 0x01, 0x00, 0x04, 0x04, 0x05, 0x06,
  0x06, 0x06, 0xff, 0xfc, 0xfd, 0xfe, 0xfe, 0xfe, 0xfe, 0xff, 0xff, 0xfe,
  0x00, 0xfd, 0x00, 0xff, 0xff, 0x00, 0xff, 0x01, 0x02, 0xff, 0x01, 0x00,
  0x02, 0x04, 0x04, 0x03, 0x05, 0xfb, 0x04, 0x00, 0x00, 0x00, 0x00, 0x01,
  0xff, 0xff, 0x00, 0xfe, 0x00, 0xff, 0xfe, 0x06, 0xfa, 0x05, 0x04, 0x08,
  0xff, 0x10, 0x13, 0x17, 0x24, 0x81, 0x02, 0x02, 0x01, 0x01, 0x02, 0x02,
  0x02, 0x02, 0x02, 0x01, 0x02, 0x02, 0x01, 0x03, 0x03, 0x02, 0x03, 0x03,
  0x02, 0xff, 0x04, 0x02, 0x01, 0x01, 0x01, 0x02, 0xff, 0x00, 0x01, 0xff,
  0x00, 0xff, 0x00, 0xff, 0xff, 0xff, 0xff, 0xff, 0xfe, 0xff, 0xff, 0x00,
  0x00, 0x00, 0x00, 0x00, 0x00, 0xfe, 0xfd, 0xfc, 0xfd, 0xfe, 0x00, 0x00,
  0x04, 0x00, 0xff, 0xff, 0x03, 0xfe, 0x01, 0x02, 0x00, 0x05, 0xf9, 0x09,
  0x05, 0x0c, 0x0a, 0x0e, 0x14, 0x81, 0x18, 0x0e, 0x08, 0x03, 0xfe, 0xff,
  0x02, 0x02, 0x01, 0x01, 0x01, 0x02, 0x01, 0x01, 0x01, 0x01, 0x01, 0x02,
  0x01, 0x01, 0x01, 0xfd, 0x02, 0x01, 0x02, 0x02, 0x03, 0x02, 0x01, 0x00,
  0x01, 0x02, 0x00, 0x00, 0xff, 0xff, 0xff, 0xff, 0xff, 0xff, 0xff, 0xff,
  0xff, 0x00, 0xff, 0xff, 0xfe, 0xfd, 0xff, 0xff, 0xff, 0xff, 0x00, 0xfe,
  0xfd, 0xfe, 0xfd, 0xfe, 0xfe, 0xfb, 0x03, 0xff, 0xff, 0x02, 0x02, 0x02,
  0x02, 0x02, 0x04, 0x0a, 0x0b, 0x0c, 0x1a, 0x81, 0x1c, 0x0b, 0x0a, 0x09,
  0x03, 0x08, 0x03, 0x01, 0xfe, 0x00, 0xf8, 0xf9, 0xf8, 0xfb, 0xfb, 0xfc,
  0xfa, 0xf7, 0xf8, 0xf8, 0xf7, 0xfa, 0xfa, 0xf8, 0xf8, 0xf8, 0xfc, 0xfc,
  0xfd, 0xfb, 0xfd, 0xfb, 0xfb, 0xfd, 0xfc, 0xfa, 0xff, 0x00, 0xfe, 0x00,
  0x00, 0xff, 0xfc, 0xfc, 0xfc, 0xfe, 0xfa, 0xfd, 0xfd, 0xfb, 0x00, 0xff,
  0x01, 0x03, 0x03, 0x03, 0x01, 0x02, 0x03, 0x01, 0x02, 0xff, 0x0b, 0xfd,
  0x09, 0x08, 0x08, 0x04, 0x02, 0x03, 0x04, 0x02, 0x05, 0x81, 0x08, 0x05,
  0x02, 0x0e, 0x0d, 0x0b, 0x11, 0x10, 0x17, 0x14, 0x11, 0x0b, 0x09, 0xfa,
  0x00, 0x00, 0x00, 0x01, 0x01, 0x01, 0x00, 0x00, 0x01, 0x00, 0x01, 0x02,
  0x01, 0x02, 0x02, 0x02, 0x03, 0x03, 0x03, 0x03, 0x04, 0x04, 0x01, 0x03,
  0x03, 0x02, 0xff, 0xff, 0xff, 0xff, 0xff, 0x00, 0xff, 0xfe, 0xff, 0xfe,
  0xff, 0xff, 0xff, 0x00, 0xfe, 0xff, 0xff, 0xff, 0xff, 0x00, 0x00, 0x01,
  0x02, 0x01, 0x00, 0x00, 0x00, 0x01, 0x04, 0xfe, 0x01, 0xff, 0x01, 0xfd,
  0x03, 0xfd, 0x04, 0xff, 0x00, 0x02, 0xfc, 0x06, 0xfc, 0x07, 0x09, 0x0a,
  0x07, 0x17, 0x81, 0x13, 0x10, 0x10, 0xe9, 0xfa, 0xfc, 0xfe, 0xfe, 0x00,
  0x01, 0x02, 0x01, 0x05, 0x03, 0x03, 0x04, 0x08, 0x09, 0x06, 0x14, 0x0f,
  0x10, 0x07, 0x10, 0x07, 0xff, 0xe3, 0xec, 0xdf, 0xca, 0xe1, 0xd3, 0xc9,
  0xc7, 0xc6, 0xc7, 0xbe, 0xb8, 0xb4, 0xb2, 0xa6, 0x9f, 0x9a, 0x91, 0x8c,
  0x8a, 0x93, 0x92, 0x9d, 0x8d, 0x98, 0xb7, 0xf3, 0xdb, 0x01, 0x1a, 0x3c,
  0x2a, 0x43, 0x3f, 0x3e, 0x3c, 0x41, 0x47, 0x4f, 0x50, 0x59, 0x65, 0x66,
  0x75, 0x59, 0x7f, 0x71, 0x65, 0x4e, 0x7d, 0x5f, 0x41, 0x2d, 0x2c, 0x2c,
  0xe7, 0xe2, 0xf2, 0xe8, 0xea, 0xea, 0xe8, 0xe6, 0xe4, 0xe1, 0xdf, 0xdb,
  0xd1, 0xce, 0xcb, 0xd5, 0xc0, 0xc5, 0xc9, 0xcb, 0x98, 0xac, 0xb4, 0xb2,
  0xb0, 0xaf, 0xed, 0xfa, 0xf6, 0xf7, 0xf6, 0xf8, 0xf8, 0xf6, 0xf5, 0xf5,
  0xf3, 0xf1, 0xf1, 0xf1, 0xf2, 0xef, 0xef, 0xf0, 0xf0, 0xee, 0xec, 0xea,
  0xed, 0xf0, 0xec, 0xf1, 0x18, 0x2d, 0x15, 0x25, 0x21, 0x1f, 0x21, 0x22,
  0x25, 0x29, 0x2c, 0x32, 0x3b, 0x3f, 0x4a, 0x39, 0x56, 0x50, 0x4a, 0x40,
  0x7f, 0x6a, 0x5c, 0x59, 0x5f, 0x60, 0xe5, 0x28, 0x01, 0x10, 0x0a, 0x0b,
  0x0e, 0x10, 0x11, 0x11, 0x1a, 0x19, 0x19, 0x1e, 0x23, 0x12, 0x1f, 0x18,
  0x0d, 0x0e, 0x1e, 0x10, 0x03, 0x05, 0x07, 0xf4, 0xf8, 0xf5, 0xe7, 0xe2,
  0xe0, 0xeb, 0xee, 0xef, 0xef, 0xed, 0xf2, 0xeb, 0xeb, 0xf2, 0xef, 0xe4,
  0xe3, 0xe0, 0xdd, 0xe3, 0xed, 0xe9, 0xe0, 0xf2, 0xe1, 0xf5, 0xd0, 0xc5,
  0x1a, 0xa6, 0xbf, 0xc4, 0xd2, 0xd5, 0xe5, 0xdb, 0xd5, 0xee, 0xca, 0xca,
  0xae, 0x06, 0x81, 0x9e, 0x9d, 0xd6, 0x96, 0xb4, 0xb4, 0x92, 0x90, 0x8f,
  0x08, 0x02, 0xfc, 0x00, 0x03, 0x02, 0x02, 0x01, 0x00, 0x01, 0x00, 0x01,
  0x01, 0x00, 0x01, 0x01, 0x02, 0x02, 0x01, 0x01, 0x03, 0x02, 0x01, 0x00,
  0x01, 0x02, 0x03, 0xfc, 0xfa, 0x00, 0x01, 0xff, 0x00, 0x00, 0xff, 0x00,
  0x00, 0xfe, 0xfe, 0xff, 0x00, 0xff, 0x01, 0xfe, 0xff, 0xff, 0x00, 0xff,
  0xfd, 0xfb, 0xfd, 0xfd, 0x0d, 0x40, 0x81, 0x1e, 0x10, 0x0c, 0x0a, 0x05,
  0x03, 0x05, 0x05, 0x02, 0x02, 0xfd, 0xfe, 0x04, 0xfc, 0xff, 0x02, 0x03,
  0xfd, 0x05, 0x02, 0xff, 0xfd, 0x02, 0x25, 0x24, 0x13, 0x1e, 0x1b, 0x18,
  0x18, 0x1a, 0x1f, 0x22, 0x26, 0x29, 0x32, 0x37, 0x40, 0x32, 0x4e, 0x47,
  0x44, 0x3e, 0x77, 0x67, 0x59, 0x58, 0x5f, 0x62, 0x15, 0x05, 0x05, 0x03,
  0x03, 0x03, 0x00, 0x01, 0x01, 0xff, 0xfe, 0xfd, 0xfc, 0xff, 0xff, 0xfd,
  0xfd, 0xfd, 0x00, 0xfb, 0xff, 0x03, 0x02, 0x04, 0x04, 0x06, 0xee, 0xe4,
  0xee, 0xe6, 0xe5, 0xe7, 0xe3, 0xe0, 0xe0, 0xdb, 0xd6, 0xce, 0xc8, 0xc6,
  0xbc, 0xca, 0xae, 0xb0, 0xb8, 0xbc, 0x81, 0x98, 0xa4, 0xa6, 0xa6, 0xa2,
  0x0b, 0x1e, 0x25, 0x2d, 0x29, 0x20, 0x18, 0x19, 0x12, 0x11, 0x10, 0x07,
  0x0b, 0x08, 0x04, 0x03, 0x07, 0x07, 0x0a, 0x01, 0x0f, 0xfa, 0xfb, 0xff,
  0xfd, 0x02, 0xed, 0xff, 0x26, 0x2f, 0x23, 0x19, 0x15, 0x0e, 0x0b, 0x0b,
  0x05, 0x03, 0x08, 0xfa, 0xfe, 0x02, 0xff, 0xfc, 0xff, 0x01, 0xf7, 0xf9,
  0xff, 0x04, 0x04, 0x07, 0xb4, 0xcd, 0x28, 0x2c, 0x20, 0x14, 0x0b, 0x02,
  0xfe, 0xfd, 0xf6, 0xf3, 0xf9, 0xda, 0xe7, 0x05, 0xdd, 0xd6, 0xdb, 0x09,
  0x81, 0x00, 0xff, 0xfe, 0x00, 0xf6, 0xdc, 0xde, 0xe1, 0xe2, 0xdc, 0xe3,
  0xe1, 0xe3, 0xdd, 0xda, 0xd4, 0xd2, 0xcf, 0xcb, 0xc6, 0xc6, 0xbc, 0xb7,
  0xb8, 0xb0, 0xa8, 0xa5, 0xa4, 0xa4, 0xa3, 0xa0, 0xfd, 0x22, 0x27, 0x27,
  0x2b, 0x29, 0x2a, 0x2f, 0x33, 0x3b, 0x40, 0x47, 0x4e, 0x55, 0x5e, 0x66,
  0x66, 0x68, 0x64, 0x61, 0x79, 0x7f, 0x6e, 0x6a, 0x6a, 0x68, 0x34, 0x3f,
  0x05, 0xfe, 0xf7, 0xf4, 0xf0, 0xf0, 0xea, 0xec, 0xe8, 0xe2, 0xe4, 0xde,
  0xe0, 0xda, 0xdb, 0xd6, 0xd3, 0xdf, 0xe7, 0xfd, 0x03, 0x08, 0x1f, 0x14,
  0x0e, 0x06, 0x02, 0x00, 0xfe, 0xff, 0x01, 0x00, 0xfe, 0x00, 0xff, 0xff,
  0xfe, 0xfe, 0xfc, 0xff, 0xfd, 0xfc, 0xfc, 0x00, 0xfd, 0x00, 0xfe, 0xff,
  0xff, 0x00, 0xf3, 0x01, 0xfe, 0xfa, 0xf9, 0xfa, 0xfd, 0xfe, 0xff, 0x02,
  0x02, 0x02, 0x04, 0x04, 0x05, 0x07, 0x07, 0x05, 0x04, 0x04, 0x04, 0x02,
  0xfe, 0xfc, 0xfc, 0xfb, 0x7f, 0x7a, 0x2d, 0x1c, 0x14, 0x0c, 0x0a, 0x06,
  0x04, 0x05, 0x03, 0x02, 0x03, 0x02, 0x02, 0xfe, 0x03, 0x02, 0x02, 0x01,
  0x07, 0x05, 0x04, 0x04, 0x07, 0x04, 0xd3, 0xdc, 0xc1, 0xb1, 0xaa, 0xb0,
  0xaf, 0xaa, 0xb6, 0xbc, 0xc0, 0xc7, 0xcd, 0xd3, 0xe1, 0xdf, 0xeb, 0xf3,
  0xff, 0xfa, 0x01, 0xfa, 0x02, 0xff, 0xfd, 0xff, 0xee, 0x11, 0x1b, 0x1d,
  0x20, 0x1d, 0x1c, 0x1b, 0x1d, 0x1d, 0x18, 0x17, 0x17, 0x16, 0x14, 0x15,
  0x14, 0x13, 0x12, 0x0b, 0x0f, 0x09, 0x06, 0xfe, 0xff, 0xff, 0x5d, 0x7f,
  0x3a, 0x56, 0x56, 0x4d, 0x44, 0x3e, 0x38, 0x33, 0x2a, 0x22, 0x1c, 0x13,
  0x0e, 0x07, 0x02, 0xfe, 0xfa, 0xf6, 0xf1, 0xf5, 0xf9, 0xf9, 0xfc, 0xfd,
  0x59, 0x29, 0x26, 0x08, 0x09, 0xfd, 0xf8, 0xfb, 0xfa, 0xe6, 0xed, 0xf4,
  0xf9, 0xe7, 0xec, 0x07, 0xea, 0xe8, 0xf3, 0x04, 0xdf, 0x07, 0x0f, 0xff,
  0xf0, 0xf5, 0xdf, 0xfd, 0xf5, 0xf4, 0xf7, 0xf9, 0xfa, 0xfc, 0xfd, 0xfe,
  0xff, 0xfa, 0x03, 0x06, 0x09, 0xfe, 0xfb, 0x06, 0x03, 0x03, 0x02, 0xfa,
  0x07, 0x05, 0x09, 0x16, 0x81, 0xf3, 0xd4, 0x0a, 0x0b, 0x1c, 0x23, 0x2d,
  0x3e, 0x4f, 0x55, 0x4f, 0x56, 0x5f, 0x63, 0xfa, 0x56, 0x5a, 0x46, 0xff,
  0x3a, 0xdc, 0xf5, 0x25, 0x2a, 0x4e, 0x01, 0x01, 0x00, 0x01, 0x01, 0x00,
  0x01, 0x01, 0x01, 0x01, 0x00, 0x01, 0x00, 0x02, 0x02, 0x01, 0x02, 0x02,
  0x00, 0x03, 0x06, 0x07, 0x06, 0x07, 0x06, 0x08, 0xfe, 0xfd, 0xfe, 0xff,
  0xff, 0xfe, 0xff, 0xff, 0xff, 0xfe, 0xff, 0xff, 0xfe, 0xff, 0xff, 0x00,
  0xfe, 0xfe, 0xfe, 0xff, 0xfe, 0x00, 0x01, 0x03, 0x03, 0x01, 0x00, 0xfc,
  0x05, 0x01, 0x00, 0xfe, 0x00, 0x00, 0x01, 0x00, 0x04, 0xff, 0x00, 0x05,
  0x01, 0x0b, 0x00, 0x10, 0xa9, 0x11, 0x0d, 0x17, 0x15, 0x20, 0x81, 0x2b,
  0xf6, 0xf8, 0xfb, 0xfc, 0xfc, 0xfc, 0xfd, 0xfa, 0xfb, 0xfc, 0xfd, 0xff,
  0xfb, 0xff, 0xfc, 0xfd, 0xfb, 0xfc, 0xfc, 0xf9, 0xfa, 0xf9, 0xf7, 0xf8,
  0xf9, 0xf7, 0xfe, 0x00, 0x01, 0x00, 0x00, 0x01, 0x01, 0x00, 0x02, 0xfe,
  0x01, 0x00, 0x01, 0x04, 0x02, 0x00, 0xfe, 0xfc, 0xff, 0xfe, 0x00, 0xfd,
  0xfe, 0xfd, 0xfb, 0xfd, 0x07, 0x07, 0x03, 0x00, 0xff, 0x01, 0x01, 0x00,
  0xfd, 0x02, 0x01, 0x07, 0x00, 0xff, 0x05, 0x0e, 0x09, 0x0b, 0x0c, 0x11,
  0x81, 0x15, 0x13, 0x12, 0x11, 0x14, 0xff, 0x01, 0x07, 0xff, 0x01, 0xfd,
  0xfd, 0xf9, 0xfe, 0xfe, 0xfd, 0xfd, 0xfb, 0xfb, 0xf7, 0xfd, 0xf8, 0xfe,
  0xfb, 0xfc, 0xfb, 0xfd, 0x00, 0x03, 0x08, 0x06, 0xc7, 0xcc, 0xc5, 0xbc,
  0xb7, 0xb7, 0xae, 0xb4, 0xb2, 0xa5, 0xac, 0xac, 0xab, 0xa7, 0xac, 0xaf,
  0xb2, 0xb1, 0xb7, 0xc2, 0xba, 0xc4, 0xc7, 0xc7, 0xd1, 0xd2, 0x05, 0x4f,
  0x4e, 0x64, 0x67, 0x63, 0x66, 0x66, 0x6b, 0x77, 0x77, 0x75, 0x7a, 0x7d,
  0x7f, 0x60, 0x7b, 0x71, 0x63, 0x40, 0x62, 0x40, 0x33, 0x2f, 0x29, 0x28,
  0x2d, 0x2e, 0x1a, 0x24, 0x1f, 0x1e, 0x22, 0x23, 0x27, 0x2b, 0x30, 0x37,
  0x3b, 0x43, 0x48, 0x38, 0x55, 0x4e, 0x49, 0x3e, 0x7f, 0x6c, 0x5d, 0x5c,
  0x64, 0x68, 0x0c, 0xe6, 0xf2, 0xf8, 0xf7, 0xf8, 0xfb, 0xfc, 0xfe, 0xfc,
  0xf9, 0xfc, 0xf8, 0xfa, 0xf6, 0xf8, 0xf7, 0xf2, 0xf7, 0xf3, 0xf5, 0xf4,
  0xf5, 0xf4, 0xf7, 0xf6, 0xe5, 0xc4, 0xf2, 0xdd, 0xe2, 0xe3, 0xe2, 0xe1,
  0xe3, 0xe0, 0xdb, 0xd6, 0xd2, 0xcf, 0xc6, 0xd5, 0xbe, 0xc2, 0xca, 0xc8,
  0x98, 0xa0, 0xab, 0xab, 0xa7, 0xa8, 0xed, 0x02, 0xf8, 0xd8, 0xe2, 0xda,
  0xdb, 0xe0, 0xee, 0xde, 0xee, 0xcc, 0xe1, 0xe0, 0xe8, 0xb5, 0xd4, 0xd7,
  0xc1, 0xe1, 0xc5, 0xea, 0xc4, 0xb6, 0xd6, 0xdf, 0xe2, 0x10, 0x02, 0xec,
  0x07, 0x0c, 0x13, 0x05, 0x00, 0x03, 0x20, 0x1b, 0x12, 0x0f, 0x0c, 0xf2,
  0x19, 0xfa, 0xfa, 0x06, 0x04, 0x0b, 0x11, 0xe7, 0x06, 0x0a, 0x4a, 0x7f,
  0x33, 0xea, 0xe1, 0xdf, 0xec, 0xed, 0xeb, 0xeb, 0xfc, 0x35, 0xfb, 0x0e,
  0x2f, 0x2e, 0x36, 0x39, 0x44, 0x44, 0x64, 0x76, 0x5b, 0x37, 0x41, 0x30,
  0x76, 0xe4, 0xff, 0xff, 0x04, 0x00, 0x00, 0x00, 0x80, 0x00, 0x00, 0x00,
  0x33, 0x21, 0xff, 0xff, 0x5f, 0x04, 0x00, 0x00, 0x9e, 0xec, 0xff, 0xff,
  0x71, 0x0f, 0x00, 0x00, 0xd4, 0xb6, 0xff, 0xff, 0x12, 0xf5, 0xff, 0xff,
  0xf4, 0x85, 0xfe, 0xff, 0x0f, 0xf3, 0xfe, 0xff, 0xce, 0x30, 0xfe, 0xff,
  0x8f, 0x22, 0xff, 0xff, 0xa8, 0xb2, 0x00, 0x00, 0x13, 0x25, 0x00, 0x00,
  0x21, 0xfc, 0xff, 0xff, 0x27, 0xee, 0xff, 0xff, 0x79, 0xf5, 0xff, 0xff,
  0xc9, 0x2a, 0x00, 0x00, 0x44, 0xf4, 0xff, 0xff, 0x26, 0xba, 0xff, 0xff,
  0x58, 0x1a, 0x00, 0x00, 0x62, 0xb0, 0x05, 0x00, 0x30, 0xd8, 0xff, 0xff,
  0x8d, 0xfb, 0xff, 0xff, 0xc2, 0x27, 0xff, 0xff, 0x39, 0x3e, 0xff, 0xff,
  0x63, 0x75, 0xfe, 0xff, 0xbf, 0xee, 0xfe, 0xff, 0x85, 0xdd, 0xfc, 0xff,
  0xf9, 0xf4, 0xff, 0xff, 0x92, 0x2d, 0x00, 0x00, 0x93, 0x45, 0xfe, 0xff,
  0xbe, 0xd6, 0xff, 0xff, 0x2f, 0x86, 0xfe, 0xff, 0x02, 0xe5, 0xff, 0xff,
  0x04, 0x00, 0x00, 0x00, 0x00, 0x0c, 0x00, 0x00, 0xe4, 0x01, 0x09, 0x00,
  0x00, 0x0a, 0xf4, 0xf1, 0xff, 0xee, 0xff, 0xfc, 0x07, 0x09, 0x0a, 0x00,
  0x09, 0x00, 0x01, 0xf9, 0x08, 0xf6, 0xf7, 0x00, 0xf6, 0x00, 0xdf, 0x0a,
  0x00, 0xff, 0xf4, 0x00, 0x10, 0x13, 0xe0, 0xec, 0x0d, 0xe7, 0x04, 0xfe,
  0x2b, 0x15, 0x01, 0xf6, 0xf5, 0xdf, 0xea, 0x81, 0xe2, 0xf6, 0x07, 0xf4,
  0xeb, 0xf4, 0xec, 0x1d, 0x07, 0x1b, 0xf9, 0xec, 0x82, 0xf2, 0xf2, 0xa1,
  0x11, 0xff, 0x0a, 0xff, 0x00, 0x0b, 0x07, 0x06, 0x0e, 0xfb, 0xfb, 0x0f,
  0x09, 0x0a, 0x0c, 0x00, 0x0b, 0xff, 0x00, 0x01, 0x0a, 0x07, 0x02, 0x04,
  0xf7, 0x00, 0x05, 0x0c, 0x00, 0x09, 0x0e, 0xf8, 0x01, 0x03, 0x12, 0x1c,
  0x01, 0x14, 0xfe, 0xf8, 0xdf, 0xfa, 0x01, 0xed, 0x1f, 0x14, 0x0e, 0xde,
  0x14, 0x07, 0x13, 0x0b, 0x12, 0xfa, 0xf8, 0xee, 0xff, 0xeb, 0xfb, 0x16,
  0xe1, 0xfe, 0xfa, 0xcd, 0xed, 0x28, 0xad, 0x3b, 0x12, 0xad, 0x1d, 0xef,
  0x24, 0xf7, 0xfd, 0xeb, 0xaf, 0xc4, 0xd3, 0x8d, 0xaa, 0x2f, 0xff, 0xfb,
  0xe7, 0xe2, 0xe2, 0x19, 0x00, 0xf9, 0x14, 0xb3, 0x89, 0xfd, 0xe1, 0x81,
  0xeb, 0xea, 0xfe, 0xe6, 0x08, 0xfc, 0x07, 0x06, 0xcf, 0x05, 0xf7, 0x17,
  0xed, 0x04, 0x04, 0xd8, 0xfc, 0xe8, 0xec, 0xf4, 0x01, 0x04, 0x03, 0x3a,
  0x04, 0xfc, 0xfc, 0xfe, 0xda, 0x07, 0xfb, 0xd5, 0x13, 0xfa, 0xfa, 0xfc,
  0xf3, 0x00, 0x09, 0x04, 0xd4, 0x0a, 0x03, 0x00, 0x0c, 0xfe, 0x00, 0xff,
  0xf6, 0xf3, 0xf0, 0x11, 0x08, 0x05, 0xfc, 0xf4, 0x05, 0xe3, 0x03, 0x05,
  0x29, 0xa2, 0x0d, 0xe8, 0xde, 0x00, 0x3b, 0x00, 0x01, 0x3e, 0x05, 0xf9,
  0x03, 0x05, 0x04, 0xff, 0x2e, 0x3b, 0x3c, 0x00, 0x43, 0x01, 0x00, 0xfa,
  0x1e, 0xfd, 0x02, 0x02, 0x16, 0x01, 0x04, 0x3a, 0x00, 0x00, 0x05, 0x00,
  0xd1, 0x55, 0xa0, 0x2d, 0x07, 0x9e, 0xc4, 0x0d, 0xfb, 0x09, 0x0e, 0x05,
  0xad, 0xbb, 0xcc, 0xdc, 0x94, 0x0b, 0x2b, 0xf5, 0xde, 0xc0, 0xe3, 0x3c,
  0xfb, 0xd9, 0xda, 0xa7, 0xbe, 0x00, 0xb6, 0x81, 0xfa, 0x0e, 0xf6, 0xf3,
  0x01, 0xef, 0xdd, 0xe0, 0xe9, 0xfb, 0x0c, 0x7f, 0xb0, 0xfe, 0x10, 0xf0,
  0xf1, 0x02, 0x07, 0xff, 0xfd, 0x1c, 0xe9, 0x0d, 0xf4, 0xe9, 0xc9, 0xf4,
  0xa6, 0xfc, 0x0c, 0xe4, 0x01, 0xd1, 0x05, 0xef, 0xfe, 0xfc, 0xe7, 0x0a,
  0xbc, 0x03, 0x03, 0x31, 0xdb, 0x02, 0x06, 0x00, 0xfd, 0x0b, 0x08, 0x04,
  0xfc, 0x0a, 0x02, 0xab, 0x1d, 0xed, 0xdd, 0x03, 0xea, 0xed, 0x06, 0xfe,
  0x00, 0xf9, 0x03, 0xf4, 0x09, 0xfa, 0x02, 0x0e, 0xee, 0x0a, 0x00, 0xe6,
  0xe9, 0xf7, 0xfa, 0xe5, 0xfb, 0x03, 0xff, 0xf8, 0xfc, 0x0e, 0xf6, 0xf9,
  0x12, 0xe6, 0xcb, 0xfe, 0xe7, 0xf2, 0x02, 0x06, 0xea, 0x00, 0x0d, 0x01,
  0x00, 0x0e, 0x07, 0xd5, 0x02, 0xe7, 0x09, 0xfa, 0x09, 0x0b, 0x0e, 0x00,
  0x0e, 0x00, 0x00, 0xf4, 0x11, 0xf8, 0x10, 0x00, 0xec, 0x00, 0xf2, 0x10,
  0x00, 0x00, 0xf9, 0x00, 0x29, 0x0e, 0xf7, 0x16, 0x08, 0xf8, 0x36, 0xc3,
  0x33, 0x10, 0x0c, 0xf8, 0xf9, 0xec, 0xe0, 0x81, 0xf8, 0xfc, 0x07, 0xb9,
  0xad, 0x00, 0xe6, 0x19, 0x14, 0x1d, 0x35, 0xf4, 0x82, 0x2e, 0xf9, 0x8c,
  0xd4, 0xec, 0x01, 0x08, 0xef, 0xff, 0x0c, 0x6e, 0x85, 0xfb, 0x8e, 0x00,
  0xfd, 0xfd, 0xfe, 0xd7, 0xfe, 0x36, 0xe9, 0xed, 0x10, 0xfd, 0xf2, 0x41,
  0x01, 0x1a, 0xf4, 0xfc, 0xe1, 0xa4, 0x06, 0xa6, 0x28, 0x00, 0xed, 0xbb,
  0xe9, 0xf4, 0x32, 0x11, 0xd0, 0x04, 0x06, 0x1b, 0xf1, 0xee, 0xed, 0xdd,
  0xf0, 0xcb, 0xe5, 0xe6, 0xf3, 0x0a, 0xed, 0x38, 0xfe, 0x00, 0x18, 0xf2,
  0xd5, 0xd5, 0x42, 0xe2, 0xf4, 0x81, 0xfe, 0x1b, 0x92, 0x05, 0x0f, 0x09,
  0xf0, 0xfb, 0xfc, 0x04, 0xfd, 0x02, 0x00, 0xf4, 0x00, 0x21, 0xaa, 0xec,
  0x05, 0xfa, 0xf6, 0xfa, 0xfb, 0x0a, 0x07, 0x02, 0xf1, 0x0a, 0x60, 0xdb,
  0xf1, 0xec, 0x05, 0xff, 0xf4, 0x06, 0x00, 0xfc, 0xf3, 0xf5, 0x00, 0xf7,
  0x04, 0x04, 0x07, 0xf8, 0x04, 0x0b, 0xf2, 0x07, 0x0e, 0xe1, 0x0e, 0x01,
  0xf1, 0x03, 0xeb, 0x06, 0xf5, 0xef, 0x47, 0x0a, 0xed, 0x01, 0xe9, 0x03,
  0x01, 0xf6, 0xde, 0x23, 0x00, 0x23, 0xde, 0x01, 0xce, 0xf1, 0xef, 0x00,
  0xf2, 0x01, 0x00, 0xb2, 0xd5, 0xcd, 0xf9, 0x00, 0x27, 0x00, 0x03, 0xf6,
  0x00, 0x00, 0x05, 0x00, 0xe8, 0x02, 0xed, 0x02, 0x00, 0xf4, 0xbb, 0x11,
  0xfd, 0x39, 0x05, 0xee, 0xe6, 0xf5, 0x00, 0x00, 0xec, 0x00, 0x01, 0x13,
  0xee, 0xcb, 0xfd, 0xfd, 0x25, 0x02, 0xfb, 0xf6, 0x01, 0x00, 0xf7, 0x00,
  0xda, 0xfb, 0x00, 0xfa, 0x00, 0xfd, 0x81, 0x2d, 0xf6, 0x31, 0x07, 0x0d,
  0xf5, 0x09, 0x0a, 0xfe, 0xf2, 0x04, 0x00, 0x53, 0xf3, 0xd7, 0x3d, 0xf9,
  0x15, 0x30, 0xdd, 0xf9, 0xfd, 0x01, 0xe9, 0xf4, 0xf7, 0x01, 0x06, 0x01,
  0x00, 0x08, 0x06, 0xf0, 0x00, 0xf9, 0x03, 0x05, 0x0b, 0x07, 0x07, 0x00,
  0x07, 0x00, 0x00, 0x00, 0x05, 0xf1, 0x02, 0x00, 0xfb, 0x00, 0xf7, 0x08,
  0x00, 0x00, 0x05, 0x00, 0x10, 0x01, 0x08, 0xcb, 0x01, 0x08, 0xff, 0xf6,
  0x00, 0x05, 0x01, 0x14, 0x09, 0x09, 0x09, 0x00, 0x09, 0xc3, 0x00, 0xf6,
  0x06, 0xf4, 0x15, 0x01, 0xfa, 0x02, 0x00, 0x08, 0x00, 0xa6, 0x02, 0x00,
  0xef, 0xdc, 0x04, 0xf4, 0xde, 0x0b, 0xee, 0xee, 0xbb, 0x04, 0x07, 0xfa,
  0x09, 0x0a, 0x02, 0x1d, 0x05, 0xc9, 0xe0, 0xec, 0xff, 0x08, 0x17, 0xab,
  0x0e, 0x99, 0x0f, 0x0e, 0x24, 0x81, 0x04, 0xf1, 0x17, 0xa0, 0xf2, 0xd5,
  0xbd, 0xf7, 0xff, 0x34, 0xc4, 0xee, 0xf9, 0x06, 0xfe, 0xf8, 0xf4, 0xff,
  0xf0, 0xd1, 0xcb, 0xfa, 0xfd, 0x03, 0xed, 0x81, 0xfd, 0xcc, 0xd7, 0xf9,
  0xfa, 0xcc, 0x21, 0x10, 0x06, 0xad, 0x0c, 0x07, 0xc4, 0x10, 0xea, 0xe0,
  0xc0, 0xd8, 0xf8, 0xff, 0x0f, 0x0c, 0x07, 0xf1, 0x0b, 0xf8, 0xe4, 0x09,
  0x12, 0x00, 0xf1, 0xce, 0xe6, 0xd9, 0x9d, 0x0e, 0x00, 0x0f, 0x44, 0x16,
  0xe1, 0xe8, 0x16, 0x0f, 0xeb, 0x15, 0xd1, 0xdd, 0xb6, 0xc9, 0xfd, 0xf1,
  0x0b, 0x14, 0x1e, 0xf1, 0x11, 0x06, 0xec, 0x0f, 0x13, 0x11, 0x07, 0xe1,
  0xc7, 0xda, 0xa7, 0x11, 0xe9, 0xec, 0x1a, 0x1c, 0xdb, 0x02, 0x17, 0x02,
  0x02, 0x14, 0xd1, 0xe9, 0x01, 0xe1, 0x0c, 0x02, 0x0c, 0x1a, 0x19, 0xff,
  0x1a, 0x00, 0x03, 0xff, 0x09, 0xf5, 0xf8, 0x00, 0xed, 0xff, 0x9b, 0x0f,
  0xfe, 0xff, 0xd7, 0xff, 0xfa, 0x4f, 0xff, 0xfc, 0x31, 0xfe, 0xd2, 0x06,
  0xda, 0xf7, 0x0b, 0x06, 0x06, 0xfc, 0xf8, 0xb2, 0x03, 0x06, 0xf7, 0x0e,
  0xfc, 0xf3, 0xf3, 0xee, 0x02, 0xfb, 0xeb, 0x00, 0xb3, 0xfd, 0xc7, 0xa6,
  0x02, 0x02, 0xe6, 0xe6, 0xe0, 0xe9, 0x0f, 0xfc, 0x33, 0x48, 0xe3, 0xbf,
  0xf7, 0xea, 0xe0, 0x96, 0xe8, 0xd2, 0x2f, 0xeb, 0xd9, 0xee, 0xde, 0x1c,
  0x3c, 0x26, 0x7f, 0xed, 0x92, 0x29, 0xde, 0x97, 0x03, 0xf2, 0xff, 0xf9,
  0xff, 0x00, 0x0b, 0xfc, 0xfb, 0xf6, 0xf8, 0xf4, 0xff, 0xfb, 0xf7, 0xe4,
  0x00, 0xfb, 0xfa, 0xe1, 0xff, 0xfa, 0x00, 0xf6, 0x08, 0xf3, 0x0a, 0xfe,
  0xeb, 0x05, 0x0d, 0x0e, 0x01, 0xff, 0xfa, 0x03, 0x00, 0xf9, 0xff, 0xd9,
  0x03, 0xcc, 0xfe, 0x00, 0xfe, 0xfa, 0xfc, 0x00, 0xf8, 0x01, 0x00, 0xfd,
  0x08, 0xf1, 0x04, 0xfd, 0xe7, 0xff, 0xe0, 0xf8, 0x00, 0x01, 0x18, 0xff,
  0xf5, 0x00, 0x11, 0xeb, 0x01, 0x07, 0xe8, 0xaf, 0x00, 0x81, 0x0c, 0x1f,
  0x04, 0x06, 0x0b, 0x01, 0x0f, 0xd9, 0x00, 0xff, 0x0c, 0xfd, 0x22, 0x00,
  0xb0, 0x03, 0xcc, 0x03, 0x02, 0xbd, 0x0b, 0xfe, 0x0f, 0xf7, 0xde, 0xe2,
  0xf5, 0xe5, 0x29, 0xfa, 0x77, 0xf2, 0x09, 0xf7, 0xfe, 0xdc, 0xdf, 0xc9,
  0xe5, 0xcb, 0xe5, 0xcd, 0xf8, 0xfd, 0xec, 0xd6, 0x01, 0xf9, 0x09, 0xe7,
  0xbd, 0x3c, 0x18, 0xd3, 0x24, 0xc6, 0xea, 0xcd, 0xd2, 0xf2, 0x24, 0xf5,
  0x49, 0xe4, 0x07, 0x10, 0x02, 0xe2, 0xe9, 0xcf, 0xee, 0xd5, 0xc2, 0xdf,
  0xfe, 0x2f, 0xe9, 0xd9, 0x05, 0x0b, 0x0a, 0xf1, 0xd9, 0x29, 0x22, 0xf3,
  0xe9, 0x88, 0x1f, 0x4c, 0xa2, 0x1a, 0x08, 0xfe, 0x66, 0x01, 0xfa, 0xfa,
  0x0c, 0x1f, 0x17, 0xb3, 0x1b, 0x6b, 0x9f, 0xf1, 0x04, 0x7f, 0xef, 0x12,
  0x0b, 0x7f, 0xfa, 0x17, 0xc1, 0xea, 0xf7, 0xac, 0x0b, 0x00, 0xfc, 0xe2,
  0x00, 0xf9, 0xf7, 0x02, 0x04, 0xf7, 0xfa, 0x14, 0xf7, 0xf7, 0xf9, 0xff,
  0xfa, 0xeb, 0xff, 0xf8, 0xf9, 0x06, 0x09, 0x02, 0xc5, 0xfe, 0xb3, 0xfa,
  0xff, 0xd6, 0x04, 0x01, 0xf6, 0xec, 0x0a, 0xff, 0xeb, 0x0b, 0x03, 0x16,
  0x0f, 0xfa, 0xf7, 0x0a, 0x06, 0x06, 0x04, 0xed, 0x0a, 0xf9, 0xf8, 0xe2,
  0x03, 0xfe, 0x11, 0xfd, 0xa5, 0xd8, 0x81, 0x09, 0xec, 0xdf, 0x10, 0xd7,
  0xf9, 0x11, 0x1c, 0x2d, 0x00, 0x05, 0x01, 0x40, 0x15, 0xd7, 0x05, 0x31,
  0x0b, 0x17, 0x26, 0xff, 0x12, 0x02, 0x01, 0x59, 0x21, 0x03, 0x1c, 0x10,
  0xa2, 0xff, 0xac, 0x04, 0x00, 0xff, 0xfb, 0xe3, 0x1d, 0x00, 0xfa, 0x05,
  0x00, 0xf8, 0x0f, 0x59, 0x00, 0x35, 0xc8, 0xc5, 0xf7, 0x00, 0xf9, 0x00,
  0xf3, 0x02, 0x01, 0x00, 0xf5, 0xfd, 0x0e, 0x00, 0x19, 0x01, 0xe0, 0xfa,
  0x00, 0x00, 0x1b, 0x00, 0x08, 0xec, 0xfa, 0x0d, 0xeb, 0xf8, 0x11, 0x40,
  0x1e, 0x16, 0x82, 0x1a, 0xee, 0x07, 0x06, 0xc5, 0xf4, 0x03, 0xfc, 0x03,
  0x07, 0x04, 0x19, 0x24, 0xe4, 0xe0, 0x81, 0xf7, 0xb3, 0xf1, 0x1a, 0xe3,
  0xfa, 0xfe, 0x08, 0x17, 0xf1, 0xff, 0xf8, 0xe0, 0xd5, 0xd5, 0xb3, 0x36,
  0xf7, 0x11, 0x16, 0xd5, 0x02, 0xf8, 0xf4, 0x12, 0x0e, 0xfd, 0x1d, 0x08,
  0xd0, 0xae, 0x82, 0xfd, 0xd3, 0xdb, 0x13, 0xe9, 0xf0, 0x15, 0x0b, 0x14,
  0x0e, 0x06, 0xec, 0x02, 0x18, 0xff, 0xfd, 0x03, 0x03, 0x0a, 0x08, 0xa1,
  0x0a, 0x18, 0x13, 0xfe, 0xff, 0xf4, 0x04, 0x06, 0x01, 0xf9, 0xfe, 0x06,
  0xa2, 0x0d, 0xef, 0x97, 0xf5, 0x2a, 0xfc, 0x0a, 0x41, 0xfb, 0xfa, 0x08,
  0x0a, 0x05, 0xfa, 0xfb, 0xfc, 0xff, 0xfe, 0x98, 0xfb, 0x20, 0xf5, 0xf8,
  0xf6, 0xe9, 0xf9, 0xfd, 0x03, 0xf4, 0x09, 0xfc, 0x98, 0xfc, 0xe1, 0x8b,
  0x0a, 0xe0, 0xe9, 0xfd, 0x7f, 0xef, 0xd9, 0x07, 0xe1, 0xfd, 0x01, 0xfa,
  0xfa, 0xe8, 0xe3, 0xc1, 0xea, 0xe6, 0xed, 0x01, 0xfc, 0xe2, 0x05, 0xf6,
  0xfb, 0xda, 0xf9, 0xef, 0xbe, 0xed, 0xe6, 0xc3, 0xf7, 0xf8, 0xfd, 0xed,
  0xf8, 0xfe, 0x01, 0xfd, 0x2d, 0x03, 0xfb, 0x02, 0xff, 0xff, 0xfe, 0xca,
  0xfe, 0xf3, 0xf2, 0xfb, 0xf4, 0x41, 0x03, 0x16, 0x08, 0x12, 0x1c, 0xff,
  0xd1, 0x26, 0xd6, 0xd6, 0xe9, 0xeb, 0x04, 0x02, 0xf2, 0x03, 0xe7, 0xfc,
  0x05, 0x04, 0xf8, 0xee, 0x03, 0x08, 0x04, 0xe4, 0x03, 0x01, 0xf6, 0xf3,
  0xf8, 0x7f, 0x06, 0x0b, 0x08, 0xf9, 0x01, 0x05, 0xee, 0xfc, 0xb5, 0xff,
  0xf7, 0xf4, 0x07, 0x04, 0xf6, 0x03, 0xfb, 0xf9, 0xf6, 0x06, 0x03, 0xef,
  0x06, 0x09, 0x04, 0xdd, 0x07, 0xfb, 0xf1, 0xea, 0xf9, 0x3e, 0xfc, 0xfc,
  0x07, 0xec, 0xfe, 0x06, 0xdf, 0xef, 0xd0, 0x1e, 0xfe, 0x02, 0x09, 0x02,
  0x01, 0x09, 0xff, 0xe9, 0xff, 0xfa, 0x03, 0x0f, 0x0a, 0x0a, 0x0c, 0x00,
  0x0a, 0x01, 0x01, 0xfe, 0x03, 0xfb, 0x11, 0x01, 0xf7, 0x01, 0xed, 0x08,
  0x00, 0xff, 0xff, 0xff, 0x21, 0x02, 0x03, 0xcf, 0x01, 0x04, 0xf9, 0x04,
  0x01, 0x19, 0x04, 0x0d, 0x08, 0x04, 0x04, 0x00, 0x02, 0xb7, 0x01, 0x14,
  0xfe, 0x0e, 0x1f, 0x02, 0xfc, 0x02, 0x03, 0x03, 0x00, 0x96, 0xf1, 0xff,
  0xf2, 0xf0, 0x1a, 0x1c, 0xdd, 0x18, 0xf0, 0x0b, 0x91, 0x16, 0x0f, 0x10,
  0x18, 0x22, 0x1c, 0x21, 0x14, 0xd5, 0xe7, 0xff, 0x1c, 0x0c, 0x53, 0xc2,
  0x15, 0x94, 0x00, 0x18, 0x13, 0x81, 0xfc, 0xdb, 0xfe, 0x08, 0x02, 0x08,
  0x01, 0x03, 0x00, 0xe8, 0xf2, 0xf0, 0x04, 0x00, 0x05, 0x03, 0x01, 0xfc,
  0x06, 0xff, 0x03, 0x03, 0x08, 0xff, 0xf4, 0xfc, 0xf4, 0xf4, 0xf9, 0x01,
  0x00, 0xde, 0xfc, 0xfb, 0xca, 0x00, 0xd4, 0x0f, 0x02, 0xe1, 0x08, 0xcf,
  0xe2, 0xce, 0x05, 0xfc, 0xf4, 0xc6, 0xbc, 0xd7, 0xe1, 0x1a, 0x03, 0xe3,
  0xe4, 0x03, 0xd7, 0xcf, 0x08, 0x06, 0x18, 0xe2, 0xd5, 0xfc, 0xfc, 0xd4,
  0xe6, 0xdd, 0x0c, 0x0f, 0xe4, 0x07, 0x0f, 0x1c, 0x92, 0x7f, 0xc3, 0xf0,
  0xfc, 0x12, 0x17, 0xb2, 0x08, 0x1a, 0xe4, 0xfe, 0x01, 0x13, 0x07, 0x74,
  0xda, 0x26, 0xfe, 0x05, 0xbd, 0xe7, 0x09, 0xa3, 0x15, 0x00, 0xf4, 0x00,
  0x00, 0xef, 0xc8, 0x01, 0xff, 0xfa, 0x06, 0xef, 0xec, 0xf6, 0xf8, 0x00,
  0xef, 0x01, 0x00, 0x1d, 0xfd, 0x0d, 0x08, 0x00, 0xf7, 0x00, 0xe4, 0xef,
  0x00, 0x01, 0xf5, 0x00, 0x1c, 0xbf, 0xe2, 0x97, 0xd4, 0xe4, 0xcf, 0xf5,
  0xb9, 0xf4, 0x09, 0x0a, 0xe6, 0xdf, 0xe1, 0xf6, 0xe4, 0x81, 0xbd, 0x1b,
  0xeb, 0x36, 0xf4, 0xdc, 0x04, 0xbf, 0x18, 0xe6, 0xe3, 0xcd, 0xe7, 0x1f,
  0xfb, 0xbf, 0x24, 0xe3, 0xe0, 0x2a, 0xd4, 0xfc, 0xd2, 0xfa, 0x0b, 0x0a,
  0x27, 0x2d, 0x2e, 0x10, 0x22, 0xf0, 0xd2, 0xfd, 0x35, 0x00, 0xfd, 0xdd,
  0xf5, 0xfa, 0xf6, 0x2d, 0x06, 0xc0, 0xf9, 0x08, 0xf9, 0x01, 0x08, 0x01,
  0x00, 0x06, 0x04, 0xfa, 0xff, 0xf7, 0xfe, 0x05, 0x00, 0x08, 0x08, 0x00,
  0x07, 0x00, 0x00, 0x03, 0x0a, 0xff, 0xfd, 0x00, 0xf8, 0x00, 0x01, 0x06,
  0x00, 0x00, 0xfc, 0x00, 0xe5, 0x01, 0xfe, 0x04, 0x28, 0x03, 0x03, 0xeb,
  0xff, 0xd5, 0x03, 0x05, 0x05, 0xfb, 0xfa, 0x00, 0xff, 0x2f, 0x01, 0xf7,
  0xfe, 0xf7, 0xf5, 0xd5, 0xf7, 0x02, 0x0c, 0x03, 0x00, 0x14, 0xf8, 0x00,
  0x2a, 0xdc, 0x00, 0xd9, 0xdd, 0x00, 0xe2, 0x06, 0x05, 0x15, 0xf8, 0x08,
  0x02, 0x01, 0x01, 0x92, 0xff, 0x81, 0x7f, 0xf0, 0xee, 0xec, 0x09, 0xf9,
  0x08, 0x4a, 0xf9, 0x04, 0x89, 0x74, 0xea, 0xb9, 0xfe, 0x00, 0x00, 0x01,
  0x00, 0x01, 0x00, 0x04, 0x01, 0xff, 0xff, 0x04, 0xfe, 0xff, 0xff, 0x00,
  0x01, 0x00, 0x00, 0xfc, 0xff, 0x03, 0x03, 0x00, 0xfd, 0x00, 0xfe, 0x01,
  0x00, 0x00, 0xff, 0x00, 0xec, 0x00, 0x09, 0x00, 0x00, 0x07, 0xfb, 0xfe,
  0x00, 0xf7, 0x00, 0x09, 0x01, 0x0e, 0x13, 0x00, 0x09, 0x00, 0x00, 0xf6,
  0x0e, 0xfa, 0xfa, 0x00, 0xf7, 0x00, 0xfd, 0x07, 0x00, 0x00, 0xf8, 0x00,
  0x23, 0xd9, 0xfa, 0xfd, 0x7f, 0x01, 0xf6, 0xe7, 0x24, 0x13, 0x00, 0x07,
  0x0a, 0xf0, 0xeb, 0x9f, 0xfe, 0x04, 0xd8, 0xee, 0xe7, 0xf6, 0xf8, 0xe9,
  0xfb, 0xfb, 0x06, 0x02, 0xa2, 0xfb, 0xf9, 0x9d, 0x02, 0x00, 0xfd, 0x00,
  0x00, 0xfb, 0x07, 0xfe, 0x00, 0x00, 0x03, 0xe9, 0x02, 0xfe, 0xff, 0x00,
  0xfa, 0x00, 0x00, 0x04, 0x01, 0xfc, 0xfb, 0x00, 0x01, 0x00, 0x03, 0x00,
  0x00, 0x00, 0x03, 0x00, 0xf3, 0x00, 0x14, 0x00, 0x00, 0x19, 0xf9, 0xfb,
  0x00, 0x01, 0xff, 0xf2, 0x18, 0x19, 0x11, 0x00, 0x14, 0x00, 0x00, 0xff,
  0x0e, 0xf8, 0xfc, 0x01, 0x00, 0x00, 0xf8, 0x17, 0x00, 0x00, 0xfb, 0x00,
  0xe9, 0x1a, 0x92, 0x3e, 0xee, 0x8c, 0x2c, 0xf8, 0xf3, 0x07, 0x02, 0xfb,
  0xa0, 0xb6, 0xd7, 0xb6, 0x81, 0x19, 0x3a, 0xfa, 0xe8, 0xe3, 0xe9, 0x37,
  0x04, 0xd0, 0x03, 0x92, 0xa4, 0xdb, 0xd3, 0xa7, 0x4a, 0x00, 0xdf, 0x00,
  0x00, 0xdd, 0x33, 0xfe, 0x01, 0x0a, 0x0f, 0xef, 0xe5, 0xdc, 0xda, 0x00,
  0xdc, 0x00, 0xff, 0x09, 0xdd, 0xf3, 0x0d, 0xff, 0xfe, 0xfe, 0xfd, 0xe2,
  0x00, 0x00, 0x2d, 0x01, 0x34, 0xb6, 0x0d, 0xf9, 0xc6, 0x0d, 0x5b, 0x2a,
  0x0d, 0x06, 0x19, 0xda, 0x0d, 0x0f, 0x0b, 0x15, 0x0c, 0xfa, 0xda, 0x02,
  0x04, 0xd5, 0x06, 0x05, 0xfa, 0xec, 0xfe, 0x11, 0x11, 0xe9, 0x7f, 0xd7,
  0xf3, 0xc0, 0x18, 0x0a, 0xd8, 0x21, 0xdb, 0xf8, 0xc8, 0xf2, 0x0c, 0xce,
  0x11, 0x1b, 0x13, 0x17, 0x23, 0x07, 0xcd, 0x0a, 0x17, 0xda, 0xe7, 0xe6,
  0xf9, 0xd3, 0xc8, 0x1d, 0x2e, 0xba, 0x60, 0xe0, 0xef, 0x1f, 0xe7, 0x36,
  0xf4, 0xfd, 0x2d, 0x11, 0x5a, 0x09, 0x20, 0xe6, 0x08, 0xed, 0xf4, 0xa8,
  0xe9, 0x14, 0x04, 0xf3, 0xff, 0x01, 0xda, 0x00, 0x07, 0x3e, 0x08, 0xef,
  0x90, 0x1e, 0x25, 0x8b, 0x3a, 0x16, 0x1b, 0x2f, 0x0f, 0x13, 0x28, 0xd2,
  0x40, 0x18, 0x41, 0xf3, 0x2d, 0x2b, 0x1a, 0xf3, 0x1b, 0x25, 0x0e, 0x53,
  0x2e, 0x1e, 0x2b, 0x54, 0x00, 0x20, 0x32, 0x17, 0xf0, 0x18, 0x1b, 0xf1,
  0x34, 0x17, 0x51, 0x45, 0x15, 0x1d, 0x29, 0x46, 0x7f, 0x2f, 0x5a, 0x19,
  0x38, 0x60, 0x41, 0x09, 0x36, 0x72, 0x05, 0x06, 0x3e, 0x36, 0x44, 0x20,
  0x21, 0x63, 0x38, 0x2a, 0x04, 0x01, 0x2e, 0x1f, 0xff, 0xf4, 0x06, 0xeb,
  0x00, 0x0d, 0x1a, 0x17, 0x34, 0x05, 0xd2, 0x09, 0x0d, 0x07, 0x05, 0xca,
  0x09, 0xf4, 0xf5, 0xe8, 0x04, 0x01, 0xef, 0x08, 0x02, 0x10, 0x01, 0x0b,
  0xcc, 0xf2, 0x00, 0xda, 0xff, 0xf4, 0x00, 0xde, 0xf4, 0x07, 0x17, 0x12,
  0xd7, 0x02, 0x81, 0xff, 0x0b, 0xfe, 0xfd, 0xf9, 0x03, 0xdb, 0xf1, 0xf2,
  0x06, 0xeb, 0xe5, 0xd7, 0x07, 0xda, 0x06, 0x04, 0x00, 0xad, 0x10, 0x10,
  0xf8, 0xf7, 0x05, 0xf2, 0xee, 0x0a, 0x04, 0x07, 0xaf, 0x07, 0x98, 0x10,
  0x0d, 0x07, 0x01, 0xfa, 0x06, 0xc1, 0xef, 0xe6, 0x0c, 0xed, 0x0e, 0xc6,
  0x08, 0xc9, 0x07, 0x0c, 0xfb, 0x9a, 0x09, 0x0e, 0xfb, 0xf9, 0x00, 0x01,
  0xff, 0x01, 0xda, 0xe3, 0xe0, 0xf5, 0x00, 0xf7, 0xfd, 0xff, 0xfe, 0xea,
  0xff, 0xfa, 0x01, 0x14, 0xfb, 0xf0, 0x02, 0xf5, 0xe6, 0xf9, 0xa1, 0x00,
  0xef, 0xf9, 0xe9, 0x08, 0xf4, 0x03, 0x0d, 0x04, 0x02, 0x0b, 0xde, 0xfe,
  0xc6, 0xf3, 0x01, 0xf2, 0x04, 0x0a, 0x0a, 0xf5, 0x0b, 0xf3, 0x08, 0x04,
  0x03, 0xf8, 0x08, 0xed, 0xe6, 0xdd, 0x92, 0x08, 0xfc, 0xe9, 0xef, 0x02,
  0xfc, 0x02, 0xfb, 0x01, 0x07, 0xfb, 0xf8, 0x20, 0x81, 0xfc, 0xf9, 0x00,
  0xf6, 0xfc, 0xfd, 0xf7, 0xfc, 0xff, 0x00, 0xea, 0xf7, 0x08, 0x07, 0xca,
  0xf3, 0xd4, 0x07, 0xfc, 0xfd, 0x02, 0xfe, 0xf6, 0x00, 0xf4, 0xfc, 0xf0,
  0xfd, 0xff, 0xfc, 0x02, 0xeb, 0x02, 0x00, 0xfb, 0xff, 0xfc, 0xff, 0xfb,
  0xfd, 0xf6, 0xf6, 0xec, 0x02, 0xfa, 0xfa, 0xec, 0x04, 0xe1, 0xfe, 0xfe,
  0xf5, 0xc7, 0x01, 0x04, 0xf4, 0x00, 0xfc, 0x24, 0xfb, 0xff, 0xfc, 0x00,
  0xd3, 0x02, 0xfd, 0x06, 0x01, 0xfd, 0xfe, 0xcd, 0xfc, 0x18, 0xf7, 0xcd,
  0x07, 0xe9, 0x02, 0xdc, 0xff, 0xf5, 0xf5, 0x02, 0xcf, 0x0d, 0x07, 0xc3,
  0x04, 0x0a, 0x00, 0xf6, 0xf6, 0xfe, 0x2d, 0xff, 0x0d, 0x04, 0xf7, 0x09,
  0xf9, 0xff, 0xfd, 0x81, 0x01, 0x17, 0x16, 0xdf, 0xee, 0xf5, 0xfe, 0x41,
  0x06, 0x36, 0x09, 0xfe, 0x83, 0x15, 0xfa, 0x98, 0x04, 0x00, 0xf4, 0xd6,
  0x00, 0xf7, 0xff, 0x07, 0x00, 0xf6, 0xf9, 0x0a, 0xf3, 0xf3, 0xf4, 0x00,
  0xf4, 0xd6, 0x00, 0xf3, 0xfe, 0x00, 0xec, 0x01, 0xf7, 0xff, 0x05, 0xf5,
  0x00, 0xd0, 0x0a, 0x00, 0xfc, 0xd0, 0x05, 0xcc, 0xed, 0x06, 0xf1, 0xf3,
  0xc3, 0xea, 0xf3, 0x0d, 0x00, 0x04, 0x05, 0xfd, 0x04, 0xe6, 0xf2, 0xd7,
  0x07, 0xff, 0xfb, 0xce, 0xfd, 0xe5, 0xfe, 0x06, 0xf8, 0xe5, 0x0e, 0x1a,
  0xf1, 0x9f, 0xef, 0x92, 0xcc, 0xf9, 0xde, 0xdb, 0x94, 0xd1, 0xf6, 0xf5,
  0xfe, 0xef, 0xf1, 0x0e, 0xf3, 0xb3, 0xbe, 0x02, 0xf6, 0xfd, 0xe3, 0x8b,
  0xe6, 0x9b, 0x06, 0xfe, 0x15, 0x81, 0x0a, 0x18, 0x05, 0x00, 0x04, 0xf5,
  0x00, 0x01, 0xff, 0x0a, 0x00, 0x07, 0xfd, 0xfe, 0xff, 0x01, 0x01, 0x00,
  0x03, 0xed, 0xff, 0xf6, 0xfb, 0x06, 0x0f, 0x00, 0x07, 0x01, 0x01, 0x00,
  0x00, 0xf0, 0xfc, 0x00, 0x0f, 0xf8, 0x05, 0xfd, 0xf6, 0x04, 0x07, 0x03,
  0xd7, 0x04, 0x02, 0x09, 0x05, 0x04, 0x06, 0xff, 0x04, 0xee, 0x02, 0xfd,
  0x05, 0x05, 0x05, 0xf3, 0x02, 0xe6, 0x00, 0x05, 0x0e, 0xa5, 0x03, 0xcd,
  0xc3, 0xf6, 0xeb, 0x21, 0xff, 0xef, 0x08, 0xf5, 0x45, 0xdf, 0x07, 0xff,
  0xf8, 0xe7, 0xe5, 0x94, 0xee, 0x35, 0x03, 0xff, 0xf3, 0xf9, 0xe9, 0xec,
  0x04, 0x0a, 0x0d, 0xf0, 0x95, 0x27, 0x18, 0x81, 0xf9, 0x00, 0x03, 0x01,
  0x00, 0x03, 0x02, 0x01, 0x00, 0x01, 0x00, 0xf9, 0x03, 0x03, 0x02, 0x00,
  0x04, 0x00, 0x00, 0xf8, 0x01, 0xfb, 0xfc, 0x00, 0x01, 0x00, 0xfd, 0x04,
  0x00, 0x00, 0xfc, 0x00, 0xff, 0xd0, 0xfd, 0xee, 0xd8, 0x00, 0xff, 0xfd,
  0x01, 0x00, 0xff, 0xfc, 0x01, 0xfe, 0xfc, 0xc0, 0xff, 0xdc, 0x7f, 0xfe,
  0xff, 0xf9, 0xfe, 0x04, 0x02, 0xf5, 0x00, 0x01, 0xc0, 0xff, 0xfa, 0xae,
  0x08, 0x6a, 0xf6, 0xf1, 0xe3, 0xf4, 0x01, 0x00, 0x2c, 0x01, 0xff, 0xff,
  0xf4, 0xfb, 0xfe, 0xbe, 0xf4, 0xfd, 0xdf, 0xff, 0xfc, 0xf5, 0xfe, 0xd4,
  0x01, 0x0a, 0x02, 0xf5, 0xc1, 0x02, 0xf4, 0xbd, 0xe3, 0x1e, 0xe7, 0x3e,
  0x0f, 0xe0, 0x19, 0xe0, 0xf2, 0xfe, 0x03, 0xce, 0xd1, 0xee, 0xef, 0x8c,
  0xe6, 0x23, 0x18, 0x0c, 0xfa, 0xfc, 0xec, 0x32, 0x04, 0xf1, 0x01, 0xda,
  0x8b, 0xf8, 0xf5, 0x81, 0x0c, 0x26, 0xf0, 0x9b, 0x0b, 0xee, 0x0b, 0x0f,
  0xce, 0x1a, 0xf5, 0x37, 0xc6, 0xf4, 0xf6, 0xc2, 0xf1, 0xd7, 0x03, 0xed,
  0xf4, 0xf4, 0xf4, 0x1a, 0x04, 0xed, 0xfc, 0xec, 0xc2, 0xc0, 0xf1, 0xd3,
  0xfb, 0xe7, 0xff, 0xcc, 0x03, 0x01, 0xf7, 0xf9, 0xbe, 0x10, 0xfd, 0x03,
  0xfa, 0xfa, 0xff, 0xee, 0x00, 0xea, 0xf1, 0xf9, 0x01, 0xfd, 0xfb, 0xda,
  0x11, 0xdc, 0x0d, 0x01, 0xfb, 0xa3, 0xfe, 0x0c, 0x00, 0x00, 0x00, 0x01,
  0x00, 0x01, 0xfd, 0x01, 0x00, 0xfa, 0x04, 0xf6, 0x04, 0x00, 0x01, 0x00,
  0x01, 0xff, 0x00, 0x07, 0x01, 0x03, 0xf8, 0x00, 0xf4, 0x00, 0xea, 0x01,
  0x00, 0xe9, 0xfc, 0x00, 0xef, 0x01, 0x13, 0x00, 0x00, 0x11, 0xf9, 0x00,
  0xff, 0xeb, 0x06, 0x04, 0x0e, 0x12, 0x11, 0x00, 0x14, 0x00, 0x00, 0xfa,
  0x16, 0xfc, 0xfe, 0x02, 0xe8, 0x00, 0xec, 0x11, 0x00, 0x00, 0xf6, 0x00,
  0x0f, 0x12, 0xe6, 0x0f, 0x02, 0xe7, 0x2b, 0xd1, 0x3a, 0x2b, 0xf2, 0xfe,
  0xe9, 0xe4, 0xe0, 0x82, 0xe6, 0x24, 0x11, 0xe3, 0xb2, 0xf1, 0xd9, 0x1d,
  0x4b, 0x28, 0x26, 0xe7, 0x81, 0x0f, 0xf3, 0x8b, 0x3c, 0xc9, 0xff, 0xff,
  0x12, 0xf1, 0xff, 0xff, 0x04, 0x00, 0x00, 0x00, 0x80, 0x00, 0x00, 0x00,
  0x00, 0x00, 0x00, 0x00, 0x00, 0x00, 0x00, 0x00, 0x00, 0x00, 0x00, 0x00,
  0x00, 0x00, 0x00, 0x00, 0x00, 0x00, 0x00, 0x00, 0x00, 0x00, 0x00, 0x00,
  0x00, 0x00, 0x00, 0x00, 0x00, 0x00, 0x00, 0x00, 0x00, 0x00, 0x00, 0x00,
  0x00, 0x00, 0x00, 0x00, 0x00, 0x00, 0x00, 0x00, 0x00, 0x00, 0x00, 0x00,
  0x00, 0x00, 0x00, 0x00, 0x00, 0x00, 0x00, 0x00, 0x00, 0x00, 0x00, 0x00,
  0x00, 0x00, 0x00, 0x00, 0x00, 0x00, 0x00, 0x00, 0x00, 0x00, 0x00, 0x00,
  0x00, 0x00, 0x00, 0x00, 0x00, 0x00, 0x00, 0x00, 0x00, 0x00, 0x00, 0x00,
  0x00, 0x00, 0x00, 0x00, 0x00, 0x00, 0x00, 0x00, 0x00, 0x00, 0x00, 0x00,
  0x00, 0x00, 0x00, 0x00, 0x00, 0x00, 0x00, 0x00, 0x00, 0x00, 0x00, 0x00,
  0x00, 0x00, 0x00, 0x00, 0x00, 0x00, 0x00, 0x00, 0x00, 0x00, 0x00, 0x00,
  0x00, 0x00, 0x00, 0x00, 0x00, 0x00, 0x00, 0x00, 0x9e, 0xf1, 0xff, 0xff,
  0x04, 0x00, 0x00, 0x00, 0x20, 0x00, 0x00, 0x00, 0xec, 0x25, 0x2f, 0x37,
  0xff, 0xdb, 0xdb, 0xa5, 0x27, 0xe1, 0x90, 0x01, 0xeb, 0xed, 0xc5, 0xe5,
  0xf4, 0x64, 0x49, 0x6a, 0x87, 0x10, 0x66, 0xa5, 0xc2, 0x94, 0x7f, 0xd3,
  0x80, 0x3c, 0xff, 0xe9, 0xca, 0xf1, 0xff, 0xff, 0x04, 0x00, 0x00, 0x00,
  0x20, 0x00, 0x00, 0x00, 0x02, 0x6e, 0x04, 0x34, 0x28, 0x38, 0xf2, 0xe9,
  0x06, 0x20, 0xe4, 0x53, 0xfd, 0xf2, 0x65, 0x7f, 0xe0, 0x67, 0xec, 0x12,
  0x2b, 0x25, 0xff, 0x19, 0x38, 0x15, 0x2d, 0x04, 0x17, 0x42, 0x65, 0x1b,
  0xf6, 0xf1, 0xff, 0xff, 0x04, 0x00, 0x00, 0x00, 0x20, 0x00, 0x00, 0x00,
  0x21, 0x2f, 0x29, 0x2a, 0x12, 0x17, 0x04, 0x4a, 0x54, 0x3c, 0x57, 0x27,
  0x10, 0x3a, 0x21, 0x36, 0x42, 0x2b, 0x59, 0x21, 0x16, 0x2d, 0x3a, 0x80,
  0x3f, 0x5b, 0x28, 0x7f, 0x24, 0x26, 0x35, 0x2c, 0x22, 0xf2, 0xff, 0xff,
  0x04, 0x00, 0x00, 0x00, 0x00, 0x0c, 0x00, 0x00, 0x0c, 0x05, 0xf1, 0xfc,
  0x06, 0x0b, 0x02, 0x02, 0x26, 0xf9, 0xfc, 0xfd, 0xf6, 0x11, 0x15, 0x12,
  0x03, 0x13, 0x01, 0x00, 0xc9, 0xe9, 0x00, 0x00, 0x04, 0xe3, 0xdf, 0x02,
  0xcb, 0x03, 0xfd, 0x01, 0xa4, 0x08, 0x05, 0x08, 0xc3, 0x0f, 0x03, 0xec,
  0x1d, 0xf4, 0x07, 0x37, 0xfc, 0xec, 0x3a, 0x11, 0xf6, 0x40, 0xfd, 0x00,
  0xe7, 0xf4, 0xff, 0xe0, 0x0a, 0x05, 0x2a, 0x0d, 0x06, 0x11, 0xdd, 0x0b,
  0xea, 0xed, 0xc5, 0x04, 0xd4, 0x02, 0x0b, 0xfc, 0x00, 0x06, 0xf9, 0x01,
  0xf7, 0xe2, 0x03, 0xfd, 0xf7, 0xf3, 0xee, 0xcb, 0xc7, 0x9e, 0xfe, 0xff,
  0xf3, 0xf2, 0xca, 0xdd, 0x81, 0xdb, 0xed, 0x00, 0x16, 0x20, 0xed, 0xc5,
  0xfc, 0xbd, 0x0c, 0xf5, 0xfb, 0x05, 0x0c, 0xf8, 0xee, 0xcd, 0xc6, 0xcf,
  0xef, 0xf4, 0x1d, 0xfd, 0xf0, 0xcc, 0xfe, 0xff, 0xd8, 0x56, 0x01, 0x11,
  0xdf, 0xfe, 0xf7, 0xf2, 0x1b, 0x1a, 0xb7, 0xd9, 0x0a, 0x04, 0xf1, 0x18,
  0x89, 0xc9, 0xdc, 0xff, 0xb4, 0x03, 0xf0, 0x00, 0x07, 0x14, 0xd8, 0x01,
  0xc0, 0x13, 0x1d, 0x00, 0xda, 0xc9, 0xe4, 0xcb, 0x11, 0x24, 0x7f, 0xec,
  0x0c, 0x08, 0x06, 0x38, 0xe9, 0xfb, 0xda, 0xee, 0x34, 0xd5, 0x12, 0x25,
  0xe1, 0x32, 0xe7, 0xff, 0xe1, 0xe6, 0x02, 0xf8, 0x05, 0xf4, 0xf2, 0x00,
  0x63, 0x00, 0x1e, 0x17, 0x1e, 0xcd, 0x0b, 0xfb, 0xef, 0xdb, 0xf9, 0x0e,
  0xe6, 0xb4, 0x00, 0xf4, 0x0f, 0x1c, 0x07, 0xc8, 0x0e, 0xfe, 0x21, 0xf3,
  0xfb, 0x24, 0xfd, 0xff, 0xf0, 0x07, 0xeb, 0xff, 0xec, 0x1e, 0x01, 0x06,
  0xf4, 0x16, 0xdd, 0x0e, 0x0f, 0x0e, 0xfc, 0x00, 0xd3, 0xcd, 0x07, 0x01,
  0xdc, 0x18, 0x12, 0xeb, 0x02, 0xf5, 0xf4, 0xf1, 0x00, 0x1a, 0x09, 0xff,
  0x03, 0x09, 0xf3, 0x00, 0xf9, 0x11, 0xf7, 0x03, 0xa6, 0x1e, 0x0f, 0xf3,
  0x81, 0xbb, 0xeb, 0x09, 0xc8, 0x23, 0xf9, 0xf9, 0xef, 0xe5, 0x00, 0xf3,
  0x00, 0x13, 0xc5, 0x14, 0xf9, 0xda, 0x02, 0x06, 0xdf, 0xd6, 0x0d, 0xf9,
  0xfb, 0x21, 0xf4, 0xf3, 0x07, 0xb4, 0xfa, 0xf3, 0x11, 0x09, 0x00, 0x03,
  0x10, 0xe8, 0xfc, 0xfc, 0xe1, 0x08, 0xf8, 0xfd, 0x05, 0xfc, 0x0b, 0xfe,
  0x02, 0x01, 0xfa, 0x01, 0x07, 0x04, 0x0e, 0xff, 0xf5, 0x12, 0xef, 0xf6,
  0xfd, 0x1b, 0x1a, 0x02, 0x13, 0x0b, 0xf9, 0x07, 0x1e, 0x09, 0xfa, 0x0a,
  0x01, 0x0c, 0xfb, 0xfc, 0x06, 0x03, 0x13, 0x01, 0x07, 0xd6, 0x06, 0xff,
  0xea, 0xfd, 0xfa, 0xf5, 0x0a, 0x09, 0x81, 0x01, 0x21, 0xce, 0x1c, 0xfe,
  0xfb, 0xf8, 0xfb, 0xfb, 0xf4, 0xf8, 0xff, 0x03, 0x02, 0xfa, 0x09, 0xf6,
  0x01, 0xf9, 0xed, 0xfd, 0xff, 0x00, 0xfc, 0xee, 0xfb, 0xf0, 0x01, 0x02,
  0x0d, 0x01, 0xfe, 0x04, 0xee, 0xed, 0xf5, 0xff, 0xe7, 0x12, 0x04, 0xe3,
  0x15, 0x13, 0x02, 0xd2, 0xc1, 0x14, 0xdd, 0xf2, 0xdd, 0xdb, 0xf4, 0xd2,
  0xe2, 0xfe, 0x81, 0xfd, 0x06, 0x07, 0xf8, 0xff, 0xc5, 0xf7, 0xf3, 0x85,
  0x0c, 0x0f, 0x2b, 0x00, 0xc6, 0xe5, 0xb1, 0x28, 0x11, 0xe3, 0x00, 0xf9,
  0xff, 0x0e, 0xfc, 0xf7, 0x13, 0x11, 0xff, 0xfd, 0xf6, 0xf4, 0x0e, 0xff,
  0xca, 0xb6, 0x09, 0xfd, 0x23, 0xec, 0xe8, 0x1c, 0xe1, 0xc1, 0x07, 0xf7,
  0xfe, 0xf8, 0x03, 0x05, 0xde, 0x0c, 0xfb, 0x06, 0x05, 0xee, 0x28, 0x08,
  0xf9, 0xe8, 0xec, 0xff, 0xf7, 0xee, 0xf9, 0xff, 0x06, 0xed, 0xfd, 0xfd,
  0x16, 0xf0, 0x11, 0x10, 0xec, 0xee, 0x12, 0xf8, 0xb1, 0xf7, 0x04, 0x28,
  0x0a, 0xec, 0x02, 0xf9, 0xeb, 0x09, 0xfe, 0xa6, 0x19, 0x18, 0xe9, 0xec,
  0xfd, 0xe8, 0xe7, 0xfd, 0x3e, 0xeb, 0xea, 0xfd, 0x28, 0x22, 0x2d, 0xec,
  0x04, 0xef, 0x9d, 0xf7, 0x0c, 0x12, 0x05, 0xfb, 0xe3, 0xc3, 0x0c, 0xfa,
  0xa3, 0x2f, 0x08, 0xe2, 0x81, 0xc9, 0x00, 0x8b, 0xf5, 0x0d, 0xa9, 0xfc,
  0x43, 0x2d, 0x97, 0xf4, 0xe2, 0xf1, 0x1f, 0xdc, 0x9c, 0x6f, 0xd9, 0xf8,
  0xbd, 0xa9, 0xe4, 0x1c, 0xc9, 0x1c, 0xf7, 0x26, 0xf7, 0x35, 0x00, 0x1f,
  0x02, 0xe9, 0x49, 0xed, 0x06, 0xd5, 0x0f, 0x03, 0x89, 0xcb, 0xe9, 0xeb,
  0x0f, 0x0b, 0x8c, 0xc1, 0x9e, 0xaf, 0xb8, 0xfa, 0xdf, 0xec, 0xe9, 0xe0,
  0x24, 0x14, 0x05, 0xec, 0x39, 0xde, 0xf4, 0x0c, 0xd8, 0x08, 0x35, 0x19,
  0xf6, 0xdf, 0x05, 0x9f, 0xc4, 0x01, 0x16, 0x81, 0x13, 0xc8, 0xc6, 0x0b,
  0x0f, 0x9c, 0x09, 0x07, 0x9f, 0xb4, 0xfd, 0xfd, 0xbc, 0x1e, 0x07, 0xfd,
  0x17, 0xce, 0x00, 0x0d, 0xe4, 0xe5, 0xb8, 0x1c, 0xfc, 0x0a, 0x02, 0x00,
  0xf5, 0x0e, 0x01, 0x02, 0x12, 0xf5, 0xe6, 0x10, 0xfe, 0xbd, 0x04, 0x0b,
  0xee, 0xff, 0x07, 0x05, 0xe5, 0x1a, 0xf1, 0x0f, 0xf0, 0xdd, 0xfd, 0x1f,
  0xe1, 0x06, 0xee, 0x06, 0xfe, 0xfa, 0x07, 0xdf, 0xff, 0x12, 0x0a, 0xb7,
  0x08, 0x0a, 0x06, 0x05, 0xe5, 0xf6, 0xfb, 0xf4, 0xfe, 0xf5, 0x00, 0x06,
  0xef, 0xf7, 0x0e, 0x03, 0x02, 0xf6, 0xfa, 0xf7, 0xff, 0xfc, 0x00, 0xff,
  0x01, 0x00, 0x01, 0xff, 0xfa, 0x01, 0x01, 0x01, 0x05, 0xfb, 0xff, 0x07,
  0x01, 0xf4, 0xfb, 0xfb, 0xf2, 0x0c, 0x01, 0xfb, 0x1f, 0x02, 0x04, 0xda,
  0xfb, 0x0a, 0xf0, 0xf9, 0x02, 0xf4, 0xed, 0xf5, 0xec, 0xf5, 0x92, 0xfe,
  0x05, 0xfe, 0xef, 0xff, 0xcd, 0xec, 0xfb, 0x81, 0xff, 0xf6, 0xfb, 0x03,
  0x03, 0xf3, 0xf0, 0x11, 0x04, 0xf6, 0xf9, 0x03, 0xe5, 0x08, 0x03, 0x13,
  0xff, 0x03, 0x07, 0xfc, 0xfd, 0x11, 0x02, 0x01, 0xf2, 0xf8, 0xfd, 0xfd,
  0x0d, 0xfe, 0xef, 0x07, 0xe3, 0x07, 0xff, 0x00, 0x05, 0xfd, 0x0a, 0x24,
  0xeb, 0xf0, 0xef, 0xff, 0x08, 0xf8, 0xfd, 0xe6, 0x0a, 0xe9, 0xdb, 0xff,
  0x0a, 0xf5, 0xf9, 0x03, 0x0a, 0x0a, 0xfa, 0xff, 0xe6, 0x1e, 0xef, 0xe8,
  0xf9, 0xe9, 0xda, 0xf6, 0x05, 0xf8, 0x07, 0xfe, 0xe3, 0x0d, 0xe5, 0xf9,
  0xf6, 0x02, 0x04, 0x04, 0x09, 0xe9, 0xf2, 0xfb, 0x06, 0x0d, 0xf0, 0xff,
  0xee, 0xff, 0xf8, 0x01, 0xed, 0x33, 0xdd, 0xe8, 0x02, 0xea, 0xef, 0x06,
  0xbe, 0xdb, 0x0e, 0x0d, 0xfd, 0x1e, 0x9a, 0xb5, 0xed, 0x43, 0xbd, 0x6c,
  0xaa, 0xbd, 0xd6, 0xd3, 0xd3, 0x76, 0xbe, 0x05, 0x33, 0xf8, 0xbe, 0xfc,
  0x81, 0x0c, 0x10, 0xce, 0x0d, 0x0d, 0xbb, 0xfd, 0x0a, 0x1b, 0xed, 0x36,
  0x0d, 0x2a, 0x01, 0x16, 0xf1, 0x0e, 0x07, 0x02, 0x06, 0xf5, 0xf4, 0x07,
  0xfc, 0x08, 0x15, 0x06, 0xe4, 0xdc, 0x01, 0x03, 0xed, 0x16, 0xfb, 0x0a,
  0x10, 0x12, 0x43, 0x05, 0xf2, 0xfe, 0xf2, 0x17, 0xe0, 0xe2, 0x02, 0xf9,
  0xee, 0xf1, 0x05, 0xc6, 0xea, 0xff, 0xde, 0xdf, 0xf3, 0x0f, 0xef, 0x09,
  0xff, 0xf6, 0xe8, 0xdb, 0x13, 0xf4, 0x16, 0xfd, 0xa7, 0xe8, 0xed, 0xf1,
  0x81, 0xfc, 0x13, 0x10, 0xc2, 0xfa, 0xdb, 0xc5, 0x0a, 0x1e, 0xfb, 0x31,
  0xe3, 0xf2, 0x44, 0xf9, 0xd5, 0xaa, 0xf8, 0x01, 0x11, 0x07, 0xf5, 0x01,
  0xc9, 0xf2, 0x11, 0xe7, 0x1a, 0x2f, 0xa1, 0x01, 0x01, 0x0a, 0x07, 0xd3,
  0x0a, 0x14, 0xf5, 0xf3, 0x00, 0xf2, 0xef, 0x03, 0xf8, 0x1f, 0xfa, 0x01,
  0xf7, 0x01, 0xed, 0x03, 0x07, 0xff, 0x01, 0x03, 0x1b, 0xdb, 0x08, 0xf3,
  0xee, 0x04, 0x05, 0x05, 0x06, 0x18, 0x04, 0xf1, 0x95, 0xff, 0xf5, 0x07,
  0xff, 0xfe, 0x0a, 0x0f, 0x05, 0x1e, 0x01, 0xee, 0x03, 0xac, 0x0b, 0x04,
  0xfb, 0x03, 0x00, 0x02, 0x1e, 0xfd, 0x24, 0x11, 0x0e, 0x16, 0x0b, 0xd6,
  0xf3, 0x09, 0x05, 0xf4, 0xe2, 0xdd, 0xdc, 0x21, 0x01, 0xe1, 0x4b, 0xd3,
  0x0a, 0x18, 0xed, 0x09, 0x09, 0xea, 0x07, 0x00, 0xe5, 0x09, 0x06, 0x00,
  0x81, 0x0b, 0x03, 0x21, 0xd4, 0xef, 0x17, 0xee, 0xf4, 0x81, 0x05, 0x8c,
  0xb2, 0x09, 0xc1, 0xe2, 0x17, 0x9e, 0x07, 0x1d, 0xe2, 0x20, 0x60, 0x0b,
  0xe1, 0x14, 0x06, 0x04, 0xe8, 0x1c, 0x04, 0xff, 0x56, 0xfd, 0xec, 0x12,
  0x27, 0x0f, 0xb9, 0x1e, 0x13, 0x26, 0xfc, 0xee, 0x0c, 0x22, 0xe2, 0x06,
  0xf6, 0xf3, 0x19, 0x02, 0x04, 0x0f, 0xda, 0xf3, 0xed, 0x06, 0x1a, 0x00,
  0x17, 0xf7, 0xe1, 0xff, 0xaa, 0xf3, 0xf2, 0x05, 0xbb, 0xff, 0x37, 0x22,
  0xfb, 0xe4, 0x06, 0x21, 0xca, 0xd9, 0xc2, 0xf6, 0x01, 0xa3, 0x15, 0xc8,
  0x12, 0x15, 0xa7, 0x0f, 0x12, 0xc3, 0x1a, 0xd2, 0xdd, 0x06, 0x09, 0xfb,
  0x3a, 0x0c, 0xee, 0x15, 0x06, 0xac, 0x02, 0xe9, 0x12, 0x00, 0x0a, 0x2e,
  0x05, 0xf8, 0x02, 0x04, 0x13, 0x1e, 0xfa, 0xf9, 0xfe, 0xf2, 0x17, 0xf7,
  0x00, 0xff, 0xfc, 0x02, 0xff, 0xfa, 0xf6, 0xff, 0x10, 0x08, 0xf5, 0x10,
  0x11, 0x24, 0x10, 0xff, 0x1e, 0x0e, 0x0a, 0xfd, 0x07, 0xe4, 0xf5, 0x03,
  0xfc, 0x0c, 0x04, 0xd7, 0xf4, 0xec, 0x3b, 0xec, 0xff, 0x07, 0x06, 0xb8,
  0x0c, 0x05, 0xf8, 0x03, 0x24, 0x15, 0xf7, 0x17, 0xe0, 0x35, 0x10, 0xfd,
  0xe5, 0x40, 0x0f, 0xf6, 0xf6, 0x07, 0xdd, 0x81, 0xe9, 0x2e, 0xba, 0x05,
  0xa7, 0xd9, 0xeb, 0xe7, 0xc4, 0xff, 0x84, 0x01, 0x32, 0x15, 0xea, 0xfe,
  0xb6, 0xde, 0xf6, 0x9e, 0x1a, 0x20, 0xce, 0xfc, 0x07, 0x0a, 0xea, 0x05,
  0x06, 0x13, 0xf8, 0x04, 0xf8, 0xfd, 0xff, 0x09, 0xf8, 0xff, 0xf0, 0x04,
  0x01, 0xfc, 0x04, 0x01, 0xed, 0xff, 0x01, 0x00, 0xf9, 0xf6, 0xed, 0x03,
  0x09, 0xfa, 0x14, 0xf6, 0xe2, 0xd8, 0xff, 0x04, 0xfd, 0xff, 0xf4, 0xf9,
  0x05, 0xf6, 0xfd, 0x01, 0xfe, 0x09, 0xe7, 0x0b, 0xfe, 0xfe, 0x02, 0xf6,
  0xfa, 0x02, 0x08, 0xe2, 0x04, 0x04, 0x06, 0x04, 0x07, 0xe8, 0xec, 0xfc,
  0xfd, 0xf8, 0xd4, 0x00, 0xf2, 0x81, 0x04, 0xfb, 0xf4, 0xfc, 0x01, 0xfb,
  0xf7, 0x04, 0xf3, 0xfc, 0xff, 0x03, 0xff, 0x04, 0xe9, 0xd7, 0xfd, 0xfe,
  0xf9, 0x09, 0xf5, 0xfd, 0xca, 0xeb, 0x07, 0xf4, 0x01, 0xe0, 0x00, 0xf1,
  0x34, 0xe4, 0xf9, 0xfa, 0x06, 0x03, 0x0a, 0x02, 0x0c, 0xfd, 0xce, 0x00,
  0xff, 0xf2, 0x0c, 0x00, 0x0f, 0xf2, 0xff, 0x01, 0xf7, 0x20, 0xbb, 0x07,
  0xe2, 0xce, 0xe8, 0xef, 0x02, 0xf6, 0x08, 0xf9, 0x1d, 0xbc, 0xf5, 0xf9,
  0x0d, 0x03, 0x06, 0x15, 0x07, 0x0a, 0xff, 0xf4, 0xfa, 0x05, 0x0a, 0x01,
  0x00, 0x09, 0xfb, 0x02, 0xe7, 0x15, 0x07, 0xf6, 0xf6, 0x03, 0x40, 0xf5,
  0xc9, 0xa3, 0xe6, 0x15, 0xdd, 0x01, 0xe0, 0xed, 0xf2, 0xe5, 0xfd, 0xe6,
  0x06, 0x19, 0x83, 0x04, 0xf2, 0x01, 0x0c, 0xa6, 0xe3, 0xd1, 0x09, 0xfb,
  0xf7, 0x15, 0xe4, 0x04, 0x08, 0x81, 0x0f, 0xef, 0x11, 0x08, 0xfc, 0xfd,
  0x04, 0xf0, 0xfd, 0xfd, 0xf9, 0x08, 0xff, 0xfa, 0xf6, 0x0c, 0x16, 0xf2,
  0xff, 0x02, 0xf9, 0xff, 0x00, 0x06, 0xf5, 0x9d, 0xfc, 0x11, 0x0f, 0xfe,
  0x05, 0x20, 0xfe, 0xff, 0x15, 0x1b, 0xe0, 0x04, 0xff, 0x03, 0x03, 0x06,
  0xff, 0x0f, 0x01, 0xf1, 0xf8, 0x02, 0x15, 0xf4, 0x00, 0xff, 0x02, 0x00,
  0xe9, 0xf8, 0xf6, 0x81, 0xfd, 0x05, 0xea, 0x04, 0xf5, 0x28, 0x04, 0xfc,
  0xf4, 0xfb, 0xe6, 0x00, 0xed, 0xfd, 0xff, 0xfe, 0x04, 0x04, 0xfc, 0xee,
  0xf2, 0xf8, 0xf5, 0xf7, 0xfc, 0xf9, 0x01, 0x05, 0xda, 0xd7, 0xfe, 0xfb,
  0xff, 0x04, 0xf5, 0xfa, 0xe4, 0xe9, 0x01, 0xf5, 0xff, 0xff, 0x01, 0x07,
  0x00, 0xfe, 0x05, 0x02, 0xff, 0x05, 0xfe, 0xff, 0x01, 0xfb, 0xf2, 0xfd,
  0x01, 0xfd, 0xff, 0x00, 0xff, 0xfd, 0xfe, 0xff, 0x00, 0x05, 0xfb, 0x00,
  0xfd, 0xf5, 0x00, 0xfe, 0xff, 0x03, 0x04, 0x05, 0x08, 0x00, 0x09, 0xff,
  0xff, 0x0b, 0xfc, 0x03, 0xff, 0xfd, 0x03, 0xff, 0x01, 0x04, 0x00, 0x00,
  0x07, 0x03, 0x01, 0x01, 0x05, 0x00, 0x04, 0x02, 0x06, 0x09, 0x02, 0xff,
  0xf0, 0x03, 0x04, 0xfd, 0x07, 0xfd, 0xf7, 0x81, 0xe4, 0x0a, 0xf1, 0xfb,
  0xf8, 0xe8, 0xf8, 0xf4, 0xd1, 0xf3, 0xc6, 0xfe, 0x01, 0xfd, 0xf2, 0xfe,
  0xd2, 0xf3, 0x05, 0xbb, 0x02, 0xfb, 0xbb, 0xff, 0xf2, 0xc7, 0xeb, 0xf1,
  0xde, 0xcb, 0x01, 0xf8, 0x05, 0x06, 0x07, 0xc4, 0xe2, 0xef, 0xd9, 0xde,
  0xfb, 0xf9, 0x09, 0x00, 0xe5, 0xdc, 0xfc, 0xfc, 0xf8, 0xff, 0xe6, 0x07,
  0xe4, 0xca, 0xed, 0x02, 0xb2, 0xa8, 0xce, 0x02, 0xe4, 0xc8, 0xf7, 0xf5,
  0xfc, 0xfc, 0xf7, 0xc5, 0xef, 0xfa, 0xa8, 0xe5, 0xf6, 0x0b, 0xfb, 0xb4,
  0xdd, 0xc2, 0xfa, 0xe9, 0xfd, 0xf0, 0xef, 0xfb, 0xc4, 0xb3, 0xfb, 0xfe,
  0x0b, 0x00, 0xf7, 0x27, 0xc8, 0xb6, 0xff, 0xf5, 0xf0, 0xfb, 0x0e, 0x5b,
  0xeb, 0x10, 0x0f, 0xdc, 0xfa, 0x2f, 0xf1, 0xf3, 0x23, 0x22, 0xee, 0x81,
  0x11, 0x06, 0x20, 0xfd, 0xdb, 0x1c, 0xe3, 0xfe, 0x05, 0xec, 0xfb, 0xda,
  0x09, 0xcc, 0xec, 0xfa, 0xee, 0x09, 0xfe, 0xf6, 0x01, 0xfc, 0x37, 0xf0,
  0x06, 0x0a, 0x04, 0x00, 0x02, 0x0a, 0x09, 0xff, 0x08, 0x26, 0xfd, 0x0c,
  0xf4, 0x22, 0xf5, 0x09, 0xfc, 0xfe, 0x07, 0xe7, 0x0f, 0xee, 0xec, 0xf8,
  0x06, 0x0c, 0xfb, 0xef, 0x07, 0xfd, 0x51, 0xff, 0x09, 0xff, 0xf9, 0x01,
  0x0b, 0x0d, 0xff, 0x03, 0x0a, 0x32, 0x26, 0xff, 0xe4, 0x51, 0x01, 0x00,
  0xf1, 0xf1, 0x1c, 0xda, 0x0d, 0x81, 0xdb, 0xf1, 0xcf, 0x30, 0x14, 0xfc,
  0xb7, 0xe7, 0x22, 0x8e, 0xf1, 0xcd, 0xd8, 0x09, 0xfc, 0xfd, 0xad, 0xb5,
  0xde, 0x15, 0x38, 0xe3, 0x17, 0x32, 0x0e, 0xdd, 0x03, 0x00, 0x01, 0x15,
  0x04, 0x02, 0xf7, 0xfd, 0x0b, 0xff, 0x01, 0xfd, 0xff, 0xfd, 0x08, 0x03,
  0x00, 0xf9, 0xfd, 0x01, 0x00, 0x03, 0xfd, 0x00, 0x01, 0x04, 0x05, 0x05,
  0x01, 0x07, 0x01, 0xff, 0x07, 0x07, 0xf9, 0xf9, 0x02, 0xfa, 0xf9, 0x04,
  0x00, 0x04, 0x0a, 0x01, 0x00, 0xfe, 0x0d, 0xfe, 0x00, 0x02, 0x03, 0x02,
  0xe9, 0xfa, 0xfe, 0xff, 0xfe, 0x0c, 0xf5, 0x07, 0xf9, 0x10, 0x04, 0xf8,
  0x07, 0xe5, 0xe7, 0xfd, 0xec, 0x14, 0xf7, 0xef, 0x02, 0xc2, 0x00, 0xe7,
  0xf7, 0xf9, 0x45, 0x08, 0xfb, 0x55, 0xf5, 0x03, 0xbc, 0xe4, 0x04, 0xff,
  0xf3, 0x04, 0xce, 0xfb, 0xdf, 0x01, 0xec, 0x7f, 0xe9, 0xda, 0xfd, 0x03,
  0xe7, 0xcd, 0xc5, 0xfa, 0xe1, 0x01, 0x01, 0xe1, 0x03, 0xbf, 0xc6, 0xda,
  0xf7, 0xfd, 0x01, 0x02, 0xfb, 0xd6, 0xfd, 0xfd, 0xe9, 0x1d, 0xd8, 0x05,
  0x07, 0xb1, 0xf3, 0x07, 0xd7, 0xc8, 0xe6, 0xe4, 0xfa, 0xdd, 0xfa, 0xf7,
  0xf2, 0xff, 0xea, 0xe9, 0xfa, 0xc8, 0xb2, 0xe6, 0xe9, 0x1e, 0xf1, 0xfd,
  0xb9, 0xa4, 0xf0, 0xf7, 0xf4, 0x19, 0xa2, 0x06, 0xc3, 0xa2, 0xe5, 0x02,
  0x31, 0x27, 0x04, 0xda, 0xf8, 0xe3, 0xd4, 0xe4, 0xdc, 0x08, 0xf8, 0x30,
  0xcc, 0xaf, 0x66, 0xa0, 0xef, 0x3d, 0xde, 0x02, 0x62, 0x5b, 0xd2, 0xdf,
  0xba, 0xf9, 0x79, 0xee, 0x28, 0x7f, 0xe1, 0xf9, 0xec, 0xf3, 0xfb, 0xe4,
  0xcf, 0xb7, 0xfe, 0xfa, 0x14, 0x1b, 0x01, 0xb6, 0x15, 0xf7, 0xce, 0xeb,
  0x09, 0xff, 0x06, 0x83, 0x05, 0xda, 0xf4, 0xff, 0x07, 0xfb, 0xeb, 0x03,
  0xdd, 0xd0, 0xc3, 0xf5, 0xcd, 0xb6, 0xf6, 0x09, 0xd6, 0xda, 0xfd, 0x05,
  0x07, 0xfe, 0xf8, 0xd8, 0x0d, 0x0a, 0x9a, 0xf3, 0x02, 0xf6, 0xfe, 0x03,
  0xb3, 0xc1, 0xf7, 0xfb, 0x0f, 0xf6, 0xdf, 0xee, 0xab, 0x9b, 0xec, 0x01,
  0xc5, 0x0c, 0x00, 0x41, 0x7f, 0x81, 0xe0, 0xac, 0xa0, 0xff, 0xc8, 0x4e,
  0x90, 0x02, 0xb3, 0x9c, 0xec, 0x0d, 0xb8, 0xfe, 0x72, 0x31, 0xcd, 0xf5,
  0x17, 0xf9, 0x1b, 0xe5, 0x0a, 0x02, 0xba, 0x14, 0x08, 0x05, 0xfd, 0xff,
  0xe6, 0x00, 0xf6, 0xff, 0xff, 0x0f, 0x01, 0x0d, 0x01, 0xfe, 0x0c, 0xf6,
  0xf9, 0xf8, 0x07, 0x00, 0x04, 0xff, 0xfd, 0x00, 0x07, 0x05, 0xe7, 0x00,
  0x0a, 0x0c, 0x07, 0xff, 0xff, 0x07, 0x02, 0xf7, 0x1d, 0x0b, 0xf5, 0x03,
  0x0e, 0x06, 0xf8, 0xf1, 0x02, 0xe2, 0x0f, 0xfe, 0xfb, 0xee, 0xfc, 0x01,
  0x10, 0xff, 0x02, 0x02, 0x01, 0x04, 0xf0, 0xfe, 0xf3, 0x19, 0x0e, 0x09,
  0xec, 0xdb, 0xbc, 0xfb, 0xcc, 0x02, 0xf5, 0x07, 0x12, 0x09, 0xf2, 0xde,
  0xfe, 0xf6, 0xec, 0xff, 0xf7, 0xe4, 0x0a, 0xb4, 0xcc, 0x81, 0xfa, 0xff,
  0x0c, 0x12, 0xa9, 0xf2, 0xcd, 0xae, 0x15, 0xf6, 0x02, 0xd3, 0x02, 0x0b,
  0x2a, 0x01, 0xf8, 0x04, 0xfc, 0xfd, 0x01, 0x01, 0x04, 0xfb, 0x05, 0x0c,
  0x04, 0xea, 0x03, 0x02, 0x02, 0xf5, 0x02, 0x02, 0x00, 0xeb, 0xf0, 0x02,
  0x19, 0xe9, 0x0f, 0x06, 0x14, 0x81, 0x04, 0x01, 0x2f, 0x05, 0xe5, 0x01,
  0x10, 0xf5, 0xfa, 0xed, 0xf5, 0x03, 0x27, 0x0c, 0xfc, 0x0c, 0xff, 0x03,
  0xf5, 0xfe, 0x0e, 0x01, 0x0a, 0xf2, 0x06, 0xfc, 0x0c, 0xf7, 0xdf, 0x03,
  0xfc, 0xf9, 0xff, 0x05, 0xf6, 0xf8, 0xe3, 0x05, 0x04, 0xfb, 0x06, 0x00,
  0x02, 0xfd, 0xf5, 0x11, 0x02, 0xf5, 0xfa, 0xe3, 0xeb, 0xf9, 0x06, 0xff,
  0x10, 0xf9, 0xe8, 0xff, 0xe7, 0xe9, 0xf5, 0xfc, 0x02, 0xf7, 0xfe, 0x02,
  0x01, 0xfa, 0xfc, 0xfe, 0x06, 0x05, 0xfc, 0xff, 0xfd, 0xff, 0x0c, 0xfc,
  0xfe, 0x05, 0xfc, 0xff, 0xfe, 0x01, 0xfa, 0xff, 0x05, 0xfb, 0xf9, 0xfb,
  0x01, 0x01, 0xf3, 0x03, 0xfb, 0xff, 0xfb, 0xf7, 0x04, 0xf9, 0x00, 0xfd,
  0x09, 0x07, 0xf7, 0xf9, 0xfc, 0xf0, 0x07, 0xf6, 0xff, 0xfb, 0xf8, 0xfe,
  0x01, 0x06, 0xf9, 0x00, 0x05, 0xfe, 0xf0, 0xf5, 0xf5, 0x0a, 0xfd, 0x06,
  0xee, 0x04, 0x0d, 0xf6, 0x05, 0xfa, 0x05, 0xb5, 0x02, 0x09, 0xf0, 0x07,
  0xee, 0x00, 0x0c, 0xef, 0x7d, 0x0d, 0xdc, 0x03, 0x13, 0x03, 0xfa, 0xff,
  0xf2, 0x01, 0x1a, 0x7f, 0x0e, 0x1b, 0x0e, 0x05, 0x02, 0x00, 0xfc, 0xf9,
  0xf0, 0xe4, 0x06, 0xff, 0x0b, 0xfc, 0x01, 0xe2, 0xfc, 0x01, 0xdc, 0xf1,
  0x01, 0xfc, 0xff, 0xff, 0xef, 0xe4, 0xfa, 0x00, 0x11, 0x0d, 0x22, 0x08,
  0xe5, 0xed, 0xe7, 0xfa, 0x04, 0xfe, 0xf9, 0xf8, 0xef, 0x02, 0xfc, 0xf8,
  0xcb, 0x10, 0x0b, 0xec, 0xd8, 0xf7, 0x0d, 0xca, 0xf2, 0x12, 0xa0, 0xfb,
  0xf6, 0xf8, 0x81, 0xed, 0xe1, 0xfa, 0x0e, 0xed, 0xcf, 0x0d, 0x03, 0xf9,
  0xfe, 0xfc, 0xfc, 0x12, 0x03, 0xf6, 0x14, 0x02, 0x04, 0x0b, 0x08, 0x00,
  0x00, 0xfe, 0x15, 0xfe, 0x08, 0x09, 0x07, 0xfe, 0x03, 0x01, 0x01, 0x00,
  0x14, 0x07, 0x1b, 0x16, 0x0a, 0x17, 0x01, 0xff, 0x0d, 0xd9, 0x0b, 0xf2,
  0x0c, 0x0b, 0xc5, 0x08, 0x30, 0xf0, 0x10, 0x22, 0xd4, 0x11, 0x3d, 0xef,
  0xf7, 0x1a, 0x04, 0x06, 0x04, 0xef, 0x03, 0xbb, 0x1d, 0xe8, 0x2d, 0x0d,
  0x23, 0x06, 0xdf, 0x08, 0xea, 0x0e, 0x05, 0x07, 0x21, 0x02, 0xc7, 0x01,
  0x0c, 0xe2, 0xff, 0x16, 0x12, 0xff, 0x0d, 0x06, 0x00, 0x01, 0xf5, 0x01,
  0xeb, 0x00, 0x06, 0xb4, 0x17, 0xed, 0x26, 0x06, 0xee, 0x03, 0x19, 0xfa,
  0xf4, 0x1b, 0x14, 0x16, 0xda, 0xf5, 0x0a, 0x22, 0xc3, 0xe3, 0x7f, 0xde,
  0xe0, 0xfd, 0xf5, 0xec, 0xf7, 0xcf, 0x01, 0xe2, 0xed, 0x12, 0xf4, 0xb7,
  0x72, 0x14, 0xfb, 0xfb, 0xfd, 0x01, 0x3b, 0xec, 0x0a, 0x0d, 0x01, 0xff,
  0xff, 0xf6, 0xfe, 0x0b, 0xf2, 0x07, 0xfd, 0xfa, 0x03, 0x10, 0x0d, 0xf7,
  0x0d, 0xe9, 0xfa, 0x01, 0x0d, 0x02, 0xfb, 0xff, 0xfb, 0x07, 0xea, 0xf6,
  0x06, 0x01, 0x03, 0xfc, 0xfc, 0x08, 0x07, 0xf9, 0x10, 0x05, 0xfc, 0x0c,
  0x07, 0x05, 0xf6, 0x0c, 0xfb, 0xfd, 0x1b, 0xf4, 0x07, 0x0a, 0xed, 0x01,
  0x10, 0x0a, 0xf2, 0x01, 0xf1, 0xff, 0xf1, 0xf2, 0x06, 0x18, 0xfd, 0x08,
  0x04, 0xee, 0xfa, 0xef, 0xe3, 0x09, 0xec, 0x13, 0xf4, 0x05, 0x01, 0xf4,
  0x09, 0xfa, 0xec, 0xfa, 0x01, 0xe9, 0x06, 0x81, 0xd1, 0xee, 0xf4, 0xfb,
  0xfe, 0xf7, 0xb4, 0x08, 0xcd, 0xd0, 0x0b, 0xf8, 0xd1, 0xb3, 0x11, 0xf4,
  0xe1, 0xfc, 0xf8, 0x06, 0xfb, 0x08, 0x14, 0x0b, 0xd5, 0xdc, 0xce, 0xe8,
  0x05, 0x08, 0x0e, 0x01, 0x19, 0x20, 0x11, 0xfe, 0x00, 0x29, 0x1a, 0x0a,
  0x10, 0xfb, 0xb9, 0x00, 0x02, 0x15, 0x23, 0x1a, 0x2a, 0x29, 0xf8, 0xef,
  0xd8, 0x09, 0xf5, 0x46, 0xd6, 0x31, 0x17, 0x02, 0xfc, 0xfe, 0xf4, 0xfd,
  0x11, 0xf9, 0xfa, 0x81, 0xef, 0x07, 0x2a, 0xf7, 0xb1, 0x39, 0xe8, 0x01,
  0xb3, 0xcb, 0xf5, 0x08, 0xd0, 0x19, 0x12, 0xf5, 0x20, 0x19, 0xd8, 0xd1,
  0x0a, 0xf5, 0x02, 0xf1, 0xe8, 0xe5, 0xff, 0x8c, 0xd2, 0xe2, 0xda, 0xb6,
  0xfc, 0xfb, 0xd5, 0x17, 0xe4, 0xb1, 0xf7, 0xfc, 0x12, 0x09, 0x00, 0x02,
  0xff, 0xf2, 0xfb, 0x04, 0xf8, 0xf5, 0x00, 0x0b, 0xf8, 0x15, 0x25, 0xfe,
  0x08, 0x16, 0x01, 0x02, 0xf8, 0x04, 0x09, 0x00, 0xf4, 0xed, 0x00, 0xfa,
  0xf5, 0x01, 0xed, 0x0c, 0xf1, 0x16, 0x03, 0x00, 0x04, 0xf0, 0xfe, 0xf3,
  0x0e, 0xfd, 0xf8, 0x2f, 0x0c, 0x11, 0x1b, 0x1e, 0x07, 0x13, 0xf3, 0x00,
  0xfe, 0x06, 0x07, 0x02, 0x0b, 0xed, 0xf9, 0xf5, 0xfd, 0xff, 0xe1, 0x08,
  0xe7, 0xe1, 0xdf, 0xfc, 0xcf, 0xf4, 0xf3, 0x0b, 0x0b, 0xfc, 0xf6, 0x17,
  0x0b, 0x0c, 0xf5, 0x09, 0xe7, 0xf0, 0xff, 0x94, 0xce, 0xb7, 0xfa, 0xfe,
  0x04, 0xeb, 0xc0, 0xf7, 0x81, 0xb9, 0xfb, 0x03, 0x05, 0x28, 0x02, 0xf9,
  0xe7, 0xca, 0xf3, 0x10, 0x0d, 0x0b, 0x06, 0x0c, 0xfd, 0xc9, 0xe6, 0xd8,
  0x05, 0x12, 0x01, 0x01, 0x0b, 0x04, 0xdd, 0x00, 0xd6, 0x10, 0x1f, 0x00,
  0xf5, 0x18, 0xee, 0xfe, 0x05, 0x15, 0xc2, 0x16, 0x08, 0x06, 0xf1, 0x09,
  0xd2, 0xfe, 0xf6, 0xf4, 0x09, 0x04, 0xf7, 0x04, 0x09, 0x13, 0x08, 0x01,
  0xfd, 0xa7, 0x0b, 0x00, 0x0b, 0xf7, 0x06, 0x01, 0x01, 0xf0, 0xf9, 0xea,
  0xca, 0xfc, 0xf6, 0xfb, 0xb3, 0x05, 0xd9, 0x07, 0x1b, 0xfa, 0xf4, 0xd8,
  0xf6, 0x16, 0xe6, 0x1c, 0x06, 0xcd, 0xf2, 0x05, 0xe4, 0xdb, 0x0f, 0xfa,
  0x1b, 0xe9, 0xf0, 0xf4, 0xcc, 0xcf, 0x81, 0xf9, 0xed, 0x16, 0x04, 0xae,
  0xdf, 0xff, 0x09, 0x06, 0xeb, 0x0d, 0x01, 0xfe, 0xf8, 0xdd, 0x09, 0x0e,
  0x0a, 0xf7, 0xfa, 0xff, 0xf6, 0x22, 0x1c, 0xff, 0xc0, 0x15, 0xf2, 0x07,
  0x15, 0xfd, 0x08, 0xfe, 0x19, 0x1a, 0x07, 0x9d, 0x0d, 0xfd, 0x05, 0xf4,
  0xe3, 0x09, 0xe7, 0xe9, 0xef, 0x35, 0x0e, 0x0b, 0x04, 0x05, 0xeb, 0xff,
  0x00, 0x11, 0x06, 0xff, 0xd4, 0x07, 0xfe, 0xd2, 0x06, 0x12, 0xd8, 0x0c,
  0xd3, 0xc6, 0xe9, 0x04, 0xcd, 0xfe, 0xf9, 0x1b, 0x05, 0xe7, 0xce, 0x16,
  0x18, 0x24, 0xf5, 0xf6, 0xff, 0x17, 0x2e, 0x81, 0xcd, 0xe5, 0xed, 0xfe,
  0x00, 0x07, 0xd4, 0x02, 0xdf, 0xb4, 0xfb, 0xf1, 0x2e, 0xfe, 0xff, 0xff,
  0x04, 0x00, 0x00, 0x00, 0x20, 0x00, 0x00, 0x00, 0x4b, 0x1e, 0x42, 0x56,
  0x27, 0x4f, 0x40, 0x26, 0xf4, 0xeb, 0x45, 0x3c, 0xec, 0x47, 0x3e, 0x61,
  0xfa, 0x80, 0xec, 0xe6, 0xe8, 0xbe, 0x4a, 0x53, 0x5e, 0x26, 0x2a, 0x3b,
  0x7f, 0x54, 0x41, 0x45, 0x5a, 0xfe, 0xff, 0xff, 0x04, 0x00, 0x00, 0x00,
  0x20, 0x00, 0x00, 0x00, 0xdb, 0x38, 0xee, 0xdc, 0xf7, 0xdf, 0xe8, 0xf3,
  0xe2, 0xe5, 0xcf, 0xce, 0xcb, 0xf7, 0xdf, 0xe7, 0xe5, 0x01, 0xf8, 0x7f,
  0xbb, 0xd3, 0xb6, 0xe0, 0x58, 0xf7, 0xdc, 0xb4, 0xec, 0xad, 0xd6, 0xbb,
  0x86, 0xfe, 0xff, 0xff, 0x04, 0x00, 0x00, 0x00, 0x20, 0x00, 0x00, 0x00,
  0x0d, 0xf9, 0xff, 0xe9, 0x0b, 0x1d, 0xe9, 0x1d, 0x48, 0x29, 0xf1, 0x05,
  0x28, 0xf9, 0x07, 0xeb, 0x33, 0x7f, 0x1d, 0x13, 0x35, 0x4e, 0x13, 0xf6,
  0x80, 0xf4, 0xe6, 0x10, 0xeb, 0x0f, 0x09, 0x0c, 0xb2, 0xfe, 0xff, 0xff,
  0x04, 0x00, 0x00, 0x00, 0x40, 0x00, 0x00, 0x00, 0xcf, 0xd2, 0xc9, 0xc9,
  0xb5, 0xcb, 0x92, 0xbe, 0x24, 0x46, 0xda, 0xc4, 0x46, 0xbc, 0xce, 0x81,
  0x71, 0x4e, 0x41, 0x36, 0x46, 0x31, 0xcd, 0xcc, 0xd6, 0x9f, 0xe6, 0xdb,
  0xc2, 0xc0, 0xce, 0xd1, 0xcb, 0xcc, 0xbd, 0xca, 0xb9, 0xca, 0x9e, 0xae,
  0x35, 0x33, 0xbf, 0xcc, 0x3c, 0xba, 0xc1, 0x81, 0x6b, 0x54, 0x3e, 0x3d,
  0x2d, 0x43, 0xbd, 0xca, 0xcc, 0x9d, 0xae, 0xb6, 0xc2, 0xce, 0xca, 0xc3,
  0xfe, 0xfe, 0xff, 0xff, 0x04, 0x00, 0x00, 0x00, 0x08, 0x00, 0x00, 0x00,
  0x71, 0xf5, 0xff, 0xff, 0xf8, 0xf0, 0xff, 0xff, 0x12, 0xff, 0xff, 0xff,
  0x04, 0x00, 0x00, 0x00, 0x0c, 0x00, 0x00, 0x00, 0xff, 0xff, 0xff, 0xff,
  0x80, 0x00, 0x00, 0x00, 0x02, 0x00, 0x00, 0x00, 0x2a, 0xff, 0xff, 0xff,
  0x04, 0x00, 0x00, 0x00, 0x0c, 0x00, 0x00, 0x00, 0xff, 0xff, 0xff, 0xff,
  0x20, 0x00, 0x00, 0x00, 0x20, 0x00, 0x00, 0x00, 0x42, 0xff, 0xff, 0xff,
  0x04, 0x00, 0x00, 0x00, 0x04, 0x00, 0x00, 0x00, 0x04, 0x00, 0x00, 0x00,
  0x52, 0xff, 0xff, 0xff, 0x04, 0x00, 0x00, 0x00, 0x18, 0x00, 0x00, 0x00,
  0x00, 0x00, 0x00, 0x00, 0x00, 0x00, 0x00, 0x00, 0x08, 0x00, 0x00, 0x00,
  0x00, 0x00, 0x00, 0x00, 0x00, 0x00, 0x00, 0x00, 0x00, 0x00, 0x00, 0x00,
  0x76, 0xff, 0xff, 0xff, 0x04, 0x00, 0x00, 0x00, 0x0c, 0x00, 0x00, 0x00,
  0xff, 0xff, 0xff, 0xff, 0x40, 0x00, 0x00, 0x00, 0x20, 0x00, 0x00, 0x00,
  0x8e, 0xff, 0xff, 0xff, 0x04, 0x00, 0x00, 0x00, 0x08, 0x00, 0x00, 0x00,
  0x00, 0x00, 0x00, 0x00, 0x00, 0x00, 0x00, 0x00, 0xa2, 0xff, 0xff, 0xff,
  0x04, 0x00, 0x00, 0x00, 0x04, 0x00, 0x00, 0x00, 0x02, 0x00, 0x00, 0x00,
  0xb2, 0xff, 0xff, 0xff, 0x04, 0x00, 0x00, 0x00, 0x18, 0x00, 0x00, 0x00,
  0x00, 0x00, 0x00, 0x00, 0x00, 0x00, 0x00, 0x00, 0x04, 0x00, 0x00, 0x00,
  0x00, 0x00, 0x00, 0x00, 0x00, 0x00, 0x00, 0x00, 0x00, 0x00, 0x00, 0x00,
  0xd6, 0xff, 0xff, 0xff, 0x04, 0x00, 0x00, 0x00, 0x0c, 0x00, 0x00, 0x00,
  0xff, 0xff, 0xff, 0xff, 0x80, 0x00, 0x00, 0x00, 0x20, 0x00, 0x00, 0x00,
  0xee, 0xff, 0xff, 0xff, 0x04, 0x00, 0x00, 0x00, 0x04, 0x00, 0x00, 0x00,
  0xfd, 0xff, 0xff, 0xff, 0x00, 0x00, 0x06, 0x00, 0x08, 0x00, 0x04, 0x00,
  0x06, 0x00, 0x00, 0x00, 0x04, 0x00, 0x00, 0x00, 0x18, 0x00, 0x00, 0x00,
  0x00, 0x00, 0x00, 0x00, 0x00, 0x00, 0x00, 0x00, 0x02, 0x00, 0x00, 0x00,
  0x00, 0x00, 0x00, 0x00, 0x00, 0x00, 0x00, 0x00, 0x00, 0x00, 0x00, 0x00,
  0x58, 0xd8, 0xff, 0xff, 0x5c, 0xd8, 0xff, 0xff, 0x0f, 0x00, 0x00, 0x00,
  0x4d, 0x4c, 0x49, 0x52, 0x20, 0x43, 0x6f, 0x6e, 0x76, 0x65, 0x72, 0x74,
  0x65, 0x64, 0x2e, 0x00, 0x01, 0x00, 0x00, 0x00, 0x14, 0x00, 0x00, 0x00,
  0x00, 0x00, 0x0e, 0x00, 0x18, 0x00, 0x14, 0x00, 0x10, 0x00, 0x0c, 0x00,
  0x08, 0x00, 0x04, 0x00, 0x0e, 0x00, 0x00, 0x00, 0x14, 0x00, 0x00, 0x00,
  0x1c, 0x00, 0x00, 0x00, 0xa0, 0x05, 0x00, 0x00, 0xa4, 0x05, 0x00, 0x00,
  0xa8, 0x05, 0x00, 0x00, 0x04, 0x00, 0x00, 0x00, 0x6d, 0x61, 0x69, 0x6e,
  0x00, 0x00, 0x00, 0x00, 0x1a, 0x00, 0x00, 0x00, 0x58, 0x05, 0x00, 0x00,
  0x14, 0x05, 0x00, 0x00, 0xb0, 0x04, 0x00, 0x00, 0x88, 0x04, 0x00, 0x00,
  0x4c, 0x04, 0x00, 0x00, 0x20, 0x04, 0x00, 0x00, 0xec, 0x03, 0x00, 0x00,
  0x9c, 0x03, 0x00, 0x00, 0x64, 0x03, 0x00, 0x00, 0x38, 0x03, 0x00, 0x00,
  0x04, 0x03, 0x00, 0x00, 0xd0, 0x02, 0x00, 0x00, 0x90, 0x02, 0x00, 0x00,
  0x60, 0x02, 0x00, 0x00, 0x34, 0x02, 0x00, 0x00, 0x00, 0x02, 0x00, 0x00,
  0xbc, 0x01, 0x00, 0x00, 0x94, 0x01, 0x00, 0x00, 0x68, 0x01, 0x00, 0x00,
  0x34, 0x01, 0x00, 0x00, 0x00, 0x01, 0x00, 0x00, 0xc8, 0x00, 0x00, 0x00,
  0x94, 0x00, 0x00, 0x00, 0x50, 0x00, 0x00, 0x00, 0x2c, 0x00, 0x00, 0x00,
  0x04, 0x00, 0x00, 0x00, 0xde, 0xfb, 0xff, 0xff, 0x0c, 0x00, 0x00, 0x00,
  0x10, 0x00, 0x00, 0x00, 0x03, 0x00, 0x00, 0x00, 0x01, 0x00, 0x00, 0x00,
  0x33, 0x00, 0x00, 0x00, 0x02, 0x00, 0x00, 0x00, 0x32, 0x00, 0x00, 0x00,
  0x0b, 0x00, 0x00, 0x00, 0x02, 0xfc, 0xff, 0xff, 0x0c, 0x00, 0x00, 0x00,
  0x10, 0x00, 0x00, 0x00, 0x08, 0x00, 0x00, 0x00, 0x01, 0x00, 0x00, 0x00,
  0x32, 0x00, 0x00, 0x00, 0x01, 0x00, 0x00, 0x00, 0x31, 0x00, 0x00, 0x00,
  0xa2, 0xfb, 0xff, 0xff, 0x14, 0x00, 0x00, 0x00, 0x00, 0x00, 0x00, 0x01,
  0x1c, 0x00, 0x00, 0x00, 0x20, 0x00, 0x00, 0x00, 0x02, 0x00, 0x00, 0x00,
  0xf2, 0xfc, 0xff, 0xff, 0x01, 0x00, 0x00, 0x00, 0x01, 0x00, 0x00, 0x00,
  0x00, 0x00, 0x00, 0x01, 0x01, 0x00, 0x00, 0x00, 0x31, 0x00, 0x00, 0x00,
  0x03, 0x00, 0x00, 0x00, 0x30, 0x00, 0x00, 0x00, 0x0d, 0x00, 0x00, 0x00,
  0x0c, 0x00, 0x00, 0x00, 0xe2, 0xfb, 0xff, 0xff, 0x14, 0x00, 0x00, 0x00,
  0x00, 0x00, 0x00, 0x34, 0x10, 0x00, 0x00, 0x00, 0x14, 0x00, 0x00, 0x00,
  0x01, 0x00, 0x00, 0x00, 0xb8, 0xd9, 0xff, 0xff, 0x01, 0x00, 0x00, 0x00,
  0x30, 0x00, 0x00, 0x00, 0x02, 0x00, 0x00, 0x00, 0x2f, 0x00, 0x00, 0x00,
  0x02, 0x00, 0x00, 0x00, 0x12, 0xfc, 0xff, 0xff, 0x14, 0x00, 0x00, 0x00,
  0x00, 0x00, 0x00, 0x0b, 0x14, 0x00, 0x00, 0x00, 0x18, 0x00, 0x00, 0x00,
  0x06, 0x00, 0x00, 0x00, 0x5a, 0xfe, 0xff, 0xff, 0x00, 0x00, 0x00, 0x01,
  0x01, 0x00, 0x00, 0x00, 0x2f, 0x00, 0x00, 0x00, 0x02, 0x00, 0x00, 0x00,
  0x2e, 0x00, 0x00, 0x00, 0x0e, 0x00, 0x00, 0x00, 0x46, 0xfc, 0xff, 0xff,
  0x14, 0x00, 0x00, 0x00, 0x00, 0x00, 0x00, 0x15, 0x10, 0x00, 0x00, 0x00,
  0x14, 0x00, 0x00, 0x00, 0x07, 0x00, 0x00, 0x00, 0x1c, 0xda, 0xff, 0xff,
  0x01, 0x00, 0x00, 0x00, 0x2e, 0x00, 0x00, 0x00, 0x02, 0x00, 0x00, 0x00,
  0x2d, 0x00, 0x00, 0x00, 0x0f, 0x00, 0x00, 0x00, 0x76, 0xfc, 0xff, 0xff,
  0x14, 0x00, 0x00, 0x00, 0x00, 0x00, 0x00, 0x0b, 0x10, 0x00, 0x00, 0x00,
  0x14, 0x00, 0x00, 0x00, 0x06, 0x00, 0x00, 0x00, 0x4c, 0xda, 0xff, 0xff,
  0x01, 0x00, 0x00, 0x00, 0x2d, 0x00, 0x00, 0x00, 0x02, 0x00, 0x00, 0x00,
  0x2c, 0x00, 0x00, 0x00, 0x10, 0x00, 0x00, 0x00, 0x26, 0xfd, 0xff, 0xff,
  0x0c, 0x00, 0x00, 0x00, 0x10, 0x00, 0x00, 0x00, 0x05, 0x00, 0x00, 0x00,
  0x01, 0x00, 0x00, 0x00, 0x2c, 0x00, 0x00, 0x00, 0x03, 0x00, 0x00, 0x00,
  0x2b, 0x00, 0x00, 0x00, 0x09, 0x00, 0x00, 0x00, 0x06, 0x00, 0x00, 0x00,
  0x4e, 0xfd, 0xff, 0xff, 0x0c, 0x00, 0x00, 0x00, 0x10, 0x00, 0x00, 0x00,
  0x03, 0x00, 0x00, 0x00, 0x01, 0x00, 0x00, 0x00, 0x2b, 0x00, 0x00, 0x00,
  0x02, 0x00, 0x00, 0x00, 0x2a, 0x00, 0x00, 0x00, 0x0a, 0x00, 0x00, 0x00,
  0xf2, 0xfc, 0xff, 0xff, 0x14, 0x00, 0x00, 0x00, 0x00, 0x00, 0x00, 0x01,
  0x1c, 0x00, 0x00, 0x00, 0x20, 0x00, 0x00, 0x00, 0x02, 0x00, 0x00, 0x00,
  0x42, 0xfe, 0xff, 0xff, 0x01, 0x00, 0x00, 0x00, 0x01, 0x00, 0x00, 0x00,
  0x00, 0x00, 0x00, 0x01, 0x01, 0x00, 0x00, 0x00, 0x2a, 0x00, 0x00, 0x00,
  0x03, 0x00, 0x00, 0x00, 0x29, 0x00, 0x00, 0x00, 0x11, 0x00, 0x00, 0x00,
  0x16, 0x00, 0x00, 0x00, 0x32, 0xfd, 0xff, 0xff, 0x14, 0x00, 0x00, 0x00,
  0x00, 0x00, 0x00, 0x34, 0x10, 0x00, 0x00, 0x00, 0x14, 0x00, 0x00, 0x00,
  0x01, 0x00, 0x00, 0x00, 0x08, 0xdb, 0xff, 0xff, 0x01, 0x00, 0x00, 0x00,
  0x29, 0x00, 0x00, 0x00, 0x02, 0x00, 0x00, 0x00, 0x28, 0x00, 0x00, 0x00,
  0x02, 0x00, 0x00, 0x00, 0xe2, 0xfd, 0xff, 0xff, 0x0c, 0x00, 0x00, 0x00,
  0x10, 0x00, 0x00, 0x00, 0x04, 0x00, 0x00, 0x00, 0x01, 0x00, 0x00, 0x00,
  0x28, 0x00, 0x00, 0x00, 0x03, 0x00, 0x00, 0x00, 0x27, 0x00, 0x00, 0x00,
  0x09, 0x00, 0x00, 0x00, 0x06, 0x00, 0x00, 0x00, 0x4a, 0xfd, 0xff, 0xff,
  0x10, 0x00, 0x00, 0x00, 0x00, 0x00, 0x00, 0x16, 0x0c, 0x00, 0x00, 0x00,
  0x10, 0x00, 0x00, 0x00, 0x5c, 0xdb, 0xff, 0xff, 0x01, 0x00, 0x00, 0x00,
  0x27, 0x00, 0x00, 0x00, 0x02, 0x00, 0x00, 0x00, 0x26, 0x00, 0x00, 0x00,
  0x08, 0x00, 0x00, 0x00, 0x16, 0xff, 0xff, 0xff, 0x1c, 0x00, 0x00, 0x00,
  0x00, 0x00, 0x00, 0x0b, 0x1c, 0x00, 0x00, 0x00, 0x20, 0x00, 0x00, 0x00,
  0x06, 0x00, 0x00, 0x00, 0x00, 0x00, 0x06, 0x00, 0x08, 0x00, 0x07, 0x00,
  0x06, 0x00, 0x00, 0x00, 0x00, 0x00, 0x00, 0x01, 0x01, 0x00, 0x00, 0x00,
  0x26, 0x00, 0x00, 0x00, 0x02, 0x00, 0x00, 0x00, 0x25, 0x00, 0x00, 0x00,
  0x12, 0x00, 0x00, 0x00, 0xf2, 0xfd, 0xff, 0xff, 0x14, 0x00, 0x00, 0x00,
  0x00, 0x00, 0x00, 0x15, 0x10, 0x00, 0x00, 0x00, 0x14, 0x00, 0x00, 0x00,
  0x07, 0x00, 0x00, 0x00, 0xc8, 0xdb, 0xff, 0xff, 0x01, 0x00, 0x00, 0x00,
  0x25, 0x00, 0x00, 0x00, 0x02, 0x00, 0x00, 0x00, 0x24, 0x00, 0x00, 0x00,
  0x13, 0x00, 0x00, 0x00, 0x22, 0xfe, 0xff, 0xff, 0x14, 0x00, 0x00, 0x00,
  0x00, 0x00, 0x00, 0x0b, 0x10, 0x00, 0x00, 0x00, 0x14, 0x00, 0x00, 0x00,
  0x06, 0x00, 0x00, 0x00, 0xf8, 0xdb, 0xff, 0xff, 0x01, 0x00, 0x00, 0x00,
  0x24, 0x00, 0x00, 0x00, 0x02, 0x00, 0x00, 0x00, 0x23, 0x00, 0x00, 0x00,
  0x14, 0x00, 0x00, 0x00, 0xd2, 0xfe, 0xff, 0xff, 0x0c, 0x00, 0x00, 0x00,
  0x10, 0x00, 0x00, 0x00, 0x05, 0x00, 0x00, 0x00, 0x01, 0x00, 0x00, 0x00,
  0x23, 0x00, 0x00, 0x00, 0x03, 0x00, 0x00, 0x00, 0x22, 0x00, 0x00, 0x00,
  0x05, 0x00, 0x00, 0x00, 0x06, 0x00, 0x00, 0x00, 0xfa, 0xfe, 0xff, 0xff,
  0x0c, 0x00, 0x00, 0x00, 0x10, 0x00, 0x00, 0x00, 0x03, 0x00, 0x00, 0x00,
  0x01, 0x00, 0x00, 0x00, 0x22, 0x00, 0x00, 0x00, 0x02, 0x00, 0x00, 0x00,
  0x21, 0x00, 0x00, 0x00, 0x07, 0x00, 0x00, 0x00, 0x00, 0x00, 0x0e, 0x00,
  0x1a, 0x00, 0x14, 0x00, 0x10, 0x00, 0x0c, 0x00, 0x0b, 0x00, 0x04, 0x00,
  0x0e, 0x00, 0x00, 0x00, 0x20, 0x00, 0x00, 0x00, 0x00, 0x00, 0x00, 0x01,
  0x28, 0x00, 0x00, 0x00, 0x2c, 0x00, 0x00, 0x00, 0x02, 0x00, 0x00, 0x00,
  0x00, 0x00, 0x0a, 0x00, 0x10, 0x00, 0x0f, 0x00, 0x08, 0x00, 0x04, 0x00,
  0x0a, 0x00, 0x00, 0x00, 0x01, 0x00, 0x00, 0x00, 0x01, 0x00, 0x00, 0x00,
  0x00, 0x00, 0x00, 0x01, 0x01, 0x00, 0x00, 0x00, 0x21, 0x00, 0x00, 0x00,
  0x03, 0x00, 0x00, 0x00, 0x20, 0x00, 0x00, 0x00, 0x17, 0x00, 0x00, 0x00,
  0x15, 0x00, 0x00, 0x00, 0xfa, 0xfe, 0xff, 0xff, 0x14, 0x00, 0x00, 0x00,
  0x00, 0x00, 0x00, 0x34, 0x10, 0x00, 0x00, 0x00, 0x14, 0x00, 0x00, 0x00,
  0x01, 0x00, 0x00, 0x00, 0xd0, 0xdc, 0xff, 0xff, 0x01, 0x00, 0x00, 0x00,
  0x20, 0x00, 0x00, 0x00, 0x02, 0x00, 0x00, 0x00, 0x1f, 0x00, 0x00, 0x00,
  0x02, 0x00, 0x00, 0x00, 0xaa, 0xff, 0xff, 0xff, 0x0c, 0x00, 0x00, 0x00,
  0x10, 0x00, 0x00, 0x00, 0x04, 0x00, 0x00, 0x00, 0x01, 0x00, 0x00, 0x00,
  0x1f, 0x00, 0x00, 0x00, 0x03, 0x00, 0x00, 0x00, 0x1e, 0x00, 0x00, 0x00,
  0x05, 0x00, 0x00, 0x00, 0x06, 0x00, 0x00, 0x00, 0x12, 0xff, 0xff, 0xff,
  0x10, 0x00, 0x00, 0x00, 0x00, 0x00, 0x00, 0x16, 0x0c, 0x00, 0x00, 0x00,
  0x10, 0x00, 0x00, 0x00, 0x24, 0xdd, 0xff, 0xff, 0x01, 0x00, 0x00, 0x00,
  0x1e, 0x00, 0x00, 0x00, 0x02, 0x00, 0x00, 0x00, 0x1d, 0x00, 0x00, 0x00,
  0x04, 0x00, 0x00, 0x00, 0x00, 0x00, 0x0a, 0x00, 0x10, 0x00, 0x0c, 0x00,
  0x08, 0x00, 0x04, 0x00, 0x0a, 0x00, 0x00, 0x00, 0x0c, 0x00, 0x00, 0x00,
  0x10, 0x00, 0x00, 0x00, 0x03, 0x00, 0x00, 0x00, 0x01, 0x00, 0x00, 0x00,
  0x1d, 0x00, 0x00, 0x00, 0x02, 0x00, 0x00, 0x00, 0x1c, 0x00, 0x00, 0x00,
  0x03, 0x00, 0x00, 0x00, 0xae, 0xff, 0xff, 0xff, 0x20, 0x00, 0x00, 0x00,
  0x00, 0x00, 0x00, 0x01, 0x2c, 0x00, 0x00, 0x00, 0x30, 0x00, 0x00, 0x00,
  0x02, 0x00, 0x00, 0x00, 0x0c, 0x00, 0x14, 0x00, 0x13, 0x00, 0x0c, 0x00,
  0x08, 0x00, 0x07, 0x00, 0x0c, 0x00, 0x00, 0x00, 0x00, 0x00, 0x00, 0x01,
  0x01, 0x00, 0x00, 0x00, 0x01, 0x00, 0x00, 0x00, 0x00, 0x00, 0x00, 0x01,
  0x01, 0x00, 0x00, 0x00, 0x1c, 0x00, 0x00, 0x00, 0x03, 0x00, 0x00, 0x00,
  0x1b, 0x00, 0x00, 0x00, 0x19, 0x00, 0x00, 0x00, 0x18, 0x00, 0x00, 0x00,
  0x00, 0x00, 0x0e, 0x00, 0x18, 0x00, 0x14, 0x00, 0x10, 0x00, 0x0c, 0x00,
  0x0b, 0x00, 0x04, 0x00, 0x0e, 0x00, 0x00, 0x00, 0x14, 0x00, 0x00, 0x00,
  0x00, 0x00, 0x00, 0x34, 0x10, 0x00, 0x00, 0x00, 0x14, 0x00, 0x00, 0x00,
  0x01, 0x00, 0x00, 0x00, 0xe4, 0xdd, 0xff, 0xff, 0x01, 0x00, 0x00, 0x00,
  0x1b, 0x00, 0x00, 0x00, 0x02, 0x00, 0x00, 0x00, 0x1a, 0x00, 0x00, 0x00,
  0x02, 0x00, 0x00, 0x00, 0x00, 0x00, 0x0e, 0x00, 0x14, 0x00, 0x00, 0x00,
  0x10, 0x00, 0x0c, 0x00, 0x0b, 0x00, 0x04, 0x00, 0x0e, 0x00, 0x00, 0x00,
  0x10, 0x00, 0x00, 0x00, 0x00, 0x00, 0x00, 0x16, 0x0c, 0x00, 0x00, 0x00,
  0x10, 0x00, 0x00, 0x00, 0x20, 0xde, 0xff, 0xff, 0x01, 0x00, 0x00, 0x00,
  0x1a, 0x00, 0x00, 0x00, 0x02, 0x00, 0x00, 0x00, 0x00, 0x00, 0x00, 0x00,
  0x01, 0x00, 0x00, 0x00, 0x01, 0x00, 0x00, 0x00, 0x33, 0x00, 0x00, 0x00,
  0x01, 0x00, 0x00, 0x00, 0x00, 0x00, 0x00, 0x00, 0x34, 0x00, 0x00, 0x00,
  0xf4, 0x21, 0x00, 0x00, 0x94, 0x21, 0x00, 0x00, 0x40, 0x21, 0x00, 0x00,
  0x00, 0x21, 0x00, 0x00, 0xbc, 0x20, 0x00, 0x00, 0x7c, 0x20, 0x00, 0x00,
  0x38, 0x20, 0x00, 0x00, 0xf8, 0x1f, 0x00, 0x00, 0xb4, 0x1f, 0x00, 0x00,
  0x74, 0x1f, 0x00, 0x00, 0x34, 0x1f, 0x00, 0x00, 0xf0, 0x1e, 0x00, 0x00,
  0x84, 0x1e, 0x00, 0x00, 0x08, 0x1e, 0x00, 0x00, 0xa4, 0x1d, 0x00, 0x00,
  0x40, 0x1d, 0x00, 0x00, 0xdc, 0x1c, 0x00, 0x00, 0xf8, 0x1a, 0x00, 0x00,
  0x94, 0x1a, 0x00, 0x00, 0x30, 0x1a, 0x00, 0x00, 0xcc, 0x19, 0x00, 0x00,
  0xf8, 0x17, 0x00, 0x00, 0x24, 0x16, 0x00, 0x00, 0x40, 0x14, 0x00, 0x00,
  0x6c, 0x12, 0x00, 0x00, 0x88, 0x10, 0x00, 0x00, 0x00, 0x10, 0x00, 0x00,
  0x68, 0x0f, 0x00, 0x00, 0x1c, 0x0e, 0x00, 0x00, 0xf4, 0x0c, 0x00, 0x00,
  0x68, 0x0c, 0x00, 0x00, 0xd4, 0x0b, 0x00, 0x00, 0x3c, 0x0b, 0x00, 0x00,
  0xb0, 0x0a, 0x00, 0x00, 0x20, 0x0a, 0x00, 0x00, 0x8c, 0x09, 0x00, 0x00,
  0x08, 0x09, 0x00, 0x00, 0x7c, 0x08, 0x00, 0x00, 0xe0, 0x07, 0x00, 0x00,
  0x54, 0x07, 0x00, 0x00, 0xc0, 0x06, 0x00, 0x00, 0x28, 0x06, 0x00, 0x00,
  0x9c, 0x05, 0x00, 0x00, 0x0c, 0x05, 0x00, 0x00, 0x78, 0x04, 0x00, 0x00,
  0xf4, 0x03, 0x00, 0x00, 0x68, 0x03, 0x00, 0x00, 0xcc, 0x02, 0x00, 0x00,
  0x34, 0x02, 0x00, 0x00, 0x60, 0x01, 0x00, 0x00, 0x8c, 0x00, 0x00, 0x00,
  0x04, 0x00, 0x00, 0x00, 0xf2, 0xde, 0xff, 0xff, 0x00, 0x00, 0x00, 0x01,
  0x18, 0x00, 0x00, 0x00, 0x24, 0x00, 0x00, 0x00, 0x44, 0x00, 0x00, 0x00,
  0x34, 0x00, 0x00, 0x00, 0x00, 0x00, 0x00, 0x09, 0x58, 0x00, 0x00, 0x00,
  0x03, 0x00, 0x00, 0x00, 0xff, 0xff, 0xff, 0xff, 0x80, 0x00, 0x00, 0x00,
  0x02, 0x00, 0x00, 0x00, 0xdc, 0xde, 0xff, 0xff, 0x08, 0x00, 0x00, 0x00,
  0x14, 0x00, 0x00, 0x00, 0x01, 0x00, 0x00, 0x00, 0x80, 0xff, 0xff, 0xff,
  0xff, 0xff, 0xff, 0xff, 0x00, 0x00, 0x00, 0x00, 0x01, 0x00, 0x00, 0x00,
  0x00, 0x00, 0x80, 0x3b, 0x19, 0x00, 0x00, 0x00, 0x53, 0x74, 0x61, 0x74,
  0x65, 0x66, 0x75, 0x6c, 0x50, 0x61, 0x72, 0x74, 0x69, 0x74, 0x69, 0x6f,
  0x6e, 0x65, 0x64, 0x43, 0x61, 0x6c, 0x6c, 0x3a, 0x30, 0x00, 0x00, 0x00,
  0x03, 0x00, 0x00, 0x00, 0x01, 0x00, 0x00, 0x00, 0x80, 0x00, 0x00, 0x00,
  0x02, 0x00, 0x00, 0x00, 0x76, 0xdf, 0xff, 0xff, 0x00, 0x00, 0x00, 0x01,
  0x18, 0x00, 0x00, 0x00, 0x28, 0x00, 0x00, 0x00, 0x48, 0x00, 0x00, 0x00,
  0x33, 0x00, 0x00, 0x00, 0x00, 0x00, 0x00, 0x09, 0xa0, 0x00, 0x00, 0x00,
  0x04, 0x00, 0x00, 0x00, 0xff, 0xff, 0xff, 0xff, 0x01, 0x00, 0x00, 0x00,
  0x80, 0x00, 0x00, 0x00, 0x02, 0x00, 0x00, 0x00, 0x64, 0xdf, 0xff, 0xff,
  0x08, 0x00, 0x00, 0x00, 0x14, 0x00, 0x00, 0x00, 0x01, 0x00, 0x00, 0x00,
  0x80, 0xff, 0xff, 0xff, 0xff, 0xff, 0xff, 0xff, 0x00, 0x00, 0x00, 0x00,
  0x01, 0x00, 0x00, 0x00, 0x00, 0x00, 0x80, 0x3b, 0x5e, 0x00, 0x00, 0x00,
  0x62, 0x65, 0x61, 0x74, 0x5f, 0x63, 0x6e, 0x6e, 0x2f, 0x6f, 0x75, 0x74,
  0x70, 0x75, 0x74, 0x5f, 0x63, 0x6f, 0x6e, 0x76, 0x2f, 0x53, 0x69, 0x67,
  0x6d, 0x6f, 0x69, 0x64, 0x3b, 0x62, 0x65, 0x61, 0x74, 0x5f, 0x63, 0x6e,
  0x6e, 0x2f, 0x6f, 0x75, 0x74, 0x70, 0x75, 0x74, 0x5f, 0x63, 0x6f, 0x6e,
  0x76, 0x2f, 0x42, 0x69, 0x61, 0x73, 0x41, 0x64, 0x64, 0x3b, 0x62, 0x65,
  0x61, 0x74, 0x5f, 0x63, 0x6e, 0x6e, 0x2f, 0x6f, 0x75, 0x74, 0x70, 0x75,
  0x74, 0x5f, 0x63, 0x6f, 0x6e, 0x76, 0x2f, 0x43, 0x6f, 0x6e, 0x76, 0x31,
  0x44, 0x2f, 0x53, 0x71, 0x75, 0x65, 0x65, 0x7a, 0x65, 0x3b, 0x00, 0x00,
  0x04, 0x00, 0x00, 0x00, 0x01, 0x00, 0x00, 0x00, 0x01, 0x00, 0x00, 0x00,
  0x80, 0x00, 0x00, 0x00, 0x02, 0x00, 0x00, 0x00, 0x46, 0xe0, 0xff, 0xff,
  0x00, 0x00, 0x00, 0x01, 0x18, 0x00, 0x00, 0x00, 0x28, 0x00, 0x00, 0x00,
  0x48, 0x00, 0x00, 0x00, 0x32, 0x00, 0x00, 0x00, 0x00, 0x00, 0x00, 0x09,
  0xa0, 0x00, 0x00, 0x00, 0x04, 0x00, 0x00, 0x00, 0xff, 0xff, 0xff, 0xff,
  0x01, 0x00, 0x00, 0x00, 0x80, 0x00, 0x00, 0x00, 0x02, 0x00, 0x00, 0x00,
  0x34, 0xe0, 0xff, 0xff, 0x08, 0x00, 0x00, 0x00, 0x14, 0x00, 0x00, 0x00,
  0x01, 0x00, 0x00, 0x00, 0x0f, 0x00, 0x00, 0x00, 0x00, 0x00, 0x00, 0x00,
  0x00, 0x00, 0x00, 0x00, 0x01, 0x00, 0x00, 0x00, 0xd0, 0x8a, 0xe6, 0x3c,
  0x5d, 0x00, 0x00, 0x00, 0x62, 0x65, 0x61, 0x74, 0x5f, 0x63, 0x6e, 0x6e,
  0x2f, 0x6f, 0x75, 0x74, 0x70, 0x75, 0x74, 0x5f, 0x63, 0x6f, 0x6e, 0x76,
  0x2f, 0x42, 0x69, 0x61, 0x73, 0x41, 0x64, 0x64, 0x3b, 0x62, 0x65, 0x61,
  0x74, 0x5f, 0x63, 0x6e, 0x6e, 0x2f, 0x6f, 0x75, 0x74, 0x70, 0x75, 0x74,
  0x5f, 0x63, 0x6f, 0x6e, 0x76, 0x2f, 0x43, 0x6f, 0x6e, 0x76, 0x31, 0x44,
  0x2f, 0x53, 0x71, 0x75, 0x65, 0x65, 0x7a, 0x65, 0x3b, 0x3b, 0x62, 0x65,
  0x61, 0x74, 0x5f, 0x63, 0x6e, 0x6e, 0x2f, 0x6f, 0x75, 0x74, 0x70, 0x75,
  0x74, 0x5f, 0x63, 0x6f, 0x6e, 0x76, 0x2f, 0x43, 0x6f, 0x6e, 0x76, 0x31,
  0x44, 0x00, 0x00, 0x00, 0x04, 0x00, 0x00, 0x00, 0x01, 0x00, 0x00, 0x00,
  0x01, 0x00, 0x00, 0x00, 0x80, 0x00, 0x00, 0x00, 0x02, 0x00, 0x00, 0x00,
  0x16, 0xe1, 0xff, 0xff, 0x00, 0x00, 0x00, 0x01, 0x18, 0x00, 0x00, 0x00,
  0x28, 0x00, 0x00, 0x00, 0x44, 0x00, 0x00, 0x00, 0x31, 0x00, 0x00, 0x00,
  0x00, 0x00, 0x00, 0x09, 0x64, 0x00, 0x00, 0x00, 0x04, 0x00, 0x00, 0x00,
  0xff, 0xff, 0xff, 0xff, 0x01, 0x00, 0x00, 0x00, 0x80, 0x00, 0x00, 0x00,
  0x20, 0x00, 0x00, 0x00, 0x04, 0xe1, 0xff, 0xff, 0x08, 0x00, 0x00, 0x00,
  0x10, 0x00, 0x00, 0x00, 0x01, 0x00, 0x00, 0x00, 0x80, 0xff, 0xff, 0xff,
  0xff, 0xff, 0xff, 0xff, 0x01, 0x00, 0x00, 0x00, 0x0a, 0x21, 0x93, 0x3c,
  0x26, 0x00, 0x00, 0x00, 0x62, 0x65, 0x61, 0x74, 0x5f, 0x63, 0x6e, 0x6e,
  0x2f, 0x6f, 0x75, 0x74, 0x70, 0x75, 0x74, 0x5f, 0x63, 0x6f, 0x6e, 0x76,
  0x2f, 0x43, 0x6f, 0x6e, 0x76, 0x31, 0x44, 0x2f, 0x45, 0x78, 0x70, 0x61,
  0x6e, 0x64, 0x44, 0x69, 0x6d, 0x73, 0x00, 0x00, 0x04, 0x00, 0x00, 0x00,
  0x01, 0x00, 0x00, 0x00, 0x01, 0x00, 0x00, 0x00, 0x80, 0x00, 0x00, 0x00,
  0x20, 0x00, 0x00, 0x00, 0xaa, 0xe1, 0xff, 0xff, 0x00, 0x00, 0x00, 0x01,
  0x18, 0x00, 0x00, 0x00, 0x24, 0x00, 0x00, 0x00, 0x40, 0x00, 0x00, 0x00,
  0x30, 0x00, 0x00, 0x00, 0x00, 0x00, 0x00, 0x09, 0x6c, 0x00, 0x00, 0x00,
  0x03, 0x00, 0x00, 0x00, 0xff, 0xff, 0xff, 0xff, 0x80, 0x00, 0x00, 0x00,
  0x20, 0x00, 0x00, 0x00, 0x94, 0xe1, 0xff, 0xff, 0x08, 0x00, 0x00, 0x00,
  0x10, 0x00, 0x00, 0x00, 0x01, 0x00, 0x00, 0x00, 0x80, 0xff, 0xff, 0xff,
  0xff, 0xff, 0xff, 0xff, 0x01, 0x00, 0x00, 0x00, 0x0a, 0x21, 0x93, 0x3c,
  0x30, 0x00, 0x00, 0x00, 0x62, 0x65, 0x61, 0x74, 0x5f, 0x63, 0x6e, 0x6e,
  0x2f, 0x72, 0x65, 0x6c, 0x75, 0x33, 0x2f, 0x52, 0x65, 0x6c, 0x75, 0x3b,
  0x62, 0x65, 0x61, 0x74, 0x5f, 0x63, 0x6e, 0x6e, 0x2f, 0x62, 0x6e, 0x33,
  0x2f, 0x62, 0x61, 0x74, 0x63, 0x68, 0x6e, 0x6f, 0x72, 0x6d, 0x2f, 0x61,
  0x64, 0x64, 0x5f, 0x31, 0x00, 0x00, 0x00, 0x00, 0x03, 0x00, 0x00, 0x00,
  0x01, 0x00, 0x00, 0x00, 0x80, 0x00, 0x00, 0x00, 0x20, 0x00, 0x00, 0x00,
  0x42, 0xe2, 0xff, 0xff, 0x00, 0x00, 0x00, 0x01, 0x18, 0x00, 0x00, 0x00,
  0x24, 0x00, 0x00, 0x00, 0x44, 0x00, 0x00, 0x00, 0x2f, 0x00, 0x00, 0x00,
  0x00, 0x00, 0x00, 0x09, 0x5c, 0x00, 0x00, 0x00, 0x03, 0x00, 0x00, 0x00,
  0xff, 0xff, 0xff, 0xff, 0x80, 0x00, 0x00, 0x00, 0x20, 0x00, 0x00, 0x00,
  0x2c, 0xe2, 0xff, 0xff, 0x08, 0x00, 0x00, 0x00, 0x14, 0x00, 0x00, 0x00,
  0x01, 0x00, 0x00, 0x00, 0x3a, 0x00, 0x00, 0x00, 0x00, 0x00, 0x00, 0x00,
  0x00, 0x00, 0x00, 0x00, 0x01, 0x00, 0x00, 0x00, 0xad, 0xfe, 0x86, 0x3d,
  0x1c, 0x00, 0x00, 0x00, 0x62, 0x65, 0x61, 0x74, 0x5f, 0x63, 0x6e, 0x6e,
  0x2f, 0x62, 0x6e, 0x33, 0x2f, 0x62, 0x61, 0x74, 0x63, 0x68, 0x6e, 0x6f,
  0x72, 0x6d, 0x2f, 0x6d, 0x75, 0x6c, 0x5f, 0x31, 0x00, 0x00, 0x00, 0x00,
  0x03, 0x00, 0x00, 0x00, 0x01, 0x00, 0x00, 0x00, 0x80, 0x00, 0x00, 0x00,
  0x20, 0x00, 0x00, 0x00, 0xca, 0xe2, 0xff, 0xff, 0x00, 0x00, 0x00, 0x01,
  0x18, 0x00, 0x00, 0x00, 0x24, 0x00, 0x00, 0x00, 0x40, 0x00, 0x00, 0x00,
  0x2e, 0x00, 0x00, 0x00, 0x00, 0x00, 0x00, 0x09, 0x54, 0x00, 0x00, 0x00,
  0x03, 0x00, 0x00, 0x00, 0xff, 0xff, 0xff, 0xff, 0x80, 0x00, 0x00, 0x00,
  0x20, 0x00, 0x00, 0x00, 0xb4, 0xe2, 0xff, 0xff, 0x08, 0x00, 0x00, 0x00,
  0x10, 0x00, 0x00, 0x00, 0x01, 0x00, 0x00, 0x00, 0x49, 0x00, 0x00, 0x00,
  0x00, 0x00, 0x00, 0x00, 0x01, 0x00, 0x00, 0x00, 0x32, 0xe8, 0xbd, 0x3e,
  0x19, 0x00, 0x00, 0x00, 0x62, 0x65, 0x61, 0x74, 0x5f, 0x63, 0x6e, 0x6e,
  0x2f, 0x63, 0x6f, 0x6e, 0x76, 0x33, 0x5f, 0x64, 0x34, 0x2f, 0x42, 0x69,
  0x61, 0x73, 0x41, 0x64, 0x64, 0x00, 0x00, 0x00, 0x03, 0x00, 0x00, 0x00,
  0x01, 0x00, 0x00, 0x00, 0x80, 0x00, 0x00, 0x00, 0x20, 0x00, 0x00, 0x00,
  0x4a, 0xe3, 0xff, 0xff, 0x00, 0x00, 0x00, 0x01, 0x18, 0x00, 0x00, 0x00,
  0x24, 0x00, 0x00, 0x00, 0x44, 0x00, 0x00, 0x00, 0x2d, 0x00, 0x00, 0x00,
  0x00, 0x00, 0x00, 0x09, 0x64, 0x00, 0x00, 0x00, 0x03, 0x00, 0x00, 0x00,
  0xff, 0xff, 0xff, 0xff, 0x80, 0x00, 0x00, 0x00, 0x20, 0x00, 0x00, 0x00,
  0x34, 0xe3, 0xff, 0xff, 0x08, 0x00, 0x00, 0x00, 0x14, 0x00, 0x00, 0x00,
  0x01, 0x00, 0x00, 0x00, 0x47, 0x00, 0x00, 0x00, 0x00, 0x00, 0x00, 0x00,
  0x00, 0x00, 0x00, 0x00, 0x01, 0x00, 0x00, 0x00, 0xf0, 0x09, 0xc2, 0x3e,
  0x27, 0x00, 0x00, 0x00, 0x62, 0x65, 0x61, 0x74, 0x5f, 0x63, 0x6e, 0x6e,
  0x2f, 0x63, 0x6f, 0x6e, 0x76, 0x33, 0x5f, 0x64, 0x34, 0x2f, 0x43, 0x6f,
  0x6e, 0x76, 0x31, 0x44, 0x2f, 0x42, 0x61, 0x74, 0x63, 0x68, 0x54, 0x6f,
  0x53, 0x70, 0x61, 0x63, 0x65, 0x4e, 0x44, 0x00, 0x03, 0x00, 0x00, 0x00,
  0x01, 0x00, 0x00, 0x00, 0x80, 0x00, 0x00, 0x00, 0x20, 0x00, 0x00, 0x00,
  0xda, 0xe3, 0xff, 0xff, 0x00, 0x00, 0x00, 0x01, 0x18, 0x00, 0x00, 0x00,
  0x24, 0x00, 0x00, 0x00, 0x44, 0x00, 0x00, 0x00, 0x2c, 0x00, 0x00, 0x00,
  0x00, 0x00, 0x00, 0x09, 0x60, 0x00, 0x00, 0x00, 0x03, 0x00, 0x00, 0x00,
  0xff, 0xff, 0xff, 0xff, 0x20, 0x00, 0x00, 0x00, 0x20, 0x00, 0x00, 0x00,
  0xc4, 0xe3, 0xff, 0xff, 0x08, 0x00, 0x00, 0x00, 0x14, 0x00, 0x00, 0x00,
  0x01, 0x00, 0x00, 0x00, 0x47, 0x00, 0x00, 0x00, 0x00, 0x00, 0x00, 0x00,
  0x00, 0x00, 0x00, 0x00, 0x01, 0x00, 0x00, 0x00, 0xf0, 0x09, 0xc2, 0x3e,
  0x20, 0x00, 0x00, 0x00, 0x62, 0x65, 0x61, 0x74, 0x5f, 0x63, 0x6e, 0x6e,
  0x2f, 0x63, 0x6f, 0x6e, 0x76, 0x33, 0x5f, 0x64, 0x34, 0x2f, 0x43, 0x6f,
  0x6e, 0x76, 0x31, 0x44, 0x2f, 0x53, 0x71, 0x75, 0x65, 0x65, 0x7a, 0x65,
  0x00, 0x00, 0x00, 0x00, 0x03, 0x00, 0x00, 0x00, 0x01, 0x00, 0x00, 0x00,
  0x20, 0x00, 0x00, 0x00, 0x20, 0x00, 0x00, 0x00, 0x66, 0xe4, 0xff, 0xff,
  0x00, 0x00, 0x00, 0x01, 0x18, 0x00, 0x00, 0x00, 0x28, 0x00, 0x00, 0x00,
  0x44, 0x00, 0x00, 0x00, 0x2b, 0x00, 0x00, 0x00, 0x00, 0x00, 0x00, 0x09,
  0x58, 0x00, 0x00, 0x00, 0x04, 0x00, 0x00, 0x00, 0xff, 0xff, 0xff, 0xff,
  0x01, 0x00, 0x00, 0x00, 0x20, 0x00, 0x00, 0x00, 0x20, 0x00, 0x00, 0x00,
  0x54, 0xe4, 0xff, 0xff, 0x08, 0x00, 0x00, 0x00, 0x10, 0x00, 0x00, 0x00,
  0x01, 0x00, 0x00, 0x00, 0x47, 0x00, 0x00, 0x00, 0x00, 0x00, 0x00, 0x00,
  0x01, 0x00, 0x00, 0x00, 0xf0, 0x09, 0xc2, 0x3e, 0x18, 0x00, 0x00, 0x00,
  0x62, 0x65, 0x61, 0x74, 0x5f, 0x63, 0x6e, 0x6e, 0x2f, 0x63, 0x6f, 0x6e,
  0x76, 0x33, 0x5f, 0x64, 0x34, 0x2f, 0x43, 0x6f, 0x6e, 0x76, 0x31, 0x44,
  0x00, 0x00, 0x00, 0x00, 0x04, 0x00, 0x00, 0x00, 0x01, 0x00, 0x00, 0x00,
  0x01, 0x00, 0x00, 0x00, 0x20, 0x00, 0x00, 0x00, 0x20, 0x00, 0x00, 0x00,
  0xee, 0xe4, 0xff, 0xff, 0x00, 0x00, 0x00, 0x01, 0x18, 0x00, 0x00, 0x00,
  0x28, 0x00, 0x00, 0x00, 0x48, 0x00, 0x00, 0x00, 0x2a, 0x00, 0x00, 0x00,
  0x00, 0x00, 0x00, 0x09, 0x64, 0x00, 0x00, 0x00, 0x04, 0x00, 0x00, 0x00,
  0xff, 0xff, 0xff, 0xff, 0x01, 0x00, 0x00, 0x00, 0x22, 0x00, 0x00, 0x00,
  0x20, 0x00, 0x00, 0x00, 0xdc, 0xe4, 0xff, 0xff, 0x08, 0x00, 0x00, 0x00,
  0x14, 0x00, 0x00, 0x00, 0x01, 0x00, 0x00, 0x00, 0x80, 0xff, 0xff, 0xff,
  0xff, 0xff, 0xff, 0xff, 0x00, 0x00, 0x00, 0x00, 0x01, 0x00, 0x00, 0x00,
  0x00, 0x86, 0x07, 0x3d, 0x23, 0x00, 0x00, 0x00, 0x62, 0x65, 0x61, 0x74,
  0x5f, 0x63, 0x6e, 0x6e, 0x2f, 0x63, 0x6f, 0x6e, 0x76, 0x33, 0x5f, 0x64,
  0x34, 0x2f, 0x43, 0x6f, 0x6e, 0x76, 0x31, 0x44, 0x2f, 0x45, 0x78, 0x70,
  0x61, 0x6e, 0x64, 0x44, 0x69, 0x6d, 0x73, 0x00, 0x04, 0x00, 0x00, 0x00,
  0x01, 0x00, 0x00, 0x00, 0x01, 0x00, 0x00, 0x00, 0x22, 0x00, 0x00, 0x00,
  0x20, 0x00, 0x00, 0x00, 0x82, 0xe5, 0xff, 0xff, 0x00, 0x00, 0x00, 0x01,
  0x18, 0x00, 0x00, 0x00, 0x24, 0x00, 0x00, 0x00, 0x44, 0x00, 0x00, 0x00,
  0x29, 0x00, 0x00, 0x00, 0x00, 0x00, 0x00, 0x09, 0x64, 0x00, 0x00, 0x00,
  0x03, 0x00, 0x00, 0x00, 0xff, 0xff, 0xff, 0xff, 0x22, 0x00, 0x00, 0x00,
  0x20, 0x00, 0x00, 0x00, 0x6c, 0xe5, 0xff, 0xff, 0x08, 0x00, 0x00, 0x00,
  0x14, 0x00, 0x00, 0x00, 0x01, 0x00, 0x00, 0x00, 0x80, 0xff, 0xff, 0xff,
  0xff, 0xff, 0xff, 0xff, 0x00, 0x00, 0x00, 0x00, 0x01, 0x00, 0x00, 0x00,
  0x00, 0x86, 0x07, 0x3d, 0x27, 0x00, 0x00, 0x00, 0x62, 0x65, 0x61, 0x74,
  0x5f, 0x63, 0x6e, 0x6e, 0x2f, 0x63, 0x6f, 0x6e, 0x76, 0x33, 0x5f, 0x64,
  0x34, 0x2f, 0x43, 0x6f, 0x6e, 0x76, 0x31, 0x44, 0x2f, 0x53, 0x70, 0x61,
  0x63, 0x65, 0x54, 0x6f, 0x42, 0x61, 0x74, 0x63, 0x68, 0x4e, 0x44, 0x00,
  0x03, 0x00, 0x00, 0x00, 0x01, 0x00, 0x00, 0x00, 0x22, 0x00, 0x00, 0x00,
  0x20, 0x00, 0x00, 0x00, 0x12, 0xe6, 0xff, 0xff, 0x00, 0x00, 0x00, 0x01,
  0x18, 0x00, 0x00, 0x00, 0x24, 0x00, 0x00, 0x00, 0x44, 0x00, 0x00, 0x00,
  0x28, 0x00, 0x00, 0x00, 0x00, 0x00, 0x00, 0x09, 0x5c, 0x00, 0x00, 0x00,
  0x03, 0x00, 0x00, 0x00, 0xff, 0xff, 0xff, 0xff, 0x88, 0x00, 0x00, 0x00,
  0x20, 0x00, 0x00, 0x00, 0xfc, 0xe5, 0xff, 0xff, 0x08, 0x00, 0x00, 0x00,
  0x14, 0x00, 0x00, 0x00, 0x01, 0x00, 0x00, 0x00, 0x80, 0xff, 0xff, 0xff,
  0xff, 0xff, 0xff, 0xff, 0x00, 0x00, 0x00, 0x00, 0x01, 0x00, 0x00, 0x00,
  0x00, 0x86, 0x07, 0x3d, 0x1d, 0x00, 0x00, 0x00, 0x62, 0x65, 0x61, 0x74,
  0x5f, 0x63, 0x6e, 0x6e, 0x2f, 0x7a, 0x65, 0x72, 0x6f, 0x5f, 0x70, 0x61,
  0x64, 0x64, 0x69, 0x6e, 0x67, 0x31, 0x64, 0x5f, 0x32, 0x2f, 0x50, 0x61,
  0x64, 0x00, 0x00, 0x00, 0x03, 0x00, 0x00, 0x00, 0x01, 0x00, 0x00, 0x00,
  0x88, 0x00, 0x00, 0x00, 0x20, 0x00, 0x00, 0x00, 0x9a, 0xe6, 0xff, 0xff,
  0x00, 0x00, 0x00, 0x01, 0x18, 0x00, 0x00, 0x00, 0x24, 0x00, 0x00, 0x00,
  0x40, 0x00, 0x00, 0x00, 0x27, 0x00, 0x00, 0x00, 0x00, 0x00, 0x00, 0x09,
  0x6c, 0x00, 0x00, 0x00, 0x03, 0x00, 0x00, 0x00, 0xff, 0xff, 0xff, 0xff,
  0x80, 0x00, 0x00, 0x00, 0x20, 0x00, 0x00, 0x00, 0x84, 0xe6, 0xff, 0xff,
  0x08, 0x00, 0x00, 0x00, 0x10, 0x00, 0x00, 0x00, 0x01, 0x00, 0x00, 0x00,
  0x80, 0xff, 0xff, 0xff, 0xff, 0xff, 0xff, 0xff, 0x01, 0x00, 0x00, 0x00,
  0x00, 0x86, 0x07, 0x3d, 0x30, 0x00, 0x00, 0x00, 0x62, 0x65, 0x61, 0x74,
  0x5f, 0x63, 0x6e, 0x6e, 0x2f, 0x72, 0x65, 0x6c, 0x75, 0x32, 0x2f, 0x52,
  0x65, 0x6c, 0x75, 0x3b, 0x62, 0x65, 0x61, 0x74, 0x5f, 0x63, 0x6e, 0x6e,
  0x2f, 0x62, 0x6e, 0x32, 0x2f, 0x62, 0x61, 0x74, 0x63, 0x68, 0x6e, 0x6f,
  0x72, 0x6d, 0x2f, 0x61, 0x64, 0x64, 0x5f, 0x31, 0x00, 0x00, 0x00, 0x00,
  0x03, 0x00, 0x00, 0x00, 0x01, 0x00, 0x00, 0x00, 0x80, 0x00, 0x00, 0x00,
  0x20, 0x00, 0x00, 0x00, 0x32, 0xe7, 0xff, 0xff, 0x00, 0x00, 0x00, 0x01,
  0x18, 0x00, 0x00, 0x00, 0x24, 0x00, 0x00, 0x00, 0x44, 0x00, 0x00, 0x00,
  0x26, 0x00, 0x00, 0x00, 0x00, 0x00, 0x00, 0x09, 0x5c, 0x00, 0x00, 0x00,
  0x03, 0x00, 0x00, 0x00, 0xff, 0xff, 0xff, 0xff, 0x80, 0x00, 0x00, 0x00,
  0x20, 0x00, 0x00, 0x00, 0x1c, 0xe7, 0xff, 0xff, 0x08, 0x00, 0x00, 0x00,
  0x14, 0x00, 0x00, 0x00, 0x01, 0x00, 0x00, 0x00, 0x4c, 0x00, 0x00, 0x00,
  0x00, 0x00, 0x00, 0x00, 0x00, 0x00, 0x00, 0x00, 0x01, 0x00, 0x00, 0x00,
  0xc5, 0xf9, 0x3d, 0x3e, 0x1c, 0x00, 0x00, 0x00, 0x62, 0x65, 0x61, 0x74,
  0x5f, 0x63, 0x6e, 0x6e, 0x2f, 0x62, 0x6e, 0x32, 0x2f, 0x62, 0x61, 0x74,
  0x63, 0x68, 0x6e, 0x6f, 0x72, 0x6d, 0x2f, 0x6d, 0x75, 0x6c, 0x5f, 0x31,
  0x00, 0x00, 0x00, 0x00, 0x03, 0x00, 0x00, 0x00, 0x01, 0x00, 0x00, 0x00,
  0x80, 0x00, 0x00, 0x00, 0x20, 0x00, 0x00, 0x00, 0xba, 0xe7, 0xff, 0xff,
  0x00, 0x00, 0x00, 0x01, 0x18, 0x00, 0x00, 0x00, 0x24, 0x00, 0x00, 0x00,
  0x40, 0x00, 0x00, 0x00, 0x25, 0x00, 0x00, 0x00, 0x00, 0x00, 0x00, 0x09,
  0x54, 0x00, 0x00, 0x00, 0x03, 0x00, 0x00, 0x00, 0xff, 0xff, 0xff, 0xff,
  0x80, 0x00, 0x00, 0x00, 0x20, 0x00, 0x00, 0x00, 0xa4, 0xe7, 0xff, 0xff,
  0x08, 0x00, 0x00, 0x00, 0x10, 0x00, 0x00, 0x00, 0x01, 0x00, 0x00, 0x00,
  0x54, 0x00, 0x00, 0x00, 0x00, 0x00, 0x00, 0x00, 0x01, 0x00, 0x00, 0x00,
  0x27, 0xe1, 0x63, 0x40, 0x19, 0x00, 0x00, 0x00, 0x62, 0x65, 0x61, 0x74,
  0x5f, 0x63, 0x6e, 0x6e, 0x2f, 0x63, 0x6f, 0x6e, 0x76, 0x32, 0x5f, 0x64,
  0x32, 0x2f, 0x42, 0x69, 0x61, 0x73, 0x41, 0x64, 0x64, 0x00, 0x00, 0x00,
  0x03, 0x00, 0x00, 0x00, 0x01, 0x00, 0x00, 0x00, 0x80, 0x00, 0x00, 0x00,
  0x20, 0x00, 0x00, 0x00, 0x3a, 0xe8, 0xff, 0xff, 0x00, 0x00, 0x00, 0x01,
  0x18, 0x00, 0x00, 0x00, 0x24, 0x00, 0x00, 0x00, 0x44, 0x00, 0x00, 0x00,
  0x24, 0x00, 0x00, 0x00, 0x00, 0x00, 0x00, 0x09, 0x64, 0x00, 0x00, 0x00,
  0x03, 0x00, 0x00, 0x00, 0xff, 0xff, 0xff, 0xff, 0x80, 0x00, 0x00, 0x00,
  0x20, 0x00, 0x00, 0x00, 0x24, 0xe8, 0xff, 0xff, 0x08, 0x00, 0x00, 0x00,
  0x14, 0x00, 0x00, 0x00, 0x01, 0x00, 0x00, 0x00, 0x54, 0x00, 0x00, 0x00,
  0x00, 0x00, 0x00, 0x00, 0x00, 0x00, 0x00, 0x00, 0x01, 0x00, 0x00, 0x00,
  0x2f, 0xe1, 0x63, 0x40, 0x27, 0x00, 0x00, 0x00, 0x62, 0x65, 0x61, 0x74,
  0x5f, 0x63, 0x6e, 0x6e, 0x2f, 0x63, 0x6f, 0x6e, 0x76, 0x32, 0x5f, 0x64,
  0x32, 0x2f, 0x43, 0x6f, 0x6e, 0x76, 0x31, 0x44, 0x2f, 0x42, 0x61, 0x74,
  0x63, 0x68, 0x54, 0x6f, 0x53, 0x70, 0x61, 0x63, 0x65, 0x4e, 0x44, 0x00,
  0x03, 0x00, 0x00, 0x00, 0x01, 0x00, 0x00, 0x00, 0x80, 0x00, 0x00, 0x00,
  0x20, 0x00, 0x00, 0x00, 0xca, 0xe8, 0xff, 0xff, 0x00, 0x00, 0x00, 0x01,
  0x18, 0x00, 0x00, 0x00, 0x24, 0x00, 0x00, 0x00, 0x44, 0x00, 0x00, 0x00,
  0x23, 0x00, 0x00, 0x00, 0x00, 0x00, 0x00, 0x09, 0x60, 0x00, 0x00, 0x00,
  0x03, 0x00, 0x00, 0x00, 0xff, 0xff, 0xff, 0xff, 0x40, 0x00, 0x00, 0x00,
  0x20, 0x00, 0x00, 0x00, 0xb4, 0xe8, 0xff, 0xff, 0x08, 0x00, 0x00, 0x00,
  0x14, 0x00, 0x00, 0x00, 0x01, 0x00, 0x00, 0x00, 0x54, 0x00, 0x00, 0x00,
  0x00, 0x00, 0x00, 0x00, 0x00, 0x00, 0x00, 0x00, 0x01, 0x00, 0x00, 0x00,
  0x2f, 0xe1, 0x63, 0x40, 0x20, 0x00, 0x00, 0x00, 0x62, 0x65, 0x61, 0x74,
  0x5f, 0x63, 0x6e, 0x6e, 0x2f, 0x63, 0x6f, 0x6e, 0x76, 0x32, 0x5f, 0x64,
  0x32, 0x2f, 0x43, 0x6f, 0x6e, 0x76, 0x31, 0x44, 0x2f, 0x53, 0x71, 0x75,
  0x65, 0x65, 0x7a, 0x65, 0x00, 0x00, 0x00, 0x00, 0x03, 0x00, 0x00, 0x00,
  0x01, 0x00, 0x00, 0x00, 0x40, 0x00, 0x00, 0x00, 0x20, 0x00, 0x00, 0x00,
  0x56, 0xe9, 0xff, 0xff, 0x00, 0x00, 0x00, 0x01, 0x18, 0x00, 0x00, 0x00,
  0x28, 0x00, 0x00, 0x00, 0x44, 0x00, 0x00, 0x00, 0x22, 0x00, 0x00, 0x00,
  0x00, 0x00, 0x00, 0x09, 0x58, 0x00, 0x00, 0x00, 0x04, 0x00, 0x00, 0x00,
  0xff, 0xff, 0xff, 0xff, 0x01, 0x00, 0x00, 0x00, 0x40, 0x00, 0x00, 0x00,
  0x20, 0x00, 0x00, 0x00, 0x44, 0xe9, 0xff, 0xff, 0x08, 0x00, 0x00, 0x00,
  0x10, 0x00, 0x00, 0x00, 0x01, 0x00, 0x00, 0x00, 0x54, 0x00, 0x00, 0x00,
  0x00, 0x00, 0x00, 0x00, 0x01, 0x00, 0x00, 0x00, 0x2f, 0xe1, 0x63, 0x40,
  0x18, 0x00, 0x00, 0x00, 0x62, 0x65, 0x61, 0x74, 0x5f, 0x63, 0x6e, 0x6e,
  0x2f, 0x63, 0x6f, 0x6e, 0x76, 0x32, 0x5f, 0x64, 0x32, 0x2f, 0x43, 0x6f,
  0x6e, 0x76, 0x31, 0x44, 0x00, 0x00, 0x00, 0x00, 0x04, 0x00, 0x00, 0x00,
  0x01, 0x00, 0x00, 0x00, 0x01, 0x00, 0x00, 0x00, 0x40, 0x00, 0x00, 0x00,
  0x20, 0x00, 0x00, 0x00, 0xde, 0xe9, 0xff, 0xff, 0x00, 0x00, 0x00, 0x01,
  0x18, 0x00, 0x00, 0x00, 0x28, 0x00, 0x00, 0x00, 0x48, 0x00, 0x00, 0x00,
  0x21, 0x00, 0x00, 0x00, 0x00, 0x00, 0x00, 0x09, 0x64, 0x00, 0x00, 0x00,
  0x04, 0x00, 0x00, 0x00, 0xff, 0xff, 0xff, 0xff, 0x01, 0x00, 0x00, 0x00,
  0x42, 0x00, 0x00, 0x00, 0x20, 0x00, 0x00, 0x00, 0xcc, 0xe9, 0xff, 0xff,
  0x08, 0x00, 0x00, 0x00, 0x14, 0x00, 0x00, 0x00, 0x01, 0x00, 0x00, 0x00,
  0x80, 0xff, 0xff, 0xff, 0xff, 0xff, 0xff, 0xff, 0x00, 0x00, 0x00, 0x00,
  0x01, 0x00, 0x00, 0x00, 0xa7, 0x68, 0xf8, 0x3d, 0x23, 0x00, 0x00, 0x00,
  0x62, 0x65, 0x61, 0x74, 0x5f, 0x63, 0x6e, 0x6e, 0x2f, 0x63, 0x6f, 0x6e,
  0x76, 0x32, 0x5f, 0x64, 0x32, 0x2f, 0x43, 0x6f, 0x6e, 0x76, 0x31, 0x44,
  0x2f, 0x45, 0x78, 0x70, 0x61, 0x6e, 0x64, 0x44, 0x69, 0x6d, 0x73, 0x00,
  0x04, 0x00, 0x00, 0x00, 0x01, 0x00, 0x00, 0x00, 0x01, 0x00, 0x00, 0x00,
  0x42, 0x00, 0x00, 0x00, 0x20, 0x00, 0x00, 0x00, 0x72, 0xea, 0xff, 0xff,
  0x00, 0x00, 0x00, 0x01, 0x18, 0x00, 0x00, 0x00, 0x24, 0x00, 0x00, 0x00,
  0x44, 0x00, 0x00, 0x00, 0x20, 0x00, 0x00, 0x00, 0x00, 0x00, 0x00, 0x09,
  0x64, 0x00, 0x00, 0x00, 0x03, 0x00, 0x00, 0x00, 0xff, 0xff, 0xff, 0xff,
  0x42, 0x00, 0x00, 0x00, 0x20, 0x00, 0x00, 0x00, 0x5c, 0xea, 0xff, 0xff,
  0x08, 0x00, 0x00, 0x00, 0x14, 0x00, 0x00, 0x00, 0x01, 0x00, 0x00, 0x00,
  0x80, 0xff, 0xff, 0xff, 0xff, 0xff, 0xff, 0xff, 0x00, 0x00, 0x00, 0x00,
  0x01, 0x00, 0x00, 0x00, 0xa7, 0x68, 0xf8, 0x3d, 0x27, 0x00, 0x00, 0x00,
  0x62, 0x65, 0x61, 0x74, 0x5f, 0x63, 0x6e, 0x6e, 0x2f, 0x63, 0x6f, 0x6e,
  0x76, 0x32, 0x5f, 0x64, 0x32, 0x2f, 0x43, 0x6f, 0x6e, 0x76, 0x31, 0x44,
  0x2f, 0x53, 0x70, 0x61, 0x63, 0x65, 0x54, 0x6f, 0x42, 0x61, 0x74, 0x63,
  0x68, 0x4e, 0x44, 0x00, 0x03, 0x00, 0x00, 0x00, 0x01, 0x00, 0x00, 0x00,
  0x42, 0x00, 0x00, 0x00, 0x20, 0x00, 0x00, 0x00, 0x02, 0xeb, 0xff, 0xff,
  0x00, 0x00, 0x00, 0x01, 0x18, 0x00, 0x00, 0x00, 0x24, 0x00, 0x00, 0x00,
  0x44, 0x00, 0x00, 0x00, 0x1f, 0x00, 0x00, 0x00, 0x00, 0x00, 0x00, 0x09,
  0x5c, 0x00, 0x00, 0x00, 0x03, 0x00, 0x00, 0x00, 0xff, 0xff, 0xff, 0xff,
  0x84, 0x00, 0x00, 0x00, 0x20, 0x00, 0x00, 0x00, 0xec, 0xea, 0xff, 0xff,
  0x08, 0x00, 0x00, 0x00, 0x14, 0x00, 0x00, 0x00, 0x01, 0x00, 0x00, 0x00,
  0x80, 0xff, 0xff, 0xff, 0xff, 0xff, 0xff, 0xff, 0x00, 0x00, 0x00, 0x00,
  0x01, 0x00, 0x00, 0x00, 0xa7, 0x68, 0xf8, 0x3d, 0x1d, 0x00, 0x00, 0x00,
  0x62, 0x65, 0x61, 0x74, 0x5f, 0x63, 0x6e, 0x6e, 0x2f, 0x7a, 0x65, 0x72,
  0x6f, 0x5f, 0x70, 0x61, 0x64, 0x64, 0x69, 0x6e, 0x67, 0x31, 0x64, 0x5f,
  0x31, 0x2f, 0x50, 0x61, 0x64, 0x00, 0x00, 0x00, 0x03, 0x00, 0x00, 0x00,
  0x01, 0x00, 0x00, 0x00, 0x84, 0x00, 0x00, 0x00, 0x20, 0x00, 0x00, 0x00,
  0x8a, 0xeb, 0xff, 0xff, 0x00, 0x00, 0x00, 0x01, 0x18, 0x00, 0x00, 0x00,
  0x24, 0x00, 0x00, 0x00, 0x40, 0x00, 0x00, 0x00, 0x1e, 0x00, 0x00, 0x00,
  0x00, 0x00, 0x00, 0x09, 0xf8, 0x00, 0x00, 0x00, 0x03, 0x00, 0x00, 0x00,
  0xff, 0xff, 0xff, 0xff, 0x80, 0x00, 0x00, 0x00, 0x20, 0x00, 0x00, 0x00,
  0x74, 0xeb, 0xff, 0xff, 0x08, 0x00, 0x00, 0x00, 0x10, 0x00, 0x00, 0x00,
  0x01, 0x00, 0x00, 0x00, 0x80, 0xff, 0xff, 0xff, 0xff, 0xff, 0xff, 0xff,
  0x01, 0x00, 0x00, 0x00, 0xa7, 0x68, 0xf8, 0x3d, 0xbf, 0x00, 0x00, 0x00,
  0x62, 0x65, 0x61, 0x74, 0x5f, 0x63, 0x6e, 0x6e, 0x2f, 0x72, 0x65, 0x6c,
  0x75, 0x31, 0x2f, 0x52, 0x65, 0x6c, 0x75, 0x3b, 0x62, 0x65, 0x61, 0x74,
  0x5f, 0x63, 0x6e, 0x6e, 0x2f, 0x62, 0x6e, 0x31, 0x2f, 0x62, 0x61, 0x74,
  0x63, 0x68, 0x6e, 0x6f, 0x72, 0x6d, 0x2f, 0x61, 0x64, 0x64, 0x5f, 0x31,
  0x3b, 0x62, 0x65, 0x61, 0x74, 0x5f, 0x63, 0x6e, 0x6e, 0x2f, 0x63, 0x6f,
  0x6e, 0x76, 0x31, 0x5f, 0x64, 0x31, 0x2f, 0x43, 0x6f, 0x6e, 0x76, 0x31,
  0x44, 0x2f, 0x53, 0x71, 0x75, 0x65, 0x65, 0x7a, 0x65, 0x3b, 0x62, 0x65,
  0x61, 0x74, 0x5f, 0x63, 0x6e, 0x6e, 0x2f, 0x62, 0x6e, 0x31, 0x2f, 0x62,
  0x61, 0x74, 0x63, 0x68, 0x6e, 0x6f, 0x72, 0x6d, 0x2f, 0x6d, 0x75, 0x6c,
  0x5f, 0x31, 0x3b, 0x62, 0x65, 0x61, 0x74, 0x5f, 0x63, 0x6e, 0x6e, 0x2f,
  0x63, 0x6f, 0x6e, 0x76, 0x31, 0x5f, 0x64, 0x31, 0x2f, 0x42, 0x69, 0x61,
  0x73, 0x41, 0x64, 0x64, 0x3b, 0x3b, 0x62, 0x65, 0x61, 0x74, 0x5f, 0x63,
  0x6e, 0x6e, 0x2f, 0x62, 0x6e, 0x31, 0x2f, 0x62, 0x61, 0x74, 0x63, 0x68,
  0x6e, 0x6f, 0x72, 0x6d, 0x2f, 0x6d, 0x75, 0x6c, 0x3b, 0x62, 0x65, 0x61,
  0x74, 0x5f, 0x63, 0x6e, 0x6e, 0x2f, 0x62, 0x6e, 0x31, 0x2f, 0x62, 0x61,
  0x74, 0x63, 0x68, 0x6e, 0x6f, 0x72, 0x6d, 0x2f, 0x73, 0x75, 0x62, 0x00,
  0x03, 0x00, 0x00, 0x00, 0x01, 0x00, 0x00, 0x00, 0x80, 0x00, 0x00, 0x00,
  0x20, 0x00, 0x00, 0x00, 0xae, 0xec, 0xff, 0xff, 0x00, 0x00, 0x00, 0x01,
  0x18, 0x00, 0x00, 0x00, 0x28, 0x00, 0x00, 0x00, 0x44, 0x00, 0x00, 0x00,
  0x1d, 0x00, 0x00, 0x00, 0x00, 0x00, 0x00, 0x09, 0x18, 0x01, 0x00, 0x00,
  0x04, 0x00, 0x00, 0x00, 0xff, 0xff, 0xff, 0xff, 0x01, 0x00, 0x00, 0x00,
  0x80, 0x00, 0x00, 0x00, 0x20, 0x00, 0x00, 0x00, 0x9c, 0xec, 0xff, 0xff,
  0x08, 0x00, 0x00, 0x00, 0x10, 0x00, 0x00, 0x00, 0x01, 0x00, 0x00, 0x00,
  0x80, 0xff, 0xff, 0xff, 0xff, 0xff, 0xff, 0xff, 0x01, 0x00, 0x00, 0x00,
  0xa7, 0x68, 0xf8, 0x3d, 0xd8, 0x00, 0x00, 0x00, 0x62, 0x65, 0x61, 0x74,
  0x5f, 0x63, 0x6e, 0x6e, 0x2f, 0x72, 0x65, 0x6c, 0x75, 0x31, 0x2f, 0x52,
  0x65, 0x6c, 0x75, 0x3b, 0x62, 0x65, 0x61, 0x74, 0x5f, 0x63, 0x6e, 0x6e,
  0x2f, 0x62, 0x6e, 0x31, 0x2f, 0x62, 0x61, 0x74, 0x63, 0x68, 0x6e, 0x6f,
  0x72, 0x6d, 0x2f, 0x61, 0x64, 0x64, 0x5f, 0x31, 0x3b, 0x62, 0x65, 0x61,
  0x74, 0x5f, 0x63, 0x6e, 0x6e, 0x2f, 0x63, 0x6f, 0x6e, 0x76, 0x31, 0x5f,
  0x64, 0x31, 0x2f, 0x43, 0x6f, 0x6e, 0x76, 0x31, 0x44, 0x2f, 0x53, 0x71,
  0x75, 0x65, 0x65, 0x7a, 0x65, 0x3b, 0x62, 0x65, 0x61, 0x74, 0x5f, 0x63,
  0x6e, 0x6e, 0x2f, 0x62, 0x6e, 0x31, 0x2f, 0x62, 0x61, 0x74, 0x63, 0x68,
  0x6e, 0x6f, 0x72, 0x6d, 0x2f, 0x6d, 0x75, 0x6c, 0x5f, 0x31, 0x3b, 0x62,
  0x65, 0x61, 0x74, 0x5f, 0x63, 0x6e, 0x6e, 0x2f, 0x63, 0x6f, 0x6e, 0x76,
  0x31, 0x5f, 0x64, 0x31, 0x2f, 0x42, 0x69, 0x61, 0x73, 0x41, 0x64, 0x64,
  0x3b, 0x3b, 0x62, 0x65, 0x61, 0x74, 0x5f, 0x63, 0x6e, 0x6e, 0x2f, 0x62,
  0x6e, 0x31, 0x2f, 0x62, 0x61, 0x74, 0x63, 0x68, 0x6e, 0x6f, 0x72, 0x6d,
  0x2f, 0x6d, 0x75, 0x6c, 0x3b, 0x62, 0x65, 0x61, 0x74, 0x5f, 0x63, 0x6e,
  0x6e, 0x2f, 0x62, 0x6e, 0x31, 0x2f, 0x62, 0x61, 0x74, 0x63, 0x68, 0x6e,
  0x6f, 0x72, 0x6d, 0x2f, 0x73, 0x75, 0x62, 0x3b, 0x62, 0x65, 0x61, 0x74,
  0x5f, 0x63, 0x6e, 0x6e, 0x2f, 0x63, 0x6f, 0x6e, 0x76, 0x31, 0x5f, 0x64,
  0x31, 0x2f, 0x43, 0x6f, 0x6e, 0x76, 0x31, 0x44, 0x00, 0x00, 0x00, 0x00,
  0x04, 0x00, 0x00, 0x00, 0x01, 0x00, 0x00, 0x00, 0x01, 0x00, 0x00, 0x00,
  0x80, 0x00, 0x00, 0x00, 0x20, 0x00, 0x00, 0x00, 0xf6, 0xed, 0xff, 0xff,
  0x00, 0x00, 0x00, 0x01, 0x18, 0x00, 0x00, 0x00, 0x28, 0x00, 0x00, 0x00,
  0x48, 0x00, 0x00, 0x00, 0x1c, 0x00, 0x00, 0x00, 0x00, 0x00, 0x00, 0x09,
  0x64, 0x00, 0x00, 0x00, 0x04, 0x00, 0x00, 0x00, 0xff, 0xff, 0xff, 0xff,
  0x01, 0x00, 0x00, 0x00, 0x82, 0x00, 0x00, 0x00, 0x1a, 0x00, 0x00, 0x00,
  0xe4, 0xed, 0xff, 0xff, 0x08, 0x00, 0x00, 0x00, 0x14, 0x00, 0x00, 0x00,
  0x01, 0x00, 0x00, 0x00, 0x80, 0xff, 0xff, 0xff, 0xff, 0xff, 0xff, 0xff,
  0x00, 0x00, 0x00, 0x00, 0x01, 0x00, 0x00, 0x00, 0x81, 0x80, 0x80, 0x3b,
  0x23, 0x00, 0x00, 0x00, 0x62, 0x65, 0x61, 0x74, 0x5f, 0x63, 0x6e, 0x6e,
  0x2f, 0x63, 0x6f, 0x6e, 0x76, 0x31, 0x5f, 0x64, 0x31, 0x2f, 0x43, 0x6f,
  0x6e, 0x76, 0x31, 0x44, 0x2f, 0x45, 0x78, 0x70, 0x61, 0x6e, 0x64, 0x44,
  0x69, 0x6d, 0x73, 0x00, 0x04, 0x00, 0x00, 0x00, 0x01, 0x00, 0x00, 0x00,
  0x01, 0x00, 0x00, 0x00, 0x82, 0x00, 0x00, 0x00, 0x1a, 0x00, 0x00, 0x00,
  0x8a, 0xee, 0xff, 0xff, 0x00, 0x00, 0x00, 0x01, 0x18, 0x00, 0x00, 0x00,
  0x24, 0x00, 0x00, 0x00, 0x44, 0x00, 0x00, 0x00, 0x1b, 0x00, 0x00, 0x00,
  0x00, 0x00, 0x00, 0x09, 0x58, 0x00, 0x00, 0x00, 0x03, 0x00, 0x00, 0x00,
  0xff, 0xff, 0xff, 0xff, 0x82, 0x00, 0x00, 0x00, 0x1a, 0x00, 0x00, 0x00,
  0x74, 0xee, 0xff, 0xff, 0x08, 0x00, 0x00, 0x00, 0x14, 0x00, 0x00, 0x00,
  0x01, 0x00, 0x00, 0x00, 0x80, 0xff, 0xff, 0xff, 0xff, 0xff, 0xff, 0xff,
  0x00, 0x00, 0x00, 0x00, 0x01, 0x00, 0x00, 0x00, 0x81, 0x80, 0x80, 0x3b,
  0x1b, 0x00, 0x00, 0x00, 0x62, 0x65, 0x61, 0x74, 0x5f, 0x63, 0x6e, 0x6e,
