// Auto-generated by export_tflite.py — do not edit
// Model size: 20904 bytes (20.4 KB)
// SHA256 prefix: f3b2f95fec9fba71
// Exported: 2026-03-06T04:34:34Z

#ifndef BEAT_MODEL_DATA_H
#define BEAT_MODEL_DATA_H

#define BEAT_MODEL_HASH "f3b2f95fec9fba71"
#define BEAT_MODEL_SIZE 20904

alignas(8) const unsigned char beat_model_data[] = {
  0x20, 0x00, 0x00, 0x00, 0x54, 0x46, 0x4c, 0x33, 0x00, 0x00, 0x00, 0x00,
  0x14, 0x00, 0x20, 0x00, 0x1c, 0x00, 0x18, 0x00, 0x14, 0x00, 0x10, 0x00,
  0x0c, 0x00, 0x00, 0x00, 0x08, 0x00, 0x04, 0x00, 0x14, 0x00, 0x00, 0x00,
  0x1c, 0x00, 0x00, 0x00, 0x88, 0x00, 0x00, 0x00, 0xe0, 0x00, 0x00, 0x00,
  0x34, 0x28, 0x00, 0x00, 0x44, 0x28, 0x00, 0x00, 0x9c, 0x50, 0x00, 0x00,
  0x03, 0x00, 0x00, 0x00, 0x01, 0x00, 0x00, 0x00, 0x04, 0x00, 0x00, 0x00,
  0x06, 0xd3, 0xff, 0xff, 0x0c, 0x00, 0x00, 0x00, 0x1c, 0x00, 0x00, 0x00,
  0x3c, 0x00, 0x00, 0x00, 0x0f, 0x00, 0x00, 0x00, 0x73, 0x65, 0x72, 0x76,
  0x69, 0x6e, 0x67, 0x5f, 0x64, 0x65, 0x66, 0x61, 0x75, 0x6c, 0x74, 0x00,
  0x01, 0x00, 0x00, 0x00, 0x04, 0x00, 0x00, 0x00, 0x94, 0xff, 0xff, 0xff,
  0x33, 0x00, 0x00, 0x00, 0x04, 0x00, 0x00, 0x00, 0x0b, 0x00, 0x00, 0x00,
  0x6f, 0x75, 0x74, 0x70, 0x75, 0x74, 0x5f, 0x63, 0x6f, 0x6e, 0x76, 0x00,
  0x01, 0x00, 0x00, 0x00, 0x04, 0x00, 0x00, 0x00, 0x66, 0xd8, 0xff, 0xff,
  0x04, 0x00, 0x00, 0x00, 0x09, 0x00, 0x00, 0x00, 0x6d, 0x65, 0x6c, 0x5f,
  0x69, 0x6e, 0x70, 0x75, 0x74, 0x00, 0x00, 0x00, 0x02, 0x00, 0x00, 0x00,
  0x34, 0x00, 0x00, 0x00, 0x04, 0x00, 0x00, 0x00, 0xdc, 0xff, 0xff, 0xff,
  0x36, 0x00, 0x00, 0x00, 0x04, 0x00, 0x00, 0x00, 0x13, 0x00, 0x00, 0x00,
  0x43, 0x4f, 0x4e, 0x56, 0x45, 0x52, 0x53, 0x49, 0x4f, 0x4e, 0x5f, 0x4d,
  0x45, 0x54, 0x41, 0x44, 0x41, 0x54, 0x41, 0x00, 0x08, 0x00, 0x0c, 0x00,
  0x08, 0x00, 0x04, 0x00, 0x08, 0x00, 0x00, 0x00, 0x35, 0x00, 0x00, 0x00,
  0x04, 0x00, 0x00, 0x00, 0x13, 0x00, 0x00, 0x00, 0x6d, 0x69, 0x6e, 0x5f,
  0x72, 0x75, 0x6e, 0x74, 0x69, 0x6d, 0x65, 0x5f, 0x76, 0x65, 0x72, 0x73,
  0x69, 0x6f, 0x6e, 0x00, 0x37, 0x00, 0x00, 0x00, 0x50, 0x27, 0x00, 0x00,
  0x48, 0x27, 0x00, 0x00, 0x20, 0x27, 0x00, 0x00, 0x04, 0x27, 0x00, 0x00,
  0xe8, 0x26, 0x00, 0x00, 0xc0, 0x26, 0x00, 0x00, 0xac, 0x26, 0x00, 0x00,
  0x94, 0x26, 0x00, 0x00, 0x78, 0x26, 0x00, 0x00, 0x50, 0x26, 0x00, 0x00,
  0x3c, 0x26, 0x00, 0x00, 0x20, 0x26, 0x00, 0x00, 0x04, 0x26, 0x00, 0x00,
  0xec, 0x25, 0x00, 0x00, 0x9c, 0x25, 0x00, 0x00, 0x6c, 0x25, 0x00, 0x00,
  0x3c, 0x25, 0x00, 0x00, 0x0c, 0x25, 0x00, 0x00, 0xfc, 0x18, 0x00, 0x00,
  0xcc, 0x18, 0x00, 0x00, 0x9c, 0x18, 0x00, 0x00, 0x6c, 0x18, 0x00, 0x00,
  0xdc, 0x17, 0x00, 0x00, 0xd4, 0x17, 0x00, 0x00, 0xc4, 0x0b, 0x00, 0x00,
  0x34, 0x0b, 0x00, 0x00, 0x64, 0x01, 0x00, 0x00, 0x5c, 0x01, 0x00, 0x00,
  0x54, 0x01, 0x00, 0x00, 0x4c, 0x01, 0x00, 0x00, 0x44, 0x01, 0x00, 0x00,
  0x3c, 0x01, 0x00, 0x00, 0x34, 0x01, 0x00, 0x00, 0x2c, 0x01, 0x00, 0x00,
  0x24, 0x01, 0x00, 0x00, 0x1c, 0x01, 0x00, 0x00, 0x14, 0x01, 0x00, 0x00,
  0x0c, 0x01, 0x00, 0x00, 0x04, 0x01, 0x00, 0x00, 0xfc, 0x00, 0x00, 0x00,
  0xf4, 0x00, 0x00, 0x00, 0xec, 0x00, 0x00, 0x00, 0xe4, 0x00, 0x00, 0x00,
  0xdc, 0x00, 0x00, 0x00, 0xd4, 0x00, 0x00, 0x00, 0xcc, 0x00, 0x00, 0x00,
  0xc4, 0x00, 0x00, 0x00, 0xbc, 0x00, 0x00, 0x00, 0xb4, 0x00, 0x00, 0x00,
  0xac, 0x00, 0x00, 0x00, 0xa4, 0x00, 0x00, 0x00, 0x9c, 0x00, 0x00, 0x00,
  0x94, 0x00, 0x00, 0x00, 0x74, 0x00, 0x00, 0x00, 0x04, 0x00, 0x00, 0x00,
  0xba, 0xd9, 0xff, 0xff, 0x04, 0x00, 0x00, 0x00, 0x60, 0x00, 0x00, 0x00,
  0x0c, 0x00, 0x00, 0x00, 0x08, 0x00, 0x0e, 0x00, 0x08, 0x00, 0x04, 0x00,
  0x08, 0x00, 0x00, 0x00, 0x10, 0x00, 0x00, 0x00, 0x28, 0x00, 0x00, 0x00,
  0x00, 0x00, 0x06, 0x00, 0x08, 0x00, 0x04, 0x00, 0x06, 0x00, 0x00, 0x00,
  0x04, 0x00, 0x00, 0x00, 0x01, 0x00, 0x00, 0x00, 0xeb, 0x03, 0x00, 0x00,
  0x0c, 0x00, 0x18, 0x00, 0x14, 0x00, 0x10, 0x00, 0x0c, 0x00, 0x04, 0x00,
  0x0c, 0x00, 0x00, 0x00, 0xcc, 0x78, 0x05, 0x67, 0xf9, 0x14, 0x1c, 0x40,
  0x02, 0x00, 0x00, 0x00, 0x02, 0x00, 0x00, 0x00, 0x04, 0x00, 0x00, 0x00,
  0x06, 0x00, 0x00, 0x00, 0x32, 0x2e, 0x32, 0x30, 0x2e, 0x30, 0x00, 0x00,
  0x26, 0xda, 0xff, 0xff, 0x04, 0x00, 0x00, 0x00, 0x10, 0x00, 0x00, 0x00,
  0x32, 0x2e, 0x33, 0x2e, 0x30, 0x00, 0x00, 0x00, 0x00, 0x00, 0x00, 0x00,
  0x00, 0x00, 0x00, 0x00, 0x70, 0xb2, 0xff, 0xff, 0x74, 0xb2, 0xff, 0xff,
  0x78, 0xb2, 0xff, 0xff, 0x7c, 0xb2, 0xff, 0xff, 0x80, 0xb2, 0xff, 0xff,
  0x84, 0xb2, 0xff, 0xff, 0x88, 0xb2, 0xff, 0xff, 0x8c, 0xb2, 0xff, 0xff,
  0x90, 0xb2, 0xff, 0xff, 0x94, 0xb2, 0xff, 0xff, 0x98, 0xb2, 0xff, 0xff,
  0x9c, 0xb2, 0xff, 0xff, 0xa0, 0xb2, 0xff, 0xff, 0xa4, 0xb2, 0xff, 0xff,
  0xa8, 0xb2, 0xff, 0xff, 0xac, 0xb2, 0xff, 0xff, 0xb0, 0xb2, 0xff, 0xff,
  0xb4, 0xb2, 0xff, 0xff, 0xb8, 0xb2, 0xff, 0xff, 0xbc, 0xb2, 0xff, 0xff,
  0xc0, 0xb2, 0xff, 0xff, 0xc4, 0xb2, 0xff, 0xff, 0xc8, 0xb2, 0xff, 0xff,
  0xcc, 0xb2, 0xff, 0xff, 0xd0, 0xb2, 0xff, 0xff, 0xd4, 0xb2, 0xff, 0xff,
  0xaa, 0xda, 0xff, 0xff, 0x04, 0x00, 0x00, 0x00, 0xc0, 0x09, 0x00, 0x00,
  0x26, 0xe3, 0xfe, 0xfd, 0xe6, 0xe8, 0xe4, 0xfd, 0x0a, 0x03, 0xdf, 0x14,
  0x01, 0x09, 0x0b, 0x02, 0x01, 0x10, 0x1a, 0x34, 0x16, 0x08, 0xef, 0xa2,
  0xd7, 0xf6, 0x15, 0x09, 0x11, 0x09, 0xfa, 0xf8, 0x09, 0x04, 0x08, 0x14,
  0xe3, 0x12, 0xf6, 0x02, 0x08, 0xeb, 0xf4, 0x0d, 0x0f, 0x24, 0xf8, 0xcc,
  0xdc, 0x9d, 0x09, 0x51, 0x99, 0xe7, 0x05, 0x0d, 0xe0, 0x06, 0x01, 0xf1,
  0x05, 0xf8, 0xe9, 0x1f, 0xfa, 0xf7, 0x08, 0xfd, 0xe5, 0x05, 0xf2, 0x1e,
  0xd5, 0x81, 0xba, 0xae, 0xf2, 0x58, 0xc1, 0xcd, 0x3e, 0x0a, 0x06, 0x0b,
  0x07, 0x03, 0x05, 0x08, 0xff, 0x07, 0x02, 0xff, 0x01, 0x02, 0x02, 0x00,
  0x01, 0xfc, 0x01, 0xfb, 0xfb, 0xfd, 0x04, 0xfe, 0x02, 0x7f, 0xe2, 0xf2,
  0xff, 0xfb, 0xfa, 0xfc, 0xf8, 0xfc, 0xfd, 0xfa, 0x00, 0xfa, 0xfd, 0xfd,
  0xfe, 0xfd, 0xff, 0x04, 0x08, 0x0b, 0x09, 0x04, 0x01, 0xfd, 0x3b, 0xde,
  0xdc, 0x02, 0xfb, 0xfc, 0xfe, 0xfe, 0x03, 0xfe, 0x06, 0x01, 0xfe, 0x06,
  0x00, 0x00, 0x01, 0x02, 0xfe, 0xfc, 0xff, 0xfd, 0xfe, 0x01, 0xf7, 0x02,
  0x0b, 0xe1, 0xf5, 0x04, 0xfa, 0x03, 0x03, 0x00, 0x05, 0x05, 0x02, 0x06,
  0xfd, 0x07, 0x04, 0x07, 0x08, 0x05, 0xfe, 0xfe, 0xff, 0xfe, 0xfa, 0xf8,
  0xfe, 0x00, 0x21, 0x7f, 0x43, 0x04, 0x11, 0x06, 0x08, 0xff, 0xfe, 0x00,
  0x04, 0xfe, 0xfe, 0xfe, 0x01, 0xfa, 0x01, 0xfe, 0x00, 0x08, 0x06, 0x04,
  0xff, 0x01, 0x00, 0x0e, 0x6f, 0xf7, 0xe8, 0xfb, 0xf9, 0xf8, 0xfc, 0x01,
  0xf8, 0xff, 0xfc, 0xf8, 0x00, 0xfc, 0x00, 0xfb, 0xfc, 0xfe, 0xfd, 0xfc,
  0xfc, 0xfe, 0xff, 0xfe, 0x00, 0x12, 0x81, 0x4a, 0xe4, 0xfb, 0xea, 0x00,
  0x08, 0x07, 0xe6, 0xf3, 0x11, 0x13, 0xf1, 0xe4, 0x05, 0xff, 0x0d, 0x19,
  0xfa, 0xf2, 0xeb, 0xe9, 0xee, 0xea, 0xf7, 0x0a, 0x0f, 0x23, 0x07, 0xfd,
  0xfc, 0xff, 0xf7, 0xfb, 0xf5, 0xfe, 0xfd, 0xfa, 0x05, 0xfc, 0xf9, 0xf7,
  0xfb, 0x04, 0x0a, 0x09, 0x09, 0xfe, 0xfd, 0xff, 0xf3, 0xfe, 0x28, 0xe3,
  0xf4, 0x0c, 0x10, 0x04, 0x08, 0x0b, 0x15, 0x0d, 0xfd, 0x07, 0x0c, 0x07,
  0x01, 0xf9, 0x0a, 0x00, 0xfb, 0x0b, 0x09, 0xff, 0x09, 0xfe, 0x05, 0x22,
  0x81, 0x4c, 0xec, 0xee, 0xce, 0x1b, 0xf0, 0xf8, 0xdc, 0xee, 0x04, 0x29,
  0xf2, 0xee, 0x19, 0x0f, 0xd5, 0xfe, 0x47, 0x01, 0xb5, 0xbc, 0xf1, 0xd9,
  0xa2, 0x38, 0x1a, 0x21, 0x00, 0xdf, 0xe9, 0x3d, 0xfb, 0xed, 0xdb, 0xe2,
  0x19, 0xe3, 0xe8, 0x26, 0x0c, 0xec, 0xfb, 0xdf, 0x23, 0x26, 0x08, 0xec,
  0x0a, 0x1e, 0xd0, 0x07, 0x06, 0xd8, 0xd4, 0xde, 0xfd, 0x39, 0x0b, 0xe5,
  0x02, 0x05, 0x06, 0x01, 0xe6, 0x14, 0x1d, 0xd7, 0x1e, 0xbc, 0xf8, 0x19,
  0x1d, 0x00, 0x1d, 0x31, 0xd6, 0x1d, 0x00, 0xe9, 0xed, 0xfe, 0xf9, 0x01,
  0x01, 0xfe, 0x02, 0xfd, 0xfc, 0xff, 0xfe, 0xfd, 0xfb, 0xfc, 0xfe, 0xfd,
  0x00, 0xff, 0x02, 0xfe, 0x06, 0xfc, 0x04, 0xe8, 0xd8, 0xd7, 0xec, 0xf9,
  0xf7, 0xfb, 0x08, 0x00, 0x05, 0x09, 0x0c, 0x08, 0x0c, 0x11, 0x0c, 0x0e,
  0x0d, 0x0d, 0x09, 0x02, 0x02, 0xff, 0xfc, 0xfa, 0xf9, 0xf6, 0x13, 0x7f,
  0x21, 0x07, 0x0a, 0x04, 0xfb, 0xfb, 0xf8, 0xf9, 0xfc, 0xf7, 0xfa, 0xf5,
  0xfa, 0xf5, 0xf8, 0xf8, 0xf8, 0xfb, 0xfd, 0x03, 0x00, 0x08, 0x0a, 0x28,
  0xfc, 0x00, 0xfe, 0xfe, 0x05, 0xff, 0x00, 0x02, 0xfb, 0xfe, 0xfc, 0x06,
  0x00, 0xfd, 0x05, 0x0a, 0xfd, 0xf4, 0xfa, 0x02, 0xe7, 0xfb, 0xf0, 0x01,
  0x14, 0x1c, 0xf5, 0x10, 0xfd, 0xf8, 0x00, 0xfe, 0x03, 0xfb, 0xfc, 0x00,
  0xfd, 0x0a, 0xfc, 0xfe, 0x01, 0x08, 0xf6, 0x02, 0xef, 0x02, 0xdf, 0x12,
  0xf5, 0x27, 0x3e, 0x7f, 0xf5, 0x03, 0xfa, 0xfe, 0xf9, 0x02, 0x01, 0xfe,
  0xfc, 0xfc, 0xfc, 0x01, 0xf8, 0xf4, 0xf5, 0xfb, 0xf2, 0xf6, 0xeb, 0xf2,
  0xcd, 0xf2, 0xe6, 0xf1, 0x1e, 0x38, 0x7f, 0x3c, 0x37, 0x0b, 0x0e, 0x23,
  0x10, 0x0b, 0x0b, 0x0d, 0x09, 0x0d, 0x08, 0x0f, 0x10, 0xf8, 0x00, 0x02,
  0xfc, 0x02, 0xff, 0xe3, 0xeb, 0xd7, 0xf6, 0xf8, 0x28, 0x05, 0xf4, 0xfd,
  0xf1, 0xf0, 0xed, 0x0d, 0xf0, 0xfc, 0x02, 0xf6, 0xfe, 0x02, 0xf6, 0xfc,
  0xfc, 0xef, 0x0b, 0xff, 0xf9, 0xf4, 0xf8, 0xfe, 0x19, 0x07, 0xdf, 0xdf,
  0xf0, 0xec, 0xed, 0xe7, 0xf8, 0xf0, 0xe5, 0xef, 0x05, 0xf1, 0xfa, 0xf2,
  0xf1, 0xef, 0x05, 0xf3, 0x02, 0xf0, 0xe3, 0x0a, 0xe9, 0x26, 0x27, 0x1b,
  0xd9, 0xd1, 0xc0, 0x81, 0x9c, 0x8c, 0xa0, 0x9e, 0x86, 0x94, 0x96, 0xad,
  0x8f, 0x97, 0xaf, 0xb7, 0xb3, 0x9c, 0xc1, 0xc4, 0xca, 0xcd, 0xe3, 0xf9,
  0xf6, 0x04, 0x47, 0x22, 0x05, 0x2c, 0x3a, 0x4f, 0x4a, 0x60, 0x6e, 0x68,
  0x4f, 0x5a, 0x61, 0x63, 0x62, 0x61, 0x46, 0x5c, 0x56, 0x5e, 0x64, 0x5d,
  0x3c, 0x20, 0x10, 0xdb, 0xd2, 0x07, 0x3a, 0x4e, 0x41, 0x2f, 0x18, 0x0c,
  0x1e, 0x0f, 0x1e, 0xee, 0x07, 0x04, 0xe2, 0x1a, 0xef, 0xef, 0xf5, 0xe3,
  0xde, 0xd2, 0xe9, 0xf2, 0x06, 0xf4, 0xf7, 0xf9, 0x03, 0x0d, 0x09, 0x06,
  0x02, 0x08, 0xf5, 0x02, 0xfc, 0xf1, 0xe7, 0xf3, 0xe4, 0xd7, 0xd7, 0xcd,
  0xc1, 0xbd, 0x92, 0x9b, 0x81, 0x90, 0xbd, 0xec, 0x1b, 0x04, 0xf0, 0xfc,
  0x08, 0x07, 0xfa, 0x01, 0xf8, 0x0b, 0x00, 0x04, 0x06, 0x05, 0x03, 0xff,
  0x0a, 0x0c, 0x0f, 0x0f, 0x08, 0x11, 0x05, 0x07, 0xef, 0x0f, 0x02, 0xfd,
  0xf4, 0xfe, 0xf4, 0xec, 0xf8, 0xf9, 0xfc, 0xf6, 0x04, 0x12, 0x0b, 0x0f,
  0x1f, 0x18, 0x24, 0x32, 0x3c, 0x40, 0x64, 0x6b, 0x70, 0x6d, 0x2a, 0x2d,
  0x13, 0xf7, 0x00, 0x04, 0x03, 0xff, 0x05, 0xfc, 0x04, 0xfe, 0xfd, 0x04,
  0xfe, 0xff, 0x03, 0xf7, 0x06, 0xf8, 0xfb, 0xf9, 0xf9, 0xfb, 0xf9, 0xfc,
  0x03, 0x0d, 0x08, 0xe6, 0xfb, 0x03, 0xff, 0x02, 0x01, 0x01, 0x04, 0x05,
  0x00, 0x04, 0xfc, 0x04, 0x02, 0x05, 0x07, 0x05, 0xff, 0xfc, 0x01, 0xfd,
  0xff, 0xfc, 0xfc, 0x02, 0x21, 0x7f, 0x2c, 0x03, 0x08, 0x02, 0xfe, 0xfd,
  0xfc, 0xfd, 0x03, 0xfa, 0xfe, 0xfb, 0x00, 0xfc, 0x03, 0x02, 0x04, 0x0f,
  0x0e, 0x08, 0x09, 0x06, 0xf7, 0xf3, 0xf9, 0x0a, 0x07, 0x11, 0x18, 0x0b,
  0x08, 0x08, 0x08, 0xfc, 0xfa, 0xf7, 0xf4, 0xee, 0xf1, 0xe0, 0xec, 0xe2,
  0xe2, 0xdd, 0xd6, 0xd5, 0xdc, 0xc9, 0xe3, 0xb8, 0xe1, 0xf2, 0xf5, 0xef,
  0xed, 0xf4, 0xf5, 0xf0, 0xfa, 0x01, 0x10, 0x12, 0x11, 0x1c, 0x24, 0x2c,
  0x2c, 0x38, 0x39, 0x36, 0x47, 0x53, 0x49, 0x4f, 0x43, 0x7f, 0x18, 0x04,
  0xfa, 0xfb, 0xf9, 0xfc, 0x07, 0x02, 0xfc, 0x04, 0xf5, 0xf7, 0xfe, 0xf7,
  0xec, 0xef, 0xea, 0xeb, 0xeb, 0xe4, 0xe2, 0xe6, 0xe3, 0xe8, 0xe1, 0xee,
  0xc9, 0xe7, 0xe1, 0x12, 0xd5, 0xfe, 0x02, 0x0d, 0xf0, 0x07, 0x06, 0xd9,
  0xed, 0x09, 0xe8, 0xcd, 0x0f, 0xd2, 0x47, 0xd5, 0xdc, 0x30, 0xf3, 0xde,
  0xcf, 0x1b, 0x0f, 0x0f, 0x3a, 0xf8, 0x19, 0x05, 0xf6, 0xfe, 0xf0, 0xed,
  0x19, 0xbd, 0x0b, 0x0f, 0x06, 0xf2, 0x04, 0xf9, 0xf6, 0x3b, 0xae, 0x20,
  0xee, 0x2c, 0xe0, 0x00, 0x17, 0x31, 0x52, 0x07, 0x30, 0x10, 0x33, 0x09,
  0xcb, 0x19, 0xee, 0xe3, 0xe4, 0xfc, 0x19, 0xfc, 0xf5, 0xfe, 0x19, 0x51,
  0x81, 0x1b, 0x2f, 0x0e, 0x09, 0x03, 0xf5, 0x12, 0xf1, 0xe9, 0xe2, 0xd6,
  0xcf, 0xe0, 0xe9, 0xe1, 0xe2, 0xe0, 0xe1, 0xe0, 0xf9, 0xf3, 0xf1, 0xef,
  0xe8, 0xec, 0x03, 0xf1, 0xf4, 0x00, 0x0e, 0x09, 0xf2, 0xf4, 0xea, 0xcf,
  0xc8, 0xc4, 0xce, 0xb9, 0xc5, 0xc6, 0xd5, 0xd9, 0xbe, 0xdf, 0xd7, 0xe6,
  0xea, 0xdc, 0xec, 0xf0, 0xf0, 0xf9, 0xfa, 0xfe, 0x05, 0x0f, 0xf9, 0x15,
  0x24, 0x55, 0x64, 0x73, 0x64, 0x7f, 0x5f, 0x65, 0x4c, 0x3d, 0x54, 0x40,
  0x41, 0x40, 0x18, 0x29, 0x2d, 0x29, 0x13, 0x12, 0x04, 0x0a, 0xe8, 0xdb,
  0x1f, 0xed, 0x09, 0x23, 0x10, 0x0d, 0x10, 0x0b, 0x08, 0x05, 0x16, 0x09,
  0x0d, 0x00, 0xfb, 0xf1, 0x09, 0xfb, 0x04, 0xfb, 0xe8, 0xef, 0xfd, 0xf1,
  0xed, 0xef, 0x50, 0x08, 0x28, 0x26, 0x23, 0x1d, 0x16, 0x19, 0x0f, 0x08,
  0x0f, 0x0f, 0x12, 0x04, 0x0a, 0xfd, 0x0f, 0xfb, 0xf9, 0x00, 0xe8, 0xf6,
  0x10, 0x0f, 0x14, 0xd6, 0x81, 0xc6, 0xee, 0x0b, 0x05, 0x0d, 0x03, 0x00,
  0x07, 0xfd, 0xea, 0x01, 0xff, 0xec, 0x08, 0xfd, 0x07, 0xdb, 0xe1, 0xed,
  0xd0, 0xe1, 0x1c, 0x15, 0x43, 0x03, 0x0f, 0xf7, 0xe9, 0x0f, 0x21, 0xec,
  0x32, 0x08, 0xc0, 0x5a, 0xd7, 0x0d, 0xf0, 0xea, 0xcb, 0x46, 0x99, 0x07,
  0xf7, 0xec, 0x24, 0x27, 0x51, 0x27, 0x20, 0xc8, 0xf9, 0x04, 0xf0, 0x06,
  0x1d, 0xea, 0x1a, 0x29, 0xb4, 0x61, 0xdc, 0x14, 0xdc, 0x16, 0xb8, 0x3c,
  0x8c, 0x31, 0x05, 0xcb, 0x2d, 0x4d, 0x76, 0x2a, 0x32, 0xa9, 0x04, 0xf8,
  0xe4, 0xfc, 0xff, 0xe5, 0xf1, 0x08, 0x90, 0x4f, 0xcf, 0x11, 0xe3, 0x0b,
  0xa9, 0x40, 0x81, 0x12, 0xea, 0xef, 0x1d, 0x32, 0x4e, 0x16, 0xd5, 0x99,
  0xc6, 0xcb, 0xc8, 0xeb, 0xf0, 0xec, 0xf8, 0xf7, 0xfa, 0xf9, 0x01, 0x01,
  0xff, 0x02, 0xfd, 0x06, 0x08, 0x0b, 0x06, 0xfa, 0x04, 0xf7, 0xfa, 0xfb,
  0xf4, 0xf3, 0xd2, 0x0e, 0x67, 0x31, 0x27, 0x24, 0x14, 0x0a, 0x16, 0x03,
  0x0d, 0x05, 0x05, 0xfb, 0x01, 0xfb, 0xfc, 0xf9, 0xfd, 0xfa, 0x00, 0x01,
  0x07, 0x06, 0x02, 0x0b, 0x7f, 0x40, 0xe0, 0xdb, 0xf4, 0xec, 0xf8, 0xfa,
  0xf0, 0x02, 0xf4, 0xf7, 0x03, 0xff, 0x02, 0xfc, 0xfb, 0xfa, 0xfb, 0x06,
  0x03, 0x06, 0x08, 0xfd, 0x0c, 0xfe, 0xc4, 0x33, 0x25, 0x01, 0x19, 0x0a,
  0xfa, 0xff, 0x04, 0xfa, 0x0e, 0x06, 0xff, 0x04, 0x16, 0xdf, 0x18, 0xf9,
  0x27, 0xfe, 0xfa, 0xf5, 0xff, 0x0b, 0x36, 0x0b, 0x9d, 0xfe, 0x0d, 0x10,
  0x04, 0x0c, 0xf9, 0xf1, 0x01, 0xf6, 0x02, 0xf7, 0xee, 0xef, 0x0c, 0xe8,
  0x13, 0xfe, 0x33, 0xf1, 0x03, 0xe9, 0xd4, 0xf5, 0x1e, 0xd7, 0x81, 0x02,
  0x19, 0x07, 0x04, 0xfe, 0xf8, 0xf8, 0xfb, 0xf7, 0xf1, 0xfe, 0xf6, 0xe7,
  0x23, 0xe5, 0x21, 0xe4, 0x20, 0xe5, 0x11, 0xe8, 0xcc, 0x07, 0x1e, 0xe3,
  0x29, 0x1e, 0x05, 0x02, 0x09, 0x05, 0x05, 0xf9, 0x03, 0xf6, 0xfe, 0xfb,
  0xfb, 0xf5, 0xf8, 0xfc, 0xfb, 0xf9, 0xff, 0xf7, 0xf9, 0xfa, 0x06, 0xf4,
  0x06, 0xe2, 0xcd, 0x09, 0xfb, 0x00, 0x09, 0x0d, 0x05, 0x05, 0x0e, 0x01,
  0x07, 0x05, 0x02, 0x00, 0x01, 0xff, 0xfb, 0xfb, 0x03, 0xfb, 0x01, 0xfc,
  0x04, 0xf0, 0x02, 0x01, 0xaa, 0xfd, 0xe9, 0xf4, 0xea, 0xfc, 0xfb, 0xf8,
  0x09, 0x02, 0x15, 0x0c, 0x15, 0x22, 0x24, 0x17, 0x17, 0x23, 0x24, 0x14,
  0x13, 0x1e, 0x08, 0x10, 0xff, 0x7f, 0x7f, 0xe2, 0xf1, 0xfc, 0x07, 0xfd,
  0xfc, 0xf8, 0xfe, 0xf9, 0x00, 0x15, 0xfe, 0x00, 0xfa, 0x0e, 0xfc, 0x02,
  0x01, 0x05, 0x01, 0x0b, 0x18, 0x11, 0x00, 0x15, 0x42, 0xb5, 0xf7, 0xfb,
  0x09, 0x02, 0x01, 0xff, 0x05, 0x01, 0x08, 0x02, 0xf2, 0xff, 0xfb, 0x02,
  0xff, 0x01, 0x03, 0xf3, 0xfd, 0xf2, 0x07, 0xef, 0xe2, 0x07, 0x41, 0xc7,
  0xed, 0xf0, 0x02, 0x00, 0xff, 0x06, 0xf8, 0x07, 0xff, 0xf8, 0xfd, 0x01,
  0xfe, 0xf8, 0x08, 0xfd, 0x0b, 0xf6, 0x11, 0xe7, 0x10, 0xf5, 0xe9, 0x14,
  0x69, 0xf1, 0xfa, 0xf9, 0x03, 0x06, 0xef, 0xfd, 0xf2, 0xfe, 0xf4, 0xf7,
  0xf6, 0x06, 0x02, 0xf7, 0xef, 0x08, 0xf5, 0xef, 0xeb, 0xf4, 0xe8, 0xf7,
  0xf4, 0x1a, 0xfc, 0x3b, 0x60, 0x69, 0x3f, 0x4c, 0x59, 0x4b, 0x55, 0x57,
  0x4c, 0x40, 0x4d, 0x38, 0x45, 0x43, 0x36, 0x29, 0x3a, 0x5e, 0x49, 0x5a,
  0x42, 0x32, 0x05, 0xfe, 0x81, 0xdd, 0xa6, 0xa4, 0xba, 0xb0, 0xb2, 0xc2,
  0xb3, 0xb7, 0xc3, 0xd1, 0xb8, 0xbe, 0xb1, 0xd1, 0xc3, 0xc5, 0xda, 0xcc,
  0xde, 0xcf, 0xd7, 0xfa, 0xd3, 0xdd, 0x25, 0x10, 0x10, 0x09, 0x06, 0x1b,
  0xfc, 0x06, 0x2b, 0x14, 0x15, 0x1d, 0x19, 0x22, 0x1a, 0x1f, 0x32, 0x27,
  0x42, 0x16, 0x50, 0x55, 0x52, 0x4e, 0x38, 0x41, 0x13, 0xfb, 0x0d, 0x0c,
  0x0f, 0x11, 0x08, 0x00, 0x11, 0x06, 0x0d, 0x13, 0x16, 0x0a, 0x16, 0x0f,
  0x15, 0x05, 0x11, 0x06, 0x1e, 0x20, 0x16, 0x01, 0x17, 0x1f, 0xe1, 0xe7,
  0xe7, 0xf1, 0xf1, 0xe8, 0xf6, 0xec, 0xd4, 0xe1, 0xdd, 0xda, 0xde, 0xcb,
  0xe7, 0xc7, 0xc5, 0xbd, 0xb8, 0xb8, 0xbf, 0x81, 0x95, 0x86, 0xc7, 0xa0,
  0x08, 0x16, 0xf5, 0xfb, 0x07, 0xff, 0xf9, 0x0b, 0xf7, 0x02, 0x05, 0xf5,
  0x09, 0xfe, 0x02, 0xf9, 0xfe, 0xed, 0xfe, 0xfd, 0x06, 0xfc, 0x10, 0xf4,
  0x0b, 0xf2, 0x0b, 0x00, 0x05, 0xf3, 0xf3, 0xf3, 0xef, 0xfb, 0xf4, 0xfe,
  0xfd, 0xfe, 0x03, 0x07, 0x08, 0xfc, 0x03, 0xfc, 0xf3, 0x01, 0x06, 0x00,
  0x04, 0x0f, 0x14, 0x44, 0xd6, 0xf3, 0x27, 0xf2, 0x03, 0x02, 0x0b, 0xfa,
  0x03, 0x11, 0x00, 0x0f, 0xfe, 0x08, 0x0c, 0x0b, 0x07, 0x11, 0xe2, 0x0b,
  0xfe, 0x03, 0x00, 0x2e, 0x2a, 0x7f, 0xe4, 0x0f, 0xee, 0xf9, 0xe1, 0xdf,
  0x02, 0xee, 0xed, 0x0c, 0x12, 0x19, 0x23, 0x1e, 0x34, 0x47, 0x41, 0x48,
  0x50, 0x7f, 0x5b, 0x68, 0x4d, 0x49, 0x12, 0xed, 0x01, 0xf9, 0xf0, 0xf0,
  0xfc, 0xfc, 0xee, 0x15, 0xed, 0x04, 0xeb, 0xf0, 0xe6, 0xec, 0xdd, 0xe6,
  0xe5, 0xed, 0xf0, 0xde, 0xe5, 0xf1, 0xeb, 0x0b, 0xf1, 0x01, 0x32, 0xe9,
  0x15, 0x15, 0x1f, 0x26, 0x10, 0x09, 0x14, 0xff, 0x06, 0xef, 0xe9, 0xeb,
  0xe2, 0xd8, 0xe3, 0xce, 0xd3, 0xbe, 0xb4, 0xbb, 0xcb, 0xcc, 0xed, 0x0c,
  0x68, 0x19, 0x1c, 0x0d, 0x0f, 0x01, 0x16, 0x12, 0x10, 0x10, 0x10, 0x10,
  0x0f, 0x18, 0x0c, 0x15, 0xfb, 0x0e, 0x24, 0x2e, 0x32, 0x50, 0x4b, 0x55,
  0x38, 0x7f, 0x21, 0xec, 0x05, 0xf7, 0x09, 0x07, 0x0d, 0x03, 0x07, 0xfe,
  0x04, 0x01, 0x03, 0x10, 0xf8, 0xfa, 0x09, 0x0a, 0x09, 0x0d, 0xfd, 0x18,
  0xf9, 0x10, 0xf5, 0xf2, 0x8b, 0xd2, 0xef, 0xdf, 0xe7, 0xec, 0xe8, 0xf1,
  0xef, 0xe8, 0xe9, 0xe2, 0xec, 0xda, 0xe5, 0xec, 0xec, 0xe9, 0xdd, 0xc9,
  0xb6, 0xc9, 0xab, 0xc7, 0xc9, 0x9d, 0x8d, 0xb1, 0xb3, 0xb8, 0xc4, 0xb0,
  0xc6, 0xb7, 0xb9, 0xb4, 0xbd, 0xb1, 0xb4, 0xa8, 0xb5, 0xb2, 0xa7, 0x9f,
  0xa7, 0x9e, 0x85, 0x82, 0x82, 0x85, 0xa7, 0xb0, 0x09, 0x03, 0x10, 0x14,
  0x1b, 0x1a, 0x07, 0x24, 0x13, 0x21, 0x0c, 0x18, 0x15, 0x1c, 0x1a, 0x1c,
  0x22, 0x25, 0x26, 0x24, 0x39, 0x39, 0x25, 0x24, 0x05, 0x16, 0x7f, 0x43,
  0x38, 0x38, 0x36, 0x2a, 0x34, 0x20, 0x36, 0x30, 0x32, 0x37, 0x36, 0x39,
  0x32, 0x33, 0x2a, 0x34, 0x33, 0x3c, 0x45, 0x42, 0x54, 0x4c, 0x3e, 0x71,
  0x4c, 0x57, 0x67, 0x7c, 0x7f, 0x5b, 0x5a, 0x4a, 0x5f, 0x58, 0x4e, 0x5a,
  0x5d, 0x48, 0x50, 0x45, 0x30, 0x49, 0x29, 0x42, 0x59, 0x4f, 0x3e, 0x34,
  0x18, 0x19, 0xd8, 0xdf, 0xd5, 0xcb, 0xd3, 0xd4, 0xd5, 0xdc, 0xcc, 0xe3,
  0xd9, 0xe3, 0xdb, 0xe1, 0xe3, 0xf1, 0xe6, 0xea, 0xeb, 0xe8, 0xe3, 0xd6,
  0xe4, 0xfe, 0xff, 0xe8, 0xc9, 0xca, 0xcb, 0xb2, 0xc0, 0xb6, 0xda, 0xe2,
  0xcb, 0xd8, 0xcc, 0xd2, 0xd5, 0xd7, 0xd5, 0xd7, 0xe3, 0xba, 0xe1, 0xe7,
  0xda, 0xc5, 0x02, 0xbd, 0xf3, 0xe9, 0xd3, 0x39, 0xff, 0xfe, 0x04, 0x00,
  0x01, 0x01, 0xf9, 0xfe, 0x00, 0xfd, 0xfc, 0xfd, 0xfa, 0x00, 0xfb, 0xfc,
  0xfe, 0xfb, 0xfe, 0x03, 0x09, 0x01, 0x04, 0xff, 0x7f, 0xf2, 0xf7, 0x04,
  0x03, 0xff, 0x02, 0x00, 0x04, 0x02, 0x05, 0x05, 0x05, 0x06, 0x02, 0x03,
  0x02, 0x07, 0x02, 0x06, 0x00, 0x07, 0x0a, 0x04, 0x10, 0x07, 0x07, 0xd4,
  0x08, 0xfb, 0x01, 0xf9, 0xfb, 0xfc, 0x04, 0xfc, 0xfc, 0x00, 0xfb, 0xfc,
  0xfc, 0xfa, 0x01, 0xfb, 0xfe, 0xfe, 0xf3, 0xf6, 0xf7, 0xf5, 0x08, 0xee,
  0xe5, 0x05, 0x02, 0xfb, 0x00, 0x08, 0x06, 0x0a, 0xfd, 0x00, 0x06, 0x07,
  0x03, 0xff, 0x00, 0xfd, 0x02, 0xff, 0x0a, 0xfd, 0x04, 0xfc, 0x12, 0x01,
  0x02, 0xc6, 0x0f, 0x04, 0xfb, 0x07, 0x02, 0xf3, 0x06, 0xf6, 0xf6, 0xe8,
  0xef, 0xe4, 0xe6, 0xdd, 0xe4, 0xd0, 0xcf, 0xc6, 0xc2, 0xbc, 0xb0, 0xb3,
  0xc1, 0xb6, 0xdc, 0xc8, 0xfc, 0xf9, 0x00, 0xf7, 0xff, 0x05, 0xf7, 0xfc,
  0x09, 0x17, 0x0c, 0x19, 0x15, 0x24, 0x1c, 0x2f, 0x34, 0x34, 0x35, 0x34,
  0x49, 0x57, 0x43, 0x4e, 0x42, 0x7f, 0x81, 0x42, 0xdf, 0x04, 0x0f, 0xff,
  0x05, 0xf9, 0xde, 0xeb, 0x16, 0x15, 0xda, 0xe0, 0xf7, 0xff, 0x1f, 0x35,
  0xfd, 0xe3, 0xd2, 0xd2, 0xcc, 0xdf, 0x09, 0x2f, 0x0c, 0x2a, 0x09, 0xf9,
  0xfa, 0xf6, 0xfa, 0xf4, 0xfb, 0x10, 0xff, 0xf8, 0x04, 0xfa, 0xf8, 0xfa,
  0x05, 0x15, 0x05, 0x0c, 0x07, 0xf9, 0xf0, 0xf3, 0xf3, 0xff, 0x18, 0xde,
  0x03, 0x0f, 0x09, 0xf4, 0x04, 0x18, 0x1e, 0x15, 0xe9, 0x05, 0x1e, 0x01,
  0xea, 0x03, 0x16, 0xf3, 0xda, 0x2c, 0x23, 0x16, 0x0d, 0xf9, 0x07, 0x1d,
  0xaa, 0xba, 0xe8, 0x0c, 0xee, 0x10, 0x04, 0xe4, 0x30, 0xe3, 0xf1, 0xd2,
  0x3b, 0x05, 0x0b, 0x15, 0x10, 0xf4, 0xe0, 0x12, 0xf1, 0x61, 0x25, 0x25,
  0xfb, 0x68, 0x47, 0xff, 0xe4, 0x17, 0xff, 0x12, 0x0b, 0x0b, 0x3f, 0xff,
  0x01, 0xe7, 0x3d, 0xf4, 0x2d, 0xf9, 0x06, 0x02, 0xe1, 0xf0, 0x9b, 0xe1,
  0xce, 0x9f, 0xab, 0x6d, 0x5c, 0xea, 0xe2, 0x31, 0xe7, 0xea, 0xf6, 0x0f,
  0x30, 0xff, 0xe9, 0xeb, 0x11, 0xd7, 0x20, 0x0c, 0xdb, 0x01, 0x0d, 0xea,
  0xa8, 0x81, 0xdc, 0x8c, 0xb7, 0x64, 0xb9, 0xe1, 0xe8, 0xde, 0xe9, 0xe1,
  0xdb, 0xe6, 0xd6, 0xdb, 0xdb, 0xd3, 0xd3, 0xce, 0xdc, 0xd4, 0xce, 0xd3,
  0xcf, 0xc7, 0xb3, 0xa1, 0xae, 0xad, 0xcf, 0xc7, 0xe7, 0xf7, 0xe5, 0xef,
  0xf7, 0xe8, 0xed, 0xf2, 0xe9, 0xeb, 0xf0, 0xeb, 0xe7, 0xea, 0xf1, 0xe9,
  0xe4, 0xeb, 0xe4, 0xe8, 0xdb, 0xde, 0xd8, 0xe0, 0xf7, 0xec, 0x60, 0x28,
  0x29, 0x32, 0x2d, 0x2b, 0x2a, 0x2f, 0x38, 0x40, 0x34, 0x3c, 0x3d, 0x48,
  0x3f, 0x44, 0x4b, 0x4d, 0x4b, 0x5b, 0x6d, 0x7f, 0x78, 0x74, 0x3b, 0x56,
  0x76, 0xe4, 0xff, 0xff, 0x04, 0x00, 0x00, 0x00, 0x80, 0x00, 0x00, 0x00,
  0x9f, 0x83, 0x01, 0x00, 0x53, 0xdd, 0xff, 0xff, 0x4b, 0xde, 0xfe, 0xff,
  0x16, 0xb4, 0xff, 0xff, 0xaf, 0xa0, 0x00, 0x00, 0xee, 0xd0, 0xff, 0xff,
  0x95, 0xf4, 0xff, 0xff, 0xdc, 0xea, 0xff, 0xff, 0x5b, 0xdb, 0xff, 0xff,
  0xb5, 0xfb, 0xff, 0xff, 0xaf, 0x27, 0xff, 0xff, 0x13, 0xdd, 0xff, 0xff,
  0x6b, 0xca, 0xff, 0xff, 0xe3, 0xb8, 0xff, 0xff, 0x07, 0x6f, 0xff, 0xff,
  0x12, 0x07, 0x00, 0x00, 0xe6, 0xc8, 0xff, 0xff, 0x0e, 0xc2, 0x00, 0x00,
  0x18, 0xf1, 0xfe, 0xff, 0x75, 0xcf, 0xff, 0xff, 0x6f, 0xe8, 0xff, 0xff,
  0x0e, 0xe6, 0xff, 0xff, 0xcf, 0xea, 0xfe, 0xff, 0xaa, 0xd9, 0xff, 0xff,
  0x3a, 0x16, 0x00, 0x00, 0xa5, 0xfa, 0xff, 0xff, 0xcb, 0xe8, 0xff, 0xff,
  0x23, 0xc2, 0xff, 0xff, 0xbc, 0xe6, 0xff, 0xff, 0xf7, 0xb0, 0xff, 0xff,
  0x65, 0x03, 0x01, 0x00, 0x45, 0x05, 0x00, 0x00, 0x02, 0xe5, 0xff, 0xff,
  0x04, 0x00, 0x00, 0x00, 0x00, 0x0c, 0x00, 0x00, 0xfd, 0x02, 0xe4, 0x81,
  0x90, 0x15, 0xe4, 0xea, 0x08, 0x11, 0xfb, 0x0a, 0xc2, 0x22, 0xf5, 0x0c,
  0x10, 0x0e, 0x1c, 0xef, 0xfa, 0xeb, 0xe5, 0x08, 0xf2, 0x0c, 0x01, 0xde,
  0x19, 0x81, 0x04, 0x02, 0xfd, 0x17, 0x29, 0x8b, 0x96, 0x08, 0x1c, 0x01,
  0x2a, 0x0a, 0x0a, 0x13, 0xa7, 0x13, 0xfc, 0xf0, 0x24, 0xfc, 0xf1, 0xf1,
  0xfc, 0x07, 0x2e, 0xfc, 0xf7, 0xf9, 0xef, 0x1c, 0xcd, 0x90, 0xfe, 0xfe,
  0xff, 0xff, 0xf4, 0xc7, 0x00, 0xd7, 0xfa, 0xf3, 0xe8, 0xd4, 0xf9, 0xe7,
  0xe6, 0xf7, 0x02, 0x05, 0xd9, 0xfd, 0xea, 0x18, 0xef, 0x04, 0xf0, 0xf8,
  0xfc, 0x0e, 0xfb, 0x14, 0xe5, 0xbe, 0x0a, 0xf9, 0xa9, 0x08, 0x04, 0xdb,
  0x81, 0x07, 0x0b, 0xf1, 0x13, 0xfe, 0xfd, 0x09, 0xef, 0xfb, 0xe9, 0xdd,
  0x11, 0xfb, 0x28, 0xe4, 0x0b, 0x1d, 0x11, 0x18, 0x02, 0xfc, 0x12, 0x10,
  0xe8, 0xdf, 0xe1, 0xf0, 0xf5, 0x01, 0xfb, 0xc2, 0x74, 0x0a, 0xfa, 0xfd,
  0xf6, 0xd2, 0xfa, 0x07, 0xb5, 0xfd, 0xeb, 0x06, 0x08, 0x09, 0xe9, 0x00,
  0xfe, 0x0c, 0xfb, 0x15, 0x0a, 0xe0, 0x0a, 0x01, 0xff, 0xb9, 0xfc, 0xe7,
  0xe3, 0x02, 0xfe, 0x03, 0xf2, 0xf9, 0xf7, 0x05, 0x01, 0xf9, 0xfc, 0x02,
  0x01, 0xfc, 0x05, 0x0a, 0x0a, 0xff, 0xe6, 0x0f, 0xfa, 0x12, 0xf9, 0x11,
  0xf6, 0xfc, 0x03, 0xfd, 0x05, 0x04, 0x11, 0xfb, 0x1f, 0xfe, 0xf6, 0x00,
  0x01, 0x00, 0xf6, 0xf8, 0x01, 0x00, 0xf8, 0x00, 0x01, 0x00, 0x15, 0x13,
  0x02, 0x1d, 0xfc, 0xe6, 0xec, 0xfe, 0x06, 0xf3, 0xed, 0x00, 0xfe, 0xec,
  0x00, 0x00, 0x05, 0x00, 0xc2, 0x0a, 0x01, 0x81, 0x8a, 0x31, 0xfc, 0xd0,
  0x0e, 0x17, 0x0a, 0x09, 0xc3, 0x2d, 0xfa, 0xd6, 0x22, 0xdc, 0x36, 0xbb,
  0x26, 0xfa, 0x03, 0x02, 0xe8, 0xf6, 0x0e, 0xe9, 0x0b, 0x86, 0xdc, 0x05,
  0xe3, 0x11, 0x0f, 0xc8, 0xf6, 0xdd, 0x05, 0x10, 0x16, 0x17, 0xfc, 0x10,
  0xca, 0xf2, 0xda, 0x01, 0x0f, 0xc2, 0xda, 0x1e, 0xc7, 0xfd, 0x01, 0x05,
  0xf3, 0xe6, 0x05, 0x1f, 0x00, 0xc1, 0x08, 0xea, 0x07, 0xff, 0x04, 0x00,
  0x01, 0x00, 0x09, 0xf5, 0xff, 0x00, 0x01, 0xff, 0x00, 0x00, 0xf7, 0x03,
  0xff, 0x04, 0xf7, 0xf7, 0xf7, 0x06, 0xff, 0xf7, 0x14, 0x00, 0xf4, 0x0e,
  0x00, 0x00, 0xfb, 0x00, 0x02, 0xf6, 0x01, 0xfc, 0x0a, 0xd0, 0x05, 0xfd,
  0xd5, 0xd5, 0x02, 0xbf, 0x04, 0xac, 0xf9, 0x03, 0xe2, 0x04, 0xf2, 0x0a,
  0xdc, 0x11, 0x02, 0xe8, 0x0f, 0xf6, 0xd6, 0x04, 0x8c, 0x15, 0xfd, 0xd4,
  0xfa, 0xf2, 0xfa, 0x0d, 0x00, 0xd7, 0xf3, 0xf8, 0x9f, 0xce, 0xff, 0x81,
  0x0d, 0xa9, 0x01, 0x0d, 0xcf, 0xf5, 0xfa, 0x03, 0xe3, 0x06, 0xfc, 0xd7,
  0x04, 0xe8, 0xe5, 0xff, 0x81, 0x14, 0xf7, 0xcc, 0xf9, 0x15, 0xea, 0xff,
  0xfe, 0x01, 0x30, 0xf9, 0x03, 0xfe, 0xed, 0x03, 0xff, 0xf9, 0xf7, 0xec,
  0x05, 0xf0, 0xf5, 0xe2, 0x1d, 0x5e, 0x00, 0xff, 0xe9, 0x00, 0xf4, 0x13,
  0xd0, 0xff, 0xeb, 0xff, 0xf7, 0x04, 0xef, 0x26, 0xe5, 0xf0, 0x1d, 0xec,
  0xb8, 0xab, 0xfb, 0xb0, 0x29, 0xb6, 0xf0, 0xfe, 0xf3, 0x07, 0xf9, 0xf5,
  0xf8, 0x31, 0xfe, 0xf9, 0x28, 0xc6, 0xf0, 0xfc, 0xb8, 0x22, 0x00, 0xd0,
  0xfa, 0x08, 0xe6, 0x03, 0x81, 0x04, 0xff, 0xfc, 0xac, 0xc3, 0xf4, 0xa8,
  0x32, 0xe3, 0x0e, 0x00, 0xf2, 0x17, 0x1d, 0x00, 0xf4, 0xfe, 0x04, 0xdd,
  0x10, 0xe3, 0x09, 0xf0, 0xc7, 0x32, 0x06, 0xe8, 0x29, 0xfe, 0x0d, 0x01,
  0x01, 0x00, 0xe8, 0x2c, 0x00, 0x00, 0x0c, 0x01, 0x01, 0x00, 0x0f, 0x06,
  0xff, 0xea, 0xf5, 0x13, 0xf8, 0x04, 0xf8, 0xfd, 0xfa, 0x00, 0x04, 0x09,
  0x00, 0x00, 0x1c, 0x00, 0x08, 0xf4, 0xf4, 0xff, 0x01, 0xff, 0xdc, 0x06,
  0x00, 0x01, 0xf3, 0xff, 0x00, 0x01, 0x27, 0x04, 0x08, 0xe7, 0xfb, 0xf8,
  0xf4, 0xfb, 0xf8, 0xe5, 0xf6, 0x00, 0x0c, 0xee, 0x01, 0xff, 0xf3, 0x00,
  0x8c, 0x1c, 0xf0, 0x81, 0x89, 0x26, 0x0a, 0xb3, 0x1c, 0x17, 0xf8, 0x0d,
  0xd4, 0x0e, 0xcd, 0xba, 0x06, 0xdb, 0xfb, 0xb2, 0x23, 0xfa, 0x4b, 0x01,
  0xdd, 0x02, 0x4b, 0xcf, 0x06, 0x85, 0xb0, 0x0a, 0xd4, 0x06, 0xfd, 0xd2,
  0xc6, 0x06, 0xfc, 0xf7, 0x01, 0x00, 0xfa, 0xfc, 0xd5, 0x04, 0xf3, 0x00,
  0x05, 0xdb, 0x0a, 0x18, 0x09, 0xf8, 0x0d, 0xff, 0x0d, 0x07, 0x04, 0x03,
  0x07, 0xd3, 0xd4, 0x07, 0x81, 0x04, 0xee, 0xc7, 0xb5, 0x0f, 0x18, 0xdd,
  0x09, 0xff, 0xf4, 0x08, 0xcd, 0x0c, 0xec, 0xca, 0x01, 0xc1, 0x23, 0xef,
  0x19, 0x03, 0x0f, 0x03, 0x05, 0x01, 0x16, 0xf6, 0x06, 0xc8, 0xaa, 0x07,
  0x41, 0xfa, 0xf0, 0xd9, 0x1f, 0x0f, 0x0d, 0xd2, 0xf0, 0xf4, 0xee, 0x07,
  0xd3, 0x0b, 0xc3, 0xeb, 0x1c, 0x12, 0x04, 0xf1, 0xfd, 0xf4, 0xfd, 0x00,
  0xee, 0xe0, 0x0d, 0xdb, 0xf1, 0xc2, 0xea, 0xeb, 0x10, 0xfb, 0xe1, 0xc2,
  0x47, 0xeb, 0xe7, 0xf7, 0xee, 0x00, 0xdb, 0xfb, 0xcd, 0xe4, 0x11, 0x23,
  0xd7, 0x2f, 0x00, 0x00, 0x01, 0x07, 0xef, 0x07, 0xfc, 0x1c, 0xf9, 0xe4,
  0xe6, 0xb4, 0x1e, 0xf2, 0xf2, 0xe9, 0xac, 0xff, 0x00, 0x00, 0xcf, 0xd2,
  0x04, 0x02, 0x38, 0x02, 0xff, 0x00, 0xb9, 0xd2, 0x06, 0xf6, 0xdc, 0xff,
  0x81, 0xfc, 0x2c, 0x2a, 0xe8, 0x01, 0xd7, 0x81, 0xff, 0x00, 0xfa, 0x00,
  0xe4, 0x2c, 0x6d, 0xc6, 0xab, 0xd4, 0x14, 0x1b, 0x09, 0x12, 0x15, 0x04,
  0xc9, 0xd4, 0xd8, 0xf2, 0x7a, 0xe2, 0xde, 0xfc, 0xe2, 0xfc, 0x04, 0x11,
  0xf6, 0xf2, 0x1a, 0x41, 0x07, 0xc6, 0xfb, 0xed, 0xfe, 0xf6, 0x05, 0xdf,
  0xea, 0xf4, 0xf2, 0xfd, 0xe6, 0x04, 0x04, 0xf7, 0xe3, 0x09, 0xf2, 0xff,
  0xe6, 0xfe, 0xee, 0x00, 0xef, 0xf1, 0xf4, 0xfb, 0xef, 0x09, 0xec, 0xff,
  0x0c, 0xdf, 0x09, 0x02, 0xfa, 0x03, 0x19, 0x81, 0x99, 0x06, 0xf5, 0xf9,
  0x2d, 0x2c, 0x13, 0x04, 0xb6, 0x27, 0x03, 0xf5, 0x16, 0xfc, 0x10, 0xfb,
  0x0d, 0xf7, 0x19, 0xf6, 0xf3, 0xef, 0xf3, 0x0b, 0x06, 0x87, 0xff, 0x06,
  0xfd, 0x00, 0xc2, 0xae, 0xfb, 0x15, 0x13, 0x04, 0x01, 0x40, 0xdb, 0x03,
  0xaf, 0x1d, 0x01, 0x03, 0x1b, 0x06, 0x18, 0x01, 0xfe, 0x00, 0xec, 0xfa,
  0x03, 0xe1, 0xf9, 0xfa, 0xf2, 0xaf, 0xfd, 0xd5, 0x00, 0xfe, 0xef, 0x00,
  0x00, 0x01, 0xf1, 0x0e, 0x00, 0x00, 0xd0, 0x01, 0x00, 0x00, 0xfb, 0x00,
  0x01, 0xfc, 0xee, 0x10, 0xf9, 0xfa, 0xe9, 0x02, 0xfb, 0x00, 0x02, 0x00,
  0x00, 0x00, 0x02, 0x00, 0xfd, 0xf9, 0xc2, 0xa1, 0xc0, 0x04, 0xed, 0x01,
  0xe7, 0x16, 0xdd, 0xf4, 0xcf, 0x24, 0xee, 0x07, 0xf5, 0x04, 0xff, 0x08,
  0xea, 0xef, 0xed, 0xfc, 0xf4, 0x09, 0xee, 0xff, 0x0a, 0xa3, 0x02, 0x01,
  0xfc, 0x05, 0x22, 0x81, 0x85, 0x1a, 0x16, 0xed, 0x1f, 0x17, 0x29, 0x05,
  0xce, 0x1d, 0x05, 0xdb, 0x0b, 0x00, 0x09, 0xed, 0x0c, 0xfe, 0x1b, 0xf4,
  0xf8, 0x0e, 0xe5, 0x07, 0x0a, 0x84, 0xfd, 0x07, 0xfc, 0xff, 0xfb, 0x93,
  0xdb, 0xfb, 0x04, 0xfb, 0xf4, 0xe1, 0xfb, 0xf9, 0xae, 0xe8, 0xee, 0x03,
  0xfb, 0xfe, 0xf5, 0x00, 0xf9, 0xee, 0x04, 0x01, 0xec, 0xe9, 0xf7, 0x02,
  0xe7, 0x91, 0xfd, 0x64, 0xfd, 0x04, 0x04, 0x85, 0xa5, 0xf5, 0x05, 0xf4,
  0xea, 0xe0, 0x03, 0xf9, 0xbe, 0x0d, 0xf4, 0x01, 0xec, 0x03, 0xd7, 0xff,
  0x03, 0xfa, 0x02, 0xfb, 0xf3, 0x71, 0xe8, 0x0b, 0x14, 0x86, 0xfb, 0xef,
  0x02, 0x05, 0x0b, 0x81, 0xe3, 0x08, 0xfd, 0xf9, 0x53, 0x05, 0x01, 0xff,
  0xac, 0x06, 0x17, 0x00, 0xfe, 0xff, 0x34, 0xf8, 0xe9, 0xfc, 0xfc, 0xfa,
  0xfd, 0xea, 0xeb, 0x02, 0xf5, 0x84, 0x01, 0xf5, 0xc8, 0x09, 0x07, 0xa7,
  0xae, 0x1f, 0xf7, 0xf4, 0x12, 0x10, 0xed, 0x0a, 0xc0, 0x23, 0xf5, 0x1a,
  0x16, 0xde, 0x2d, 0x02, 0x07, 0xee, 0x12, 0x1d, 0xfb, 0x05, 0x0f, 0x08,
  0x21, 0xa5, 0xcc, 0x04, 0xfb, 0x04, 0x09, 0xf3, 0x08, 0x1f, 0xdb, 0x16,
  0x06, 0x1b, 0xf4, 0x24, 0xdc, 0x20, 0xec, 0x03, 0x14, 0xdc, 0x38, 0xe6,
  0x37, 0x03, 0x05, 0x1b, 0x16, 0x0a, 0x16, 0x04, 0x20, 0xf3, 0xbd, 0x09,
  0x7f, 0x04, 0x0d, 0x04, 0x20, 0x17, 0xbd, 0x0e, 0x0a, 0x00, 0xe4, 0x0c,
  0x16, 0x14, 0x8d, 0x33, 0x08, 0x7d, 0x02, 0xb2, 0x08, 0x12, 0xf3, 0xfa,
  0x0c, 0x06, 0x11, 0xd4, 0x07, 0x03, 0xfd, 0x0a, 0xfe, 0xfc, 0xee, 0x00,
  0xff, 0xff, 0xf5, 0x08, 0x01, 0x01, 0xee, 0x01, 0x00, 0x00, 0x03, 0x05,
  0x01, 0x09, 0xf1, 0x02, 0xf3, 0xf6, 0xeb, 0xf7, 0xf5, 0x01, 0xf8, 0xf6,
  0x00, 0x00, 0x0b, 0x00, 0xfa, 0xfe, 0xf2, 0x90, 0xa1, 0x0e, 0xf6, 0xf3,
  0xfe, 0x1c, 0x13, 0x01, 0xcd, 0x15, 0xf2, 0xf3, 0x03, 0xfc, 0x09, 0xff,
  0x02, 0xda, 0xf9, 0xed, 0xe2, 0x0f, 0xe4, 0xed, 0x13, 0x92, 0xf7, 0xff,
  0xf7, 0x13, 0x28, 0x81, 0x83, 0x0d, 0xfe, 0xff, 0x1e, 0x1e, 0x1f, 0x09,
  0xc0, 0x07, 0xfa, 0xf1, 0x1d, 0xec, 0x09, 0xf9, 0xfe, 0xf8, 0x2d, 0xfb,
  0xf8, 0xfa, 0x02, 0x10, 0xf3, 0x84, 0xef, 0x07, 0x03, 0xf8, 0xcd, 0x00,
  0x00, 0x02, 0x08, 0xfa, 0x01, 0x00, 0xc1, 0xff, 0x01, 0xff, 0x17, 0x14,
  0x05, 0x17, 0xd4, 0xdf, 0xdf, 0xc0, 0xc7, 0xa4, 0xba, 0x00, 0xd9, 0xee,
  0xff, 0x00, 0x20, 0x00, 0x03, 0xe6, 0xd5, 0xbb, 0xb5, 0xf3, 0x16, 0xf1,
  0x8d, 0x12, 0xe3, 0x88, 0xae, 0x09, 0x14, 0x1c, 0xeb, 0xfc, 0x39, 0xfd,
  0xe5, 0xb9, 0xca, 0x92, 0xab, 0x15, 0xd5, 0xf7, 0xf9, 0xba, 0x14, 0x04,
  0x02, 0x01, 0x23, 0xbe, 0xa1, 0x16, 0xfd, 0xfe, 0xfb, 0x1e, 0x2d, 0xf1,
  0xdb, 0x00, 0xc9, 0xe9, 0x11, 0xcb, 0x7f, 0x01, 0x0d, 0x03, 0x1a, 0xff,
  0x04, 0xf4, 0x0b, 0x30, 0xf0, 0xbf, 0xe1, 0x00, 0xef, 0xe6, 0x3a, 0xe5,
  0x24, 0x05, 0xf1, 0xdc, 0xf2, 0xa5, 0x0c, 0xe6, 0x05, 0xf8, 0xc1, 0xbd,
  0xdd, 0xea, 0xad, 0x01, 0x15, 0x04, 0x27, 0xfd, 0x21, 0xb2, 0x21, 0x33,
  0xe4, 0xfa, 0xd6, 0xcf, 0xde, 0x04, 0x0c, 0x03, 0xbc, 0x05, 0xfe, 0xa6,
  0xf0, 0xc4, 0xe9, 0xd9, 0x2b, 0xfb, 0xd3, 0xf6, 0x12, 0xdd, 0x8a, 0x18,
  0x06, 0x0a, 0xeb, 0xfc, 0xf7, 0xe5, 0x4a, 0x1c, 0xda, 0xf1, 0x01, 0xf4,
  0xea, 0x12, 0xea, 0xf9, 0x93, 0xf6, 0xe2, 0x90, 0xf0, 0xd3, 0xde, 0xca,
  0x13, 0xfb, 0xec, 0x03, 0x0a, 0xee, 0x81, 0xfc, 0xf9, 0xf5, 0xe7, 0xeb,
  0x03, 0xfa, 0x27, 0xf9, 0xbd, 0x06, 0x06, 0xfd, 0xe1, 0x8f, 0x02, 0xfe,
  0xb9, 0x8d, 0xfb, 0xf9, 0x06, 0x06, 0x04, 0xf8, 0x16, 0xe3, 0x11, 0x11,
  0xaf, 0xde, 0xfc, 0xac, 0xf8, 0x17, 0xfb, 0xfe, 0xe6, 0xfb, 0x21, 0xff,
  0xed, 0x06, 0xee, 0xf7, 0x3a, 0x81, 0x11, 0xf5, 0x36, 0x85, 0x14, 0xd4,
  0x09, 0xf5, 0x0d, 0xe0, 0xfc, 0xd1, 0x0d, 0x0a, 0xa5, 0xcc, 0xdd, 0xc0,
  0x00, 0x47, 0x04, 0xfb, 0xd1, 0xfc, 0x1f, 0x1d, 0xa2, 0xf5, 0xb0, 0xf7,
  0xd4, 0xa7, 0x13, 0x09, 0x06, 0x8f, 0x21, 0xd2, 0xd5, 0x96, 0x0c, 0x94,
  0x32, 0xd8, 0xf9, 0x01, 0x94, 0xc6, 0xde, 0xb7, 0x1b, 0x25, 0x00, 0xff,
  0xdf, 0xd0, 0x22, 0x21, 0xaa, 0x34, 0xc8, 0xe8, 0x05, 0xe5, 0x81, 0xad,
  0xfb, 0xf3, 0xf4, 0xc0, 0xcf, 0xef, 0x9b, 0xef, 0xbf, 0xe7, 0xca, 0x44,
  0xc6, 0x35, 0xbd, 0xce, 0x03, 0x05, 0xd8, 0x05, 0xf6, 0xef, 0xf7, 0xd4,
  0xe5, 0xa9, 0x04, 0x52, 0xf8, 0x10, 0x5b, 0xf7, 0x0b, 0x40, 0xfd, 0xf6,
  0x04, 0x07, 0x26, 0x0c, 0x0d, 0x0f, 0xc1, 0xf8, 0x16, 0xfb, 0x10, 0xd5,
  0x05, 0x01, 0xd4, 0x1b, 0xe7, 0x03, 0xf1, 0x01, 0x0a, 0xf7, 0x1a, 0x0d,
  0xe7, 0x37, 0x58, 0xf7, 0x10, 0x73, 0xf8, 0x25, 0x00, 0x10, 0x0f, 0x05,
  0x03, 0x33, 0xbd, 0xda, 0x4d, 0xd6, 0x46, 0x2d, 0xef, 0x04, 0xc9, 0x04,
  0x03, 0x16, 0xf5, 0x5f, 0x19, 0xf6, 0x1c, 0xf5, 0x06, 0xfb, 0x09, 0xff,
  0x00, 0x01, 0xfa, 0xfb, 0x01, 0x01, 0x08, 0x00, 0x01, 0x01, 0xf2, 0x00,
  0x01, 0x08, 0xf8, 0x00, 0xfd, 0x03, 0x08, 0xfe, 0xe4, 0x00, 0x18, 0xf2,
  0x01, 0xff, 0x07, 0x01, 0xf2, 0xf0, 0x09, 0x0a, 0xc3, 0xad, 0x14, 0xf2,
  0xd0, 0x07, 0x10, 0xb9, 0xff, 0xa1, 0x15, 0x03, 0xbf, 0x04, 0xc8, 0x05,
  0x9c, 0xa2, 0x0b, 0xd3, 0x9f, 0x13, 0xc6, 0xf6, 0xb1, 0x23, 0xeb, 0xf8,
  0x12, 0xe1, 0x0d, 0xb7, 0x36, 0xf6, 0x3d, 0xd2, 0x85, 0x03, 0x0c, 0x81,
  0xc3, 0xfd, 0x29, 0x43, 0xb2, 0x0d, 0xe8, 0x2f, 0xb6, 0xc4, 0x05, 0x9e,
  0x93, 0x0d, 0x95, 0x14, 0xfc, 0xb9, 0xf0, 0x0a, 0x00, 0x01, 0xf0, 0xdd,
  0x21, 0xfc, 0x04, 0x10, 0x08, 0xf7, 0xe3, 0x01, 0xf0, 0xf5, 0xfd, 0xfe,
  0x00, 0xfc, 0x1e, 0x0f, 0x08, 0x19, 0x13, 0x03, 0xf2, 0xf8, 0x0a, 0x02,
  0xfa, 0xdf, 0xfc, 0xfa, 0x05, 0xf6, 0xe0, 0x10, 0xda, 0xf9, 0x0e, 0xf3,
  0xf9, 0xf5, 0xd4, 0xff, 0xe5, 0xf9, 0xfb, 0x04, 0xfd, 0x00, 0xff, 0xfe,
  0x0e, 0x0d, 0xf5, 0x03, 0xec, 0xf8, 0x27, 0xfa, 0xfb, 0x04, 0x0c, 0xfd,
  0xfc, 0xef, 0xcc, 0xe6, 0x81, 0xf3, 0x00, 0xe6, 0xfc, 0xf8, 0xce, 0xfe,
  0xe2, 0xfc, 0xf1, 0xfd, 0xf0, 0xfe, 0x0e, 0xfb, 0x08, 0x03, 0xf1, 0x02,
  0xf2, 0xfa, 0x24, 0xee, 0xfc, 0xfe, 0x05, 0xfd, 0xfd, 0x04, 0xf6, 0x16,
  0xe4, 0xf9, 0x16, 0xfb, 0xfc, 0xd3, 0xef, 0xdf, 0x1d, 0xc9, 0xe6, 0xf8,
  0xf7, 0x05, 0xfd, 0x0b, 0x05, 0x12, 0xf9, 0xfa, 0x00, 0xeb, 0xf4, 0x03,
  0xa1, 0x19, 0xfb, 0xce, 0xfb, 0x00, 0xf6, 0x19, 0x1e, 0xcd, 0x07, 0xfa,
  0xb6, 0xa8, 0xf8, 0xac, 0x2a, 0xa7, 0xea, 0xfa, 0xe4, 0x07, 0xfa, 0x07,
  0xfb, 0x13, 0x02, 0xf7, 0x05, 0xcb, 0xfe, 0x02, 0x97, 0x1b, 0xf8, 0xd0,
  0xf3, 0xf6, 0xed, 0x14, 0x09, 0xd8, 0x09, 0xf1, 0xa8, 0xbd, 0xee, 0x81,
  0x2a, 0xa8, 0x01, 0x0c, 0xde, 0xfd, 0x10, 0x0d, 0xf1, 0xed, 0xf3, 0xde,
  0x05, 0xdc, 0x01, 0xfb, 0x93, 0x22, 0xf0, 0xd6, 0xfa, 0x06, 0x09, 0x00,
  0x01, 0x02, 0xfb, 0xfe, 0x00, 0xff, 0x06, 0x00, 0x00, 0x01, 0xf8, 0xf8,
  0x00, 0xef, 0x08, 0x0a, 0x07, 0xfd, 0x29, 0x06, 0x1b, 0x00, 0x02, 0x04,
  0x00, 0xff, 0xf0, 0x01, 0x00, 0x09, 0x06, 0xff, 0x01, 0x02, 0x19, 0xfd,
  0x00, 0x00, 0x05, 0x01, 0xff, 0x01, 0xf6, 0xea, 0x00, 0xfa, 0x11, 0xff,
  0x1b, 0x14, 0x05, 0x0e, 0x10, 0x00, 0x0c, 0x13, 0x03, 0xff, 0xfe, 0x00,
  0xfa, 0xfe, 0xfc, 0xdb, 0x81, 0x0c, 0xf2, 0xfa, 0xea, 0xdc, 0xfd, 0xf7,
  0xf1, 0x0e, 0x11, 0x07, 0xf1, 0x0d, 0xe5, 0xfb, 0x04, 0x00, 0xe6, 0x04,
  0xff, 0xea, 0x0a, 0xf6, 0x03, 0xf4, 0x14, 0xfa, 0xd7, 0x04, 0xfd, 0x98,
  0x81, 0x01, 0x02, 0xe7, 0x0b, 0x14, 0x01, 0x05, 0xae, 0x06, 0x01, 0xf3,
  0x08, 0x00, 0xef, 0x07, 0xff, 0xe9, 0xf9, 0xf5, 0xf4, 0x02, 0x07, 0xfe,
  0x0e, 0x9a, 0xfa, 0x20, 0xf4, 0x03, 0x02, 0x9b, 0x8b, 0xff, 0x00, 0xff,
  0x18, 0x45, 0x05, 0x01, 0xa6, 0x14, 0x03, 0xec, 0x06, 0xfd, 0x06, 0x04,
  0xf1, 0xe1, 0x01, 0xf1, 0xf4, 0xf1, 0xf0, 0x03, 0x07, 0x9d, 0xf1, 0xff,
  0xaf, 0xfc, 0x05, 0xc7, 0xac, 0xfa, 0xfd, 0x00, 0xf4, 0x01, 0x04, 0xf8,
  0xd2, 0xfb, 0x10, 0xf8, 0xee, 0x01, 0x01, 0xfd, 0x08, 0xea, 0x06, 0xe2,
  0xf8, 0x42, 0xf0, 0xf9, 0xf6, 0xca, 0xea, 0xf4, 0x26, 0xf1, 0x10, 0x01,
  0x03, 0x00, 0x0a, 0x09, 0x00, 0xff, 0x05, 0x02, 0x01, 0x00, 0x0b, 0x2b,
  0x00, 0x16, 0x00, 0xec, 0xf0, 0x06, 0x02, 0x06, 0x06, 0x00, 0xfc, 0x06,
  0x00, 0x01, 0x0b, 0xff, 0x14, 0xf0, 0x28, 0x00, 0x00, 0x00, 0xfb, 0x02,
  0x01, 0x01, 0x40, 0x02, 0x00, 0x01, 0x1b, 0x1d, 0x00, 0xee, 0x29, 0xe7,
  0xf6, 0x0a, 0x1a, 0x0e, 0x0c, 0x01, 0xf3, 0xf4, 0x01, 0x00, 0xf5, 0x00,
  0xd7, 0xff, 0x61, 0x00, 0xff, 0x01, 0xf8, 0xb3, 0x01, 0x00, 0x67, 0x01,
  0x00, 0x02, 0x1d, 0xc0, 0xff, 0x81, 0x4e, 0xc7, 0x0d, 0xff, 0x16, 0x25,
  0xf6, 0x00, 0xf6, 0x00, 0x01, 0x00, 0xd1, 0x01, 0x09, 0xfe, 0x3c, 0x01,
  0x02, 0xff, 0x06, 0x0c, 0xfe, 0x02, 0x0d, 0xff, 0x01, 0x00, 0x0f, 0xff,
  0xfc, 0xf6, 0x02, 0xff, 0x24, 0xe6, 0x08, 0x16, 0x3b, 0x00, 0x1b, 0x3d,
  0x03, 0x00, 0x0e, 0x00, 0x12, 0xb0, 0x17, 0xdf, 0x27, 0x91, 0x04, 0x2e,
  0xdf, 0xf4, 0x16, 0x0a, 0xaa, 0xcb, 0x1b, 0x0f, 0x81, 0x17, 0xc7, 0x36,
  0xff, 0x09, 0xfa, 0x0e, 0x33, 0xec, 0xef, 0x1c, 0xfc, 0xed, 0x09, 0xf9,
  0xfd, 0xd7, 0x11, 0x9e, 0x03, 0x86, 0x07, 0x0e, 0xd4, 0xf4, 0x24, 0x00,
  0x02, 0xae, 0x1d, 0xf9, 0x9f, 0xf5, 0xc5, 0x0d, 0xfb, 0x0a, 0x0b, 0xfb,
  0x2f, 0xf5, 0xed, 0x11, 0xe6, 0xf2, 0xf7, 0xe6, 0xf8, 0xfe, 0x00, 0x00,
  0x00, 0x00, 0xfd, 0xf8, 0x01, 0x00, 0xfd, 0x00, 0x00, 0x00, 0xfe, 0xf7,
  0x00, 0xfd, 0xff, 0xff, 0xfc, 0xfb, 0x01, 0xff, 0xf6, 0x00, 0x01, 0xff,
  0x00, 0x00, 0xf8, 0x00, 0xff, 0xfe, 0x00, 0x81, 0xdf, 0xf2, 0xfe, 0xf7,
  0xf8, 0xd6, 0x02, 0x05, 0xba, 0xd1, 0xf4, 0x05, 0x01, 0x01, 0xfb, 0xfe,
  0xfe, 0xf0, 0x04, 0x01, 0xef, 0xde, 0xfe, 0xfa, 0xe1, 0x85, 0xfd, 0x78,
  0xff, 0x03, 0x04, 0x90, 0xdc, 0xfb, 0x03, 0xf8, 0xd0, 0xdd, 0x04, 0xf6,
  0xe5, 0xec, 0x04, 0xf9, 0xee, 0xfc, 0x06, 0xfd, 0x11, 0xf8, 0x00, 0xfe,
  0xf4, 0x67, 0xf9, 0x09, 0x01, 0x91, 0xff, 0xec, 0x02, 0xfd, 0x03, 0xff,
  0xff, 0xe4, 0x0a, 0x09, 0x08, 0xfc, 0x00, 0xfc, 0x0b, 0xf3, 0x01, 0x00,
  0xfd, 0xfe, 0xf4, 0x05, 0x07, 0x0e, 0xfd, 0xf9, 0x00, 0xfc, 0x0b, 0x0b,
  0xee, 0x02, 0xff, 0xfa, 0x03, 0xf3, 0x04, 0x00, 0xd8, 0xe5, 0x04, 0x07,
  0xf5, 0xe8, 0x04, 0xea, 0x18, 0xfc, 0x00, 0x03, 0xf0, 0xff, 0xf0, 0x02,
  0x04, 0x01, 0x00, 0xf7, 0x05, 0xdb, 0x13, 0x07, 0xfe, 0x19, 0xfd, 0xf2,
  0x02, 0xf0, 0x06, 0xb9, 0xaf, 0x09, 0xf9, 0xf9, 0xe9, 0x0a, 0x05, 0xef,
  0x81, 0x20, 0xfb, 0xf4, 0xec, 0x00, 0x04, 0xfb, 0x02, 0xf4, 0x0a, 0xf0,
  0x0b, 0xf3, 0x11, 0xfc, 0x24, 0xba, 0xf9, 0x08, 0x09, 0xf7, 0x06, 0xe1,
  0x03, 0xee, 0x07, 0x01, 0xf0, 0xf5, 0x03, 0xf5, 0xe7, 0xe2, 0xfd, 0x0a,
  0xee, 0x01, 0x00, 0xf2, 0xf0, 0xfd, 0x05, 0xf8, 0xea, 0xfb, 0xfb, 0x00,
  0xec, 0xe0, 0x02, 0xfc, 0xff, 0xee, 0x01, 0x01, 0x00, 0xff, 0x08, 0xee,
  0x03, 0x00, 0xf9, 0xff, 0x00, 0x00, 0x02, 0x0e, 0xff, 0x00, 0xf6, 0xfd,
  0xd8, 0xf5, 0x01, 0xfc, 0xe3, 0x00, 0xf3, 0xf9, 0xff, 0x01, 0x03, 0x00,
  0xf6, 0x00, 0x08, 0x81, 0x9b, 0x21, 0xfd, 0xdc, 0x1f, 0x0f, 0x04, 0x05,
  0xa4, 0x30, 0xfb, 0xf8, 0x20, 0xfb, 0xfe, 0xe1, 0x28, 0xf5, 0xf6, 0x2f,
  0xe2, 0x0e, 0xd1, 0x07, 0x0c, 0x82, 0x05, 0x13, 0xfc, 0x07, 0xf5, 0xe1,
  0xf3, 0xf3, 0xc2, 0xfa, 0x08, 0x0d, 0xfc, 0x14, 0x05, 0xe3, 0x01, 0x0a,
  0xf8, 0xfb, 0xfc, 0x08, 0x02, 0x09, 0xff, 0xf8, 0x09, 0xf2, 0xf4, 0xf8,
  0xfd, 0xe5, 0xf8, 0xfc, 0x0d, 0xf9, 0xff, 0xd4, 0x26, 0xed, 0x9b, 0x0b,
  0xec, 0xf7, 0x01, 0x02, 0x2c, 0xd5, 0x08, 0x13, 0xea, 0x0c, 0xf2, 0xf5,
  0xe8, 0x08, 0xf8, 0x0a, 0x04, 0xfc, 0xf2, 0xe8, 0xee, 0xd4, 0xf8, 0xf9,
  0x00, 0xfb, 0x06, 0xf5, 0xc7, 0x06, 0x81, 0x04, 0xd6, 0xf7, 0x08, 0xeb,
  0xcc, 0xfa, 0xfd, 0x0f, 0xf5, 0xf3, 0x07, 0xf3, 0xe6, 0x06, 0xfe, 0xf5,
  0x14, 0x00, 0xe5, 0xfc, 0x08, 0xff, 0xff, 0xfe, 0xf0, 0xff, 0xf7, 0x82,
  0xed, 0x0a, 0xf9, 0xf5, 0xf2, 0x11, 0xf8, 0xf2, 0x9c, 0x17, 0xfc, 0xeb,
  0xfb, 0xfd, 0x07, 0xf9, 0xfe, 0xf6, 0xf9, 0xf5, 0xf3, 0x18, 0x00, 0xf8,
  0x19, 0x85, 0xfc, 0xd7, 0xf5, 0x03, 0x10, 0x8e, 0xc0, 0xff, 0x03, 0xfa,
  0xd5, 0xe6, 0x06, 0xf8, 0xed, 0xd6, 0xfb, 0xf4, 0xe9, 0xff, 0xf3, 0xff,
  0x08, 0xf8, 0xf8, 0xf5, 0xed, 0x77, 0xfd, 0x00, 0x11, 0x8f, 0xf7, 0xf1,
  0xf2, 0x06, 0xf5, 0x81, 0xa1, 0xeb, 0xfd, 0xff, 0xfb, 0xe9, 0x03, 0x08,
  0x0c, 0xde, 0xf5, 0x00, 0x0d, 0xf9, 0x09, 0x08, 0x11, 0xf2, 0x19, 0xfd,
  0xf8, 0xe9, 0xff, 0x05, 0xe4, 0x82, 0xf0, 0x6e, 0xf5, 0x06, 0x14, 0xd6,
  0xc5, 0x11, 0x28, 0x07, 0x0b, 0xe5, 0x2f, 0x0e, 0x1e, 0x07, 0x12, 0xff,
  0x02, 0xef, 0x33, 0x0e, 0xf6, 0xfe, 0xe3, 0x09, 0x25, 0xdb, 0x03, 0x14,
  0xff, 0xd6, 0xf7, 0xde, 0xe6, 0x0d, 0x0b, 0xde, 0x81, 0xfc, 0xec, 0xfe,
  0xeb, 0xdb, 0x19, 0xff, 0x42, 0xeb, 0x23, 0xfa, 0x0c, 0xf7, 0xf8, 0x05,
  0xfa, 0x0c, 0xcc, 0x0a, 0x0f, 0xd5, 0xff, 0x05, 0x0b, 0xeb, 0xfc, 0xe9,
  0x1a, 0xf9, 0xf7, 0x00, 0x00, 0x01, 0xe8, 0x0e, 0x01, 0x00, 0xe0, 0x02,
  0x00, 0x01, 0xfc, 0x10, 0x02, 0x2a, 0xb6, 0xfa, 0xf1, 0x1a, 0xce, 0xf3,
  0xd7, 0x00, 0x02, 0x04, 0x00, 0xff, 0x2c, 0x00, 0x03, 0xe8, 0xfe, 0x06,
  0x3f, 0xe8, 0x43, 0xa4, 0xa6, 0xe4, 0x09, 0x9e, 0xce, 0xd7, 0x02, 0x03,
  0xe6, 0x07, 0xb9, 0xda, 0xef, 0xc0, 0xf7, 0x81, 0xc1, 0x04, 0xc9, 0xea,
  0xc4, 0xd0, 0x01, 0x07, 0x0c, 0xfa, 0xe9, 0xff, 0x00, 0xff, 0x14, 0xec,
  0x00, 0x01, 0xe6, 0xff, 0x00, 0x00, 0x0d, 0x07, 0x01, 0xf2, 0xe3, 0xf8,
  0xe9, 0xde, 0xdc, 0xae, 0xe6, 0x01, 0xe4, 0x24, 0x00, 0xff, 0x27, 0x01,
  0x17, 0xc9, 0x08, 0xca, 0x25, 0xd9, 0x02, 0x09, 0xb6, 0xd1, 0xf6, 0x9f,
  0xe0, 0xbd, 0x1f, 0x09, 0xcc, 0xfe, 0xe5, 0x18, 0xdd, 0xee, 0xf9, 0xb8,
  0xd1, 0x15, 0xb9, 0xf2, 0xaa, 0xeb, 0x0f, 0xf5, 0x08, 0x0c, 0xef, 0x00,
  0x01, 0x05, 0xe3, 0x0c, 0xff, 0xff, 0xf9, 0x01, 0x00, 0x01, 0x0a, 0xf3,
  0xff, 0x06, 0x17, 0xfd, 0x22, 0xf6, 0x0d, 0x08, 0x0b, 0x00, 0x1c, 0xee,
  0x00, 0x00, 0xf8, 0x00, 0xfc, 0x0a, 0xf3, 0xe5, 0xfe, 0xf9, 0xe3, 0x10,
  0xd7, 0xf3, 0xf6, 0xe8, 0xf8, 0xc6, 0xeb, 0x12, 0x07, 0x0a, 0x16, 0xf1,
  0xf3, 0xf0, 0x0b, 0xf0, 0x0b, 0xf3, 0x13, 0xe8, 0xdc, 0x0c, 0xf2, 0xf3,
  0xf6, 0x08, 0xed, 0xfc, 0xfc, 0x00, 0xf8, 0x14, 0xff, 0x16, 0x09, 0xfc,
  0xfd, 0xf9, 0x07, 0xfa, 0x06, 0x05, 0x1d, 0xdf, 0xcd, 0x81, 0x07, 0xb2,
  0x1e, 0xff, 0xb2, 0xd7, 0x07, 0xfd, 0xdb, 0xfe, 0x3c, 0xc9, 0xff, 0xff,
  0x12, 0xf1, 0xff, 0xff, 0x04, 0x00, 0x00, 0x00, 0x80, 0x00, 0x00, 0x00,
  0x00, 0x00, 0x00, 0x00, 0x00, 0x00, 0x00, 0x00, 0x00, 0x00, 0x00, 0x00,
  0x00, 0x00, 0x00, 0x00, 0x00, 0x00, 0x00, 0x00, 0x00, 0x00, 0x00, 0x00,
  0x00, 0x00, 0x00, 0x00, 0x00, 0x00, 0x00, 0x00, 0x00, 0x00, 0x00, 0x00,
  0x00, 0x00, 0x00, 0x00, 0x00, 0x00, 0x00, 0x00, 0x00, 0x00, 0x00, 0x00,
  0x00, 0x00, 0x00, 0x00, 0x00, 0x00, 0x00, 0x00, 0x00, 0x00, 0x00, 0x00,
  0x00, 0x00, 0x00, 0x00, 0x00, 0x00, 0x00, 0x00, 0x00, 0x00, 0x00, 0x00,
  0x00, 0x00, 0x00, 0x00, 0x00, 0x00, 0x00, 0x00, 0x00, 0x00, 0x00, 0x00,
  0x00, 0x00, 0x00, 0x00, 0x00, 0x00, 0x00, 0x00, 0x00, 0x00, 0x00, 0x00,
  0x00, 0x00, 0x00, 0x00, 0x00, 0x00, 0x00, 0x00, 0x00, 0x00, 0x00, 0x00,
  0x00, 0x00, 0x00, 0x00, 0x00, 0x00, 0x00, 0x00, 0x00, 0x00, 0x00, 0x00,
  0x00, 0x00, 0x00, 0x00, 0x00, 0x00, 0x00, 0x00, 0x9e, 0xf1, 0xff, 0xff,
  0x04, 0x00, 0x00, 0x00, 0x20, 0x00, 0x00, 0x00, 0xae, 0x1e, 0xc5, 0x7f,
  0xb9, 0x80, 0x13, 0xbf, 0xf1, 0x70, 0xc9, 0x52, 0xde, 0x01, 0x52, 0xcc,
  0x0c, 0x37, 0x04, 0x3a, 0xd4, 0x49, 0x56, 0xb4, 0xc7, 0xe6, 0x04, 0x62,
  0x5e, 0x4a, 0x16, 0x68, 0xca, 0xf1, 0xff, 0xff, 0x04, 0x00, 0x00, 0x00,
  0x20, 0x00, 0x00, 0x00, 0x1d, 0x23, 0x0d, 0xcf, 0xeb, 0x1c, 0x4a, 0x06,
  0x19, 0x32, 0x11, 0xdd, 0xfa, 0xed, 0x12, 0x7f, 0xd6, 0xeb, 0x0b, 0x07,
  0xe1, 0x38, 0xc3, 0xcf, 0x35, 0x2d, 0xfe, 0xff, 0x1c, 0xfb, 0xb8, 0xc9,
  0xf6, 0xf1, 0xff, 0xff, 0x04, 0x00, 0x00, 0x00, 0x20, 0x00, 0x00, 0x00,
  0xe8, 0xee, 0xe5, 0x7f, 0x3f, 0xd5, 0x09, 0xdf, 0xeb, 0xe3, 0xea, 0x80,
  0x1d, 0x2e, 0x37, 0x07, 0xd8, 0x27, 0x16, 0x53, 0xdb, 0xe6, 0xcc, 0xea,
  0xec, 0xec, 0xef, 0x3b, 0xe3, 0xec, 0x45, 0x1d, 0x22, 0xf2, 0xff, 0xff,
  0x04, 0x00, 0x00, 0x00, 0x00, 0x0c, 0x00, 0x00, 0x09, 0x15, 0xf8, 0x00,
  0xff, 0x01, 0x1c, 0x0a, 0x06, 0x0e, 0xfe, 0xff, 0xff, 0xe5, 0xfc, 0xb9,
  0xff, 0xf9, 0xfc, 0xff, 0x00, 0xf9, 0xff, 0xfc, 0x00, 0x04, 0xfc, 0xf0,
  0x07, 0xfc, 0xe9, 0x04, 0x01, 0x0f, 0x07, 0x01, 0xff, 0x0e, 0x05, 0x0a,
  0x05, 0xff, 0xff, 0xfa, 0xf8, 0xe7, 0x07, 0xe9, 0xff, 0xf0, 0xf8, 0x04,
  0x10, 0xe1, 0xfa, 0xf9, 0xf7, 0x04, 0xfb, 0xfa, 0xf3, 0x04, 0xf3, 0xec,
  0xef, 0xf4, 0xf2, 0x0a, 0x08, 0xee, 0xe0, 0xf0, 0xf1, 0xfb, 0xe9, 0x00,
  0xfc, 0xf0, 0xf8, 0x81, 0xf6, 0x04, 0x1a, 0xfc, 0xfe, 0xe2, 0xf9, 0x0d,
  0xe6, 0xf9, 0xf6, 0x1a, 0xe4, 0xfe, 0x05, 0xf6, 0xfd, 0x02, 0xff, 0x00,
  0xff, 0xff, 0xff, 0x00, 0x03, 0xff, 0x02, 0x00, 0x02, 0x03, 0xfb, 0x0a,
  0xff, 0x00, 0x00, 0xff, 0xff, 0x02, 0x04, 0x01, 0x05, 0x00, 0x02, 0x05,
  0x01, 0x02, 0x0d, 0xfe, 0x03, 0x00, 0x03, 0x02, 0xfe, 0xfa, 0xfd, 0xfd,
  0xfb, 0xfa, 0xff, 0x00, 0x03, 0xfe, 0x02, 0x08, 0x01, 0x02, 0xfc, 0x00,
  0xf9, 0x0a, 0x08, 0x04, 0xfe, 0xf5, 0xf2, 0x04, 0xff, 0xfa, 0x01, 0xff,
  0xfa, 0xff, 0x03, 0xe5, 0xef, 0x01, 0x08, 0x05, 0xfd, 0xff, 0x03, 0xff,
  0xfe, 0x08, 0xf1, 0x81, 0xff, 0xac, 0xf7, 0xd4, 0xfe, 0x09, 0x00, 0xec,
  0xfc, 0xee, 0x03, 0xd0, 0x03, 0xf1, 0xf0, 0xfa, 0x00, 0xed, 0x0a, 0xfe,
  0xf9, 0xfe, 0xed, 0x02, 0x02, 0xfd, 0xfa, 0x00, 0x05, 0x08, 0xfd, 0xf1,
  0x00, 0xfd, 0x08, 0x07, 0xec, 0xf8, 0xfb, 0xf6, 0xff, 0x00, 0x07, 0x06,
  0x02, 0x04, 0x07, 0x06, 0xfb, 0xf3, 0x01, 0x03, 0xfd, 0xfb, 0xfb, 0xf8,
  0x00, 0xf9, 0xfe, 0x02, 0xfe, 0x06, 0xfd, 0x0e, 0x02, 0x00, 0xfe, 0x06,
  0x04, 0xf9, 0xf8, 0xf9, 0xfc, 0xee, 0xf6, 0x05, 0x07, 0xf6, 0x08, 0x01,
  0xa2, 0x08, 0xca, 0x01, 0x00, 0xf9, 0x09, 0xdc, 0xb0, 0xf2, 0x81, 0xfe,
  0xe4, 0xf7, 0x05, 0x1c, 0xff, 0xe6, 0xf8, 0x06, 0x04, 0xbd, 0xe5, 0x00,
  0xbb, 0x0b, 0xf9, 0xf1, 0xd4, 0x0d, 0x01, 0xf7, 0xcc, 0xdb, 0x04, 0xfd,
  0x01, 0x0d, 0xda, 0xec, 0xfb, 0xf6, 0xe4, 0x02, 0xfc, 0x07, 0x0c, 0xff,
  0x00, 0x12, 0x10, 0x0d, 0x03, 0xea, 0xfc, 0xf7, 0x03, 0x00, 0x01, 0x12,
  0xf9, 0xe6, 0xfe, 0x05, 0x0a, 0x24, 0x02, 0xfc, 0xf2, 0xed, 0x11, 0xfe,
  0x01, 0x04, 0xfa, 0xfe, 0x05, 0x00, 0xee, 0xe7, 0xff, 0xec, 0xdc, 0xd6,
  0x14, 0x01, 0xf9, 0xdb, 0x08, 0x81, 0xfe, 0xe1, 0x00, 0xe8, 0xef, 0xea,
  0xe6, 0x0c, 0xf6, 0x0a, 0x00, 0xef, 0xfa, 0xf7, 0xf5, 0xfa, 0xf7, 0xf3,
  0x01, 0xf3, 0x0a, 0xee, 0xff, 0x1c, 0x0f, 0xfb, 0xf7, 0x0c, 0x04, 0x03,
  0xeb, 0x03, 0xf2, 0xfc, 0xe2, 0x00, 0xee, 0xfa, 0xf0, 0x2a, 0x23, 0xf3,
  0x06, 0x1f, 0xf8, 0x01, 0xea, 0xe8, 0x04, 0x02, 0xef, 0xd1, 0x09, 0xfc,
  0xff, 0xd4, 0x0b, 0x18, 0x1b, 0x17, 0x0a, 0xde, 0xf1, 0x0a, 0x0a, 0x04,
  0x0b, 0xe3, 0xba, 0x12, 0x06, 0xec, 0x40, 0xfc, 0x33, 0x0b, 0xdd, 0xf5,
  0xc5, 0xf9, 0xf2, 0x03, 0xe2, 0xca, 0x0f, 0x14, 0xfd, 0xcf, 0xf0, 0x0e,
  0x08, 0xfc, 0xfd, 0x05, 0xe2, 0x06, 0x06, 0xf6, 0x07, 0x04, 0xe6, 0xff,
  0x02, 0x38, 0xef, 0x26, 0xf4, 0xf7, 0xe8, 0x04, 0xf3, 0x04, 0xed, 0xec,
  0xec, 0xfc, 0x58, 0x6f, 0xc1, 0xb9, 0x03, 0x81, 0x18, 0xe7, 0xdd, 0x09,
  0xf1, 0x03, 0xf5, 0xe7, 0xdf, 0xcd, 0xbd, 0xd4, 0x39, 0x08, 0x03, 0xfe,
  0xfb, 0xf9, 0x00, 0x0d, 0x04, 0x2b, 0x19, 0x9a, 0x03, 0x16, 0xd9, 0xd6,
  0xe9, 0x02, 0x0f, 0xdf, 0xe3, 0xed, 0xfa, 0xf4, 0x17, 0xed, 0xee, 0xfe,
  0x12, 0xf3, 0x11, 0x0d, 0x21, 0xf4, 0xff, 0x04, 0xfe, 0x02, 0x0d, 0xfe,
  0x24, 0xcf, 0x21, 0x81, 0x00, 0x06, 0xff, 0xf8, 0xf3, 0x04, 0xe8, 0x01,
  0x21, 0x00, 0xfb, 0xfc, 0xea, 0xff, 0xee, 0x00, 0x42, 0x04, 0x08, 0x00,
  0xd1, 0xe1, 0xdc, 0xec, 0x03, 0xdb, 0x04, 0xe3, 0xf3, 0xed, 0xdc, 0xef,
  0x07, 0xfa, 0x25, 0xeb, 0x81, 0x0f, 0xdb, 0xf9, 0xd8, 0xef, 0xfe, 0x05,
  0xcb, 0xf9, 0xe2, 0xfe, 0xdf, 0x0d, 0x0b, 0x0c, 0x00, 0xf5, 0x09, 0xfd,
  0xfc, 0xf7, 0xf8, 0xfd, 0x04, 0xf9, 0x02, 0x02, 0xfd, 0xfe, 0x02, 0x07,
  0x00, 0x02, 0xfd, 0x06, 0x06, 0xfd, 0xe1, 0xfe, 0xf9, 0xfd, 0x0a, 0x03,
  0x05, 0xf5, 0x04, 0xfd, 0x10, 0xf7, 0x00, 0xfd, 0x00, 0xfe, 0x04, 0x12,
  0xf8, 0xf0, 0x03, 0x01, 0xfc, 0xf8, 0x02, 0xec, 0xff, 0x06, 0xf3, 0xfd,
  0xfb, 0x0b, 0xe9, 0xfd, 0xfa, 0x11, 0xeb, 0x09, 0xff, 0xf4, 0x02, 0x05,
  0xe4, 0xf2, 0xeb, 0x00, 0x00, 0xf8, 0x28, 0xe6, 0xd8, 0xca, 0xa8, 0xff,
  0xf7, 0x05, 0x12, 0xef, 0xff, 0x05, 0xf9, 0x05, 0xf2, 0xb6, 0xd5, 0x07,
  0x81, 0x00, 0xda, 0xfe, 0x93, 0x05, 0x02, 0xf6, 0xf8, 0xe7, 0xea, 0x05,
  0xfe, 0xea, 0x0c, 0xff, 0x01, 0x04, 0xe1, 0x03, 0x06, 0x06, 0x0b, 0x20,
  0x01, 0x11, 0xff, 0x09, 0xfa, 0xed, 0xfb, 0x07, 0xf6, 0x06, 0xfb, 0x10,
  0x0d, 0xfa, 0x10, 0x03, 0xfa, 0x1b, 0x01, 0xe5, 0xb4, 0x02, 0x11, 0x00,
  0x0d, 0xf7, 0xf2, 0xf3, 0x0d, 0xf9, 0xe8, 0xc1, 0xf8, 0xe2, 0xee, 0x81,
  0xf6, 0xf6, 0x04, 0xe0, 0x07, 0xec, 0xef, 0xdf, 0x10, 0xd8, 0x00, 0xce,
  0xf7, 0x0b, 0xf7, 0xff, 0xfa, 0xf3, 0xf2, 0xfa, 0xed, 0xf6, 0xf5, 0xfc,
  0x07, 0x01, 0x06, 0x1d, 0xff, 0x02, 0xfc, 0x04, 0x06, 0x0e, 0x0b, 0xff,
  0x02, 0x01, 0xee, 0xec, 0x02, 0xf9, 0x1a, 0xea, 0x2d, 0x3b, 0x14, 0x00,
  0xfd, 0x3c, 0x13, 0x34, 0xe7, 0xdf, 0x16, 0x00, 0xf4, 0xe9, 0xcc, 0x8a,
  0xf9, 0xe8, 0xae, 0xea, 0x07, 0x40, 0xee, 0xdd, 0x05, 0xd9, 0xfc, 0xfd,
  0x11, 0xe8, 0xf0, 0xef, 0x1f, 0x1d, 0x0f, 0xfb, 0xf4, 0xe7, 0x4f, 0x1b,
  0x3c, 0x04, 0x25, 0x9b, 0xf1, 0xfb, 0x2c, 0xc9, 0xdf, 0xe0, 0xf0, 0x06,
  0x0a, 0x4a, 0xf1, 0xfa, 0x0e, 0x15, 0xd7, 0xf3, 0x27, 0x24, 0xe2, 0xc5,
  0xa7, 0xfd, 0xcb, 0x15, 0xbd, 0xc8, 0x81, 0x02, 0xbd, 0xe1, 0xa6, 0xe3,
  0xff, 0xe4, 0xe7, 0x0f, 0xfe, 0x00, 0x0c, 0x1f, 0xe5, 0xba, 0x13, 0xfa,
  0x8f, 0xeb, 0xe5, 0x2b, 0x92, 0x3b, 0x39, 0xec, 0x1f, 0xfd, 0xf9, 0xdf,
  0xc0, 0x0b, 0x0f, 0xf5, 0x06, 0x02, 0x05, 0xe1, 0x17, 0x16, 0xc8, 0xa1,
  0xee, 0xf1, 0xd4, 0x81, 0xfe, 0xf2, 0xfe, 0xbc, 0x17, 0x14, 0xfe, 0xe3,
  0x08, 0xcb, 0xec, 0x0d, 0xf7, 0xed, 0xea, 0x0f, 0x05, 0xe5, 0x1a, 0xe6,
  0xe8, 0xfe, 0x00, 0xf6, 0xfb, 0x0b, 0xfc, 0xff, 0xf0, 0x1c, 0xff, 0x09,
  0xf3, 0xf9, 0xf9, 0x03, 0xe5, 0x08, 0xf5, 0xeb, 0xf6, 0xf5, 0x07, 0x08,
  0xf5, 0xf3, 0xed, 0xfe, 0xf8, 0xff, 0x0f, 0x00, 0xfd, 0x02, 0x06, 0x00,
  0xff, 0xfa, 0x16, 0x41, 0xff, 0x08, 0x03, 0x18, 0x03, 0xe7, 0x01, 0x07,
  0xea, 0xf8, 0xfd, 0x18, 0xe0, 0xec, 0x2f, 0xe8, 0x0c, 0xfb, 0xff, 0x02,
  0xfd, 0x11, 0xf4, 0x13, 0x07, 0x28, 0xf4, 0xf4, 0xfa, 0xf2, 0x19, 0x09,
  0x09, 0xeb, 0xf3, 0x02, 0x1d, 0x0f, 0x03, 0x0a, 0x00, 0x06, 0xf5, 0x02,
  0x07, 0x16, 0xed, 0xf1, 0x90, 0xde, 0x05, 0x0e, 0x04, 0xfe, 0x01, 0xec,
  0x25, 0xfb, 0x00, 0xfb, 0xe0, 0xf2, 0x06, 0x07, 0x00, 0xee, 0x07, 0x1a,
  0x24, 0x1c, 0xed, 0xfb, 0xb7, 0x18, 0xf9, 0x0c, 0xce, 0x04, 0xf5, 0x01,
  0xf9, 0xe0, 0xf2, 0xfa, 0x6b, 0xf8, 0xfd, 0xf3, 0xfa, 0xf9, 0xf9, 0xfe,
  0xfe, 0x09, 0x0e, 0x07, 0xc0, 0xee, 0x14, 0x9a, 0xfb, 0xea, 0xdd, 0xe5,
  0xee, 0x81, 0xf4, 0xf1, 0xde, 0xd4, 0x05, 0xf8, 0xf8, 0xee, 0x0c, 0xfb,
  0x00, 0xfd, 0xd0, 0xfe, 0x02, 0x07, 0x0f, 0x02, 0xf8, 0x07, 0x0c, 0x08,
  0x01, 0x05, 0xfd, 0x04, 0xeb, 0x37, 0xf3, 0x00, 0x1d, 0xfc, 0x0d, 0x13,
  0x31, 0xf6, 0x12, 0xe0, 0x07, 0xe1, 0xfe, 0xf8, 0xee, 0xf3, 0xc2, 0x08,
  0x06, 0xf2, 0xfa, 0xcf, 0xed, 0x0f, 0x03, 0x31, 0xc8, 0x19, 0xe3, 0x19,
  0xd9, 0x26, 0x13, 0xde, 0xde, 0xfc, 0xff, 0x1a, 0x1b, 0xeb, 0xe8, 0xed,
  0x0a, 0xf8, 0x11, 0xf9, 0xd4, 0x36, 0x1e, 0x27, 0x1b, 0x1b, 0x0d, 0xf7,
  0xf8, 0x16, 0xd1, 0x81, 0xfa, 0xe3, 0xd8, 0xb5, 0xc3, 0x0e, 0xff, 0xc6,
  0x30, 0x05, 0xfc, 0xd6, 0x22, 0xdb, 0xe7, 0x04, 0x0f, 0x0d, 0x11, 0xfd,
  0xee, 0x09, 0xe8, 0xed, 0xe9, 0xf5, 0x0a, 0xfb, 0xfe, 0xfd, 0xf8, 0x09,
  0xfd, 0xec, 0xe0, 0x0f, 0x0f, 0x11, 0x00, 0xfe, 0x00, 0xf7, 0x09, 0xed,
  0xf7, 0xfa, 0xf0, 0xff, 0x02, 0x0a, 0x36, 0xeb, 0x0a, 0x13, 0xd9, 0x01,
  0xed, 0xfb, 0x38, 0xfb, 0xfd, 0xfc, 0x00, 0xd6, 0xfc, 0xed, 0xe1, 0xb9,
  0xf7, 0x17, 0xf8, 0xf4, 0x1f, 0xdc, 0xfb, 0xea, 0xe3, 0x20, 0xdc, 0x16,
  0xe4, 0x05, 0x81, 0xe9, 0x00, 0xb3, 0xd6, 0xc2, 0xad, 0xc9, 0xdd, 0xfc,
  0xed, 0x15, 0xeb, 0x1a, 0xf5, 0xfb, 0x34, 0x63, 0xed, 0x27, 0x0f, 0x14,
  0xb9, 0xc8, 0x9b, 0x08, 0xd6, 0x07, 0x16, 0xf1, 0xe6, 0xec, 0xf3, 0x01,
  0xf5, 0xfd, 0xf1, 0xf5, 0xfe, 0xeb, 0xec, 0xfd, 0x03, 0x11, 0xee, 0x0a,
  0xfc, 0xf4, 0x01, 0x0f, 0x00, 0xff, 0x10, 0xfa, 0xe4, 0x02, 0xfc, 0x13,
  0xe4, 0xe9, 0x16, 0x00, 0x05, 0xf9, 0xfa, 0x0c, 0x0b, 0xf4, 0xec, 0x0a,
  0xea, 0xbe, 0x24, 0x06, 0x19, 0x1f, 0x09, 0x07, 0x03, 0x0b, 0x12, 0x14,
  0xf5, 0x3b, 0x0a, 0x1f, 0x15, 0xbe, 0x81, 0x0b, 0xf8, 0xf1, 0x19, 0xf8,
  0x13, 0x03, 0x17, 0xea, 0xc9, 0x34, 0x14, 0x29, 0xf8, 0xff, 0x0d, 0xef,
  0xf4, 0x23, 0xfb, 0xa8, 0x0a, 0xc9, 0xc8, 0xc8, 0x08, 0x24, 0x0c, 0xa7,
  0x22, 0x10, 0x09, 0xce, 0x25, 0xc9, 0xe1, 0xd3, 0x05, 0xfb, 0xff, 0x0e,
  0x09, 0xf8, 0xfc, 0x02, 0xfc, 0x04, 0x03, 0x06, 0x05, 0x14, 0xfc, 0x11,
  0x01, 0x0a, 0xfd, 0x02, 0x01, 0xf1, 0xf6, 0x02, 0x06, 0x01, 0x08, 0xf4,
  0xfd, 0x05, 0x10, 0x08, 0x0b, 0xfd, 0x09, 0x09, 0x02, 0xf7, 0x03, 0x00,
  0x0f, 0x02, 0x0a, 0x0b, 0x03, 0x0d, 0x01, 0x42, 0xfd, 0x04, 0x03, 0x01,
  0x03, 0xf2, 0xe3, 0x01, 0xf9, 0x09, 0xfc, 0xfb, 0xf7, 0x02, 0x0c, 0x0c,
  0xf7, 0x0a, 0x18, 0xd9, 0xb2, 0xff, 0xfc, 0xf7, 0xf5, 0x05, 0x04, 0xeb,
  0xff, 0x06, 0xde, 0xa8, 0x00, 0xef, 0xcf, 0x81, 0xe6, 0x14, 0x1e, 0xe3,
  0x07, 0xfd, 0x04, 0xf8, 0x0f, 0xf9, 0x09, 0x12, 0xef, 0x25, 0xc4, 0xfa,
  0x01, 0x1a, 0x2c, 0x28, 0x3f, 0x07, 0x04, 0x07, 0xd9, 0xeb, 0x26, 0x0f,
  0x04, 0x04, 0x0f, 0xf8, 0xd0, 0xf0, 0xce, 0x07, 0xf6, 0x11, 0xf4, 0x0b,
  0x07, 0xdf, 0xf4, 0xf9, 0x0f, 0xe8, 0xee, 0x07, 0x13, 0xf3, 0x16, 0x04,
  0x10, 0x07, 0x09, 0x02, 0x07, 0xe1, 0xff, 0xc9, 0xfe, 0xea, 0xf4, 0xf8,
  0x10, 0x01, 0xde, 0xf3, 0xe0, 0xf2, 0xfb, 0xff, 0xfa, 0xed, 0x01, 0x04,
  0xea, 0xfe, 0xfd, 0x05, 0x00, 0xfd, 0x34, 0xde, 0xdc, 0xf2, 0xa2, 0xff,
  0xeb, 0xe8, 0xfc, 0xda, 0xfb, 0xfc, 0x07, 0x0d, 0xfa, 0x81, 0xa3, 0x00,
  0x9d, 0xff, 0xf6, 0xf3, 0xad, 0xff, 0xfc, 0xff, 0xfa, 0xa6, 0xed, 0xf6,
  0xf3, 0xf7, 0xd1, 0xf8, 0x24, 0x35, 0xec, 0xff, 0x04, 0xe6, 0x12, 0x1f,
  0x01, 0xe0, 0x06, 0xfc, 0x2e, 0x0f, 0xf4, 0x19, 0x09, 0xf5, 0xf6, 0x05,
  0x1c, 0x0f, 0xed, 0x1a, 0x1d, 0xf7, 0xfa, 0xfe, 0x15, 0x04, 0x24, 0x01,
  0xf8, 0x0d, 0xf2, 0x05, 0xff, 0xe0, 0x0b, 0xf8, 0x06, 0xe5, 0x26, 0x13,
  0xf4, 0xf1, 0xf0, 0xfc, 0xf9, 0x00, 0x06, 0xe6, 0x11, 0xf2, 0xf7, 0xf5,
  0xf1, 0xef, 0xde, 0x0d, 0x0c, 0xf5, 0x35, 0xc4, 0xe6, 0xf5, 0xe7, 0x0e,
  0xe7, 0xf7, 0xf4, 0x81, 0xfa, 0xf0, 0x32, 0x19, 0xfc, 0xc7, 0x93, 0x04,
  0xdb, 0xfb, 0xfe, 0xf2, 0xcf, 0x0c, 0x10, 0xf3, 0xbd, 0xb4, 0x08, 0xff,
  0xfe, 0x11, 0xd9, 0x2b, 0x00, 0xc3, 0xdf, 0xf8, 0xf5, 0xff, 0x1e, 0x23,
  0x06, 0x0a, 0xe8, 0x17, 0xce, 0xb3, 0x07, 0xf5, 0xef, 0x07, 0x11, 0x00,
  0xd4, 0xd9, 0x24, 0xe7, 0xad, 0xd8, 0x31, 0xf6, 0xda, 0x00, 0x28, 0x18,
  0xbd, 0xe4, 0x04, 0x00, 0x04, 0x06, 0xfd, 0xfe, 0xfe, 0x1d, 0xe1, 0xe1,
  0x81, 0x5c, 0x00, 0xea, 0x09, 0xe5, 0xf4, 0xed, 0x04, 0xef, 0xfe, 0x04,
  0x08, 0xb9, 0x13, 0xde, 0xd3, 0xfa, 0x0b, 0xfe, 0x05, 0x05, 0x12, 0x01,
  0x07, 0xe4, 0xa9, 0x53, 0x04, 0x1f, 0xe5, 0xb5, 0x08, 0x1c, 0x1a, 0xfd,
  0x1d, 0x8d, 0x01, 0xed, 0x39, 0x4a, 0x55, 0x00, 0x04, 0x16, 0x11, 0xff,
  0x01, 0xf2, 0x04, 0xf9, 0xf7, 0x14, 0x0a, 0xba, 0x01, 0xfc, 0x09, 0x03,
  0xfe, 0x02, 0xf8, 0xf6, 0xf7, 0x14, 0xfa, 0xff, 0x18, 0x16, 0x01, 0x05,
  0x13, 0xff, 0x01, 0xf6, 0x0c, 0x2d, 0x0c, 0x04, 0x0f, 0x05, 0x1b, 0xfe,
  0x02, 0xf0, 0x10, 0xdb, 0xfc, 0x00, 0x02, 0xfe, 0xfc, 0x03, 0xff, 0x05,
  0xe1, 0xfe, 0xfb, 0x0d, 0x04, 0xea, 0xf8, 0xf7, 0xf7, 0xf5, 0x08, 0xe9,
  0xee, 0xfb, 0xf7, 0x7f, 0xd1, 0xfc, 0xfc, 0xfb, 0xff, 0x00, 0xf9, 0x02,
  0x07, 0xf6, 0xe5, 0xea, 0xca, 0xfa, 0x1e, 0xc7, 0xf2, 0xf9, 0xf6, 0xe0,
  0xe9, 0xf3, 0x00, 0xea, 0xe0, 0x07, 0xf3, 0x09, 0xf1, 0x0f, 0x0b, 0x02,
  0xff, 0x11, 0x14, 0x08, 0xfb, 0xf0, 0x06, 0x02, 0x00, 0x0b, 0xed, 0xf5,
  0xff, 0x05, 0xed, 0xfc, 0xf7, 0x09, 0x01, 0x01, 0x09, 0xff, 0x0d, 0xfb,
  0xfb, 0x05, 0x0f, 0xfa, 0xec, 0x17, 0x1e, 0xf8, 0xf3, 0x16, 0x00, 0x12,
  0x0c, 0xf6, 0x05, 0x03, 0x00, 0x0e, 0x01, 0xe7, 0xfe, 0xfa, 0xf6, 0xea,
  0xed, 0x08, 0x04, 0x00, 0x0e, 0xe0, 0x06, 0xfe, 0xf7, 0xf5, 0x00, 0xe9,
  0xed, 0x04, 0xb3, 0xed, 0x0e, 0xce, 0xf0, 0x05, 0xb0, 0xc2, 0xdb, 0xea,
  0xfa, 0x0d, 0x06, 0x09, 0x9e, 0xf0, 0xec, 0x3c, 0xf3, 0x2d, 0x04, 0xfd,
  0xba, 0xdb, 0x81, 0x19, 0xd2, 0x04, 0xf6, 0x07, 0x0b, 0x00, 0x13, 0x02,
  0x0d, 0xf9, 0x06, 0xf8, 0xfb, 0xf1, 0x0d, 0x01, 0x04, 0x01, 0x0d, 0x00,
  0x02, 0x00, 0xfd, 0x00, 0x0b, 0x0e, 0x01, 0x02, 0x03, 0xfe, 0x06, 0xff,
  0x02, 0x07, 0xf8, 0xfd, 0x34, 0x1c, 0x0d, 0xff, 0xfb, 0xf5, 0xf1, 0x03,
  0xec, 0xfe, 0x22, 0x81, 0x00, 0xfd, 0xfb, 0xf4, 0xf2, 0xfb, 0x0d, 0x01,
  0x02, 0x0a, 0x02, 0xfd, 0x04, 0x05, 0xfd, 0xff, 0xf5, 0x12, 0xfa, 0xfe,
  0xfa, 0xec, 0xea, 0xf6, 0x0a, 0xde, 0xf5, 0xf5, 0xf7, 0xe6, 0xfc, 0xfc,
  0x02, 0x07, 0x08, 0x0d, 0xc1, 0x0c, 0xf6, 0x13, 0xfe, 0xfd, 0x02, 0x00,
  0xe3, 0xb6, 0xca, 0x0f, 0xe3, 0xef, 0xfc, 0xf7, 0xea, 0x04, 0xf0, 0xfa,
  0xf8, 0xf3, 0x03, 0x1f, 0xe9, 0x14, 0x12, 0xfe, 0xfa, 0x05, 0x0c, 0xf1,
  0x03, 0x01, 0x1e, 0xf2, 0xe7, 0x4a, 0xf5, 0x0b, 0x18, 0x02, 0xf0, 0x10,
  0xed, 0x0d, 0xf9, 0xeb, 0x30, 0xeb, 0xc9, 0x05, 0xf9, 0xed, 0x2b, 0x03,
  0xfd, 0x05, 0x00, 0x06, 0x11, 0x11, 0xe8, 0x10, 0x02, 0x09, 0x14, 0xfe,
  0xcd, 0x08, 0x00, 0xf9, 0x00, 0xe0, 0x08, 0x0c, 0xfa, 0x12, 0x19, 0x08,
  0xf6, 0x07, 0xcb, 0xeb, 0x1a, 0xe2, 0x03, 0xe6, 0xc9, 0xcc, 0xb9, 0xf7,
  0xf1, 0x12, 0x17, 0x23, 0x81, 0xed, 0xdd, 0x1d, 0xf6, 0xec, 0xfd, 0x02,
  0x9a, 0x04, 0xd6, 0xfc, 0x9d, 0xfa, 0xf3, 0x0a, 0xd2, 0x0f, 0x24, 0xfe,
  0xfa, 0x12, 0x10, 0x0d, 0x01, 0xe0, 0xf2, 0x02, 0x0a, 0x0e, 0xef, 0xf3,
  0x01, 0x0c, 0xe9, 0xf5, 0xf3, 0xf7, 0xff, 0xbe, 0x03, 0xf8, 0x0f, 0x00,
  0xfe, 0xe1, 0x21, 0x15, 0x21, 0xfe, 0xf0, 0x02, 0x04, 0x15, 0xe8, 0x2b,
  0x0a, 0x81, 0x0b, 0xfa, 0xd7, 0xd5, 0xf8, 0x30, 0x05, 0xd5, 0xf0, 0x07,
  0x13, 0x06, 0xe8, 0x16, 0xb9, 0x0d, 0xdc, 0xf3, 0x18, 0xf4, 0x01, 0xcb,
  0xf0, 0xfe, 0xee, 0x12, 0xf0, 0x0a, 0x0e, 0xec, 0x04, 0x06, 0xf6, 0xed,
  0xf9, 0xf8, 0x1a, 0xd3, 0xa1, 0xf0, 0x11, 0x18, 0xfc, 0xe1, 0xdc, 0x08,
  0xee, 0xf4, 0xf4, 0x06, 0xd6, 0x00, 0xee, 0xde, 0xf2, 0xf7, 0x05, 0xff,
  0xfc, 0x03, 0xfb, 0x0d, 0xf9, 0xf6, 0x0b, 0xff, 0xff, 0xff, 0x08, 0xfe,
  0x00, 0xff, 0xf8, 0xfa, 0xf5, 0x15, 0x03, 0xfc, 0x07, 0xff, 0x02, 0xff,
  0xf9, 0x04, 0x03, 0xfb, 0xfa, 0xeb, 0xf4, 0x04, 0xfd, 0xf6, 0x02, 0xf3,
  0xfc, 0xe7, 0x14, 0x01, 0x01, 0xfe, 0xfc, 0x05, 0x01, 0x09, 0xf8, 0x0a,
  0xf2, 0x27, 0x04, 0xfd, 0x00, 0xe3, 0xe7, 0x07, 0x03, 0x03, 0x08, 0x07,
  0xf9, 0x19, 0x0d, 0x7f, 0xfe, 0x0b, 0x11, 0x16, 0x0e, 0x04, 0x0f, 0x02,
  0x00, 0x0d, 0xfc, 0xf9, 0x07, 0xfb, 0xf5, 0xe0, 0x09, 0x0b, 0x01, 0xf7,
  0x18, 0x07, 0x0a, 0xf2, 0x11, 0x01, 0xfb, 0xf8, 0xd3, 0xbc, 0x00, 0xfb,
  0xf7, 0xf7, 0x21, 0x11, 0xf2, 0xda, 0xe7, 0xfe, 0x00, 0x19, 0x0f, 0xf5,
  0xfd, 0x03, 0x00, 0x0e, 0xdc, 0x81, 0xe2, 0xdb, 0xd7, 0xc7, 0x04, 0xfe,
  0xca, 0xe5, 0xf4, 0x11, 0xcf, 0xef, 0xed, 0x0e, 0x02, 0xef, 0x43, 0xee,
  0xb6, 0xe3, 0xa2, 0xc7, 0xfe, 0x1c, 0xfe, 0xbc, 0xd7, 0x0b, 0xfd, 0xff,
  0xcc, 0xd6, 0xe4, 0xeb, 0xdd, 0xd6, 0x06, 0xe4, 0xff, 0xf6, 0xf5, 0x16,
  0x05, 0xe2, 0x10, 0xf7, 0xe0, 0xd9, 0xb4, 0x17, 0xf5, 0x1e, 0x0f, 0xe0,
  0xf9, 0x0c, 0xef, 0x31, 0xde, 0xfb, 0xec, 0xeb, 0x35, 0x1f, 0xfb, 0xe1,
  0x1c, 0xab, 0xfa, 0xe5, 0x02, 0xc9, 0x04, 0xa9, 0xe9, 0xd2, 0xf3, 0xfb,
  0x02, 0xf4, 0xe1, 0xf2, 0xeb, 0xea, 0xce, 0xfc, 0xfa, 0xf6, 0x14, 0x04,
  0x01, 0x01, 0xf0, 0xfd, 0xe8, 0xde, 0x05, 0xf4, 0xd4, 0x0e, 0x09, 0xff,
  0xeb, 0xf3, 0xf9, 0xdb, 0xea, 0xb8, 0xc9, 0xfa, 0xf5, 0xd3, 0xf2, 0xfd,
  0xda, 0xf4, 0xb7, 0xf1, 0xff, 0xee, 0x1e, 0x22, 0xff, 0xeb, 0xd9, 0x06,
  0xe0, 0xaa, 0x0a, 0xf2, 0xaa, 0xed, 0x98, 0xda, 0xac, 0xdc, 0xfc, 0xbe,
  0x8c, 0x81, 0x0b, 0xf1, 0xf0, 0x31, 0x3e, 0x12, 0x1b, 0xf0, 0x39, 0xfd,
  0xe9, 0x29, 0x1e, 0x2c, 0xe4, 0xf7, 0xd7, 0xf9, 0xce, 0x17, 0x00, 0xf4,
  0x3f, 0xff, 0x21, 0xed, 0xee, 0xe3, 0xf4, 0xe9, 0x00, 0xf4, 0x11, 0xfc,
  0x05, 0xf8, 0x10, 0x12, 0xf5, 0xf4, 0xfb, 0xc7, 0xfa, 0x1f, 0xfd, 0xd0,
  0xee, 0xf2, 0xee, 0x00, 0xf0, 0xd4, 0xc9, 0xe5, 0xed, 0xf2, 0x06, 0x02,
  0xe0, 0xf3, 0x04, 0x0e, 0xe5, 0xe7, 0xfd, 0xef, 0xff, 0x06, 0x15, 0xfa,
  0xf8, 0xff, 0xf4, 0xfa, 0x01, 0x19, 0xf9, 0x81, 0x00, 0xfb, 0xef, 0xf7,
  0xf6, 0xcc, 0xc3, 0xeb, 0x06, 0xf7, 0xfa, 0xfc, 0x03, 0xe9, 0xf2, 0xf8,
  0x1f, 0xdf, 0xf9, 0xfe, 0xe4, 0xd6, 0xf3, 0x12, 0x23, 0x6d, 0x05, 0xb3,
  0x07, 0xf0, 0xeb, 0xec, 0xf6, 0xfb, 0xe2, 0xef, 0x08, 0x0c, 0x17, 0xde,
  0x1a, 0xf3, 0xe5, 0xe9, 0x33, 0xe9, 0x2e, 0xe9, 0xeb, 0xfa, 0xf7, 0xfa,
  0xf7, 0x07, 0xda, 0x02, 0x09, 0xfa, 0xf8, 0xfc, 0x02, 0xfe, 0x05, 0xda,
  0xfe, 0xfc, 0xf9, 0x02, 0xf0, 0x08, 0x05, 0xf1, 0xfd, 0xf7, 0xf3, 0x15,
  0x08, 0xef, 0xfc, 0x05, 0xf5, 0xfd, 0xfa, 0x05, 0xff, 0xf9, 0xd2, 0xfc,
  0xee, 0x00, 0xf3, 0xfd, 0x07, 0xfc, 0xf8, 0xe6, 0xff, 0x11, 0x00, 0xf7,
  0xfd, 0x12, 0x07, 0xf6, 0xfa, 0xfe, 0xff, 0x1d, 0x04, 0xf8, 0x12, 0x00,
  0xec, 0xfc, 0x0d, 0x03, 0xfc, 0x27, 0x19, 0x1e, 0x0d, 0xf5, 0x0b, 0xf8,
  0xf9, 0x12, 0xed, 0xdb, 0x02, 0xd8, 0xe5, 0xec, 0x00, 0xff, 0xf8, 0xd5,
  0x03, 0x81, 0xed, 0xda, 0x0c, 0xcb, 0xf3, 0xb6, 0x0e, 0x0b, 0x02, 0x03,
  0x0c, 0xef, 0x12, 0xf9, 0xc2, 0xe8, 0x0e, 0xc7, 0xcb, 0xc9, 0x0f, 0x11,
  0xfe, 0xea, 0xf9, 0x0c, 0x0c, 0x1a, 0xf8, 0x0a, 0x81, 0x04, 0xfa, 0xf6,
  0x02, 0xfd, 0xd6, 0xf6, 0xfe, 0x0c, 0xd9, 0x07, 0xfd, 0xfc, 0x16, 0x06,
  0xc9, 0x05, 0xf2, 0xeb, 0xfc, 0x01, 0x15, 0xfd, 0xd2, 0x07, 0x00, 0x05,
  0xf8, 0xce, 0xfd, 0xf6, 0x04, 0x03, 0x08, 0x0b, 0xd9, 0x09, 0xfb, 0x03,
  0x00, 0x19, 0x02, 0x10, 0xfc, 0x01, 0xf5, 0x17, 0xee, 0xf8, 0xe7, 0xdc,
  0xf9, 0xfd, 0xec, 0x15, 0xfd, 0xf6, 0xed, 0xe7, 0x0a, 0xdb, 0xf3, 0xe8,
  0xe6, 0xf4, 0xfc, 0x0a, 0xd8, 0xe9, 0x05, 0xee, 0x0d, 0xfe, 0xe2, 0xfd,
  0xf6, 0xed, 0x40, 0xd9, 0x01, 0xf5, 0x24, 0xff, 0x00, 0x14, 0xf2, 0x16,
  0xfe, 0x01, 0xf5, 0x12, 0x01, 0xff, 0x07, 0x00, 0xff, 0xfc, 0x17, 0xf5,
  0x03, 0x02, 0xfc, 0xfc, 0x04, 0x0a, 0x2a, 0xef, 0xd0, 0x0e, 0xc9, 0x1c,
  0xda, 0xfe, 0x13, 0xff, 0x05, 0x14, 0x13, 0xe3, 0xfe, 0xff, 0xf5, 0xac,
  0x04, 0x1b, 0xfc, 0xea, 0x2c, 0xf7, 0xf8, 0xeb, 0xf8, 0x1d, 0xf9, 0x10,
  0xf8, 0xfe, 0xa2, 0xee, 0x0b, 0xca, 0xdb, 0xd1, 0xb7, 0xd0, 0xf7, 0x03,
  0xec, 0x17, 0xea, 0x07, 0xfb, 0xf5, 0x15, 0x7f, 0x09, 0x35, 0x0c, 0x1f,
  0xc5, 0xd5, 0xa7, 0x1b, 0x00, 0x10, 0x13, 0xee, 0x21, 0x1c, 0x02, 0xfc,
  0xfc, 0xf8, 0x17, 0xe6, 0x02, 0x23, 0x13, 0x06, 0x0d, 0xee, 0x15, 0xda,
  0xfe, 0xf2, 0x0b, 0x02, 0xfc, 0x0b, 0x06, 0x03, 0x25, 0x16, 0x02, 0x05,
  0x0f, 0x31, 0xcc, 0x0b, 0x0d, 0x42, 0x1c, 0x01, 0xfd, 0x03, 0x01, 0xfd,
  0x0a, 0x12, 0x23, 0x86, 0x0d, 0x0a, 0xfb, 0xe0, 0xfb, 0xe7, 0x46, 0x05,
  0x1b, 0x04, 0x0a, 0xf6, 0x1e, 0xf1, 0xfb, 0xfb, 0x02, 0x33, 0xeb, 0xf2,
  0xf8, 0xf7, 0xc9, 0xfc, 0x00, 0xc4, 0xd9, 0xa3, 0xd8, 0xee, 0xd2, 0xed,
  0xf6, 0x13, 0xd9, 0x4e, 0x81, 0x0a, 0xff, 0x1b, 0x1a, 0xe0, 0xf1, 0xfb,
  0xc4, 0xf3, 0xdb, 0x06, 0xcc, 0xe9, 0xff, 0x0a, 0x06, 0xfb, 0xff, 0x02,
  0x04, 0xfc, 0xfe, 0x01, 0x00, 0x03, 0x01, 0x00, 0xfc, 0x0a, 0xfe, 0xf7,
  0x02, 0xff, 0x02, 0x07, 0xf9, 0xf8, 0xf4, 0xfb, 0x00, 0xff, 0x08, 0xfa,
  0x07, 0x00, 0x02, 0x03, 0x01, 0xf9, 0xfd, 0xff, 0xfe, 0xfc, 0xfd, 0xfd,
  0x06, 0x05, 0xff, 0xff, 0xf7, 0x0b, 0xff, 0x14, 0x00, 0x07, 0x02, 0xfe,
  0xfa, 0xf2, 0xf2, 0xf8, 0xf6, 0x0d, 0xfc, 0xfb, 0x07, 0xfb, 0x02, 0x05,
  0x0d, 0x09, 0xe0, 0xf7, 0xe5, 0xe4, 0x02, 0xdf, 0xf3, 0xe7, 0xe9, 0xe9,
  0x7f, 0xea, 0xf3, 0xd0, 0x02, 0xf8, 0x08, 0xfa, 0xfc, 0xe3, 0xee, 0x01,
  0x18, 0x16, 0xfb, 0xfb, 0xe4, 0x0f, 0x1a, 0x02, 0x2e, 0xfe, 0xff, 0xff,
  0x04, 0x00, 0x00, 0x00, 0x20, 0x00, 0x00, 0x00, 0x3a, 0x9f, 0x61, 0x5b,
  0x48, 0x7f, 0x60, 0x3f, 0x41, 0x37, 0x4e, 0xc7, 0x24, 0xb7, 0xbe, 0x36,
  0x40, 0x49, 0x7a, 0x41, 0x70, 0x5e, 0x46, 0x64, 0xa1, 0xb1, 0xd9, 0x9b,
  0x46, 0x36, 0x3c, 0x80, 0x5a, 0xfe, 0xff, 0xff, 0x04, 0x00, 0x00, 0x00,
  0x20, 0x00, 0x00, 0x00, 0xb3, 0xde, 0xdd, 0xdc, 0xe6, 0xe3, 0xe3, 0xf1,
  0xc2, 0xeb, 0xff, 0xbe, 0xad, 0xc7, 0xcf, 0xca, 0xbd, 0xdb, 0x04, 0xbd,
  0xc8, 0xe1, 0xed, 0xf3, 0xeb, 0xe0, 0xdd, 0xdd, 0xf0, 0xaf, 0xb1, 0x7f,
  0x86, 0xfe, 0xff, 0xff, 0x04, 0x00, 0x00, 0x00, 0x20, 0x00, 0x00, 0x00,
  0x38, 0x5c, 0x22, 0x25, 0x2e, 0x07, 0x27, 0x1c, 0x37, 0x0c, 0x0a, 0x4b,
  0x3d, 0x40, 0x2e, 0x3d, 0x26, 0xf8, 0xd5, 0x30, 0x0b, 0x0f, 0x26, 0x80,
  0x7f, 0x7b, 0x51, 0x6d, 0x19, 0x2c, 0x24, 0x79, 0xb2, 0xfe, 0xff, 0xff,
  0x04, 0x00, 0x00, 0x00, 0x40, 0x00, 0x00, 0x00, 0xc0, 0x63, 0xa8, 0xb4,
  0xc5, 0xab, 0xb2, 0x97, 0xc1, 0x95, 0xc0, 0x3d, 0xc1, 0x3f, 0x4e, 0xc6,
  0xc1, 0x81, 0xbb, 0xc0, 0xac, 0xbe, 0xb3, 0x8d, 0x47, 0x41, 0x35, 0x43,
  0xab, 0xc2, 0xc1, 0x3d, 0xc0, 0x63, 0xa8, 0xb4, 0xc5, 0xab, 0xb1, 0x98,
  0xc1, 0x96, 0xc0, 0x3d, 0xc1, 0x3f, 0x4e, 0xc6, 0xc1, 0x81, 0xbb, 0xc0,
  0xac, 0xbe, 0xb3, 0x8d, 0x47, 0x41, 0x34, 0x43, 0xab, 0xc2, 0xc1, 0x3d,
  0xfe, 0xfe, 0xff, 0xff, 0x04, 0x00, 0x00, 0x00, 0x08, 0x00, 0x00, 0x00,
  0xfb, 0xf0, 0xff, 0xff, 0xf8, 0xf0, 0xff, 0xff, 0x12, 0xff, 0xff, 0xff,
  0x04, 0x00, 0x00, 0x00, 0x0c, 0x00, 0x00, 0x00, 0xff, 0xff, 0xff, 0xff,
  0x80, 0x00, 0x00, 0x00, 0x02, 0x00, 0x00, 0x00, 0x2a, 0xff, 0xff, 0xff,
  0x04, 0x00, 0x00, 0x00, 0x0c, 0x00, 0x00, 0x00, 0xff, 0xff, 0xff, 0xff,
  0x20, 0x00, 0x00, 0x00, 0x20, 0x00, 0x00, 0x00, 0x42, 0xff, 0xff, 0xff,
  0x04, 0x00, 0x00, 0x00, 0x04, 0x00, 0x00, 0x00, 0x04, 0x00, 0x00, 0x00,
  0x52, 0xff, 0xff, 0xff, 0x04, 0x00, 0x00, 0x00, 0x18, 0x00, 0x00, 0x00,
  0x00, 0x00, 0x00, 0x00, 0x00, 0x00, 0x00, 0x00, 0x08, 0x00, 0x00, 0x00,
  0x00, 0x00, 0x00, 0x00, 0x00, 0x00, 0x00, 0x00, 0x00, 0x00, 0x00, 0x00,
  0x76, 0xff, 0xff, 0xff, 0x04, 0x00, 0x00, 0x00, 0x0c, 0x00, 0x00, 0x00,
  0xff, 0xff, 0xff, 0xff, 0x40, 0x00, 0x00, 0x00, 0x20, 0x00, 0x00, 0x00,
  0x8e, 0xff, 0xff, 0xff, 0x04, 0x00, 0x00, 0x00, 0x08, 0x00, 0x00, 0x00,
  0x00, 0x00, 0x00, 0x00, 0x00, 0x00, 0x00, 0x00, 0xa2, 0xff, 0xff, 0xff,
  0x04, 0x00, 0x00, 0x00, 0x04, 0x00, 0x00, 0x00, 0x02, 0x00, 0x00, 0x00,
  0xb2, 0xff, 0xff, 0xff, 0x04, 0x00, 0x00, 0x00, 0x18, 0x00, 0x00, 0x00,
  0x00, 0x00, 0x00, 0x00, 0x00, 0x00, 0x00, 0x00, 0x04, 0x00, 0x00, 0x00,
  0x00, 0x00, 0x00, 0x00, 0x00, 0x00, 0x00, 0x00, 0x00, 0x00, 0x00, 0x00,
  0xd6, 0xff, 0xff, 0xff, 0x04, 0x00, 0x00, 0x00, 0x0c, 0x00, 0x00, 0x00,
  0xff, 0xff, 0xff, 0xff, 0x80, 0x00, 0x00, 0x00, 0x20, 0x00, 0x00, 0x00,
  0xee, 0xff, 0xff, 0xff, 0x04, 0x00, 0x00, 0x00, 0x04, 0x00, 0x00, 0x00,
  0xfd, 0xff, 0xff, 0xff, 0x00, 0x00, 0x06, 0x00, 0x08, 0x00, 0x04, 0x00,
  0x06, 0x00, 0x00, 0x00, 0x04, 0x00, 0x00, 0x00, 0x18, 0x00, 0x00, 0x00,
  0x00, 0x00, 0x00, 0x00, 0x00, 0x00, 0x00, 0x00, 0x02, 0x00, 0x00, 0x00,
  0x00, 0x00, 0x00, 0x00, 0x00, 0x00, 0x00, 0x00, 0x00, 0x00, 0x00, 0x00,
  0x58, 0xd8, 0xff, 0xff, 0x5c, 0xd8, 0xff, 0xff, 0x0f, 0x00, 0x00, 0x00,
  0x4d, 0x4c, 0x49, 0x52, 0x20, 0x43, 0x6f, 0x6e, 0x76, 0x65, 0x72, 0x74,
  0x65, 0x64, 0x2e, 0x00, 0x01, 0x00, 0x00, 0x00, 0x14, 0x00, 0x00, 0x00,
  0x00, 0x00, 0x0e, 0x00, 0x18, 0x00, 0x14, 0x00, 0x10, 0x00, 0x0c, 0x00,
  0x08, 0x00, 0x04, 0x00, 0x0e, 0x00, 0x00, 0x00, 0x14, 0x00, 0x00, 0x00,
  0x1c, 0x00, 0x00, 0x00, 0xa0, 0x05, 0x00, 0x00, 0xa4, 0x05, 0x00, 0x00,
  0xa8, 0x05, 0x00, 0x00, 0x04, 0x00, 0x00, 0x00, 0x6d, 0x61, 0x69, 0x6e,
  0x00, 0x00, 0x00, 0x00, 0x1a, 0x00, 0x00, 0x00, 0x58, 0x05, 0x00, 0x00,
  0x14, 0x05, 0x00, 0x00, 0xb0, 0x04, 0x00, 0x00, 0x88, 0x04, 0x00, 0x00,
  0x4c, 0x04, 0x00, 0x00, 0x20, 0x04, 0x00, 0x00, 0xec, 0x03, 0x00, 0x00,
  0x9c, 0x03, 0x00, 0x00, 0x64, 0x03, 0x00, 0x00, 0x38, 0x03, 0x00, 0x00,
  0x04, 0x03, 0x00, 0x00, 0xd0, 0x02, 0x00, 0x00, 0x90, 0x02, 0x00, 0x00,
  0x60, 0x02, 0x00, 0x00, 0x34, 0x02, 0x00, 0x00, 0x00, 0x02, 0x00, 0x00,
  0xbc, 0x01, 0x00, 0x00, 0x94, 0x01, 0x00, 0x00, 0x68, 0x01, 0x00, 0x00,
  0x34, 0x01, 0x00, 0x00, 0x00, 0x01, 0x00, 0x00, 0xc8, 0x00, 0x00, 0x00,
  0x94, 0x00, 0x00, 0x00, 0x50, 0x00, 0x00, 0x00, 0x2c, 0x00, 0x00, 0x00,
  0x04, 0x00, 0x00, 0x00, 0xde, 0xfb, 0xff, 0xff, 0x0c, 0x00, 0x00, 0x00,
  0x10, 0x00, 0x00, 0x00, 0x03, 0x00, 0x00, 0x00, 0x01, 0x00, 0x00, 0x00,
  0x33, 0x00, 0x00, 0x00, 0x02, 0x00, 0x00, 0x00, 0x32, 0x00, 0x00, 0x00,
  0x0b, 0x00, 0x00, 0x00, 0x02, 0xfc, 0xff, 0xff, 0x0c, 0x00, 0x00, 0x00,
  0x10, 0x00, 0x00, 0x00, 0x08, 0x00, 0x00, 0x00, 0x01, 0x00, 0x00, 0x00,
  0x32, 0x00, 0x00, 0x00, 0x01, 0x00, 0x00, 0x00, 0x31, 0x00, 0x00, 0x00,
  0xa2, 0xfb, 0xff, 0xff, 0x14, 0x00, 0x00, 0x00, 0x00, 0x00, 0x00, 0x01,
  0x1c, 0x00, 0x00, 0x00, 0x20, 0x00, 0x00, 0x00, 0x02, 0x00, 0x00, 0x00,
  0xf2, 0xfc, 0xff, 0xff, 0x01, 0x00, 0x00, 0x00, 0x01, 0x00, 0x00, 0x00,
  0x00, 0x00, 0x00, 0x01, 0x01, 0x00, 0x00, 0x00, 0x31, 0x00, 0x00, 0x00,
  0x03, 0x00, 0x00, 0x00, 0x30, 0x00, 0x00, 0x00, 0x0d, 0x00, 0x00, 0x00,
  0x0c, 0x00, 0x00, 0x00, 0xe2, 0xfb, 0xff, 0xff, 0x14, 0x00, 0x00, 0x00,
  0x00, 0x00, 0x00, 0x34, 0x10, 0x00, 0x00, 0x00, 0x14, 0x00, 0x00, 0x00,
  0x01, 0x00, 0x00, 0x00, 0xb8, 0xd9, 0xff, 0xff, 0x01, 0x00, 0x00, 0x00,
  0x30, 0x00, 0x00, 0x00, 0x02, 0x00, 0x00, 0x00, 0x2f, 0x00, 0x00, 0x00,
  0x02, 0x00, 0x00, 0x00, 0x12, 0xfc, 0xff, 0xff, 0x14, 0x00, 0x00, 0x00,
  0x00, 0x00, 0x00, 0x0b, 0x14, 0x00, 0x00, 0x00, 0x18, 0x00, 0x00, 0x00,
  0x06, 0x00, 0x00, 0x00, 0x5a, 0xfe, 0xff, 0xff, 0x00, 0x00, 0x00, 0x01,
  0x01, 0x00, 0x00, 0x00, 0x2f, 0x00, 0x00, 0x00, 0x02, 0x00, 0x00, 0x00,
  0x2e, 0x00, 0x00, 0x00, 0x0e, 0x00, 0x00, 0x00, 0x46, 0xfc, 0xff, 0xff,
  0x14, 0x00, 0x00, 0x00, 0x00, 0x00, 0x00, 0x15, 0x10, 0x00, 0x00, 0x00,
  0x14, 0x00, 0x00, 0x00, 0x07, 0x00, 0x00, 0x00, 0x1c, 0xda, 0xff, 0xff,
  0x01, 0x00, 0x00, 0x00, 0x2e, 0x00, 0x00, 0x00, 0x02, 0x00, 0x00, 0x00,
  0x2d, 0x00, 0x00, 0x00, 0x0f, 0x00, 0x00, 0x00, 0x76, 0xfc, 0xff, 0xff,
  0x14, 0x00, 0x00, 0x00, 0x00, 0x00, 0x00, 0x0b, 0x10, 0x00, 0x00, 0x00,
  0x14, 0x00, 0x00, 0x00, 0x06, 0x00, 0x00, 0x00, 0x4c, 0xda, 0xff, 0xff,
  0x01, 0x00, 0x00, 0x00, 0x2d, 0x00, 0x00, 0x00, 0x02, 0x00, 0x00, 0x00,
  0x2c, 0x00, 0x00, 0x00, 0x10, 0x00, 0x00, 0x00, 0x26, 0xfd, 0xff, 0xff,
  0x0c, 0x00, 0x00, 0x00, 0x10, 0x00, 0x00, 0x00, 0x05, 0x00, 0x00, 0x00,
  0x01, 0x00, 0x00, 0x00, 0x2c, 0x00, 0x00, 0x00, 0x03, 0x00, 0x00, 0x00,
  0x2b, 0x00, 0x00, 0x00, 0x09, 0x00, 0x00, 0x00, 0x06, 0x00, 0x00, 0x00,
  0x4e, 0xfd, 0xff, 0xff, 0x0c, 0x00, 0x00, 0x00, 0x10, 0x00, 0x00, 0x00,
  0x03, 0x00, 0x00, 0x00, 0x01, 0x00, 0x00, 0x00, 0x2b, 0x00, 0x00, 0x00,
  0x02, 0x00, 0x00, 0x00, 0x2a, 0x00, 0x00, 0x00, 0x0a, 0x00, 0x00, 0x00,
  0xf2, 0xfc, 0xff, 0xff, 0x14, 0x00, 0x00, 0x00, 0x00, 0x00, 0x00, 0x01,
  0x1c, 0x00, 0x00, 0x00, 0x20, 0x00, 0x00, 0x00, 0x02, 0x00, 0x00, 0x00,
  0x42, 0xfe, 0xff, 0xff, 0x01, 0x00, 0x00, 0x00, 0x01, 0x00, 0x00, 0x00,
  0x00, 0x00, 0x00, 0x01, 0x01, 0x00, 0x00, 0x00, 0x2a, 0x00, 0x00, 0x00,
  0x03, 0x00, 0x00, 0x00, 0x29, 0x00, 0x00, 0x00, 0x11, 0x00, 0x00, 0x00,
  0x16, 0x00, 0x00, 0x00, 0x32, 0xfd, 0xff, 0xff, 0x14, 0x00, 0x00, 0x00,
  0x00, 0x00, 0x00, 0x34, 0x10, 0x00, 0x00, 0x00, 0x14, 0x00, 0x00, 0x00,
  0x01, 0x00, 0x00, 0x00, 0x08, 0xdb, 0xff, 0xff, 0x01, 0x00, 0x00, 0x00,
  0x29, 0x00, 0x00, 0x00, 0x02, 0x00, 0x00, 0x00, 0x28, 0x00, 0x00, 0x00,
  0x02, 0x00, 0x00, 0x00, 0xe2, 0xfd, 0xff, 0xff, 0x0c, 0x00, 0x00, 0x00,
  0x10, 0x00, 0x00, 0x00, 0x04, 0x00, 0x00, 0x00, 0x01, 0x00, 0x00, 0x00,
  0x28, 0x00, 0x00, 0x00, 0x03, 0x00, 0x00, 0x00, 0x27, 0x00, 0x00, 0x00,
  0x09, 0x00, 0x00, 0x00, 0x06, 0x00, 0x00, 0x00, 0x4a, 0xfd, 0xff, 0xff,
  0x10, 0x00, 0x00, 0x00, 0x00, 0x00, 0x00, 0x16, 0x0c, 0x00, 0x00, 0x00,
  0x10, 0x00, 0x00, 0x00, 0x5c, 0xdb, 0xff, 0xff, 0x01, 0x00, 0x00, 0x00,
  0x27, 0x00, 0x00, 0x00, 0x02, 0x00, 0x00, 0x00, 0x26, 0x00, 0x00, 0x00,
  0x08, 0x00, 0x00, 0x00, 0x16, 0xff, 0xff, 0xff, 0x1c, 0x00, 0x00, 0x00,
  0x00, 0x00, 0x00, 0x0b, 0x1c, 0x00, 0x00, 0x00, 0x20, 0x00, 0x00, 0x00,
  0x06, 0x00, 0x00, 0x00, 0x00, 0x00, 0x06, 0x00, 0x08, 0x00, 0x07, 0x00,
  0x06, 0x00, 0x00, 0x00, 0x00, 0x00, 0x00, 0x01, 0x01, 0x00, 0x00, 0x00,
  0x26, 0x00, 0x00, 0x00, 0x02, 0x00, 0x00, 0x00, 0x25, 0x00, 0x00, 0x00,
  0x12, 0x00, 0x00, 0x00, 0xf2, 0xfd, 0xff, 0xff, 0x14, 0x00, 0x00, 0x00,
  0x00, 0x00, 0x00, 0x15, 0x10, 0x00, 0x00, 0x00, 0x14, 0x00, 0x00, 0x00,
  0x07, 0x00, 0x00, 0x00, 0xc8, 0xdb, 0xff, 0xff, 0x01, 0x00, 0x00, 0x00,
  0x25, 0x00, 0x00, 0x00, 0x02, 0x00, 0x00, 0x00, 0x24, 0x00, 0x00, 0x00,
  0x13, 0x00, 0x00, 0x00, 0x22, 0xfe, 0xff, 0xff, 0x14, 0x00, 0x00, 0x00,
  0x00, 0x00, 0x00, 0x0b, 0x10, 0x00, 0x00, 0x00, 0x14, 0x00, 0x00, 0x00,
  0x06, 0x00, 0x00, 0x00, 0xf8, 0xdb, 0xff, 0xff, 0x01, 0x00, 0x00, 0x00,
  0x24, 0x00, 0x00, 0x00, 0x02, 0x00, 0x00, 0x00, 0x23, 0x00, 0x00, 0x00,
  0x14, 0x00, 0x00, 0x00, 0xd2, 0xfe, 0xff, 0xff, 0x0c, 0x00, 0x00, 0x00,
  0x10, 0x00, 0x00, 0x00, 0x05, 0x00, 0x00, 0x00, 0x01, 0x00, 0x00, 0x00,
  0x23, 0x00, 0x00, 0x00, 0x03, 0x00, 0x00, 0x00, 0x22, 0x00, 0x00, 0x00,
  0x05, 0x00, 0x00, 0x00, 0x06, 0x00, 0x00, 0x00, 0xfa, 0xfe, 0xff, 0xff,
  0x0c, 0x00, 0x00, 0x00, 0x10, 0x00, 0x00, 0x00, 0x03, 0x00, 0x00, 0x00,
  0x01, 0x00, 0x00, 0x00, 0x22, 0x00, 0x00, 0x00, 0x02, 0x00, 0x00, 0x00,
  0x21, 0x00, 0x00, 0x00, 0x07, 0x00, 0x00, 0x00, 0x00, 0x00, 0x0e, 0x00,
  0x1a, 0x00, 0x14, 0x00, 0x10, 0x00, 0x0c, 0x00, 0x0b, 0x00, 0x04, 0x00,
  0x0e, 0x00, 0x00, 0x00, 0x20, 0x00, 0x00, 0x00, 0x00, 0x00, 0x00, 0x01,
  0x28, 0x00, 0x00, 0x00, 0x2c, 0x00, 0x00, 0x00, 0x02, 0x00, 0x00, 0x00,
  0x00, 0x00, 0x0a, 0x00, 0x10, 0x00, 0x0f, 0x00, 0x08, 0x00, 0x04, 0x00,
  0x0a, 0x00, 0x00, 0x00, 0x01, 0x00, 0x00, 0x00, 0x01, 0x00, 0x00, 0x00,
  0x00, 0x00, 0x00, 0x01, 0x01, 0x00, 0x00, 0x00, 0x21, 0x00, 0x00, 0x00,
  0x03, 0x00, 0x00, 0x00, 0x20, 0x00, 0x00, 0x00, 0x17, 0x00, 0x00, 0x00,
  0x15, 0x00, 0x00, 0x00, 0xfa, 0xfe, 0xff, 0xff, 0x14, 0x00, 0x00, 0x00,
  0x00, 0x00, 0x00, 0x34, 0x10, 0x00, 0x00, 0x00, 0x14, 0x00, 0x00, 0x00,
  0x01, 0x00, 0x00, 0x00, 0xd0, 0xdc, 0xff, 0xff, 0x01, 0x00, 0x00, 0x00,
  0x20, 0x00, 0x00, 0x00, 0x02, 0x00, 0x00, 0x00, 0x1f, 0x00, 0x00, 0x00,
  0x02, 0x00, 0x00, 0x00, 0xaa, 0xff, 0xff, 0xff, 0x0c, 0x00, 0x00, 0x00,
  0x10, 0x00, 0x00, 0x00, 0x04, 0x00, 0x00, 0x00, 0x01, 0x00, 0x00, 0x00,
  0x1f, 0x00, 0x00, 0x00, 0x03, 0x00, 0x00, 0x00, 0x1e, 0x00, 0x00, 0x00,
  0x05, 0x00, 0x00, 0x00, 0x06, 0x00, 0x00, 0x00, 0x12, 0xff, 0xff, 0xff,
  0x10, 0x00, 0x00, 0x00, 0x00, 0x00, 0x00, 0x16, 0x0c, 0x00, 0x00, 0x00,
  0x10, 0x00, 0x00, 0x00, 0x24, 0xdd, 0xff, 0xff, 0x01, 0x00, 0x00, 0x00,
  0x1e, 0x00, 0x00, 0x00, 0x02, 0x00, 0x00, 0x00, 0x1d, 0x00, 0x00, 0x00,
  0x04, 0x00, 0x00, 0x00, 0x00, 0x00, 0x0a, 0x00, 0x10, 0x00, 0x0c, 0x00,
  0x08, 0x00, 0x04, 0x00, 0x0a, 0x00, 0x00, 0x00, 0x0c, 0x00, 0x00, 0x00,
  0x10, 0x00, 0x00, 0x00, 0x03, 0x00, 0x00, 0x00, 0x01, 0x00, 0x00, 0x00,
  0x1d, 0x00, 0x00, 0x00, 0x02, 0x00, 0x00, 0x00, 0x1c, 0x00, 0x00, 0x00,
  0x03, 0x00, 0x00, 0x00, 0xae, 0xff, 0xff, 0xff, 0x20, 0x00, 0x00, 0x00,
  0x00, 0x00, 0x00, 0x01, 0x2c, 0x00, 0x00, 0x00, 0x30, 0x00, 0x00, 0x00,
  0x02, 0x00, 0x00, 0x00, 0x0c, 0x00, 0x14, 0x00, 0x13, 0x00, 0x0c, 0x00,
  0x08, 0x00, 0x07, 0x00, 0x0c, 0x00, 0x00, 0x00, 0x00, 0x00, 0x00, 0x01,
  0x01, 0x00, 0x00, 0x00, 0x01, 0x00, 0x00, 0x00, 0x00, 0x00, 0x00, 0x01,
  0x01, 0x00, 0x00, 0x00, 0x1c, 0x00, 0x00, 0x00, 0x03, 0x00, 0x00, 0x00,
  0x1b, 0x00, 0x00, 0x00, 0x19, 0x00, 0x00, 0x00, 0x18, 0x00, 0x00, 0x00,
  0x00, 0x00, 0x0e, 0x00, 0x18, 0x00, 0x14, 0x00, 0x10, 0x00, 0x0c, 0x00,
  0x0b, 0x00, 0x04, 0x00, 0x0e, 0x00, 0x00, 0x00, 0x14, 0x00, 0x00, 0x00,
  0x00, 0x00, 0x00, 0x34, 0x10, 0x00, 0x00, 0x00, 0x14, 0x00, 0x00, 0x00,
  0x01, 0x00, 0x00, 0x00, 0xe4, 0xdd, 0xff, 0xff, 0x01, 0x00, 0x00, 0x00,
  0x1b, 0x00, 0x00, 0x00, 0x02, 0x00, 0x00, 0x00, 0x1a, 0x00, 0x00, 0x00,
  0x02, 0x00, 0x00, 0x00, 0x00, 0x00, 0x0e, 0x00, 0x14, 0x00, 0x00, 0x00,
  0x10, 0x00, 0x0c, 0x00, 0x0b, 0x00, 0x04, 0x00, 0x0e, 0x00, 0x00, 0x00,
  0x10, 0x00, 0x00, 0x00, 0x00, 0x00, 0x00, 0x16, 0x0c, 0x00, 0x00, 0x00,
  0x10, 0x00, 0x00, 0x00, 0x20, 0xde, 0xff, 0xff, 0x01, 0x00, 0x00, 0x00,
  0x1a, 0x00, 0x00, 0x00, 0x02, 0x00, 0x00, 0x00, 0x00, 0x00, 0x00, 0x00,
  0x01, 0x00, 0x00, 0x00, 0x01, 0x00, 0x00, 0x00, 0x33, 0x00, 0x00, 0x00,
  0x01, 0x00, 0x00, 0x00, 0x00, 0x00, 0x00, 0x00, 0x34, 0x00, 0x00, 0x00,
  0xf4, 0x21, 0x00, 0x00, 0x94, 0x21, 0x00, 0x00, 0x40, 0x21, 0x00, 0x00,
  0x00, 0x21, 0x00, 0x00, 0xbc, 0x20, 0x00, 0x00, 0x7c, 0x20, 0x00, 0x00,
  0x38, 0x20, 0x00, 0x00, 0xf8, 0x1f, 0x00, 0x00, 0xb4, 0x1f, 0x00, 0x00,
  0x74, 0x1f, 0x00, 0x00, 0x34, 0x1f, 0x00, 0x00, 0xf0, 0x1e, 0x00, 0x00,
  0x84, 0x1e, 0x00, 0x00, 0x08, 0x1e, 0x00, 0x00, 0xa4, 0x1d, 0x00, 0x00,
  0x40, 0x1d, 0x00, 0x00, 0xdc, 0x1c, 0x00, 0x00, 0xf8, 0x1a, 0x00, 0x00,
  0x94, 0x1a, 0x00, 0x00, 0x30, 0x1a, 0x00, 0x00, 0xcc, 0x19, 0x00, 0x00,
  0xf8, 0x17, 0x00, 0x00, 0x24, 0x16, 0x00, 0x00, 0x40, 0x14, 0x00, 0x00,
  0x6c, 0x12, 0x00, 0x00, 0x88, 0x10, 0x00, 0x00, 0x00, 0x10, 0x00, 0x00,
  0x68, 0x0f, 0x00, 0x00, 0x1c, 0x0e, 0x00, 0x00, 0xf4, 0x0c, 0x00, 0x00,
  0x68, 0x0c, 0x00, 0x00, 0xd4, 0x0b, 0x00, 0x00, 0x3c, 0x0b, 0x00, 0x00,
  0xb0, 0x0a, 0x00, 0x00, 0x20, 0x0a, 0x00, 0x00, 0x8c, 0x09, 0x00, 0x00,
  0x08, 0x09, 0x00, 0x00, 0x7c, 0x08, 0x00, 0x00, 0xe0, 0x07, 0x00, 0x00,
  0x54, 0x07, 0x00, 0x00, 0xc0, 0x06, 0x00, 0x00, 0x28, 0x06, 0x00, 0x00,
  0x9c, 0x05, 0x00, 0x00, 0x0c, 0x05, 0x00, 0x00, 0x78, 0x04, 0x00, 0x00,
  0xf4, 0x03, 0x00, 0x00, 0x68, 0x03, 0x00, 0x00, 0xcc, 0x02, 0x00, 0x00,
  0x34, 0x02, 0x00, 0x00, 0x60, 0x01, 0x00, 0x00, 0x8c, 0x00, 0x00, 0x00,
  0x04, 0x00, 0x00, 0x00, 0xf2, 0xde, 0xff, 0xff, 0x00, 0x00, 0x00, 0x01,
  0x18, 0x00, 0x00, 0x00, 0x24, 0x00, 0x00, 0x00, 0x44, 0x00, 0x00, 0x00,
  0x34, 0x00, 0x00, 0x00, 0x00, 0x00, 0x00, 0x09, 0x58, 0x00, 0x00, 0x00,
  0x03, 0x00, 0x00, 0x00, 0xff, 0xff, 0xff, 0xff, 0x80, 0x00, 0x00, 0x00,
  0x02, 0x00, 0x00, 0x00, 0xdc, 0xde, 0xff, 0xff, 0x08, 0x00, 0x00, 0x00,
  0x14, 0x00, 0x00, 0x00, 0x01, 0x00, 0x00, 0x00, 0x80, 0xff, 0xff, 0xff,
  0xff, 0xff, 0xff, 0xff, 0x00, 0x00, 0x00, 0x00, 0x01, 0x00, 0x00, 0x00,
  0x00, 0x00, 0x80, 0x3b, 0x19, 0x00, 0x00, 0x00, 0x53, 0x74, 0x61, 0x74,
  0x65, 0x66, 0x75, 0x6c, 0x50, 0x61, 0x72, 0x74, 0x69, 0x74, 0x69, 0x6f,
  0x6e, 0x65, 0x64, 0x43, 0x61, 0x6c, 0x6c, 0x3a, 0x30, 0x00, 0x00, 0x00,
  0x03, 0x00, 0x00, 0x00, 0x01, 0x00, 0x00, 0x00, 0x80, 0x00, 0x00, 0x00,
  0x02, 0x00, 0x00, 0x00, 0x76, 0xdf, 0xff, 0xff, 0x00, 0x00, 0x00, 0x01,
  0x18, 0x00, 0x00, 0x00, 0x28, 0x00, 0x00, 0x00, 0x48, 0x00, 0x00, 0x00,
  0x33, 0x00, 0x00, 0x00, 0x00, 0x00, 0x00, 0x09, 0xa0, 0x00, 0x00, 0x00,
  0x04, 0x00, 0x00, 0x00, 0xff, 0xff, 0xff, 0xff, 0x01, 0x00, 0x00, 0x00,
  0x80, 0x00, 0x00, 0x00, 0x02, 0x00, 0x00, 0x00, 0x64, 0xdf, 0xff, 0xff,
  0x08, 0x00, 0x00, 0x00, 0x14, 0x00, 0x00, 0x00, 0x01, 0x00, 0x00, 0x00,
  0x80, 0xff, 0xff, 0xff, 0xff, 0xff, 0xff, 0xff, 0x00, 0x00, 0x00, 0x00,
  0x01, 0x00, 0x00, 0x00, 0x00, 0x00, 0x80, 0x3b, 0x5e, 0x00, 0x00, 0x00,
  0x62, 0x65, 0x61, 0x74, 0x5f, 0x63, 0x6e, 0x6e, 0x2f, 0x6f, 0x75, 0x74,
  0x70, 0x75, 0x74, 0x5f, 0x63, 0x6f, 0x6e, 0x76, 0x2f, 0x53, 0x69, 0x67,
  0x6d, 0x6f, 0x69, 0x64, 0x3b, 0x62, 0x65, 0x61, 0x74, 0x5f, 0x63, 0x6e,
  0x6e, 0x2f, 0x6f, 0x75, 0x74, 0x70, 0x75, 0x74, 0x5f, 0x63, 0x6f, 0x6e,
  0x76, 0x2f, 0x42, 0x69, 0x61, 0x73, 0x41, 0x64, 0x64, 0x3b, 0x62, 0x65,
  0x61, 0x74, 0x5f, 0x63, 0x6e, 0x6e, 0x2f, 0x6f, 0x75, 0x74, 0x70, 0x75,
  0x74, 0x5f, 0x63, 0x6f, 0x6e, 0x76, 0x2f, 0x43, 0x6f, 0x6e, 0x76, 0x31,
  0x44, 0x2f, 0x53, 0x71, 0x75, 0x65, 0x65, 0x7a, 0x65, 0x3b, 0x00, 0x00,
  0x04, 0x00, 0x00, 0x00, 0x01, 0x00, 0x00, 0x00, 0x01, 0x00, 0x00, 0x00,
  0x80, 0x00, 0x00, 0x00, 0x02, 0x00, 0x00, 0x00, 0x46, 0xe0, 0xff, 0xff,
  0x00, 0x00, 0x00, 0x01, 0x18, 0x00, 0x00, 0x00, 0x28, 0x00, 0x00, 0x00,
  0x48, 0x00, 0x00, 0x00, 0x32, 0x00, 0x00, 0x00, 0x00, 0x00, 0x00, 0x09,
  0xa0, 0x00, 0x00, 0x00, 0x04, 0x00, 0x00, 0x00, 0xff, 0xff, 0xff, 0xff,
  0x01, 0x00, 0x00, 0x00, 0x80, 0x00, 0x00, 0x00, 0x02, 0x00, 0x00, 0x00,
  0x34, 0xe0, 0xff, 0xff, 0x08, 0x00, 0x00, 0x00, 0x14, 0x00, 0x00, 0x00,
  0x01, 0x00, 0x00, 0x00, 0x2b, 0x00, 0x00, 0x00, 0x00, 0x00, 0x00, 0x00,
  0x00, 0x00, 0x00, 0x00, 0x01, 0x00, 0x00, 0x00, 0x8d, 0xde, 0xf8, 0x3c,
  0x5d, 0x00, 0x00, 0x00, 0x62, 0x65, 0x61, 0x74, 0x5f, 0x63, 0x6e, 0x6e,
  0x2f, 0x6f, 0x75, 0x74, 0x70, 0x75, 0x74, 0x5f, 0x63, 0x6f, 0x6e, 0x76,
  0x2f, 0x42, 0x69, 0x61, 0x73, 0x41, 0x64, 0x64, 0x3b, 0x62, 0x65, 0x61,
  0x74, 0x5f, 0x63, 0x6e, 0x6e, 0x2f, 0x6f, 0x75, 0x74, 0x70, 0x75, 0x74,
  0x5f, 0x63, 0x6f, 0x6e, 0x76, 0x2f, 0x43, 0x6f, 0x6e, 0x76, 0x31, 0x44,
  0x2f, 0x53, 0x71, 0x75, 0x65, 0x65, 0x7a, 0x65, 0x3b, 0x3b, 0x62, 0x65,
  0x61, 0x74, 0x5f, 0x63, 0x6e, 0x6e, 0x2f, 0x6f, 0x75, 0x74, 0x70, 0x75,
  0x74, 0x5f, 0x63, 0x6f, 0x6e, 0x76, 0x2f, 0x43, 0x6f, 0x6e, 0x76, 0x31,
  0x44, 0x00, 0x00, 0x00, 0x04, 0x00, 0x00, 0x00, 0x01, 0x00, 0x00, 0x00,
  0x01, 0x00, 0x00, 0x00, 0x80, 0x00, 0x00, 0x00, 0x02, 0x00, 0x00, 0x00,
  0x16, 0xe1, 0xff, 0xff, 0x00, 0x00, 0x00, 0x01, 0x18, 0x00, 0x00, 0x00,
  0x28, 0x00, 0x00, 0x00, 0x44, 0x00, 0x00, 0x00, 0x31, 0x00, 0x00, 0x00,
  0x00, 0x00, 0x00, 0x09, 0x64, 0x00, 0x00, 0x00, 0x04, 0x00, 0x00, 0x00,
  0xff, 0xff, 0xff, 0xff, 0x01, 0x00, 0x00, 0x00, 0x80, 0x00, 0x00, 0x00,
  0x20, 0x00, 0x00, 0x00, 0x04, 0xe1, 0xff, 0xff, 0x08, 0x00, 0x00, 0x00,
  0x10, 0x00, 0x00, 0x00, 0x01, 0x00, 0x00, 0x00, 0x80, 0xff, 0xff, 0xff,
  0xff, 0xff, 0xff, 0xff, 0x01, 0x00, 0x00, 0x00, 0xce, 0xbc, 0x9f, 0x3c,
  0x26, 0x00, 0x00, 0x00, 0x62, 0x65, 0x61, 0x74, 0x5f, 0x63, 0x6e, 0x6e,
  0x2f, 0x6f, 0x75, 0x74, 0x70, 0x75, 0x74, 0x5f, 0x63, 0x6f, 0x6e, 0x76,
  0x2f, 0x43, 0x6f, 0x6e, 0x76, 0x31, 0x44, 0x2f, 0x45, 0x78, 0x70, 0x61,
  0x6e, 0x64, 0x44, 0x69, 0x6d, 0x73, 0x00, 0x00, 0x04, 0x00, 0x00, 0x00,
  0x01, 0x00, 0x00, 0x00, 0x01, 0x00, 0x00, 0x00, 0x80, 0x00, 0x00, 0x00,
  0x20, 0x00, 0x00, 0x00, 0xaa, 0xe1, 0xff, 0xff, 0x00, 0x00, 0x00, 0x01,
  0x18, 0x00, 0x00, 0x00, 0x24, 0x00, 0x00, 0x00, 0x40, 0x00, 0x00, 0x00,
  0x30, 0x00, 0x00, 0x00, 0x00, 0x00, 0x00, 0x09, 0x6c, 0x00, 0x00, 0x00,
  0x03, 0x00, 0x00, 0x00, 0xff, 0xff, 0xff, 0xff, 0x80, 0x00, 0x00, 0x00,
  0x20, 0x00, 0x00, 0x00, 0x94, 0xe1, 0xff, 0xff, 0x08, 0x00, 0x00, 0x00,
  0x10, 0x00, 0x00, 0x00, 0x01, 0x00, 0x00, 0x00, 0x80, 0xff, 0xff, 0xff,
  0xff, 0xff, 0xff, 0xff, 0x01, 0x00, 0x00, 0x00, 0xce, 0xbc, 0x9f, 0x3c,
  0x30, 0x00, 0x00, 0x00, 0x62, 0x65, 0x61, 0x74, 0x5f, 0x63, 0x6e, 0x6e,
  0x2f, 0x72, 0x65, 0x6c, 0x75, 0x33, 0x2f, 0x52, 0x65, 0x6c, 0x75, 0x3b,
  0x62, 0x65, 0x61, 0x74, 0x5f, 0x63, 0x6e, 0x6e, 0x2f, 0x62, 0x6e, 0x33,
  0x2f, 0x62, 0x61, 0x74, 0x63, 0x68, 0x6e, 0x6f, 0x72, 0x6d, 0x2f, 0x61,
  0x64, 0x64, 0x5f, 0x31, 0x00, 0x00, 0x00, 0x00, 0x03, 0x00, 0x00, 0x00,
  0x01, 0x00, 0x00, 0x00, 0x80, 0x00, 0x00, 0x00, 0x20, 0x00, 0x00, 0x00,
  0x42, 0xe2, 0xff, 0xff, 0x00, 0x00, 0x00, 0x01, 0x18, 0x00, 0x00, 0x00,
  0x24, 0x00, 0x00, 0x00, 0x44, 0x00, 0x00, 0x00, 0x2f, 0x00, 0x00, 0x00,
  0x00, 0x00, 0x00, 0x09, 0x5c, 0x00, 0x00, 0x00, 0x03, 0x00, 0x00, 0x00,
  0xff, 0xff, 0xff, 0xff, 0x80, 0x00, 0x00, 0x00, 0x20, 0x00, 0x00, 0x00,
  0x2c, 0xe2, 0xff, 0xff, 0x08, 0x00, 0x00, 0x00, 0x14, 0x00, 0x00, 0x00,
  0x01, 0x00, 0x00, 0x00, 0x43, 0x00, 0x00, 0x00, 0x00, 0x00, 0x00, 0x00,
  0x00, 0x00, 0x00, 0x00, 0x01, 0x00, 0x00, 0x00, 0x0b, 0x9b, 0xc3, 0x3d,
  0x1c, 0x00, 0x00, 0x00, 0x62, 0x65, 0x61, 0x74, 0x5f, 0x63, 0x6e, 0x6e,
  0x2f, 0x62, 0x6e, 0x33, 0x2f, 0x62, 0x61, 0x74, 0x63, 0x68, 0x6e, 0x6f,
  0x72, 0x6d, 0x2f, 0x6d, 0x75, 0x6c, 0x5f, 0x31, 0x00, 0x00, 0x00, 0x00,
  0x03, 0x00, 0x00, 0x00, 0x01, 0x00, 0x00, 0x00, 0x80, 0x00, 0x00, 0x00,
  0x20, 0x00, 0x00, 0x00, 0xca, 0xe2, 0xff, 0xff, 0x00, 0x00, 0x00, 0x01,
  0x18, 0x00, 0x00, 0x00, 0x24, 0x00, 0x00, 0x00, 0x40, 0x00, 0x00, 0x00,
  0x2e, 0x00, 0x00, 0x00, 0x00, 0x00, 0x00, 0x09, 0x54, 0x00, 0x00, 0x00,
  0x03, 0x00, 0x00, 0x00, 0xff, 0xff, 0xff, 0xff, 0x80, 0x00, 0x00, 0x00,
  0x20, 0x00, 0x00, 0x00, 0xb4, 0xe2, 0xff, 0xff, 0x08, 0x00, 0x00, 0x00,
  0x10, 0x00, 0x00, 0x00, 0x01, 0x00, 0x00, 0x00, 0x43, 0x00, 0x00, 0x00,
  0x00, 0x00, 0x00, 0x00, 0x01, 0x00, 0x00, 0x00, 0xd7, 0xd4, 0x9d, 0x3e,
  0x19, 0x00, 0x00, 0x00, 0x62, 0x65, 0x61, 0x74, 0x5f, 0x63, 0x6e, 0x6e,
  0x2f, 0x63, 0x6f, 0x6e, 0x76, 0x33, 0x5f, 0x64, 0x34, 0x2f, 0x42, 0x69,
  0x61, 0x73, 0x41, 0x64, 0x64, 0x00, 0x00, 0x00, 0x03, 0x00, 0x00, 0x00,
  0x01, 0x00, 0x00, 0x00, 0x80, 0x00, 0x00, 0x00, 0x20, 0x00, 0x00, 0x00,
  0x4a, 0xe3, 0xff, 0xff, 0x00, 0x00, 0x00, 0x01, 0x18, 0x00, 0x00, 0x00,
  0x24, 0x00, 0x00, 0x00, 0x44, 0x00, 0x00, 0x00, 0x2d, 0x00, 0x00, 0x00,
  0x00, 0x00, 0x00, 0x09, 0x64, 0x00, 0x00, 0x00, 0x03, 0x00, 0x00, 0x00,
  0xff, 0xff, 0xff, 0xff, 0x80, 0x00, 0x00, 0x00, 0x20, 0x00, 0x00, 0x00,
  0x34, 0xe3, 0xff, 0xff, 0x08, 0x00, 0x00, 0x00, 0x14, 0x00, 0x00, 0x00,
  0x01, 0x00, 0x00, 0x00, 0x3f, 0x00, 0x00, 0x00, 0x00, 0x00, 0x00, 0x00,
  0x00, 0x00, 0x00, 0x00, 0x01, 0x00, 0x00, 0x00, 0xc0, 0x5e, 0xa3, 0x3e,
  0x27, 0x00, 0x00, 0x00, 0x62, 0x65, 0x61, 0x74, 0x5f, 0x63, 0x6e, 0x6e,
  0x2f, 0x63, 0x6f, 0x6e, 0x76, 0x33, 0x5f, 0x64, 0x34, 0x2f, 0x43, 0x6f,
  0x6e, 0x76, 0x31, 0x44, 0x2f, 0x42, 0x61, 0x74, 0x63, 0x68, 0x54, 0x6f,
  0x53, 0x70, 0x61, 0x63, 0x65, 0x4e, 0x44, 0x00, 0x03, 0x00, 0x00, 0x00,
  0x01, 0x00, 0x00, 0x00, 0x80, 0x00, 0x00, 0x00, 0x20, 0x00, 0x00, 0x00,
  0xda, 0xe3, 0xff, 0xff, 0x00, 0x00, 0x00, 0x01, 0x18, 0x00, 0x00, 0x00,
  0x24, 0x00, 0x00, 0x00, 0x44, 0x00, 0x00, 0x00, 0x2c, 0x00, 0x00, 0x00,
  0x00, 0x00, 0x00, 0x09, 0x60, 0x00, 0x00, 0x00, 0x03, 0x00, 0x00, 0x00,
  0xff, 0xff, 0xff, 0xff, 0x20, 0x00, 0x00, 0x00, 0x20, 0x00, 0x00, 0x00,
  0xc4, 0xe3, 0xff, 0xff, 0x08, 0x00, 0x00, 0x00, 0x14, 0x00, 0x00, 0x00,
  0x01, 0x00, 0x00, 0x00, 0x3f, 0x00, 0x00, 0x00, 0x00, 0x00, 0x00, 0x00,
  0x00, 0x00, 0x00, 0x00, 0x01, 0x00, 0x00, 0x00, 0xc0, 0x5e, 0xa3, 0x3e,
  0x20, 0x00, 0x00, 0x00, 0x62, 0x65, 0x61, 0x74, 0x5f, 0x63, 0x6e, 0x6e,
  0x2f, 0x63, 0x6f, 0x6e, 0x76, 0x33, 0x5f, 0x64, 0x34, 0x2f, 0x43, 0x6f,
  0x6e, 0x76, 0x31, 0x44, 0x2f, 0x53, 0x71, 0x75, 0x65, 0x65, 0x7a, 0x65,
  0x00, 0x00, 0x00, 0x00, 0x03, 0x00, 0x00, 0x00, 0x01, 0x00, 0x00, 0x00,
  0x20, 0x00, 0x00, 0x00, 0x20, 0x00, 0x00, 0x00, 0x66, 0xe4, 0xff, 0xff,
  0x00, 0x00, 0x00, 0x01, 0x18, 0x00, 0x00, 0x00, 0x28, 0x00, 0x00, 0x00,
  0x44, 0x00, 0x00, 0x00, 0x2b, 0x00, 0x00, 0x00, 0x00, 0x00, 0x00, 0x09,
  0x58, 0x00, 0x00, 0x00, 0x04, 0x00, 0x00, 0x00, 0xff, 0xff, 0xff, 0xff,
  0x01, 0x00, 0x00, 0x00, 0x20, 0x00, 0x00, 0x00, 0x20, 0x00, 0x00, 0x00,
  0x54, 0xe4, 0xff, 0xff, 0x08, 0x00, 0x00, 0x00, 0x10, 0x00, 0x00, 0x00,
  0x01, 0x00, 0x00, 0x00, 0x3f, 0x00, 0x00, 0x00, 0x00, 0x00, 0x00, 0x00,
  0x01, 0x00, 0x00, 0x00, 0xc0, 0x5e, 0xa3, 0x3e, 0x18, 0x00, 0x00, 0x00,
  0x62, 0x65, 0x61, 0x74, 0x5f, 0x63, 0x6e, 0x6e, 0x2f, 0x63, 0x6f, 0x6e,
  0x76, 0x33, 0x5f, 0x64, 0x34, 0x2f, 0x43, 0x6f, 0x6e, 0x76, 0x31, 0x44,
  0x00, 0x00, 0x00, 0x00, 0x04, 0x00, 0x00, 0x00, 0x01, 0x00, 0x00, 0x00,
  0x01, 0x00, 0x00, 0x00, 0x20, 0x00, 0x00, 0x00, 0x20, 0x00, 0x00, 0x00,
  0xee, 0xe4, 0xff, 0xff, 0x00, 0x00, 0x00, 0x01, 0x18, 0x00, 0x00, 0x00,
  0x28, 0x00, 0x00, 0x00, 0x48, 0x00, 0x00, 0x00, 0x2a, 0x00, 0x00, 0x00,
  0x00, 0x00, 0x00, 0x09, 0x64, 0x00, 0x00, 0x00, 0x04, 0x00, 0x00, 0x00,
  0xff, 0xff, 0xff, 0xff, 0x01, 0x00, 0x00, 0x00, 0x22, 0x00, 0x00, 0x00,
  0x20, 0x00, 0x00, 0x00, 0xdc, 0xe4, 0xff, 0xff, 0x08, 0x00, 0x00, 0x00,
  0x14, 0x00, 0x00, 0x00, 0x01, 0x00, 0x00, 0x00, 0x80, 0xff, 0xff, 0xff,
  0xff, 0xff, 0xff, 0xff, 0x00, 0x00, 0x00, 0x00, 0x01, 0x00, 0x00, 0x00,
  0xdc, 0x42, 0x99, 0x3c, 0x23, 0x00, 0x00, 0x00, 0x62, 0x65, 0x61, 0x74,
  0x5f, 0x63, 0x6e, 0x6e, 0x2f, 0x63, 0x6f, 0x6e, 0x76, 0x33, 0x5f, 0x64,
  0x34, 0x2f, 0x43, 0x6f, 0x6e, 0x76, 0x31, 0x44, 0x2f, 0x45, 0x78, 0x70,
  0x61, 0x6e, 0x64, 0x44, 0x69, 0x6d, 0x73, 0x00, 0x04, 0x00, 0x00, 0x00,
  0x01, 0x00, 0x00, 0x00, 0x01, 0x00, 0x00, 0x00, 0x22, 0x00, 0x00, 0x00,
  0x20, 0x00, 0x00, 0x00, 0x82, 0xe5, 0xff, 0xff, 0x00, 0x00, 0x00, 0x01,
  0x18, 0x00, 0x00, 0x00, 0x24, 0x00, 0x00, 0x00, 0x44, 0x00, 0x00, 0x00,
  0x29, 0x00, 0x00, 0x00, 0x00, 0x00, 0x00, 0x09, 0x64, 0x00, 0x00, 0x00,
  0x03, 0x00, 0x00, 0x00, 0xff, 0xff, 0xff, 0xff, 0x22, 0x00, 0x00, 0x00,
  0x20, 0x00, 0x00, 0x00, 0x6c, 0xe5, 0xff, 0xff, 0x08, 0x00, 0x00, 0x00,
  0x14, 0x00, 0x00, 0x00, 0x01, 0x00, 0x00, 0x00, 0x80, 0xff, 0xff, 0xff,
  0xff, 0xff, 0xff, 0xff, 0x00, 0x00, 0x00, 0x00, 0x01, 0x00, 0x00, 0x00,
  0xdc, 0x42, 0x99, 0x3c, 0x27, 0x00, 0x00, 0x00, 0x62, 0x65, 0x61, 0x74,
  0x5f, 0x63, 0x6e, 0x6e, 0x2f, 0x63, 0x6f, 0x6e, 0x76, 0x33, 0x5f, 0x64,
  0x34, 0x2f, 0x43, 0x6f, 0x6e, 0x76, 0x31, 0x44, 0x2f, 0x53, 0x70, 0x61,
  0x63, 0x65, 0x54, 0x6f, 0x42, 0x61, 0x74, 0x63, 0x68, 0x4e, 0x44, 0x00,
  0x03, 0x00, 0x00, 0x00, 0x01, 0x00, 0x00, 0x00, 0x22, 0x00, 0x00, 0x00,
  0x20, 0x00, 0x00, 0x00, 0x12, 0xe6, 0xff, 0xff, 0x00, 0x00, 0x00, 0x01,
  0x18, 0x00, 0x00, 0x00, 0x24, 0x00, 0x00, 0x00, 0x44, 0x00, 0x00, 0x00,
  0x28, 0x00, 0x00, 0x00, 0x00, 0x00, 0x00, 0x09, 0x5c, 0x00, 0x00, 0x00,
  0x03, 0x00, 0x00, 0x00, 0xff, 0xff, 0xff, 0xff, 0x88, 0x00, 0x00, 0x00,
  0x20, 0x00, 0x00, 0x00, 0xfc, 0xe5, 0xff, 0xff, 0x08, 0x00, 0x00, 0x00,
  0x14, 0x00, 0x00, 0x00, 0x01, 0x00, 0x00, 0x00, 0x80, 0xff, 0xff, 0xff,
  0xff, 0xff, 0xff, 0xff, 0x00, 0x00, 0x00, 0x00, 0x01, 0x00, 0x00, 0x00,
  0xdc, 0x42, 0x99, 0x3c, 0x1d, 0x00, 0x00, 0x00, 0x62, 0x65, 0x61, 0x74,
  0x5f, 0x63, 0x6e, 0x6e, 0x2f, 0x7a, 0x65, 0x72, 0x6f, 0x5f, 0x70, 0x61,
  0x64, 0x64, 0x69, 0x6e, 0x67, 0x31, 0x64, 0x5f, 0x32, 0x2f, 0x50, 0x61,
  0x64, 0x00, 0x00, 0x00, 0x03, 0x00, 0x00, 0x00, 0x01, 0x00, 0x00, 0x00,
  0x88, 0x00, 0x00, 0x00, 0x20, 0x00, 0x00, 0x00, 0x9a, 0xe6, 0xff, 0xff,
  0x00, 0x00, 0x00, 0x01, 0x18, 0x00, 0x00, 0x00, 0x24, 0x00, 0x00, 0x00,
  0x40, 0x00, 0x00, 0x00, 0x27, 0x00, 0x00, 0x00, 0x00, 0x00, 0x00, 0x09,
  0x6c, 0x00, 0x00, 0x00, 0x03, 0x00, 0x00, 0x00, 0xff, 0xff, 0xff, 0xff,
  0x80, 0x00, 0x00, 0x00, 0x20, 0x00, 0x00, 0x00, 0x84, 0xe6, 0xff, 0xff,
  0x08, 0x00, 0x00, 0x00, 0x10, 0x00, 0x00, 0x00, 0x01, 0x00, 0x00, 0x00,
  0x80, 0xff, 0xff, 0xff, 0xff, 0xff, 0xff, 0xff, 0x01, 0x00, 0x00, 0x00,
  0xdc, 0x42, 0x99, 0x3c, 0x30, 0x00, 0x00, 0x00, 0x62, 0x65, 0x61, 0x74,
  0x5f, 0x63, 0x6e, 0x6e, 0x2f, 0x72, 0x65, 0x6c, 0x75, 0x32, 0x2f, 0x52,
  0x65, 0x6c, 0x75, 0x3b, 0x62, 0x65, 0x61, 0x74, 0x5f, 0x63, 0x6e, 0x6e,
  0x2f, 0x62, 0x6e, 0x32, 0x2f, 0x62, 0x61, 0x74, 0x63, 0x68, 0x6e, 0x6f,
  0x72, 0x6d, 0x2f, 0x61, 0x64, 0x64, 0x5f, 0x31, 0x00, 0x00, 0x00, 0x00,
  0x03, 0x00, 0x00, 0x00, 0x01, 0x00, 0x00, 0x00, 0x80, 0x00, 0x00, 0x00,
  0x20, 0x00, 0x00, 0x00, 0x32, 0xe7, 0xff, 0xff, 0x00, 0x00, 0x00, 0x01,
  0x18, 0x00, 0x00, 0x00, 0x24, 0x00, 0x00, 0x00, 0x44, 0x00, 0x00, 0x00,
  0x26, 0x00, 0x00, 0x00, 0x00, 0x00, 0x00, 0x09, 0x5c, 0x00, 0x00, 0x00,
  0x03, 0x00, 0x00, 0x00, 0xff, 0xff, 0xff, 0xff, 0x80, 0x00, 0x00, 0x00,
  0x20, 0x00, 0x00, 0x00, 0x1c, 0xe7, 0xff, 0xff, 0x08, 0x00, 0x00, 0x00,
  0x14, 0x00, 0x00, 0x00, 0x01, 0x00, 0x00, 0x00, 0x5e, 0x00, 0x00, 0x00,
  0x00, 0x00, 0x00, 0x00, 0x00, 0x00, 0x00, 0x00, 0x01, 0x00, 0x00, 0x00,
  0xa9, 0xff, 0x16, 0x3e, 0x1c, 0x00, 0x00, 0x00, 0x62, 0x65, 0x61, 0x74,
  0x5f, 0x63, 0x6e, 0x6e, 0x2f, 0x62, 0x6e, 0x32, 0x2f, 0x62, 0x61, 0x74,
  0x63, 0x68, 0x6e, 0x6f, 0x72, 0x6d, 0x2f, 0x6d, 0x75, 0x6c, 0x5f, 0x31,
  0x00, 0x00, 0x00, 0x00, 0x03, 0x00, 0x00, 0x00, 0x01, 0x00, 0x00, 0x00,
  0x80, 0x00, 0x00, 0x00, 0x20, 0x00, 0x00, 0x00, 0xba, 0xe7, 0xff, 0xff,
  0x00, 0x00, 0x00, 0x01, 0x18, 0x00, 0x00, 0x00, 0x24, 0x00, 0x00, 0x00,
  0x40, 0x00, 0x00, 0x00, 0x25, 0x00, 0x00, 0x00, 0x00, 0x00, 0x00, 0x09,
  0x54, 0x00, 0x00, 0x00, 0x03, 0x00, 0x00, 0x00, 0xff, 0xff, 0xff, 0xff,
  0x80, 0x00, 0x00, 0x00, 0x20, 0x00, 0x00, 0x00, 0xa4, 0xe7, 0xff, 0xff,
  0x08, 0x00, 0x00, 0x00, 0x10, 0x00, 0x00, 0x00, 0x01, 0x00, 0x00, 0x00,
  0x60, 0x00, 0x00, 0x00, 0x00, 0x00, 0x00, 0x00, 0x01, 0x00, 0x00, 0x00,
  0x27, 0xb0, 0x08, 0x40, 0x19, 0x00, 0x00, 0x00, 0x62, 0x65, 0x61, 0x74,
  0x5f, 0x63, 0x6e, 0x6e, 0x2f, 0x63, 0x6f, 0x6e, 0x76, 0x32, 0x5f, 0x64,
  0x32, 0x2f, 0x42, 0x69, 0x61, 0x73, 0x41, 0x64, 0x64, 0x00, 0x00, 0x00,
  0x03, 0x00, 0x00, 0x00, 0x01, 0x00, 0x00, 0x00, 0x80, 0x00, 0x00, 0x00,
  0x20, 0x00, 0x00, 0x00, 0x3a, 0xe8, 0xff, 0xff, 0x00, 0x00, 0x00, 0x01,
  0x18, 0x00, 0x00, 0x00, 0x24, 0x00, 0x00, 0x00, 0x44, 0x00, 0x00, 0x00,
  0x24, 0x00, 0x00, 0x00, 0x00, 0x00, 0x00, 0x09, 0x64, 0x00, 0x00, 0x00,
  0x03, 0x00, 0x00, 0x00, 0xff, 0xff, 0xff, 0xff, 0x80, 0x00, 0x00, 0x00,
  0x20, 0x00, 0x00, 0x00, 0x24, 0xe8, 0xff, 0xff, 0x08, 0x00, 0x00, 0x00,
  0x14, 0x00, 0x00, 0x00, 0x01, 0x00, 0x00, 0x00, 0x60, 0x00, 0x00, 0x00,
  0x00, 0x00, 0x00, 0x00, 0x00, 0x00, 0x00, 0x00, 0x01, 0x00, 0x00, 0x00,
  0x34, 0xb7, 0x08, 0x40, 0x27, 0x00, 0x00, 0x00, 0x62, 0x65, 0x61, 0x74,
  0x5f, 0x63, 0x6e, 0x6e, 0x2f, 0x63, 0x6f, 0x6e, 0x76, 0x32, 0x5f, 0x64,
  0x32, 0x2f, 0x43, 0x6f, 0x6e, 0x76, 0x31, 0x44, 0x2f, 0x42, 0x61, 0x74,
  0x63, 0x68, 0x54, 0x6f, 0x53, 0x70, 0x61, 0x63, 0x65, 0x4e, 0x44, 0x00,
  0x03, 0x00, 0x00, 0x00, 0x01, 0x00, 0x00, 0x00, 0x80, 0x00, 0x00, 0x00,
  0x20, 0x00, 0x00, 0x00, 0xca, 0xe8, 0xff, 0xff, 0x00, 0x00, 0x00, 0x01,
  0x18, 0x00, 0x00, 0x00, 0x24, 0x00, 0x00, 0x00, 0x44, 0x00, 0x00, 0x00,
  0x23, 0x00, 0x00, 0x00, 0x00, 0x00, 0x00, 0x09, 0x60, 0x00, 0x00, 0x00,
  0x03, 0x00, 0x00, 0x00, 0xff, 0xff, 0xff, 0xff, 0x40, 0x00, 0x00, 0x00,
  0x20, 0x00, 0x00, 0x00, 0xb4, 0xe8, 0xff, 0xff, 0x08, 0x00, 0x00, 0x00,
  0x14, 0x00, 0x00, 0x00, 0x01, 0x00, 0x00, 0x00, 0x60, 0x00, 0x00, 0x00,
  0x00, 0x00, 0x00, 0x00, 0x00, 0x00, 0x00, 0x00, 0x01, 0x00, 0x00, 0x00,
  0x34, 0xb7, 0x08, 0x40, 0x20, 0x00, 0x00, 0x00, 0x62, 0x65, 0x61, 0x74,
  0x5f, 0x63, 0x6e, 0x6e, 0x2f, 0x63, 0x6f, 0x6e, 0x76, 0x32, 0x5f, 0x64,
  0x32, 0x2f, 0x43, 0x6f, 0x6e, 0x76, 0x31, 0x44, 0x2f, 0x53, 0x71, 0x75,
  0x65, 0x65, 0x7a, 0x65, 0x00, 0x00, 0x00, 0x00, 0x03, 0x00, 0x00, 0x00,
  0x01, 0x00, 0x00, 0x00, 0x40, 0x00, 0x00, 0x00, 0x20, 0x00, 0x00, 0x00,
  0x56, 0xe9, 0xff, 0xff, 0x00, 0x00, 0x00, 0x01, 0x18, 0x00, 0x00, 0x00,
  0x28, 0x00, 0x00, 0x00, 0x44, 0x00, 0x00, 0x00, 0x22, 0x00, 0x00, 0x00,
  0x00, 0x00, 0x00, 0x09, 0x58, 0x00, 0x00, 0x00, 0x04, 0x00, 0x00, 0x00,
  0xff, 0xff, 0xff, 0xff, 0x01, 0x00, 0x00, 0x00, 0x40, 0x00, 0x00, 0x00,
  0x20, 0x00, 0x00, 0x00, 0x44, 0xe9, 0xff, 0xff, 0x08, 0x00, 0x00, 0x00,
  0x10, 0x00, 0x00, 0x00, 0x01, 0x00, 0x00, 0x00, 0x60, 0x00, 0x00, 0x00,
  0x00, 0x00, 0x00, 0x00, 0x01, 0x00, 0x00, 0x00, 0x34, 0xb7, 0x08, 0x40,
  0x18, 0x00, 0x00, 0x00, 0x62, 0x65, 0x61, 0x74, 0x5f, 0x63, 0x6e, 0x6e,
  0x2f, 0x63, 0x6f, 0x6e, 0x76, 0x32, 0x5f, 0x64, 0x32, 0x2f, 0x43, 0x6f,
  0x6e, 0x76, 0x31, 0x44, 0x00, 0x00, 0x00, 0x00, 0x04, 0x00, 0x00, 0x00,
  0x01, 0x00, 0x00, 0x00, 0x01, 0x00, 0x00, 0x00, 0x40, 0x00, 0x00, 0x00,
  0x20, 0x00, 0x00, 0x00, 0xde, 0xe9, 0xff, 0xff, 0x00, 0x00, 0x00, 0x01,
  0x18, 0x00, 0x00, 0x00, 0x28, 0x00, 0x00, 0x00, 0x48, 0x00, 0x00, 0x00,
  0x21, 0x00, 0x00, 0x00, 0x00, 0x00, 0x00, 0x09, 0x64, 0x00, 0x00, 0x00,
  0x04, 0x00, 0x00, 0x00, 0xff, 0xff, 0xff, 0xff, 0x01, 0x00, 0x00, 0x00,
  0x42, 0x00, 0x00, 0x00, 0x20, 0x00, 0x00, 0x00, 0xcc, 0xe9, 0xff, 0xff,
  0x08, 0x00, 0x00, 0x00, 0x14, 0x00, 0x00, 0x00, 0x01, 0x00, 0x00, 0x00,
  0x80, 0xff, 0xff, 0xff, 0xff, 0xff, 0xff, 0xff, 0x00, 0x00, 0x00, 0x00,
  0x01, 0x00, 0x00, 0x00, 0xbf, 0xa1, 0xa1, 0x3d, 0x23, 0x00, 0x00, 0x00,
  0x62, 0x65, 0x61, 0x74, 0x5f, 0x63, 0x6e, 0x6e, 0x2f, 0x63, 0x6f, 0x6e,
  0x76, 0x32, 0x5f, 0x64, 0x32, 0x2f, 0x43, 0x6f, 0x6e, 0x76, 0x31, 0x44,
  0x2f, 0x45, 0x78, 0x70, 0x61, 0x6e, 0x64, 0x44, 0x69, 0x6d, 0x73, 0x00,
  0x04, 0x00, 0x00, 0x00, 0x01, 0x00, 0x00, 0x00, 0x01, 0x00, 0x00, 0x00,
  0x42, 0x00, 0x00, 0x00, 0x20, 0x00, 0x00, 0x00, 0x72, 0xea, 0xff, 0xff,
  0x00, 0x00, 0x00, 0x01, 0x18, 0x00, 0x00, 0x00, 0x24, 0x00, 0x00, 0x00,
  0x44, 0x00, 0x00, 0x00, 0x20, 0x00, 0x00, 0x00, 0x00, 0x00, 0x00, 0x09,
  0x64, 0x00, 0x00, 0x00, 0x03, 0x00, 0x00, 0x00, 0xff, 0xff, 0xff, 0xff,
  0x42, 0x00, 0x00, 0x00, 0x20, 0x00, 0x00, 0x00, 0x5c, 0xea, 0xff, 0xff,
  0x08, 0x00, 0x00, 0x00, 0x14, 0x00, 0x00, 0x00, 0x01, 0x00, 0x00, 0x00,
  0x80, 0xff, 0xff, 0xff, 0xff, 0xff, 0xff, 0xff, 0x00, 0x00, 0x00, 0x00,
  0x01, 0x00, 0x00, 0x00, 0xbf, 0xa1, 0xa1, 0x3d, 0x27, 0x00, 0x00, 0x00,
  0x62, 0x65, 0x61, 0x74, 0x5f, 0x63, 0x6e, 0x6e, 0x2f, 0x63, 0x6f, 0x6e,
  0x76, 0x32, 0x5f, 0x64, 0x32, 0x2f, 0x43, 0x6f, 0x6e, 0x76, 0x31, 0x44,
  0x2f, 0x53, 0x70, 0x61, 0x63, 0x65, 0x54, 0x6f, 0x42, 0x61, 0x74, 0x63,
  0x68, 0x4e, 0x44, 0x00, 0x03, 0x00, 0x00, 0x00, 0x01, 0x00, 0x00, 0x00,
  0x42, 0x00, 0x00, 0x00, 0x20, 0x00, 0x00, 0x00, 0x02, 0xeb, 0xff, 0xff,
  0x00, 0x00, 0x00, 0x01, 0x18, 0x00, 0x00, 0x00, 0x24, 0x00, 0x00, 0x00,
  0x44, 0x00, 0x00, 0x00, 0x1f, 0x00, 0x00, 0x00, 0x00, 0x00, 0x00, 0x09,
  0x5c, 0x00, 0x00, 0x00, 0x03, 0x00, 0x00, 0x00, 0xff, 0xff, 0xff, 0xff,
  0x84, 0x00, 0x00, 0x00, 0x20, 0x00, 0x00, 0x00, 0xec, 0xea, 0xff, 0xff,
  0x08, 0x00, 0x00, 0x00, 0x14, 0x00, 0x00, 0x00, 0x01, 0x00, 0x00, 0x00,
  0x80, 0xff, 0xff, 0xff, 0xff, 0xff, 0xff, 0xff, 0x00, 0x00, 0x00, 0x00,
  0x01, 0x00, 0x00, 0x00, 0xbf, 0xa1, 0xa1, 0x3d, 0x1d, 0x00, 0x00, 0x00,
  0x62, 0x65, 0x61, 0x74, 0x5f, 0x63, 0x6e, 0x6e, 0x2f, 0x7a, 0x65, 0x72,
  0x6f, 0x5f, 0x70, 0x61, 0x64, 0x64, 0x69, 0x6e, 0x67, 0x31, 0x64, 0x5f,
  0x31, 0x2f, 0x50, 0x61, 0x64, 0x00, 0x00, 0x00, 0x03, 0x00, 0x00, 0x00,
  0x01, 0x00, 0x00, 0x00, 0x84, 0x00, 0x00, 0x00, 0x20, 0x00, 0x00, 0x00,
  0x8a, 0xeb, 0xff, 0xff, 0x00, 0x00, 0x00, 0x01, 0x18, 0x00, 0x00, 0x00,
  0x24, 0x00, 0x00, 0x00, 0x40, 0x00, 0x00, 0x00, 0x1e, 0x00, 0x00, 0x00,
  0x00, 0x00, 0x00, 0x09, 0xf8, 0x00, 0x00, 0x00, 0x03, 0x00, 0x00, 0x00,
  0xff, 0xff, 0xff, 0xff, 0x80, 0x00, 0x00, 0x00, 0x20, 0x00, 0x00, 0x00,
  0x74, 0xeb, 0xff, 0xff, 0x08, 0x00, 0x00, 0x00, 0x10, 0x00, 0x00, 0x00,
  0x01, 0x00, 0x00, 0x00, 0x80, 0xff, 0xff, 0xff, 0xff, 0xff, 0xff, 0xff,
  0x01, 0x00, 0x00, 0x00, 0xbf, 0xa1, 0xa1, 0x3d, 0xbf, 0x00, 0x00, 0x00,
  0x62, 0x65, 0x61, 0x74, 0x5f, 0x63, 0x6e, 0x6e, 0x2f, 0x72, 0x65, 0x6c,
  0x75, 0x31, 0x2f, 0x52, 0x65, 0x6c, 0x75, 0x3b, 0x62, 0x65, 0x61, 0x74,
  0x5f, 0x63, 0x6e, 0x6e, 0x2f, 0x62, 0x6e, 0x31, 0x2f, 0x62, 0x61, 0x74,
  0x63, 0x68, 0x6e, 0x6f, 0x72, 0x6d, 0x2f, 0x61, 0x64, 0x64, 0x5f, 0x31,
  0x3b, 0x62, 0x65, 0x61, 0x74, 0x5f, 0x63, 0x6e, 0x6e, 0x2f, 0x63, 0x6f,
  0x6e, 0x76, 0x31, 0x5f, 0x64, 0x31, 0x2f, 0x43, 0x6f, 0x6e, 0x76, 0x31,
  0x44, 0x2f, 0x53, 0x71, 0x75, 0x65, 0x65, 0x7a, 0x65, 0x3b, 0x62, 0x65,
  0x61, 0x74, 0x5f, 0x63, 0x6e, 0x6e, 0x2f, 0x62, 0x6e, 0x31, 0x2f, 0x62,
  0x61, 0x74, 0x63, 0x68, 0x6e, 0x6f, 0x72, 0x6d, 0x2f, 0x6d, 0x75, 0x6c,
  0x5f, 0x31, 0x3b, 0x62, 0x65, 0x61, 0x74, 0x5f, 0x63, 0x6e, 0x6e, 0x2f,
  0x63, 0x6f, 0x6e, 0x76, 0x31, 0x5f, 0x64, 0x31, 0x2f, 0x42, 0x69, 0x61,
  0x73, 0x41, 0x64, 0x64, 0x3b, 0x3b, 0x62, 0x65, 0x61, 0x74, 0x5f, 0x63,
  0x6e, 0x6e, 0x2f, 0x62, 0x6e, 0x31, 0x2f, 0x62, 0x61, 0x74, 0x63, 0x68,
  0x6e, 0x6f, 0x72, 0x6d, 0x2f, 0x6d, 0x75, 0x6c, 0x3b, 0x62, 0x65, 0x61,
  0x74, 0x5f, 0x63, 0x6e, 0x6e, 0x2f, 0x62, 0x6e, 0x31, 0x2f, 0x62, 0x61,
  0x74, 0x63, 0x68, 0x6e, 0x6f, 0x72, 0x6d, 0x2f, 0x73, 0x75, 0x62, 0x00,
  0x03, 0x00, 0x00, 0x00, 0x01, 0x00, 0x00, 0x00, 0x80, 0x00, 0x00, 0x00,
  0x20, 0x00, 0x00, 0x00, 0xae, 0xec, 0xff, 0xff, 0x00, 0x00, 0x00, 0x01,
  0x18, 0x00, 0x00, 0x00, 0x28, 0x00, 0x00, 0x00, 0x44, 0x00, 0x00, 0x00,
  0x1d, 0x00, 0x00, 0x00, 0x00, 0x00, 0x00, 0x09, 0x18, 0x01, 0x00, 0x00,
  0x04, 0x00, 0x00, 0x00, 0xff, 0xff, 0xff, 0xff, 0x01, 0x00, 0x00, 0x00,
  0x80, 0x00, 0x00, 0x00, 0x20, 0x00, 0x00, 0x00, 0x9c, 0xec, 0xff, 0xff,
  0x08, 0x00, 0x00, 0x00, 0x10, 0x00, 0x00, 0x00, 0x01, 0x00, 0x00, 0x00,
  0x80, 0xff, 0xff, 0xff, 0xff, 0xff, 0xff, 0xff, 0x01, 0x00, 0x00, 0x00,
  0xbf, 0xa1, 0xa1, 0x3d, 0xd8, 0x00, 0x00, 0x00, 0x62, 0x65, 0x61, 0x74,
  0x5f, 0x63, 0x6e, 0x6e, 0x2f, 0x72, 0x65, 0x6c, 0x75, 0x31, 0x2f, 0x52,
  0x65, 0x6c, 0x75, 0x3b, 0x62, 0x65, 0x61, 0x74, 0x5f, 0x63, 0x6e, 0x6e,
  0x2f, 0x62, 0x6e, 0x31, 0x2f, 0x62, 0x61, 0x74, 0x63, 0x68, 0x6e, 0x6f,
  0x72, 0x6d, 0x2f, 0x61, 0x64, 0x64, 0x5f, 0x31, 0x3b, 0x62, 0x65, 0x61,
  0x74, 0x5f, 0x63, 0x6e, 0x6e, 0x2f, 0x63, 0x6f, 0x6e, 0x76, 0x31, 0x5f,
  0x64, 0x31, 0x2f, 0x43, 0x6f, 0x6e, 0x76, 0x31, 0x44, 0x2f, 0x53, 0x71,
  0x75, 0x65, 0x65, 0x7a, 0x65, 0x3b, 0x62, 0x65, 0x61, 0x74, 0x5f, 0x63,
  0x6e, 0x6e, 0x2f, 0x62, 0x6e, 0x31, 0x2f, 0x62, 0x61, 0x74, 0x63, 0x68,
  0x6e, 0x6f, 0x72, 0x6d, 0x2f, 0x6d, 0x75, 0x6c, 0x5f, 0x31, 0x3b, 0x62,
  0x65, 0x61, 0x74, 0x5f, 0x63, 0x6e, 0x6e, 0x2f, 0x63, 0x6f, 0x6e, 0x76,
  0x31, 0x5f, 0x64, 0x31, 0x2f, 0x42, 0x69, 0x61, 0x73, 0x41, 0x64, 0x64,
  0x3b, 0x3b, 0x62, 0x65, 0x61, 0x74, 0x5f, 0x63, 0x6e, 0x6e, 0x2f, 0x62,
  0x6e, 0x31, 0x2f, 0x62, 0x61, 0x74, 0x63, 0x68, 0x6e, 0x6f, 0x72, 0x6d,
  0x2f, 0x6d, 0x75, 0x6c, 0x3b, 0x62, 0x65, 0x61, 0x74, 0x5f, 0x63, 0x6e,
  0x6e, 0x2f, 0x62, 0x6e, 0x31, 0x2f, 0x62, 0x61, 0x74, 0x63, 0x68, 0x6e,
  0x6f, 0x72, 0x6d, 0x2f, 0x73, 0x75, 0x62, 0x3b, 0x62, 0x65, 0x61, 0x74,
  0x5f, 0x63, 0x6e, 0x6e, 0x2f, 0x63, 0x6f, 0x6e, 0x76, 0x31, 0x5f, 0x64,
  0x31, 0x2f, 0x43, 0x6f, 0x6e, 0x76, 0x31, 0x44, 0x00, 0x00, 0x00, 0x00,
  0x04, 0x00, 0x00, 0x00, 0x01, 0x00, 0x00, 0x00, 0x01, 0x00, 0x00, 0x00,
  0x80, 0x00, 0x00, 0x00, 0x20, 0x00, 0x00, 0x00, 0xf6, 0xed, 0xff, 0xff,
  0x00, 0x00, 0x00, 0x01, 0x18, 0x00, 0x00, 0x00, 0x28, 0x00, 0x00, 0x00,
  0x48, 0x00, 0x00, 0x00, 0x1c, 0x00, 0x00, 0x00, 0x00, 0x00, 0x00, 0x09,
  0x64, 0x00, 0x00, 0x00, 0x04, 0x00, 0x00, 0x00, 0xff, 0xff, 0xff, 0xff,
  0x01, 0x00, 0x00, 0x00, 0x82, 0x00, 0x00, 0x00, 0x1a, 0x00, 0x00, 0x00,
  0xe4, 0xed, 0xff, 0xff, 0x08, 0x00, 0x00, 0x00, 0x14, 0x00, 0x00, 0x00,
  0x01, 0x00, 0x00, 0x00, 0x80, 0xff, 0xff, 0xff, 0xff, 0xff, 0xff, 0xff,
  0x00, 0x00, 0x00, 0x00, 0x01, 0x00, 0x00, 0x00, 0x81, 0x80, 0x80, 0x3b,
  0x23, 0x00, 0x00, 0x00, 0x62, 0x65, 0x61, 0x74, 0x5f, 0x63, 0x6e, 0x6e,
  0x2f, 0x63, 0x6f, 0x6e, 0x76, 0x31, 0x5f, 0x64, 0x31, 0x2f, 0x43, 0x6f,
  0x6e, 0x76, 0x31, 0x44, 0x2f, 0x45, 0x78, 0x70, 0x61, 0x6e, 0x64, 0x44,
  0x69, 0x6d, 0x73, 0x00, 0x04, 0x00, 0x00, 0x00, 0x01, 0x00, 0x00, 0x00,
  0x01, 0x00, 0x00, 0x00, 0x82, 0x00, 0x00, 0x00, 0x1a, 0x00, 0x00, 0x00,
  0x8a, 0xee, 0xff, 0xff, 0x00, 0x00, 0x00, 0x01, 0x18, 0x00, 0x00, 0x00,
  0x24, 0x00, 0x00, 0x00, 0x44, 0x00, 0x00, 0x00, 0x1b, 0x00, 0x00, 0x00,
  0x00, 0x00, 0x00, 0x09, 0x58, 0x00, 0x00, 0x00, 0x03, 0x00, 0x00, 0x00,
  0xff, 0xff, 0xff, 0xff, 0x82, 0x00, 0x00, 0x00, 0x1a, 0x00, 0x00, 0x00,
  0x74, 0xee, 0xff, 0xff, 0x08, 0x00, 0x00, 0x00, 0x14, 0x00, 0x00, 0x00,
  0x01, 0x00, 0x00, 0x00, 0x80, 0xff, 0xff, 0xff, 0xff, 0xff, 0xff, 0xff,
  0x00, 0x00, 0x00, 0x00, 0x01, 0x00, 0x00, 0x00, 0x81, 0x80, 0x80, 0x3b,
  0x1b, 0x00, 0x00, 0x00, 0x62, 0x65, 0x61, 0x74, 0x5f, 0x63, 0x6e, 0x6e,
