// Auto-generated by export_tflite.py — do not edit
// Model size: 27120 bytes (26.5 KB)
// SHA256 prefix: d321c65dddee6c4d
// Exported: 2026-03-10T22:27:10Z

#ifndef BEAT_MODEL_DATA_H
#define BEAT_MODEL_DATA_H

#define BEAT_MODEL_HASH "d321c65dddee6c4d"
#define BEAT_MODEL_SIZE 27120

alignas(8) static const unsigned char beat_model_data[] = {
  0x1c, 0x00, 0x00, 0x00, 0x54, 0x46, 0x4c, 0x33, 0x14, 0x00, 0x20, 0x00,
  0x1c, 0x00, 0x18, 0x00, 0x14, 0x00, 0x10, 0x00, 0x0c, 0x00, 0x00, 0x00,
  0x08, 0x00, 0x04, 0x00, 0x14, 0x00, 0x00, 0x00, 0x1c, 0x00, 0x00, 0x00,
  0x88, 0x00, 0x00, 0x00, 0xe0, 0x00, 0x00, 0x00, 0x80, 0x1a, 0x00, 0x00,
  0x90, 0x1a, 0x00, 0x00, 0xe8, 0x68, 0x00, 0x00, 0x03, 0x00, 0x00, 0x00,
  0x01, 0x00, 0x00, 0x00, 0x04, 0x00, 0x00, 0x00, 0x4e, 0xdb, 0xff, 0xff,
  0x0c, 0x00, 0x00, 0x00, 0x1c, 0x00, 0x00, 0x00, 0x3c, 0x00, 0x00, 0x00,
  0x0f, 0x00, 0x00, 0x00, 0x73, 0x65, 0x72, 0x76, 0x69, 0x6e, 0x67, 0x5f,
  0x64, 0x65, 0x66, 0x61, 0x75, 0x6c, 0x74, 0x00, 0x01, 0x00, 0x00, 0x00,
  0x04, 0x00, 0x00, 0x00, 0x94, 0xff, 0xff, 0xff, 0x5a, 0x00, 0x00, 0x00,
  0x04, 0x00, 0x00, 0x00, 0x0b, 0x00, 0x00, 0x00, 0x6f, 0x75, 0x74, 0x70,
  0x75, 0x74, 0x5f, 0x63, 0x6f, 0x6e, 0x76, 0x00, 0x01, 0x00, 0x00, 0x00,
  0x04, 0x00, 0x00, 0x00, 0x1a, 0xe6, 0xff, 0xff, 0x04, 0x00, 0x00, 0x00,
  0x09, 0x00, 0x00, 0x00, 0x6d, 0x65, 0x6c, 0x5f, 0x69, 0x6e, 0x70, 0x75,
  0x74, 0x00, 0x00, 0x00, 0x02, 0x00, 0x00, 0x00, 0x34, 0x00, 0x00, 0x00,
  0x04, 0x00, 0x00, 0x00, 0xdc, 0xff, 0xff, 0xff, 0x5d, 0x00, 0x00, 0x00,
  0x04, 0x00, 0x00, 0x00, 0x13, 0x00, 0x00, 0x00, 0x43, 0x4f, 0x4e, 0x56,
  0x45, 0x52, 0x53, 0x49, 0x4f, 0x4e, 0x5f, 0x4d, 0x45, 0x54, 0x41, 0x44,
  0x41, 0x54, 0x41, 0x00, 0x08, 0x00, 0x0c, 0x00, 0x08, 0x00, 0x04, 0x00,
  0x08, 0x00, 0x00, 0x00, 0x5c, 0x00, 0x00, 0x00, 0x04, 0x00, 0x00, 0x00,
  0x13, 0x00, 0x00, 0x00, 0x6d, 0x69, 0x6e, 0x5f, 0x72, 0x75, 0x6e, 0x74,
  0x69, 0x6d, 0x65, 0x5f, 0x76, 0x65, 0x72, 0x73, 0x69, 0x6f, 0x6e, 0x00,
  0x5e, 0x00, 0x00, 0x00, 0x9c, 0x19, 0x00, 0x00, 0x94, 0x19, 0x00, 0x00,
  0x6c, 0x19, 0x00, 0x00, 0x50, 0x19, 0x00, 0x00, 0x34, 0x19, 0x00, 0x00,
  0x0c, 0x19, 0x00, 0x00, 0xf8, 0x18, 0x00, 0x00, 0xe0, 0x18, 0x00, 0x00,
  0xc0, 0x18, 0x00, 0x00, 0x98, 0x18, 0x00, 0x00, 0x80, 0x18, 0x00, 0x00,
  0x58, 0x18, 0x00, 0x00, 0x40, 0x18, 0x00, 0x00, 0x18, 0x18, 0x00, 0x00,
  0x00, 0x18, 0x00, 0x00, 0xe4, 0x17, 0x00, 0x00, 0xcc, 0x17, 0x00, 0x00,
  0x8c, 0x17, 0x00, 0x00, 0x1c, 0x17, 0x00, 0x00, 0xcc, 0x14, 0x00, 0x00,
  0xa4, 0x14, 0x00, 0x00, 0x4c, 0x14, 0x00, 0x00, 0xdc, 0x13, 0x00, 0x00,
  0x8c, 0x11, 0x00, 0x00, 0x64, 0x11, 0x00, 0x00, 0x0c, 0x11, 0x00, 0x00,
  0x9c, 0x10, 0x00, 0x00, 0x4c, 0x0e, 0x00, 0x00, 0x24, 0x0e, 0x00, 0x00,
  0xcc, 0x0d, 0x00, 0x00, 0x5c, 0x0d, 0x00, 0x00, 0x0c, 0x0b, 0x00, 0x00,
  0xe4, 0x0a, 0x00, 0x00, 0x74, 0x0a, 0x00, 0x00, 0x6c, 0x0a, 0x00, 0x00,
  0x64, 0x0a, 0x00, 0x00, 0x5c, 0x0a, 0x00, 0x00, 0x04, 0x0a, 0x00, 0x00,
  0x94, 0x09, 0x00, 0x00, 0x34, 0x02, 0x00, 0x00, 0x2c, 0x02, 0x00, 0x00,
  0x24, 0x02, 0x00, 0x00, 0x1c, 0x02, 0x00, 0x00, 0x14, 0x02, 0x00, 0x00,
  0x0c, 0x02, 0x00, 0x00, 0x04, 0x02, 0x00, 0x00, 0xfc, 0x01, 0x00, 0x00,
  0xf4, 0x01, 0x00, 0x00, 0xec, 0x01, 0x00, 0x00, 0xe4, 0x01, 0x00, 0x00,
  0xdc, 0x01, 0x00, 0x00, 0xd4, 0x01, 0x00, 0x00, 0xcc, 0x01, 0x00, 0x00,
  0xc4, 0x01, 0x00, 0x00, 0xbc, 0x01, 0x00, 0x00, 0xb4, 0x01, 0x00, 0x00,
  0xac, 0x01, 0x00, 0x00, 0xa4, 0x01, 0x00, 0x00, 0x9c, 0x01, 0x00, 0x00,
  0x94, 0x01, 0x00, 0x00, 0x8c, 0x01, 0x00, 0x00, 0x84, 0x01, 0x00, 0x00,
  0x7c, 0x01, 0x00, 0x00, 0x74, 0x01, 0x00, 0x00, 0x6c, 0x01, 0x00, 0x00,
  0x64, 0x01, 0x00, 0x00, 0x5c, 0x01, 0x00, 0x00, 0x54, 0x01, 0x00, 0x00,
  0x4c, 0x01, 0x00, 0x00, 0x44, 0x01, 0x00, 0x00, 0x3c, 0x01, 0x00, 0x00,
  0x34, 0x01, 0x00, 0x00, 0x2c, 0x01, 0x00, 0x00, 0x24, 0x01, 0x00, 0x00,
  0x1c, 0x01, 0x00, 0x00, 0x14, 0x01, 0x00, 0x00, 0x0c, 0x01, 0x00, 0x00,
  0x04, 0x01, 0x00, 0x00, 0xfc, 0x00, 0x00, 0x00, 0xf4, 0x00, 0x00, 0x00,
  0xec, 0x00, 0x00, 0x00, 0xe4, 0x00, 0x00, 0x00, 0xdc, 0x00, 0x00, 0x00,
  0xd4, 0x00, 0x00, 0x00, 0xcc, 0x00, 0x00, 0x00, 0xc4, 0x00, 0x00, 0x00,
  0xbc, 0x00, 0x00, 0x00, 0xb4, 0x00, 0x00, 0x00, 0xac, 0x00, 0x00, 0x00,
  0xa4, 0x00, 0x00, 0x00, 0x9c, 0x00, 0x00, 0x00, 0x94, 0x00, 0x00, 0x00,
  0x74, 0x00, 0x00, 0x00, 0x04, 0x00, 0x00, 0x00, 0x0a, 0xe8, 0xff, 0xff,
  0x04, 0x00, 0x00, 0x00, 0x60, 0x00, 0x00, 0x00, 0x0c, 0x00, 0x00, 0x00,
  0x08, 0x00, 0x0e, 0x00, 0x08, 0x00, 0x04, 0x00, 0x08, 0x00, 0x00, 0x00,
  0x10, 0x00, 0x00, 0x00, 0x28, 0x00, 0x00, 0x00, 0x00, 0x00, 0x06, 0x00,
  0x08, 0x00, 0x04, 0x00, 0x06, 0x00, 0x00, 0x00, 0x04, 0x00, 0x00, 0x00,
  0x01, 0x00, 0x00, 0x00, 0xeb, 0x03, 0x00, 0x00, 0x0c, 0x00, 0x18, 0x00,
  0x14, 0x00, 0x10, 0x00, 0x0c, 0x00, 0x04, 0x00, 0x0c, 0x00, 0x00, 0x00,
  0xc6, 0xc8, 0x6c, 0xb9, 0x9f, 0xd0, 0xa9, 0x17, 0x02, 0x00, 0x00, 0x00,
  0x02, 0x00, 0x00, 0x00, 0x04, 0x00, 0x00, 0x00, 0x06, 0x00, 0x00, 0x00,
  0x32, 0x2e, 0x32, 0x30, 0x2e, 0x30, 0x00, 0x00, 0x76, 0xe8, 0xff, 0xff,
  0x04, 0x00, 0x00, 0x00, 0x10, 0x00, 0x00, 0x00, 0x31, 0x2e, 0x31, 0x34,
  0x2e, 0x30, 0x00, 0x00, 0x00, 0x00, 0x00, 0x00, 0x00, 0x00, 0x00, 0x00,
  0xc0, 0x9a, 0xff, 0xff, 0xc4, 0x9a, 0xff, 0xff, 0xc8, 0x9a, 0xff, 0xff,
  0xcc, 0x9a, 0xff, 0xff, 0xd0, 0x9a, 0xff, 0xff, 0xd4, 0x9a, 0xff, 0xff,
  0xd8, 0x9a, 0xff, 0xff, 0xdc, 0x9a, 0xff, 0xff, 0xe0, 0x9a, 0xff, 0xff,
  0xe4, 0x9a, 0xff, 0xff, 0xe8, 0x9a, 0xff, 0xff, 0xec, 0x9a, 0xff, 0xff,
  0xf0, 0x9a, 0xff, 0xff, 0xf4, 0x9a, 0xff, 0xff, 0xf8, 0x9a, 0xff, 0xff,
  0xfc, 0x9a, 0xff, 0xff, 0x00, 0x9b, 0xff, 0xff, 0x04, 0x9b, 0xff, 0xff,
  0x08, 0x9b, 0xff, 0xff, 0x0c, 0x9b, 0xff, 0xff, 0x10, 0x9b, 0xff, 0xff,
  0x14, 0x9b, 0xff, 0xff, 0x18, 0x9b, 0xff, 0xff, 0x1c, 0x9b, 0xff, 0xff,
  0x20, 0x9b, 0xff, 0xff, 0x24, 0x9b, 0xff, 0xff, 0x28, 0x9b, 0xff, 0xff,
  0x2c, 0x9b, 0xff, 0xff, 0x30, 0x9b, 0xff, 0xff, 0x34, 0x9b, 0xff, 0xff,
  0x38, 0x9b, 0xff, 0xff, 0x3c, 0x9b, 0xff, 0xff, 0x40, 0x9b, 0xff, 0xff,
  0x44, 0x9b, 0xff, 0xff, 0x48, 0x9b, 0xff, 0xff, 0x4c, 0x9b, 0xff, 0xff,
  0x50, 0x9b, 0xff, 0xff, 0x54, 0x9b, 0xff, 0xff, 0x58, 0x9b, 0xff, 0xff,
  0x5c, 0x9b, 0xff, 0xff, 0x60, 0x9b, 0xff, 0xff, 0x64, 0x9b, 0xff, 0xff,
  0x68, 0x9b, 0xff, 0xff, 0x6c, 0x9b, 0xff, 0xff, 0x70, 0x9b, 0xff, 0xff,
  0x74, 0x9b, 0xff, 0xff, 0x78, 0x9b, 0xff, 0xff, 0x7c, 0x9b, 0xff, 0xff,
  0x80, 0x9b, 0xff, 0xff, 0x84, 0x9b, 0xff, 0xff, 0x88, 0x9b, 0xff, 0xff,
  0x8c, 0x9b, 0xff, 0xff, 0x62, 0xe9, 0xff, 0xff, 0x04, 0x00, 0x00, 0x00,
  0x50, 0x07, 0x00, 0x00, 0x21, 0x6b, 0xb6, 0xe3, 0xa6, 0xe2, 0x49, 0x44,
  0x27, 0x0e, 0xfd, 0xe9, 0x5a, 0x00, 0x72, 0x6e, 0x37, 0x7f, 0xbc, 0x26,
  0x6e, 0x74, 0x4d, 0x9d, 0xf8, 0x1c, 0xa7, 0x9a, 0x73, 0xf9, 0x91, 0xc2,
  0x83, 0x30, 0x2f, 0x64, 0x95, 0x7c, 0xd1, 0x0e, 0xdc, 0x6c, 0x59, 0xb1,
  0xad, 0x0d, 0x6d, 0x74, 0xe1, 0x7c, 0xae, 0x00, 0x5d, 0x0a, 0x18, 0x5f,
  0xd0, 0x42, 0x4a, 0x97, 0x6f, 0x7f, 0x40, 0xcc, 0xec, 0x58, 0x73, 0x3d,
  0x7f, 0x53, 0x01, 0x71, 0x49, 0xbf, 0xe2, 0x67, 0x24, 0xab, 0x4d, 0x41,
  0x55, 0x70, 0x70, 0x4d, 0xa5, 0xcd, 0x96, 0x2b, 0x70, 0x63, 0x03, 0x8d,
  0x15, 0xe4, 0x49, 0x0d, 0xbe, 0x20, 0xad, 0x67, 0xc7, 0x10, 0x14, 0x4a,
  0x27, 0xd6, 0xe7, 0x5a, 0x18, 0xdf, 0x36, 0x0f, 0x78, 0x1d, 0x87, 0xcf,
  0x49, 0xb6, 0x8c, 0xf3, 0xb6, 0xfc, 0x69, 0x00, 0x13, 0x98, 0x9f, 0xfd,
  0x1f, 0x9f, 0x35, 0x72, 0x6b, 0x1d, 0x7f, 0x24, 0xdb, 0xc8, 0x12, 0x9c,
  0x32, 0xfb, 0x9e, 0xa0, 0x39, 0x42, 0x8f, 0x68, 0x1c, 0xa1, 0x38, 0x75,
  0xf2, 0x8d, 0x37, 0x64, 0xce, 0x6f, 0x48, 0xa1, 0x03, 0x2c, 0x76, 0x79,
  0x50, 0x15, 0xa9, 0x53, 0x5f, 0x20, 0xc4, 0x4f, 0x4f, 0x48, 0xa1, 0x26,
  0x3d, 0x81, 0xd5, 0x1c, 0x5f, 0xc5, 0x22, 0x5c, 0xca, 0xfc, 0xf4, 0xb3,
  0xb4, 0x58, 0xed, 0xc8, 0xc4, 0xcf, 0x60, 0x22, 0x55, 0xa3, 0xb4, 0x39,
  0xf1, 0x9c, 0x5b, 0xef, 0xa6, 0x09, 0x28, 0x2e, 0x4f, 0x19, 0xbe, 0x13,
  0x27, 0x31, 0x5d, 0x29, 0x39, 0x57, 0x7b, 0x36, 0xa1, 0x04, 0x15, 0x49,
  0xc3, 0x40, 0x19, 0x26, 0xf7, 0xd1, 0x05, 0x0f, 0x42, 0xdc, 0x29, 0x1d,
  0x11, 0x25, 0xda, 0x06, 0xc4, 0xae, 0x08, 0x62, 0x75, 0x68, 0x6d, 0xd9,
  0xc7, 0x8a, 0x89, 0x1c, 0xc4, 0x35, 0xe1, 0xce, 0xb9, 0x84, 0x6b, 0x5d,
  0xef, 0x4b, 0x89, 0x81, 0x9e, 0x22, 0xc0, 0xfa, 0x4b, 0xae, 0x70, 0xfe,
  0x0d, 0x2b, 0x50, 0x4e, 0xdb, 0xa3, 0x19, 0x92, 0x93, 0x2e, 0x46, 0x70,
  0xcc, 0xdc, 0x51, 0x93, 0xef, 0xda, 0xc9, 0xcf, 0xda, 0x8b, 0x15, 0x5a,
  0x04, 0x48, 0x62, 0xcf, 0x19, 0xd7, 0xde, 0xcc, 0x3b, 0xfe, 0xc8, 0x9d,
  0x94, 0x05, 0x62, 0x11, 0xa3, 0x64, 0x08, 0xcb, 0x86, 0xae, 0x7a, 0x98,
  0x3f, 0x68, 0xfb, 0x6d, 0xe3, 0x52, 0xc1, 0x23, 0x0b, 0x10, 0x41, 0x3d,
  0xca, 0xc6, 0xea, 0x41, 0xd4, 0xef, 0x3c, 0xe5, 0xfe, 0xe9, 0xd4, 0x28,
  0x6e, 0x18, 0x55, 0x3c, 0xd9, 0xc2, 0x77, 0x2f, 0x96, 0x8c, 0x5e, 0x75,
  0xc8, 0xeb, 0x53, 0x7f, 0x0b, 0xcf, 0x1a, 0x97, 0xc5, 0x66, 0x3f, 0xd6,
  0x15, 0x4f, 0xff, 0xb0, 0x8f, 0xd0, 0xcb, 0x4a, 0xb2, 0x9e, 0x8f, 0x3b,
  0x83, 0x9c, 0x2d, 0x24, 0xba, 0x23, 0x65, 0xb1, 0x1c, 0x1d, 0xa9, 0x96,
  0xc4, 0x88, 0xcf, 0x90, 0x17, 0xdd, 0x2f, 0x75, 0xc9, 0xed, 0x93, 0x22,
  0xe2, 0x2b, 0xf3, 0x03, 0x54, 0x11, 0x14, 0x27, 0xc1, 0xa2, 0x47, 0x81,
  0xa0, 0x98, 0xb9, 0x61, 0xc6, 0xaa, 0xb3, 0xa9, 0x5d, 0x9a, 0x32, 0x17,
  0x56, 0x97, 0x31, 0xd9, 0x64, 0xc9, 0xb4, 0x4d, 0x16, 0xd4, 0x3c, 0xd1,
  0xf5, 0xdc, 0x45, 0xe9, 0x47, 0xd3, 0x0b, 0x35, 0x88, 0xab, 0x10, 0x5c,
  0x8c, 0x32, 0xe4, 0x74, 0x2b, 0x99, 0x33, 0xb6, 0x75, 0x61, 0x67, 0xaa,
  0x52, 0x30, 0x9f, 0x9f, 0xcc, 0x9f, 0x84, 0x0d, 0x11, 0x1d, 0xcc, 0xfc,
  0xd6, 0x65, 0x0b, 0xfe, 0xc4, 0x0c, 0xcb, 0xfa, 0xa9, 0x7c, 0x13, 0xb3,
  0x8f, 0x46, 0x5d, 0xe4, 0x65, 0x2b, 0xb9, 0x99, 0x91, 0x4c, 0x65, 0xd9,
  0x81, 0x74, 0x22, 0x34, 0xb9, 0x7d, 0xd3, 0x2b, 0x41, 0x09, 0xf8, 0x9f,
  0x0d, 0x5e, 0x2d, 0x9f, 0x5d, 0x27, 0xcd, 0xfc, 0x67, 0x4d, 0xc5, 0xe1,
  0x29, 0xa4, 0xfe, 0x14, 0x2e, 0x81, 0x3d, 0x19, 0xc0, 0xf6, 0x1b, 0x4e,
  0xcd, 0x7e, 0x01, 0x07, 0x20, 0xac, 0x5f, 0xc2, 0xb2, 0x8c, 0x70, 0x57,
  0xc2, 0xeb, 0xbf, 0x1c, 0xc5, 0xc9, 0x57, 0x39, 0xf4, 0x08, 0x5c, 0x7f,
  0x2c, 0x97, 0x39, 0x10, 0xde, 0xe7, 0xee, 0x0c, 0x17, 0xa4, 0xf4, 0x74,
  0x51, 0x52, 0xd3, 0xc8, 0xef, 0xa1, 0x67, 0xe9, 0x68, 0x9f, 0xa4, 0xe6,
  0xbb, 0x0f, 0x25, 0xeb, 0x01, 0xab, 0x1c, 0x63, 0xf6, 0x2f, 0x8c, 0x44,
  0x66, 0x7b, 0x67, 0xf8, 0xba, 0xf4, 0x7e, 0x8c, 0x66, 0x48, 0x71, 0x06,
  0xb1, 0x43, 0xe9, 0xf8, 0x78, 0xca, 0xb9, 0x11, 0x39, 0x3f, 0x5e, 0x98,
  0xd7, 0xb0, 0xaf, 0xcb, 0x77, 0x63, 0x07, 0xfe, 0x6f, 0x08, 0x4f, 0x81,
  0x57, 0x1c, 0x22, 0xed, 0xf2, 0x2b, 0x0d, 0x02, 0xf9, 0xbb, 0x8a, 0x11,
  0xe0, 0x77, 0x44, 0x2d, 0x14, 0x1a, 0x10, 0x5a, 0x8d, 0x02, 0x9d, 0xdd,
  0xcf, 0xbd, 0xf2, 0xf1, 0x86, 0x4a, 0x94, 0x6d, 0xa4, 0xf2, 0x4e, 0x6c,
  0x1a, 0xaa, 0x4c, 0x3b, 0x4b, 0x34, 0x65, 0x0c, 0xb5, 0x42, 0x62, 0xeb,
  0x6a, 0xb5, 0x67, 0x4a, 0x8d, 0x97, 0x0a, 0x1b, 0xfb, 0xb9, 0x17, 0x1a,
  0xd4, 0x3d, 0x03, 0x20, 0x23, 0xaa, 0x29, 0xb4, 0x1d, 0x55, 0x61, 0x0f,
  0x42, 0x2b, 0x39, 0x66, 0x8b, 0xa4, 0xa1, 0x22, 0xd4, 0x3f, 0x21, 0x12,
  0xdb, 0x09, 0x0f, 0x1c, 0x6b, 0xad, 0xa5, 0xfa, 0xdf, 0xe1, 0xb5, 0x27,
  0xcb, 0xe8, 0x05, 0x73, 0x9a, 0xb3, 0x94, 0xf0, 0xf9, 0x5d, 0x61, 0xa0,
  0x99, 0xab, 0x18, 0x60, 0x69, 0xe3, 0xe5, 0x3d, 0x27, 0x27, 0x68, 0xb7,
  0x35, 0x0c, 0xab, 0xfd, 0x7b, 0x59, 0xe3, 0xc8, 0x47, 0x5d, 0xa2, 0xf7,
  0x20, 0x4f, 0xea, 0x7f, 0x4f, 0xf4, 0x42, 0x90, 0x48, 0x39, 0x92, 0x91,
  0x8b, 0x00, 0xf8, 0xbf, 0x90, 0x3c, 0x13, 0x40, 0x23, 0xd1, 0xe5, 0xa8,
  0x90, 0x26, 0x43, 0x9d, 0xdd, 0xd1, 0x2a, 0x8a, 0xf6, 0x5a, 0x9f, 0x19,
  0x74, 0xcf, 0xea, 0xa9, 0x6e, 0x6b, 0x04, 0x1e, 0x10, 0xb8, 0x6e, 0x1f,
  0xfb, 0xfa, 0x8a, 0x26, 0x3b, 0x37, 0x13, 0xb1, 0x6f, 0xcc, 0x54, 0xf3,
  0x9f, 0xc0, 0x4f, 0xdb, 0x0b, 0x4f, 0x5d, 0x5b, 0x1b, 0xe3, 0x9d, 0x2c,
  0xa2, 0xda, 0xb7, 0xa1, 0xd3, 0xe5, 0xeb, 0xa5, 0x91, 0x98, 0x8f, 0x12,
  0xd4, 0x10, 0xb9, 0xab, 0x81, 0x92, 0xf5, 0xbc, 0x51, 0xf8, 0x88, 0x7a,
  0x4b, 0x3e, 0x07, 0x61, 0x2a, 0x3d, 0xc6, 0x39, 0xde, 0x51, 0x89, 0x36,
  0x69, 0x19, 0x4d, 0x48, 0x0c, 0x65, 0xdc, 0x77, 0x6f, 0x28, 0xbc, 0x41,
  0x02, 0xc0, 0x96, 0x3c, 0x49, 0x4a, 0x26, 0xcf, 0x62, 0x48, 0x4f, 0xd3,
  0x9c, 0x92, 0x72, 0x7b, 0x8f, 0x36, 0x2d, 0x2a, 0xc7, 0x22, 0x3b, 0x25,
  0xb9, 0x01, 0xc7, 0xbc, 0x72, 0xac, 0x35, 0xaa, 0x8b, 0x7c, 0xf3, 0xd4,
  0xe4, 0x78, 0x81, 0x5b, 0xcf, 0x3e, 0xd7, 0x90, 0x55, 0xa2, 0x14, 0x37,
  0x87, 0xbb, 0x53, 0x9f, 0xfd, 0x9c, 0xae, 0x5a, 0xb0, 0xc6, 0xed, 0x32,
  0x36, 0x43, 0x42, 0xb6, 0x4b, 0xd0, 0xf0, 0xda, 0xec, 0x08, 0xb8, 0x71,
  0x4d, 0xd3, 0xf9, 0xfc, 0x9c, 0x43, 0x85, 0xdc, 0x60, 0xdc, 0xf6, 0x12,
  0x81, 0x30, 0xe9, 0x30, 0x98, 0x0b, 0x9c, 0x13, 0x3e, 0xd6, 0x86, 0x2d,
  0xe8, 0x19, 0x79, 0x4f, 0xcf, 0xb5, 0x4b, 0x66, 0xce, 0x09, 0x91, 0xc6,
  0x45, 0xa7, 0x5b, 0x08, 0x49, 0x95, 0xa7, 0x13, 0x07, 0xed, 0x8f, 0x47,
  0x21, 0x88, 0xeb, 0x30, 0xa1, 0xbe, 0x6f, 0x03, 0x2a, 0x08, 0xc2, 0xc5,
  0x63, 0xe0, 0x08, 0xb2, 0x4d, 0x12, 0xf2, 0xda, 0x81, 0xdd, 0xa9, 0x4e,
  0x2e, 0xa0, 0x94, 0xf4, 0xd5, 0x18, 0x49, 0xe4, 0x96, 0x2f, 0xe1, 0xe2,
  0x30, 0x03, 0x04, 0x41, 0xc3, 0xcc, 0x0e, 0xba, 0x0a, 0xbf, 0xfa, 0x14,
  0xaf, 0x0d, 0x48, 0x2b, 0x31, 0x2a, 0x56, 0x74, 0xce, 0xa7, 0xbb, 0x93,
  0x5d, 0x91, 0x16, 0xf3, 0x97, 0x9f, 0xfe, 0xd1, 0x8d, 0x11, 0xbc, 0x62,
  0xc8, 0x60, 0x38, 0xe1, 0x4e, 0x15, 0xc7, 0x41, 0x29, 0x63, 0x18, 0x4e,
  0x64, 0x56, 0xf8, 0xb2, 0x5f, 0xe3, 0x35, 0xa9, 0x12, 0x4f, 0x08, 0x2c,
  0xbe, 0x33, 0x9a, 0xee, 0x3d, 0x93, 0xd6, 0x7f, 0xfa, 0xa1, 0x45, 0xdd,
  0x92, 0x82, 0xa7, 0x15, 0xa2, 0x4d, 0x83, 0x09, 0x76, 0x18, 0x1e, 0xb6,
  0x77, 0xf3, 0xc5, 0x09, 0xd0, 0xea, 0x3b, 0xd3, 0xf0, 0xc6, 0xb4, 0xd6,
  0x55, 0x39, 0xa7, 0x39, 0x52, 0xde, 0xb9, 0x5d, 0xc0, 0x47, 0x48, 0x7e,
  0x27, 0x42, 0x40, 0x25, 0x05, 0x68, 0x2c, 0x0c, 0xaf, 0x12, 0x70, 0x08,
  0x14, 0xce, 0x6f, 0x29, 0x74, 0xd7, 0xe4, 0xec, 0x6a, 0x99, 0x6d, 0xc4,
  0x0a, 0x78, 0xb9, 0xe7, 0x7f, 0x6d, 0x65, 0x2f, 0xf4, 0x5a, 0x2b, 0x65,
  0x2d, 0xb4, 0xf2, 0x9b, 0xa2, 0x4c, 0x4d, 0x68, 0xd4, 0xc6, 0x57, 0xcb,
  0x7f, 0x5d, 0x7a, 0xc4, 0xb3, 0x85, 0x7b, 0xce, 0x26, 0x6d, 0xbd, 0xae,
  0xb9, 0x5d, 0x6e, 0xcc, 0x03, 0x04, 0x8f, 0xfd, 0x6a, 0xfc, 0x5d, 0xc3,
  0xf8, 0x21, 0x36, 0x0c, 0xd3, 0xa5, 0x50, 0x06, 0x03, 0x17, 0xc7, 0x23,
  0x6f, 0x35, 0x98, 0xf1, 0x20, 0x26, 0xf5, 0x9b, 0x50, 0x74, 0xf1, 0x66,
  0x6e, 0x95, 0x79, 0xd9, 0x97, 0x91, 0xe8, 0xd2, 0x9e, 0x89, 0x1e, 0xb0,
  0x9f, 0x3b, 0x2b, 0x9c, 0x88, 0xae, 0x35, 0x4d, 0x98, 0x8d, 0x06, 0xcc,
  0xa8, 0x67, 0x29, 0xdd, 0x6d, 0x33, 0x54, 0x37, 0xd0, 0xb5, 0xa0, 0xfe,
  0x0b, 0xb5, 0xe7, 0x94, 0xc5, 0xf0, 0x8e, 0x57, 0x9f, 0x3b, 0xa7, 0x6d,
  0xa8, 0x55, 0xd2, 0x9b, 0x42, 0xb3, 0x52, 0x41, 0x3c, 0xff, 0xe6, 0x62,
  0x2b, 0x1e, 0xc5, 0x8b, 0x09, 0xe3, 0xdb, 0x1c, 0x18, 0x82, 0x97, 0xea,
  0x7e, 0x42, 0x04, 0x59, 0xae, 0x7f, 0x99, 0x4a, 0x97, 0xaa, 0x92, 0x03,
  0x2a, 0xb0, 0x8b, 0x25, 0x0f, 0xaa, 0xfc, 0xee, 0xa5, 0xa2, 0x3c, 0x49,
  0x41, 0xa1, 0x66, 0x11, 0xb8, 0x09, 0xf5, 0x7a, 0x11, 0x71, 0xb3, 0xa7,
  0xb9, 0x6c, 0xbd, 0x73, 0x3e, 0x9e, 0x02, 0x73, 0x9e, 0x6a, 0xc3, 0x48,
  0x81, 0x79, 0xc5, 0x6b, 0x42, 0xf0, 0xae, 0xe5, 0x3d, 0x59, 0x15, 0xde,
  0x93, 0x97, 0x7d, 0x98, 0x2e, 0x74, 0x31, 0xdb, 0x0f, 0x89, 0x6d, 0xb3,
  0x66, 0xed, 0x25, 0x78, 0x44, 0xb4, 0x70, 0x2b, 0x3e, 0x6e, 0xb2, 0x0c,
  0x70, 0x07, 0xcd, 0xc9, 0x4f, 0xbe, 0xef, 0x5b, 0xb4, 0xc8, 0x75, 0xe6,
  0xcf, 0x77, 0xe0, 0x74, 0x22, 0x2a, 0x25, 0xea, 0xb6, 0xcf, 0xbb, 0x56,
  0xb7, 0xd2, 0x59, 0xef, 0xeb, 0xbf, 0x07, 0x4d, 0xb3, 0x59, 0x2e, 0xc4,
  0x09, 0x12, 0x63, 0x27, 0xc0, 0x38, 0x08, 0x78, 0x49, 0x22, 0x32, 0x9e,
  0x3b, 0xa1, 0x0b, 0x53, 0x13, 0x3a, 0xf5, 0x54, 0x4f, 0x02, 0xb3, 0x7f,
  0x6b, 0x8f, 0x23, 0xd2, 0xcc, 0xa8, 0xed, 0x27, 0x89, 0xac, 0xed, 0xa2,
  0x3b, 0x17, 0x87, 0xaa, 0x16, 0x2a, 0xb9, 0xbf, 0xdf, 0x45, 0x32, 0xa3,
  0x8d, 0x11, 0x14, 0xde, 0x05, 0x4a, 0x7c, 0x96, 0xff, 0x6e, 0x6a, 0xb6,
  0x5e, 0x00, 0xeb, 0xfb, 0x9a, 0x7e, 0xa1, 0x57, 0x4b, 0x46, 0x2d, 0xe6,
  0xd6, 0xde, 0xb4, 0xfa, 0x8f, 0x49, 0xd9, 0x4b, 0xe6, 0xd6, 0x98, 0x01,
  0xe9, 0xf8, 0x60, 0x4b, 0x27, 0x1f, 0x6f, 0x26, 0x45, 0x8a, 0xff, 0x46,
  0xe0, 0xed, 0xf8, 0x81, 0xcb, 0xfd, 0x0e, 0x4e, 0xaa, 0x17, 0xcd, 0xa6,
  0x02, 0xab, 0x12, 0x7d, 0x07, 0xcd, 0x34, 0x54, 0xc8, 0x22, 0xa9, 0x38,
  0x18, 0x60, 0x9e, 0x6f, 0x10, 0xd4, 0xd8, 0xa5, 0xb8, 0xc6, 0x05, 0xa9,
  0xe5, 0x4d, 0xc1, 0x09, 0xff, 0x5c, 0x3d, 0x73, 0x49, 0x63, 0xeb, 0xd9,
  0x14, 0x38, 0x19, 0xb9, 0xda, 0xf6, 0x0d, 0x0a, 0x58, 0xa0, 0x48, 0x63,
  0xf1, 0x92, 0x58, 0x6f, 0x5f, 0x98, 0x60, 0x0a, 0xfd, 0x7e, 0xa4, 0x1d,
  0xa2, 0x04, 0xf4, 0x69, 0x39, 0xb4, 0xfb, 0xd9, 0xfe, 0xc1, 0x72, 0xd6,
  0x2a, 0xde, 0x81, 0xf9, 0x94, 0xa2, 0xd4, 0x6f, 0x12, 0x31, 0xa0, 0x38,
  0x6e, 0xdf, 0xfd, 0xed, 0x71, 0xb9, 0x47, 0x39, 0xe3, 0x78, 0x2c, 0x52,
  0x7f, 0xff, 0xe2, 0xfa, 0xd2, 0x52, 0x14, 0x3d, 0xdc, 0x1e, 0xcb, 0x70,
  0xee, 0x5a, 0xca, 0xa5, 0xe7, 0x6f, 0x30, 0xc2, 0x9e, 0xcb, 0xe8, 0x6c,
  0x1d, 0xa3, 0xba, 0x5f, 0x1c, 0xbd, 0xf3, 0x14, 0xb6, 0xca, 0xcb, 0x71,
  0xcd, 0x2c, 0x95, 0x31, 0x88, 0x29, 0x15, 0x94, 0xe7, 0xc5, 0xea, 0xb7,
  0x6c, 0x3d, 0x6d, 0xd2, 0x58, 0xd1, 0x8e, 0x53, 0xa6, 0xd5, 0x2e, 0x32,
  0x52, 0x33, 0x8c, 0x56, 0x69, 0x78, 0xd8, 0x9a, 0x75, 0xbd, 0xa9, 0x29,
  0x5c, 0x66, 0xfe, 0xb1, 0x3d, 0xab, 0x3f, 0x27, 0xf4, 0x27, 0xae, 0x5b,
  0xaa, 0xe8, 0xe7, 0xc3, 0xf1, 0x18, 0xe1, 0x77, 0x9b, 0x1b, 0x40, 0xf4,
  0x54, 0xb2, 0x8f, 0x73, 0xf3, 0x09, 0xe3, 0xc6, 0x1a, 0x6a, 0x18, 0x63,
  0x23, 0x49, 0x3a, 0x16, 0xf0, 0x3e, 0x96, 0x24, 0xc4, 0xe6, 0x13, 0x86,
  0xf1, 0xed, 0xa8, 0x0e, 0xa6, 0x44, 0x75, 0x2a, 0x4c, 0xfb, 0x59, 0x4d,
  0x4d, 0x53, 0x4c, 0x56, 0xb3, 0x03, 0x81, 0x89, 0x59, 0xd1, 0x3f, 0x88,
  0x46, 0x9f, 0x90, 0x2a, 0x3e, 0xf9, 0xf4, 0x8e, 0x8b, 0xbb, 0x58, 0xbd,
  0x4a, 0xc5, 0x43, 0x06, 0x29, 0xdb, 0x09, 0x38, 0x2a, 0x90, 0x2b, 0xdb,
  0x0d, 0x4b, 0xae, 0xf1, 0xe6, 0x7a, 0xa7, 0xb2, 0xf5, 0xfa, 0x4b, 0x27,
  0x3b, 0x6d, 0x61, 0x02, 0xb8, 0x14, 0x4c, 0x6b, 0x4d, 0x10, 0x1d, 0xa8,
  0xae, 0x50, 0xaf, 0xb1, 0x8c, 0x27, 0xe6, 0xd9, 0x61, 0x55, 0xe3, 0x81,
  0x35, 0x00, 0x69, 0x59, 0xad, 0x9d, 0xaf, 0x72, 0x0b, 0x92, 0xb5, 0x07,
  0x14, 0x7d, 0x48, 0x1f, 0xdf, 0xfa, 0xe6, 0x0e, 0xe3, 0x38, 0x9b, 0x15,
  0x94, 0x3b, 0xb5, 0x17, 0xbe, 0xf0, 0xff, 0xff, 0x04, 0x00, 0x00, 0x00,
  0x60, 0x00, 0x00, 0x00, 0xbd, 0xff, 0xff, 0xff, 0x6e, 0xff, 0xff, 0xff,
  0xd2, 0xfd, 0xff, 0xff, 0xe9, 0xff, 0xff, 0xff, 0x28, 0xfe, 0xff, 0xff,
  0x70, 0xff, 0xff, 0xff, 0xb5, 0xfe, 0xff, 0xff, 0x40, 0xfe, 0xff, 0xff,
  0x50, 0xff, 0xff, 0xff, 0x2c, 0x01, 0x00, 0x00, 0x22, 0x02, 0x00, 0x00,
  0x1f, 0xff, 0xff, 0xff, 0x2f, 0xff, 0xff, 0xff, 0xd0, 0xff, 0xff, 0xff,
  0x81, 0xff, 0xff, 0xff, 0xa3, 0xff, 0xff, 0xff, 0xe8, 0xfe, 0xff, 0xff,
  0xca, 0x00, 0x00, 0x00, 0xc8, 0x01, 0x00, 0x00, 0x55, 0xff, 0xff, 0xff,
  0x30, 0x00, 0x00, 0x00, 0x3d, 0x01, 0x00, 0x00, 0x9e, 0x00, 0x00, 0x00,
  0x38, 0x01, 0x00, 0x00, 0x2a, 0xf1, 0xff, 0xff, 0x04, 0x00, 0x00, 0x00,
  0x48, 0x00, 0x00, 0x00, 0x81, 0xe6, 0x9b, 0x33, 0x7f, 0x9f, 0x0c, 0x8d,
  0x07, 0x7a, 0x7b, 0x81, 0x81, 0x94, 0x7f, 0xf5, 0x7f, 0xe5, 0x81, 0xe2,
  0x21, 0x19, 0x7d, 0x06, 0x8c, 0xae, 0x81, 0x81, 0x45, 0x7f, 0x81, 0x7f,
  0x4d, 0x81, 0x81, 0xf4, 0xb4, 0x38, 0x6b, 0xf7, 0x6d, 0x81, 0xc3, 0xbc,
  0x81, 0x81, 0x7f, 0x81, 0xb9, 0x81, 0xb8, 0xdb, 0x53, 0xa3, 0x21, 0xe6,
  0x81, 0x86, 0x8e, 0x52, 0xc3, 0x81, 0xb9, 0x81, 0x0c, 0xc1, 0x9f, 0x7f,
  0xae, 0xa0, 0x27, 0x61, 0xac, 0xa3, 0xff, 0xff, 0xb0, 0xa3, 0xff, 0xff,
  0xb4, 0xa3, 0xff, 0xff, 0x8a, 0xf1, 0xff, 0xff, 0x04, 0x00, 0x00, 0x00,
  0x60, 0x00, 0x00, 0x00, 0x00, 0x00, 0x00, 0x00, 0x00, 0x00, 0x00, 0x00,
  0x00, 0x00, 0x00, 0x00, 0x00, 0x00, 0x00, 0x00, 0x00, 0x00, 0x00, 0x00,
  0x00, 0x00, 0x00, 0x00, 0x00, 0x00, 0x00, 0x00, 0x00, 0x00, 0x00, 0x00,
  0x00, 0x00, 0x00, 0x00, 0x00, 0x00, 0x00, 0x00, 0x00, 0x00, 0x00, 0x00,
  0x00, 0x00, 0x00, 0x00, 0x00, 0x00, 0x00, 0x00, 0x00, 0x00, 0x00, 0x00,
  0x00, 0x00, 0x00, 0x00, 0x00, 0x00, 0x00, 0x00, 0x00, 0x00, 0x00, 0x00,
  0x00, 0x00, 0x00, 0x00, 0x00, 0x00, 0x00, 0x00, 0x00, 0x00, 0x00, 0x00,
  0x00, 0x00, 0x00, 0x00, 0x00, 0x00, 0x00, 0x00, 0x00, 0x00, 0x00, 0x00,
  0x00, 0x00, 0x00, 0x00, 0xf6, 0xf1, 0xff, 0xff, 0x04, 0x00, 0x00, 0x00,
  0x18, 0x00, 0x00, 0x00, 0x7c, 0x60, 0x78, 0x37, 0xbe, 0x10, 0x24, 0x02,
  0x0f, 0x26, 0x1f, 0x17, 0x33, 0x4d, 0xc3, 0x50, 0x8a, 0x61, 0x7f, 0xef,
  0x56, 0x5d, 0x80, 0x06, 0x1a, 0xf2, 0xff, 0xff, 0x04, 0x00, 0x00, 0x00,
  0x40, 0x02, 0x00, 0x00, 0x7c, 0x79, 0x15, 0x81, 0xdb, 0x82, 0x31, 0xff,
  0xa1, 0x24, 0x24, 0xe5, 0x84, 0x04, 0xae, 0x83, 0x1d, 0x57, 0xb2, 0x61,
  0xd5, 0xfd, 0xcb, 0x59, 0x09, 0x7f, 0x40, 0xf3, 0x67, 0x51, 0xd4, 0x54,
  0xc3, 0xce, 0x5e, 0x83, 0x2b, 0xa3, 0x43, 0xde, 0xcb, 0xb2, 0x19, 0x05,
  0x6b, 0x9e, 0xf3, 0xe9, 0x70, 0xbb, 0x9f, 0x02, 0x7b, 0x7d, 0xfb, 0xcf,
  0x3c, 0x90, 0x59, 0xe6, 0xc0, 0x81, 0xc6, 0x25, 0x34, 0x9f, 0x14, 0xe4,
  0x7d, 0x2c, 0x71, 0xfa, 0xf6, 0xb0, 0xfe, 0x7f, 0x4c, 0xd7, 0xbf, 0x4b,
  0x18, 0x92, 0x88, 0x86, 0xa9, 0xcc, 0x69, 0x7c, 0xcc, 0xf0, 0x7f, 0x0d,
  0xac, 0x2e, 0x75, 0xa9, 0xea, 0xd0, 0x7f, 0x58, 0x79, 0x77, 0x58, 0xc0,
  0xfb, 0x71, 0x7f, 0x0f, 0xd4, 0xb8, 0x79, 0x67, 0xd7, 0x1f, 0x78, 0xc8,
  0x30, 0xd0, 0xc6, 0x3a, 0x89, 0x3c, 0x65, 0x96, 0x8c, 0xbe, 0xf8, 0x27,
  0x1b, 0xe1, 0x33, 0x97, 0xc2, 0x62, 0x0b, 0x7f, 0x1b, 0x6f, 0xec, 0x0e,
  0x44, 0xec, 0x8b, 0x6c, 0x1d, 0xe1, 0xb1, 0x33, 0xc8, 0x65, 0x7f, 0x5c,
  0xb6, 0x17, 0xdd, 0xa7, 0x87, 0xcb, 0x18, 0x19, 0x1b, 0x58, 0x10, 0x14,
  0x2a, 0x90, 0x7f, 0xe6, 0xf5, 0x11, 0x46, 0x83, 0x75, 0x5e, 0x72, 0xb4,
  0xee, 0x00, 0x81, 0xdf, 0x96, 0xbc, 0x8d, 0x5d, 0x76, 0x5e, 0xb4, 0x1e,
  0xbc, 0xe8, 0xe4, 0x97, 0xc6, 0xa4, 0x5b, 0xe4, 0xcc, 0x7f, 0x61, 0x6d,
  0x36, 0x6a, 0xc2, 0x72, 0x2e, 0xfa, 0x8c, 0x01, 0xf7, 0x5d, 0x47, 0xe3,
  0xba, 0xce, 0xfe, 0x9d, 0xbc, 0xfb, 0x24, 0x89, 0xe9, 0xcb, 0x74, 0x64,
  0x48, 0x81, 0xa5, 0xce, 0x09, 0x3f, 0x4c, 0xe4, 0xe6, 0x82, 0x5c, 0x3b,
  0x34, 0x28, 0x27, 0x2e, 0xfa, 0xae, 0xfb, 0xee, 0x30, 0x99, 0x1c, 0xf1,
  0x71, 0xa4, 0x67, 0x12, 0x51, 0x32, 0x29, 0x95, 0x7f, 0xbd, 0x90, 0x10,
  0xe5, 0x7d, 0x9b, 0x4f, 0x3d, 0xf6, 0xdb, 0xdd, 0x0a, 0x97, 0x25, 0x9f,
  0x1c, 0x70, 0xf3, 0x29, 0xad, 0xc2, 0x81, 0x8f, 0x16, 0xe1, 0x74, 0xf9,
  0x5c, 0x75, 0x07, 0xd0, 0xb5, 0x2a, 0x9a, 0xee, 0x5d, 0xbc, 0x5b, 0x11,
  0xa5, 0xc8, 0x69, 0x6a, 0x71, 0x46, 0xbb, 0x70, 0x02, 0x73, 0xc0, 0x7f,
  0x5a, 0x02, 0x50, 0xa8, 0x2c, 0x01, 0x5a, 0x33, 0xd1, 0x55, 0xc0, 0x3f,
  0x12, 0xfc, 0x53, 0xbd, 0xea, 0x35, 0x2a, 0x9f, 0x21, 0x84, 0x87, 0x9c,
  0x5f, 0x7f, 0x8c, 0x31, 0x60, 0x9a, 0x7f, 0x40, 0xb8, 0xdf, 0xd0, 0x9a,
  0xf6, 0x86, 0x7c, 0x82, 0xa1, 0xc3, 0x92, 0x05, 0x93, 0x85, 0x39, 0xf8,
  0x79, 0x48, 0x27, 0x1c, 0x44, 0xb6, 0xd2, 0x02, 0x30, 0xc5, 0x28, 0xd4,
  0xf4, 0x2f, 0xa0, 0x11, 0x1b, 0x55, 0xd6, 0x5d, 0xff, 0x01, 0x50, 0x94,
  0x7f, 0x0b, 0x16, 0x00, 0x5d, 0xb0, 0xa9, 0x32, 0xd4, 0x81, 0x34, 0x47,
  0xe7, 0x12, 0xa9, 0x04, 0xb0, 0x4b, 0xd7, 0xd5, 0x56, 0x3c, 0xf2, 0x81,
  0x50, 0xb5, 0x75, 0x69, 0x8c, 0xe4, 0x4d, 0x37, 0x3c, 0xa9, 0xa2, 0x48,
  0xd0, 0xa8, 0x8a, 0x92, 0x96, 0xcd, 0xd7, 0xfe, 0x5c, 0xd6, 0x23, 0x81,
  0xe6, 0x1d, 0x4a, 0x66, 0xdb, 0x47, 0xf4, 0x0c, 0xa0, 0x8c, 0x34, 0xf0,
  0x81, 0x44, 0xea, 0xf7, 0x4a, 0x2a, 0x7b, 0xc9, 0x2a, 0x4e, 0x18, 0xf7,
  0x73, 0x98, 0x8c, 0x5d, 0xee, 0x5d, 0x06, 0x81, 0x40, 0xa5, 0x35, 0xf4,
  0x34, 0x28, 0x94, 0x34, 0xf3, 0x25, 0xe9, 0xc2, 0xdc, 0xfc, 0x20, 0xfd,
  0xe0, 0x53, 0xb8, 0xad, 0x56, 0xd9, 0x7f, 0xf0, 0xed, 0x4d, 0xcf, 0x25,
  0x47, 0xa6, 0xc8, 0xe6, 0x46, 0x6f, 0x74, 0xfa, 0x54, 0x22, 0xc0, 0x37,
  0xc0, 0x56, 0xd8, 0xc8, 0x4a, 0x7f, 0x96, 0x2e, 0xf0, 0x17, 0xf7, 0x97,
  0x5a, 0x0d, 0x32, 0x2d, 0x09, 0x39, 0xaa, 0x53, 0xef, 0x7e, 0x8d, 0x63,
  0x87, 0x75, 0x19, 0x47, 0xa7, 0x42, 0x36, 0x6a, 0x89, 0x40, 0x4b, 0x30,
  0xe9, 0xf6, 0xb4, 0x35, 0x64, 0xec, 0x3e, 0xc3, 0x7f, 0x3a, 0x65, 0x39,
  0x76, 0x1b, 0xdb, 0x83, 0x6d, 0x45, 0xa3, 0x5d, 0x6b, 0x3f, 0x44, 0x14,
  0xc9, 0x48, 0xac, 0x25, 0xc1, 0x98, 0x21, 0x42, 0x99, 0x46, 0x3b, 0xa1,
  0x74, 0xca, 0x3e, 0x7f, 0x66, 0xf4, 0xff, 0xff, 0x04, 0x00, 0x00, 0x00,
  0x60, 0x00, 0x00, 0x00, 0xd5, 0x0d, 0x00, 0x00, 0xff, 0xf2, 0xff, 0xff,
  0x9e, 0xef, 0xff, 0xff, 0xbd, 0x08, 0x00, 0x00, 0x9a, 0xc0, 0xff, 0xff,
  0x0a, 0xf9, 0xff, 0xff, 0x95, 0xf5, 0xff, 0xff, 0x1a, 0x0f, 0x00, 0x00,
  0x2b, 0xef, 0xff, 0xff, 0x60, 0xfd, 0xff, 0xff, 0xa2, 0xf9, 0xff, 0xff,
  0x72, 0x07, 0x00, 0x00, 0x3e, 0xd8, 0xff, 0xff, 0x47, 0xf9, 0xff, 0xff,
  0xad, 0x1b, 0x00, 0x00, 0x36, 0xf2, 0xff, 0xff, 0x33, 0x03, 0x00, 0x00,
  0xa0, 0x24, 0x00, 0x00, 0x89, 0xfc, 0xff, 0xff, 0x93, 0x0b, 0x00, 0x00,
  0xd9, 0xdc, 0xff, 0xff, 0xe5, 0xdb, 0xff, 0xff, 0x9a, 0xd5, 0xff, 0xff,
  0x34, 0xda, 0xff, 0xff, 0xd2, 0xf4, 0xff, 0xff, 0x04, 0x00, 0x00, 0x00,
  0x48, 0x00, 0x00, 0x00, 0x2b, 0x7f, 0x5f, 0x5c, 0x15, 0x79, 0xf7, 0x2b,
  0xb9, 0x81, 0x05, 0x7f, 0x7f, 0x7f, 0xc3, 0x8c, 0x72, 0x55, 0x2d, 0x96,
  0xed, 0x67, 0xb5, 0x7f, 0x81, 0xcf, 0xdd, 0x79, 0xf5, 0x6f, 0x20, 0xba,
  0x81, 0x15, 0x81, 0x57, 0xf2, 0xe4, 0x1e, 0x1c, 0xa1, 0x81, 0x4b, 0x81,
  0x1b, 0xff, 0x0f, 0xfc, 0xea, 0xa1, 0x7f, 0x81, 0x7f, 0x81, 0x7f, 0x81,
  0x16, 0x8b, 0xa9, 0xf6, 0x14, 0x60, 0x81, 0x7f, 0x81, 0x7b, 0x7f, 0xf3,
  0x7f, 0x7f, 0x81, 0xd4, 0x26, 0xf5, 0xff, 0xff, 0x04, 0x00, 0x00, 0x00,
  0x18, 0x00, 0x00, 0x00, 0x54, 0x1f, 0xb7, 0xef, 0xc9, 0xe6, 0xcf, 0x69,
  0x6d, 0x73, 0x7f, 0x9e, 0xc1, 0xa6, 0x69, 0xf8, 0x42, 0xea, 0x80, 0x7d,
  0xba, 0x8a, 0x7f, 0xea, 0x4a, 0xf5, 0xff, 0xff, 0x04, 0x00, 0x00, 0x00,
  0x40, 0x02, 0x00, 0x00, 0x1d, 0xc7, 0x5e, 0x81, 0xc1, 0x03, 0x40, 0x23,
  0xcb, 0x2b, 0xfd, 0x16, 0x8c, 0x60, 0x68, 0xc3, 0x1a, 0x49, 0xbd, 0x52,
  0x77, 0x6e, 0xeb, 0x91, 0xb4, 0x62, 0xdb, 0x22, 0x5d, 0xe0, 0xc4, 0xbb,
  0x7c, 0xaf, 0x77, 0xe6, 0xe1, 0x35, 0x48, 0x8e, 0x81, 0x6a, 0xf7, 0x17,
  0x88, 0x83, 0x2b, 0xf1, 0xb0, 0x37, 0x0a, 0x12, 0x83, 0xbe, 0xc1, 0xd0,
  0xad, 0x9c, 0x84, 0xe0, 0xad, 0xc7, 0x81, 0x17, 0xc6, 0x46, 0x85, 0xd7,
  0x33, 0x39, 0x93, 0x31, 0x23, 0x36, 0x81, 0x65, 0xfa, 0xf2, 0x01, 0xec,
  0xc2, 0xc9, 0x1b, 0x42, 0xa9, 0xcf, 0xc2, 0xa7, 0xe8, 0x0b, 0x6f, 0xb4,
  0xf1, 0x56, 0x94, 0x93, 0x5d, 0x78, 0x5a, 0x9c, 0x98, 0x25, 0x13, 0xcc,
  0xd9, 0xaf, 0x70, 0x25, 0x7f, 0x16, 0x48, 0x34, 0x1e, 0x24, 0x21, 0x65,
  0x23, 0xbe, 0xc8, 0x2c, 0x63, 0x7f, 0x24, 0x7f, 0x8e, 0xd8, 0x7b, 0x84,
  0x49, 0xa1, 0xb4, 0x04, 0xce, 0x9f, 0xc5, 0xf4, 0x73, 0xe3, 0x34, 0xa7,
  0x0a, 0xbe, 0xd0, 0xae, 0x88, 0xf9, 0xab, 0x83, 0x0c, 0x00, 0xc9, 0x97,
  0x37, 0x81, 0xf5, 0xc8, 0xef, 0xcb, 0xc8, 0x3c, 0xc0, 0x24, 0x6e, 0x5d,
  0x1b, 0x6f, 0x10, 0x76, 0xde, 0xc5, 0xde, 0x16, 0x8c, 0x9a, 0xe7, 0xdb,
  0x4d, 0x3c, 0x7f, 0xae, 0x29, 0xbe, 0xa3, 0x1b, 0xf5, 0x01, 0x6b, 0x2f,
  0x0a, 0xa7, 0xcf, 0xc8, 0x89, 0x1a, 0x39, 0xaa, 0x62, 0x8f, 0xc3, 0xf5,
  0x87, 0x76, 0xa0, 0x47, 0x7f, 0xba, 0xc7, 0x2e, 0xfb, 0x0c, 0x25, 0xad,
  0x48, 0xdb, 0x45, 0x3f, 0x38, 0xec, 0x81, 0xbd, 0x7e, 0xab, 0x13, 0x6f,
  0x0e, 0xb9, 0xe3, 0x15, 0x8a, 0xdc, 0x2c, 0x73, 0x76, 0x48, 0x39, 0xd4,
  0xa1, 0x10, 0xbc, 0x53, 0xfe, 0x08, 0x52, 0xa7, 0x3e, 0xa0, 0x32, 0x73,
  0x81, 0x31, 0xec, 0xe1, 0x96, 0xcc, 0x26, 0x35, 0x3e, 0x42, 0xa9, 0xbf,
  0xea, 0x4c, 0xb1, 0x94, 0x4e, 0x8d, 0x3a, 0xcc, 0x4c, 0x2f, 0x21, 0x3b,
  0x36, 0x03, 0xf9, 0x59, 0x41, 0x2b, 0x94, 0x53, 0x2f, 0xba, 0x64, 0x0d,
  0x6e, 0x2d, 0xc7, 0x7f, 0xdc, 0x4e, 0xe2, 0x4d, 0x72, 0xe1, 0x6f, 0xe8,
  0xd7, 0x77, 0x07, 0x61, 0x8d, 0x1b, 0x5f, 0xae, 0x0a, 0x1b, 0x78, 0xf4,
  0x7a, 0x81, 0x31, 0x88, 0xca, 0xe7, 0x59, 0xd6, 0x12, 0x62, 0x74, 0xff,
  0x23, 0xc4, 0xec, 0x23, 0x75, 0x15, 0x85, 0xde, 0xe4, 0x57, 0x0f, 0x04,
  0x6e, 0xcd, 0x81, 0xb6, 0xcf, 0xe6, 0xdf, 0x83, 0xa7, 0x14, 0x4b, 0x84,
  0xe0, 0xa3, 0xd9, 0x4c, 0xe5, 0x61, 0x0f, 0x6c, 0x6d, 0x0b, 0xbf, 0x7f,
  0xfd, 0xce, 0x73, 0xfd, 0xe4, 0x59, 0x38, 0x7e, 0xb2, 0xcd, 0xeb, 0xd5,
  0x4e, 0x5b, 0xdb, 0x74, 0xfc, 0x0f, 0x85, 0x5c, 0x64, 0x53, 0x1e, 0x96,
  0x23, 0x81, 0x3e, 0x67, 0xef, 0x37, 0xde, 0xee, 0x88, 0x91, 0xff, 0xe0,
  0xe6, 0x62, 0x54, 0x18, 0xba, 0xfd, 0xbd, 0x54, 0xdc, 0x6f, 0xae, 0x81,
  0x62, 0x27, 0x21, 0x2a, 0x08, 0x38, 0xa4, 0x7f, 0x18, 0xa4, 0x34, 0xb9,
  0x6a, 0xa4, 0xb3, 0x30, 0x6a, 0xdf, 0x8e, 0x98, 0xf4, 0xc0, 0x36, 0x27,
  0xd3, 0xf0, 0x19, 0xf8, 0x3d, 0x9d, 0x1f, 0x1c, 0x6e, 0x75, 0xf4, 0xef,
  0x68, 0x72, 0x01, 0xcf, 0x75, 0x62, 0x62, 0x08, 0xbf, 0x47, 0x7f, 0x1f,
  0x57, 0x90, 0x2d, 0x32, 0x47, 0x1f, 0x7f, 0x78, 0x30, 0xcf, 0xf5, 0x17,
  0x85, 0x00, 0x38, 0x22, 0x6f, 0x27, 0xaf, 0xa7, 0x5b, 0xdb, 0x3b, 0x46,
  0xad, 0x2f, 0x4b, 0xcf, 0xf4, 0x79, 0xb5, 0xeb, 0xdd, 0xf4, 0x7f, 0x6c,
  0x14, 0x91, 0x20, 0x7b, 0x8d, 0x5e, 0x53, 0xff, 0x89, 0xf8, 0x43, 0xb5,
  0x01, 0x86, 0x72, 0x69, 0x3e, 0xc1, 0xb7, 0xcf, 0x2c, 0x8a, 0x38, 0xcb,
  0xe6, 0x8e, 0x0c, 0x07, 0x08, 0x9c, 0x82, 0xb9, 0xe6, 0xd0, 0x81, 0x44,
  0x11, 0x23, 0xed, 0x8d, 0x7b, 0x90, 0x71, 0x81, 0xee, 0x15, 0x34, 0xc2,
  0x93, 0xeb, 0x8d, 0x04, 0x0d, 0x34, 0xc4, 0x14, 0x62, 0x3b, 0xe1, 0x0e,
  0xaf, 0x74, 0x30, 0x18, 0x9f, 0x06, 0x12, 0x2d, 0x5a, 0x68, 0xff, 0x7f,
  0xc4, 0x12, 0x88, 0xd8, 0xb9, 0x6b, 0x6a, 0xb2, 0xe0, 0x81, 0xe7, 0x9d,
  0x1c, 0xc2, 0x7d, 0xae, 0x96, 0xf7, 0xff, 0xff, 0x04, 0x00, 0x00, 0x00,
  0x60, 0x00, 0x00, 0x00, 0x06, 0xea, 0xff, 0xff, 0x12, 0x12, 0x00, 0x00,
  0x46, 0x66, 0x00, 0x00, 0x67, 0x28, 0x00, 0x00, 0x54, 0xc6, 0xff, 0xff,
  0x43, 0x14, 0x00, 0x00, 0x68, 0x15, 0x00, 0x00, 0x5b, 0x22, 0x00, 0x00,
  0x51, 0x05, 0x00, 0x00, 0x90, 0xfb, 0xff, 0xff, 0xe2, 0x15, 0x00, 0x00,
  0x26, 0xb5, 0xff, 0xff, 0x85, 0xcd, 0xff, 0xff, 0x87, 0xf3, 0xff, 0xff,
  0x28, 0x02, 0x00, 0x00, 0x65, 0xd1, 0xff, 0xff, 0x8f, 0x08, 0x00, 0x00,
  0xbf, 0x0d, 0x00, 0x00, 0x07, 0x9f, 0xff, 0xff, 0x94, 0xcf, 0xff, 0xff,
  0x76, 0xe0, 0xff, 0xff, 0x37, 0x58, 0x00, 0x00, 0xcb, 0xfb, 0xff, 0xff,
  0xb5, 0x0b, 0x00, 0x00, 0x02, 0xf8, 0xff, 0xff, 0x04, 0x00, 0x00, 0x00,
  0x48, 0x00, 0x00, 0x00, 0x7f, 0x15, 0xbd, 0x81, 0xa7, 0x7f, 0x7f, 0x81,
  0x6e, 0x47, 0xb2, 0x22, 0x82, 0x91, 0x0b, 0x16, 0x7a, 0x81, 0x87, 0x7f,
  0x8d, 0xd4, 0x54, 0xf7, 0x61, 0x81, 0x3b, 0xa7, 0x44, 0x39, 0x78, 0x6a,
  0x7f, 0x7f, 0x81, 0x12, 0x7f, 0x81, 0x22, 0x81, 0x54, 0x5b, 0x7f, 0xcf,
  0x0a, 0x81, 0x81, 0xf0, 0xc3, 0x1b, 0x81, 0xdd, 0x81, 0xe6, 0x53, 0xa8,
  0xc2, 0x24, 0x59, 0x81, 0x89, 0xdc, 0x81, 0x29, 0x81, 0x24, 0x86, 0x1d,
  0x7f, 0xa0, 0x17, 0x81, 0x56, 0xf8, 0xff, 0xff, 0x04, 0x00, 0x00, 0x00,
  0x18, 0x00, 0x00, 0x00, 0xe7, 0x2e, 0x3b, 0x6f, 0x41, 0xbf, 0x80, 0x27,
  0xb4, 0x91, 0x29, 0x2b, 0x25, 0x5e, 0x30, 0x1c, 0xe5, 0xf7, 0x23, 0xc7,
  0xed, 0x7f, 0x06, 0x4a, 0x7a, 0xf8, 0xff, 0xff, 0x04, 0x00, 0x00, 0x00,
  0x40, 0x02, 0x00, 0x00, 0xe3, 0xba, 0x03, 0x36, 0x12, 0xb2, 0xf0, 0x4e,
  0x38, 0x69, 0x97, 0xb0, 0xea, 0x41, 0x41, 0xf4, 0xd0, 0x81, 0xb4, 0xa7,
  0xb6, 0x08, 0xb3, 0x6b, 0xbb, 0x0d, 0xb8, 0x71, 0x16, 0x13, 0xcf, 0xf3,
  0x71, 0x97, 0xfa, 0x81, 0xb7, 0xd2, 0x4c, 0xfe, 0x1d, 0xf7, 0x47, 0x76,
  0xec, 0x49, 0xca, 0xa8, 0x8d, 0x51, 0xd8, 0x5f, 0x9a, 0xe3, 0x81, 0x00,
  0x0e, 0xe4, 0xba, 0x4f, 0x74, 0xbb, 0xf4, 0x88, 0xa7, 0x20, 0x10, 0x3d,
  0xdb, 0xc7, 0xfd, 0x22, 0xcb, 0x36, 0x41, 0xe0, 0x66, 0xfe, 0x50, 0x65,
  0x46, 0x08, 0xd5, 0x5f, 0xfe, 0x6b, 0xc4, 0xf9, 0x5a, 0x7a, 0xf8, 0x81,
  0xf2, 0xc1, 0x27, 0xe9, 0x0e, 0x72, 0x65, 0x9d, 0xca, 0xb5, 0xb0, 0x34,
  0x32, 0x7f, 0xd0, 0x6e, 0xc7, 0xab, 0x98, 0x95, 0x72, 0xe0, 0xe6, 0x6a,
  0x81, 0x4f, 0xb7, 0x9c, 0xe0, 0xea, 0x72, 0x39, 0xfb, 0xca, 0xa9, 0x62,
  0xda, 0x14, 0xd0, 0x5c, 0x5f, 0xf2, 0x9a, 0x0f, 0xb1, 0x42, 0x64, 0x81,
  0x38, 0xd7, 0x62, 0xe3, 0xa8, 0x9d, 0xa1, 0x0f, 0x97, 0x50, 0xc6, 0xd2,
  0xa6, 0x9c, 0x0e, 0xdb, 0x04, 0xfa, 0xa3, 0xc8, 0x07, 0x49, 0x41, 0x24,
  0x28, 0xf3, 0x81, 0xf8, 0xa7, 0xa4, 0xb8, 0x81, 0x0e, 0xf7, 0x2f, 0x20,
  0x93, 0x58, 0x21, 0x7d, 0x81, 0x96, 0xaa, 0xd7, 0x7e, 0x77, 0x56, 0x2e,
  0x33, 0x3a, 0x71, 0x3e, 0xac, 0xc1, 0x70, 0x7f, 0x3d, 0x0f, 0x3f, 0x04,
  0xfb, 0x9b, 0x26, 0x12, 0xf9, 0x4f, 0x10, 0x0f, 0x46, 0xbf, 0xd6, 0xf2,
  0xbc, 0x57, 0x48, 0xf1, 0xce, 0x7f, 0xe8, 0x49, 0xfc, 0xf6, 0x67, 0xac,
  0xa3, 0xc4, 0x67, 0xc4, 0x83, 0xbd, 0xe8, 0xbd, 0x95, 0x2b, 0xd4, 0xe8,
  0x96, 0x25, 0xd0, 0x6b, 0x11, 0xf5, 0x38, 0x22, 0x1b, 0x68, 0x78, 0xd5,
  0x7f, 0x5c, 0x26, 0xd2, 0xfc, 0x55, 0xa3, 0xdc, 0x4f, 0x38, 0x9b, 0x33,
  0xbd, 0xaf, 0x78, 0xec, 0xeb, 0x57, 0x7f, 0xc1, 0xd8, 0x73, 0x81, 0xeb,
  0xc6, 0x55, 0x1d, 0xd3, 0xc8, 0x1c, 0xf6, 0xdc, 0xd0, 0xe8, 0x8d, 0x40,
  0x88, 0x3e, 0x12, 0xf2, 0xdd, 0x9e, 0x03, 0xe4, 0x87, 0x53, 0x6f, 0x3e,
  0x5f, 0xa3, 0xea, 0x52, 0xe3, 0x6c, 0xbc, 0xa3, 0xa2, 0xc1, 0x72, 0x7f,
  0xc5, 0x35, 0x8f, 0x6f, 0x36, 0x0a, 0x42, 0xdf, 0xdc, 0xec, 0x81, 0xc8,
  0x7a, 0x47, 0x97, 0x7d, 0xa2, 0x56, 0x48, 0x72, 0xfe, 0x36, 0xd1, 0x30,
  0x0c, 0xdd, 0x71, 0x43, 0x2d, 0xd2, 0xab, 0x69, 0x85, 0x87, 0xf2, 0x35,
  0x51, 0xd5, 0x65, 0xe0, 0x20, 0x0a, 0x53, 0x40, 0x6f, 0x61, 0x81, 0xc9,
  0x34, 0x92, 0x59, 0xb3, 0x1c, 0xd5, 0xa7, 0x1c, 0xbf, 0x94, 0x3e, 0x1a,
  0x91, 0x65, 0xe9, 0xcb, 0x49, 0xe1, 0x8d, 0x49, 0x6f, 0xf3, 0xa0, 0xe0,
  0xa2, 0xa3, 0x81, 0xc8, 0x6c, 0x2f, 0x93, 0x05, 0x37, 0x87, 0xc8, 0x90,
  0xef, 0x35, 0x83, 0x7f, 0xd8, 0x94, 0xb6, 0xf8, 0xab, 0x46, 0x9f, 0x5c,
  0x70, 0x07, 0xc4, 0xaf, 0xea, 0xc8, 0xe2, 0x70, 0x4f, 0xcf, 0x23, 0x5d,
  0x95, 0x40, 0x26, 0xcb, 0x5d, 0x91, 0xb8, 0x7f, 0x88, 0xc6, 0xb2, 0x15,
  0x0c, 0xd4, 0xcb, 0xab, 0x43, 0x4a, 0xfa, 0xf7, 0x43, 0xe8, 0xaa, 0x78,
  0xf9, 0x8b, 0x09, 0x97, 0xc9, 0xf5, 0xa2, 0x58, 0x76, 0x9a, 0xc4, 0x51,
  0xa9, 0xe3, 0x31, 0x7f, 0xbb, 0x28, 0x01, 0x50, 0x25, 0x7f, 0xaf, 0xcd,
  0x0e, 0x14, 0x33, 0x4e, 0xed, 0x2a, 0x59, 0x25, 0xd4, 0x96, 0xa2, 0x0d,
  0x63, 0x62, 0xbd, 0x1d, 0xef, 0x0b, 0x8e, 0xd3, 0x14, 0x3a, 0x8d, 0x9e,
  0x81, 0x4a, 0x7a, 0xb4, 0xaf, 0xec, 0x18, 0xed, 0xda, 0x7a, 0xad, 0x77,
  0x8b, 0x95, 0xdc, 0x22, 0x6c, 0x68, 0x5e, 0x00, 0x88, 0x6a, 0x96, 0x2b,
  0xbe, 0x60, 0x2f, 0x74, 0x81, 0x72, 0xfd, 0xfe, 0x95, 0x70, 0x9e, 0x9c,
  0x8e, 0x62, 0xb2, 0x6b, 0x9a, 0x63, 0x6b, 0x7f, 0xd5, 0xd2, 0xff, 0xee,
  0x0a, 0xba, 0x45, 0x9c, 0x0e, 0x0a, 0xa1, 0x3f, 0xa6, 0x0a, 0x1a, 0xf1,
  0xe7, 0xdc, 0x6b, 0xcd, 0xca, 0x07, 0x57, 0x47, 0x20, 0x19, 0xd0, 0xbb,
  0x26, 0x63, 0x91, 0x6b, 0x62, 0x81, 0x54, 0xbb, 0x4a, 0x37, 0xd8, 0x9a,
  0xba, 0x7d, 0x48, 0x64, 0xc6, 0xfa, 0xff, 0xff, 0x04, 0x00, 0x00, 0x00,
  0x60, 0x00, 0x00, 0x00, 0xbf, 0x2b, 0x00, 0x00, 0xc8, 0x04, 0x00, 0x00,
  0x12, 0x29, 0x00, 0x00, 0x33, 0xbf, 0xff, 0xff, 0x12, 0x14, 0x00, 0x00,
  0xd5, 0xf5, 0xff, 0xff, 0x26, 0x55, 0x00, 0x00, 0xa0, 0xf4, 0xff, 0xff,
  0xb1, 0xd9, 0xff, 0xff, 0xa4, 0x31, 0x00, 0x00, 0xbf, 0xbd, 0xff, 0xff,
  0xfa, 0x12, 0x00, 0x00, 0xa0, 0xf7, 0xff, 0xff, 0x2e, 0xcb, 0xff, 0xff,
  0xd9, 0xf0, 0xff, 0xff, 0x9b, 0x50, 0x00, 0x00, 0xa4, 0x2d, 0x00, 0x00,
  0x2e, 0x1e, 0x00, 0x00, 0x98, 0xff, 0xff, 0xff, 0x14, 0xd4, 0xff, 0xff,
  0xcb, 0x3e, 0x00, 0x00, 0xc1, 0xe6, 0xff, 0xff, 0x0a, 0x0c, 0x00, 0x00,
  0x9d, 0xd3, 0xff, 0xff, 0x32, 0xfb, 0xff, 0xff, 0x04, 0x00, 0x00, 0x00,
  0x48, 0x00, 0x00, 0x00, 0x67, 0x5a, 0x04, 0xfc, 0x7f, 0x0d, 0x25, 0xaf,
  0x7f, 0x7f, 0x7f, 0x46, 0x7a, 0x7f, 0xff, 0x36, 0x11, 0xfa, 0x82, 0x81,
  0x81, 0x81, 0x75, 0xe6, 0x81, 0x7f, 0x81, 0x7f, 0x35, 0x7f, 0xed, 0x7f,
  0xb9, 0xcb, 0xf4, 0xa1, 0x25, 0x69, 0xa1, 0x52, 0x7f, 0x78, 0x81, 0xce,
  0xc0, 0xd6, 0x68, 0x7f, 0xba, 0xd4, 0xd4, 0x01, 0xc1, 0xec, 0x7f, 0x4b,
  0x4b, 0xbc, 0x18, 0x81, 0x81, 0x9a, 0x7f, 0x7f, 0x1d, 0x81, 0x97, 0x3a,
  0x55, 0x87, 0x7f, 0x25, 0x86, 0xfb, 0xff, 0xff, 0x04, 0x00, 0x00, 0x00,
  0x18, 0x00, 0x00, 0x00, 0x37, 0xc1, 0x5c, 0xbd, 0xde, 0xc5, 0xb9, 0xd3,
  0xc8, 0x0d, 0xc6, 0x4e, 0x04, 0xdf, 0xeb, 0x95, 0xaf, 0x0d, 0x71, 0x30,
  0x22, 0x7f, 0x80, 0xb8, 0xaa, 0xfb, 0xff, 0xff, 0x04, 0x00, 0x00, 0x00,
  0x40, 0x02, 0x00, 0x00, 0x30, 0xff, 0x32, 0x56, 0x7f, 0x64, 0xba, 0xbb,
  0xd4, 0x28, 0x91, 0x5a, 0xd5, 0x32, 0x2a, 0x4b, 0x76, 0xf7, 0x15, 0x73,
  0x67, 0xd6, 0x56, 0x7f, 0x5b, 0xb9, 0x44, 0xe7, 0x81, 0xff, 0xd5, 0x0a,
  0xd9, 0xb2, 0x8b, 0xa4, 0x43, 0x07, 0x7c, 0x07, 0xbd, 0xca, 0x58, 0xff,
  0xef, 0x4b, 0xca, 0x52, 0xcd, 0x2a, 0xaf, 0x56, 0xe1, 0xe1, 0x50, 0x39,
  0xe0, 0xbd, 0x6e, 0x8b, 0x06, 0x21, 0x7f, 0x6b, 0xe4, 0x40, 0x5b, 0x57,
  0x51, 0x91, 0xb5, 0x1a, 0xb0, 0x0e, 0x40, 0x1c, 0x27, 0x4f, 0x02, 0x67,
  0x07, 0x3f, 0xba, 0x5c, 0x38, 0x16, 0x73, 0xd2, 0xfe, 0x3d, 0x3b, 0xd0,
  0x14, 0x4f, 0xed, 0x7f, 0x94, 0x81, 0xe9, 0xfe, 0xf1, 0x40, 0x82, 0xd4,
  0x67, 0x8f, 0x2c, 0x70, 0xfa, 0x62, 0x1c, 0x54, 0x72, 0xb9, 0xbe, 0x46,
  0xd5, 0xb4, 0x3b, 0xfc, 0x34, 0x55, 0x03, 0x76, 0x75, 0x61, 0xc6, 0xf4,
  0x74, 0x15, 0xe1, 0xec, 0xc2, 0x7f, 0x08, 0xf9, 0xd0, 0xa9, 0x37, 0xfb,
  0x3e, 0x53, 0x0a, 0x0b, 0x8c, 0x49, 0x07, 0x18, 0xb7, 0xdd, 0xd2, 0x3f,
  0x96, 0x53, 0x24, 0xbb, 0xe8, 0x48, 0x5c, 0x7e, 0x34, 0x05, 0xf7, 0x3d,
  0xa1, 0xcc, 0x81, 0x85, 0x03, 0x65, 0x7a, 0x72, 0xe2, 0x19, 0xa2, 0xf7,
  0x94, 0x31, 0x6b, 0x87, 0x63, 0x10, 0x14, 0x68, 0x54, 0x06, 0x81, 0x2e,
  0x3f, 0x5d, 0xee, 0xc9, 0xde, 0x90, 0x4e, 0xdf, 0x10, 0x44, 0x1a, 0xa5,
  0xf2, 0xb1, 0xce, 0x3d, 0x61, 0x1f, 0xc1, 0x89, 0x87, 0xb9, 0xae, 0xc4,
  0x2b, 0x9f, 0x81, 0x89, 0xfe, 0x60, 0xce, 0xf4, 0xc7, 0xec, 0x4d, 0x4c,
  0x69, 0x4f, 0x89, 0x04, 0x6d, 0x2e, 0x0a, 0xe9, 0x6c, 0x10, 0x93, 0x38,
  0x16, 0x3f, 0x4a, 0x7f, 0xe8, 0xea, 0xb2, 0x0e, 0x46, 0x91, 0x01, 0x2a,
  0xbf, 0x55, 0xb1, 0x21, 0x22, 0x65, 0x83, 0x74, 0xd1, 0x01, 0xca, 0x77,
  0x7f, 0x56, 0xe2, 0x9a, 0xcf, 0xfd, 0x13, 0x2a, 0xec, 0x81, 0x87, 0x20,
  0xa3, 0x8a, 0x37, 0xf4, 0xc3, 0x30, 0x2a, 0xd1, 0xc4, 0x43, 0xd5, 0x3d,
  0x53, 0x47, 0x1d, 0x93, 0xea, 0x6a, 0x9b, 0x9c, 0x38, 0x54, 0xf5, 0xeb,
  0x9c, 0x4e, 0x25, 0x25, 0x52, 0x8e, 0xc9, 0x50, 0x79, 0x35, 0x81, 0x2c,
  0xc2, 0x8a, 0x9d, 0x42, 0x83, 0x7f, 0x2f, 0x5d, 0xa6, 0x6b, 0x08, 0x6b,
  0x23, 0x59, 0x1f, 0xf8, 0x04, 0x61, 0xdc, 0x46, 0x06, 0x0a, 0x1a, 0x2d,
  0x21, 0x4d, 0xb1, 0x08, 0x9f, 0xfe, 0x7c, 0xd7, 0x46, 0x99, 0x7f, 0x63,
  0xdb, 0xb5, 0xb1, 0xd2, 0xdb, 0x58, 0x29, 0xce, 0xc7, 0x31, 0x0f, 0xd3,
  0xef, 0x30, 0xa4, 0xd2, 0x6e, 0x90, 0xc3, 0xef, 0xff, 0x71, 0x0b, 0x07,
  0x62, 0x2c, 0x7f, 0x90, 0x18, 0xdc, 0x16, 0xb5, 0x54, 0x11, 0x37, 0xf5,
  0xa5, 0xec, 0x4a, 0xc9, 0x57, 0xa0, 0xa0, 0x24, 0xdc, 0xd3, 0xc3, 0xbd,
  0x46, 0x99, 0xdc, 0x4e, 0x7c, 0x7c, 0xfa, 0x23, 0xeb, 0x72, 0xac, 0x96,
  0x7f, 0x30, 0x50, 0xd6, 0x7c, 0x73, 0xde, 0xd4, 0x68, 0x95, 0x8d, 0xe1,
  0xaf, 0x2c, 0xc1, 0xeb, 0xd2, 0x00, 0xda, 0xe2, 0x89, 0x5e, 0xef, 0x7f,
  0xb6, 0x8f, 0xdf, 0xed, 0xe6, 0x63, 0x81, 0xa2, 0x9b, 0x26, 0x23, 0x11,
  0x3b, 0xa0, 0x05, 0xe1, 0x48, 0xac, 0xc7, 0xad, 0x11, 0xbf, 0x6c, 0x8e,
  0xc0, 0x00, 0x4d, 0x24, 0x56, 0xee, 0xc7, 0x10, 0x7f, 0x8a, 0x79, 0x03,
  0xbb, 0x24, 0xc8, 0xee, 0xad, 0x42, 0x09, 0xfd, 0x4d, 0x02, 0x0c, 0xb7,
  0xa9, 0x70, 0x8a, 0xc9, 0x7a, 0x25, 0xbb, 0x20, 0xcd, 0x5f, 0x5f, 0x46,
  0xf8, 0x42, 0x04, 0x6e, 0x8c, 0x4c, 0xb0, 0xc6, 0xf6, 0xbb, 0xac, 0xd7,
  0x81, 0xe8, 0x3f, 0x29, 0xfc, 0xad, 0x9d, 0x59, 0xa5, 0x7f, 0xb5, 0xbf,
  0xf4, 0x4c, 0xe6, 0xd8, 0x9f, 0x41, 0x7c, 0x40, 0x4e, 0x9f, 0x9e, 0x30,
  0xdf, 0x5c, 0x34, 0x34, 0xed, 0x7f, 0xab, 0xb1, 0x14, 0x67, 0x94, 0x3c,
  0xa1, 0xf5, 0x4d, 0xf3, 0xfb, 0x25, 0xca, 0x49, 0xe6, 0x6e, 0xab, 0xb2,
  0x81, 0x3e, 0x22, 0xf1, 0xc9, 0x8c, 0xef, 0x32, 0xec, 0x8f, 0x65, 0x81,
  0x55, 0xf0, 0xa7, 0xac, 0x5f, 0x77, 0x22, 0x2d, 0x6f, 0x52, 0x8d, 0x9e,
  0x3d, 0xb0, 0xe1, 0xb0, 0xf6, 0xfd, 0xff, 0xff, 0x04, 0x00, 0x00, 0x00,
  0x60, 0x00, 0x00, 0x00, 0x22, 0x94, 0xff, 0xff, 0x95, 0x13, 0x00, 0x00,
  0xba, 0xd6, 0xff, 0xff, 0x81, 0xa2, 0xff, 0xff, 0xda, 0x01, 0x00, 0x00,
  0x44, 0xb2, 0xff, 0xff, 0x3b, 0x17, 0x00, 0x00, 0x19, 0xc2, 0xff, 0xff,
  0xc3, 0x62, 0x00, 0x00, 0x7b, 0xb2, 0xff, 0xff, 0x1b, 0xf6, 0xff, 0xff,
  0xac, 0x20, 0x00, 0x00, 0x12, 0x0c, 0x00, 0x00, 0xe4, 0xac, 0xff, 0xff,
  0x82, 0x12, 0x00, 0x00, 0x43, 0xe8, 0xff, 0xff, 0x0a, 0xf3, 0xff, 0xff,
  0x82, 0x2e, 0x00, 0x00, 0x2e, 0x2d, 0x00, 0x00, 0xc2, 0x0e, 0x00, 0x00,
  0x49, 0xf5, 0xff, 0xff, 0x63, 0xfe, 0xff, 0xff, 0xb4, 0x06, 0x00, 0x00,
  0xdb, 0x1c, 0x00, 0x00, 0x62, 0xfe, 0xff, 0xff, 0x04, 0x00, 0x00, 0x00,
  0x30, 0x00, 0x00, 0x00, 0xb1, 0x7a, 0xda, 0xa8, 0xfc, 0x6f, 0xe1, 0x42,
  0x14, 0x32, 0x5f, 0xd2, 0x29, 0x07, 0x5a, 0xf0, 0xe3, 0x2b, 0xc1, 0x81,
  0xc2, 0x26, 0x95, 0xc9, 0xbc, 0x81, 0x07, 0xc0, 0xa1, 0x6d, 0xaa, 0x10,
  0x24, 0x21, 0x76, 0x33, 0xd4, 0x4f, 0x47, 0x56, 0x8d, 0xb2, 0x47, 0x47,
  0x2f, 0x73, 0xa6, 0x53, 0x9e, 0xfe, 0xff, 0xff, 0x04, 0x00, 0x00, 0x00,
  0x08, 0x00, 0x00, 0x00, 0xc3, 0x13, 0x00, 0x00, 0x6e, 0xe4, 0xff, 0xff,
  0xb2, 0xfe, 0xff, 0xff, 0x04, 0x00, 0x00, 0x00, 0x0c, 0x00, 0x00, 0x00,
  0xff, 0xff, 0xff, 0xff, 0x80, 0x00, 0x00, 0x00, 0x02, 0x00, 0x00, 0x00,
  0xca, 0xfe, 0xff, 0xff, 0x04, 0x00, 0x00, 0x00, 0x08, 0x00, 0x00, 0x00,
  0x01, 0x00, 0x00, 0x00, 0x10, 0x00, 0x00, 0x00, 0xde, 0xfe, 0xff, 0xff,
  0x04, 0x00, 0x00, 0x00, 0x18, 0x00, 0x00, 0x00, 0x00, 0x00, 0x00, 0x00,
  0x00, 0x00, 0x00, 0x00, 0x20, 0x00, 0x00, 0x00, 0x00, 0x00, 0x00, 0x00,
  0x00, 0x00, 0x00, 0x00, 0x00, 0x00, 0x00, 0x00, 0x02, 0xff, 0xff, 0xff,
  0x04, 0x00, 0x00, 0x00, 0x08, 0x00, 0x00, 0x00, 0x01, 0x00, 0x00, 0x00,
  0x08, 0x00, 0x00, 0x00, 0x16, 0xff, 0xff, 0xff, 0x04, 0x00, 0x00, 0x00,
  0x18, 0x00, 0x00, 0x00, 0x00, 0x00, 0x00, 0x00, 0x00, 0x00, 0x00, 0x00,
  0x10, 0x00, 0x00, 0x00, 0x00, 0x00, 0x00, 0x00, 0x00, 0x00, 0x00, 0x00,
  0x00, 0x00, 0x00, 0x00, 0x3a, 0xff, 0xff, 0xff, 0x04, 0x00, 0x00, 0x00,
  0x08, 0x00, 0x00, 0x00, 0x01, 0x00, 0x00, 0x00, 0x04, 0x00, 0x00, 0x00,
  0x4e, 0xff, 0xff, 0xff, 0x04, 0x00, 0x00, 0x00, 0x18, 0x00, 0x00, 0x00,
  0x00, 0x00, 0x00, 0x00, 0x00, 0x00, 0x00, 0x00, 0x08, 0x00, 0x00, 0x00,
  0x00, 0x00, 0x00, 0x00, 0x00, 0x00, 0x00, 0x00, 0x00, 0x00, 0x00, 0x00,
  0x72, 0xff, 0xff, 0xff, 0x04, 0x00, 0x00, 0x00, 0x10, 0x00, 0x00, 0x00,
  0x00, 0x00, 0x00, 0x00, 0x00, 0x00, 0x00, 0x00, 0x00, 0x00, 0x00, 0x00,
  0x00, 0x00, 0x00, 0x00, 0x8e, 0xff, 0xff, 0xff, 0x04, 0x00, 0x00, 0x00,
  0x08, 0x00, 0x00, 0x00, 0x01, 0x00, 0x00, 0x00, 0x02, 0x00, 0x00, 0x00,
  0xa2, 0xff, 0xff, 0xff, 0x04, 0x00, 0x00, 0x00, 0x04, 0x00, 0x00, 0x00,
  0x01, 0x00, 0x00, 0x00, 0xb2, 0xff, 0xff, 0xff, 0x04, 0x00, 0x00, 0x00,
  0x18, 0x00, 0x00, 0x00, 0x00, 0x00, 0x00, 0x00, 0x00, 0x00, 0x00, 0x00,
  0x04, 0x00, 0x00, 0x00, 0x00, 0x00, 0x00, 0x00, 0x00, 0x00, 0x00, 0x00,
  0x00, 0x00, 0x00, 0x00, 0xd6, 0xff, 0xff, 0xff, 0x04, 0x00, 0x00, 0x00,
  0x0c, 0x00, 0x00, 0x00, 0xff, 0xff, 0xff, 0xff, 0x80, 0x00, 0x00, 0x00,
  0x18, 0x00, 0x00, 0x00, 0xee, 0xff, 0xff, 0xff, 0x04, 0x00, 0x00, 0x00,
  0x04, 0x00, 0x00, 0x00, 0xfd, 0xff, 0xff, 0xff, 0x00, 0x00, 0x06, 0x00,
  0x08, 0x00, 0x04, 0x00, 0x06, 0x00, 0x00, 0x00, 0x04, 0x00, 0x00, 0x00,
  0x18, 0x00, 0x00, 0x00, 0x00, 0x00, 0x00, 0x00, 0x00, 0x00, 0x00, 0x00,
  0x02, 0x00, 0x00, 0x00, 0x00, 0x00, 0x00, 0x00, 0x00, 0x00, 0x00, 0x00,
  0x00, 0x00, 0x00, 0x00, 0x58, 0xb2, 0xff, 0xff, 0x5c, 0xb2, 0xff, 0xff,
  0x0f, 0x00, 0x00, 0x00, 0x4d, 0x4c, 0x49, 0x52, 0x20, 0x43, 0x6f, 0x6e,
  0x76, 0x65, 0x72, 0x74, 0x65, 0x64, 0x2e, 0x00, 0x01, 0x00, 0x00, 0x00,
  0x14, 0x00, 0x00, 0x00, 0x00, 0x00, 0x0e, 0x00, 0x18, 0x00, 0x14, 0x00,
  0x10, 0x00, 0x0c, 0x00, 0x08, 0x00, 0x04, 0x00, 0x0e, 0x00, 0x00, 0x00,
  0x14, 0x00, 0x00, 0x00, 0x1c, 0x00, 0x00, 0x00, 0x0c, 0x0b, 0x00, 0x00,
  0x10, 0x0b, 0x00, 0x00, 0x14, 0x0b, 0x00, 0x00, 0x04, 0x00, 0x00, 0x00,
  0x6d, 0x61, 0x69, 0x6e, 0x00, 0x00, 0x00, 0x00, 0x34, 0x00, 0x00, 0x00,
  0xc4, 0x0a, 0x00, 0x00, 0x80, 0x0a, 0x00, 0x00, 0x1c, 0x0a, 0x00, 0x00,
  0xf4, 0x09, 0x00, 0x00, 0xb8, 0x09, 0x00, 0x00, 0x84, 0x09, 0x00, 0x00,
  0x58, 0x09, 0x00, 0x00, 0x04, 0x09, 0x00, 0x00, 0xd8, 0x08, 0x00, 0x00,
  0x98, 0x08, 0x00, 0x00, 0x60, 0x08, 0x00, 0x00, 0x2c, 0x08, 0x00, 0x00,
  0xe4, 0x07, 0x00, 0x00, 0xbc, 0x07, 0x00, 0x00, 0x88, 0x07, 0x00, 0x00,
  0x58, 0x07, 0x00, 0x00, 0x24, 0x07, 0x00, 0x00, 0xf8, 0x06, 0x00, 0x00,
  0xb0, 0x06, 0x00, 0x00, 0x84, 0x06, 0x00, 0x00, 0x4c, 0x06, 0x00, 0x00,
  0x24, 0x06, 0x00, 0x00, 0xf0, 0x05, 0x00, 0x00, 0xa8, 0x05, 0x00, 0x00,
  0x80, 0x05, 0x00, 0x00, 0x4c, 0x05, 0x00, 0x00, 0x1c, 0x05, 0x00, 0x00,
  0xe8, 0x04, 0x00, 0x00, 0xbc, 0x04, 0x00, 0x00, 0x74, 0x04, 0x00, 0x00,
  0x48, 0x04, 0x00, 0x00, 0x10, 0x04, 0x00, 0x00, 0xe8, 0x03, 0x00, 0x00,
  0xb4, 0x03, 0x00, 0x00, 0x6c, 0x03, 0x00, 0x00, 0x44, 0x03, 0x00, 0x00,
  0x10, 0x03, 0x00, 0x00, 0xe0, 0x02, 0x00, 0x00, 0xac, 0x02, 0x00, 0x00,
  0x80, 0x02, 0x00, 0x00, 0x38, 0x02, 0x00, 0x00, 0x0c, 0x02, 0x00, 0x00,
  0xd4, 0x01, 0x00, 0x00, 0xac, 0x01, 0x00, 0x00, 0x78, 0x01, 0x00, 0x00,
  0x30, 0x01, 0x00, 0x00, 0x08, 0x01, 0x00, 0x00, 0xd4, 0x00, 0x00, 0x00,
  0xa0, 0x00, 0x00, 0x00, 0x50, 0x00, 0x00, 0x00, 0x2c, 0x00, 0x00, 0x00,
  0x04, 0x00, 0x00, 0x00, 0xda, 0xf6, 0xff, 0xff, 0x0c, 0x00, 0x00, 0x00,
  0x10, 0x00, 0x00, 0x00, 0x03, 0x00, 0x00, 0x00, 0x01, 0x00, 0x00, 0x00,
  0x5a, 0x00, 0x00, 0x00, 0x02, 0x00, 0x00, 0x00, 0x59, 0x00, 0x00, 0x00,
  0x0e, 0x00, 0x00, 0x00, 0xfe, 0xf6, 0xff, 0xff, 0x0c, 0x00, 0x00, 0x00,
  0x10, 0x00, 0x00, 0x00, 0x08, 0x00, 0x00, 0x00, 0x01, 0x00, 0x00, 0x00,
  0x59, 0x00, 0x00, 0x00, 0x01, 0x00, 0x00, 0x00, 0x58, 0x00, 0x00, 0x00,
  0x66, 0xf8, 0xff, 0xff, 0x20, 0x00, 0x00, 0x00, 0x00, 0x00, 0x00, 0x01,
  0x28, 0x00, 0x00, 0x00, 0x2c, 0x00, 0x00, 0x00, 0x02, 0x00, 0x00, 0x00,
  0x00, 0x00, 0x0a, 0x00, 0x10, 0x00, 0x0f, 0x00, 0x08, 0x00, 0x04, 0x00,
  0x0a, 0x00, 0x00, 0x00, 0x01, 0x00, 0x00, 0x00, 0x01, 0x00, 0x00, 0x00,
  0x00, 0x00, 0x00, 0x01, 0x01, 0x00, 0x00, 0x00, 0x58, 0x00, 0x00, 0x00,
  0x03, 0x00, 0x00, 0x00, 0x57, 0x00, 0x00, 0x00, 0x10, 0x00, 0x00, 0x00,
  0x0f, 0x00, 0x00, 0x00, 0xea, 0xf6, 0xff, 0xff, 0x14, 0x00, 0x00, 0x00,
  0x00, 0x00, 0x00, 0x34, 0x10, 0x00, 0x00, 0x00, 0x14, 0x00, 0x00, 0x00,
  0x01, 0x00, 0x00, 0x00, 0x2c, 0xb4, 0xff, 0xff, 0x01, 0x00, 0x00, 0x00,
  0x57, 0x00, 0x00, 0x00, 0x02, 0x00, 0x00, 0x00, 0x56, 0x00, 0x00, 0x00,
  0x02, 0x00, 0x00, 0x00, 0x1a, 0xf7, 0xff, 0xff, 0x14, 0x00, 0x00, 0x00,
  0x00, 0x00, 0x00, 0x0b, 0x10, 0x00, 0x00, 0x00, 0x14, 0x00, 0x00, 0x00,
  0x07, 0x00, 0x00, 0x00, 0x5c, 0xb4, 0xff, 0xff, 0x01, 0x00, 0x00, 0x00,
  0x56, 0x00, 0x00, 0x00, 0x02, 0x00, 0x00, 0x00, 0x55, 0x00, 0x00, 0x00,
  0x4b, 0x00, 0x00, 0x00, 0xca, 0xf7, 0xff, 0xff, 0x0c, 0x00, 0x00, 0x00,
  0x10, 0x00, 0x00, 0x00, 0x03, 0x00, 0x00, 0x00, 0x01, 0x00, 0x00, 0x00,
  0x55, 0x00, 0x00, 0x00, 0x02, 0x00, 0x00, 0x00, 0x54, 0x00, 0x00, 0x00,
  0x03, 0x00, 0x00, 0x00, 0x6e, 0xf7, 0xff, 0xff, 0x14, 0x00, 0x00, 0x00,
  0x00, 0x00, 0x00, 0x01, 0x20, 0x00, 0x00, 0x00, 0x24, 0x00, 0x00, 0x00,
  0x02, 0x00, 0x00, 0x00, 0xc0, 0xf7, 0xff, 0xff, 0x00, 0x00, 0x00, 0x01,
  0x01, 0x00, 0x00, 0x00, 0x01, 0x00, 0x00, 0x00, 0x00, 0x00, 0x00, 0x01,
  0x01, 0x00, 0x00, 0x00, 0x54, 0x00, 0x00, 0x00, 0x03, 0x00, 0x00, 0x00,
  0x53, 0x00, 0x00, 0x00, 0x12, 0x00, 0x00, 0x00, 0x11, 0x00, 0x00, 0x00,
  0xb2, 0xf7, 0xff, 0xff, 0x14, 0x00, 0x00, 0x00, 0x00, 0x00, 0x00, 0x34,
  0x10, 0x00, 0x00, 0x00, 0x14, 0x00, 0x00, 0x00, 0x01, 0x00, 0x00, 0x00,
  0xf4, 0xb4, 0xff, 0xff, 0x01, 0x00, 0x00, 0x00, 0x53, 0x00, 0x00, 0x00,
  0x02, 0x00, 0x00, 0x00, 0x52, 0x00, 0x00, 0x00, 0x02, 0x00, 0x00, 0x00,
  0x62, 0xf8, 0xff, 0xff, 0x0c, 0x00, 0x00, 0x00, 0x10, 0x00, 0x00, 0x00,
  0x03, 0x00, 0x00, 0x00, 0x01, 0x00, 0x00, 0x00, 0x52, 0x00, 0x00, 0x00,
  0x02, 0x00, 0x00, 0x00, 0x51, 0x00, 0x00, 0x00, 0x03, 0x00, 0x00, 0x00,
  0x06, 0xf8, 0xff, 0xff, 0x14, 0x00, 0x00, 0x00, 0x00, 0x00, 0x00, 0x0b,
  0x14, 0x00, 0x00, 0x00, 0x18, 0x00, 0x00, 0x00, 0x07, 0x00, 0x00, 0x00,
  0xbe, 0xf9, 0xff, 0xff, 0x00, 0x00, 0x00, 0x01, 0x01, 0x00, 0x00, 0x00,
  0x51, 0x00, 0x00, 0x00, 0x02, 0x00, 0x00, 0x00, 0x50, 0x00, 0x00, 0x00,
  0x13, 0x00, 0x00, 0x00, 0xba, 0xf8, 0xff, 0xff, 0x0c, 0x00, 0x00, 0x00,
  0x10, 0x00, 0x00, 0x00, 0x06, 0x00, 0x00, 0x00, 0x01, 0x00, 0x00, 0x00,
  0x50, 0x00, 0x00, 0x00, 0x03, 0x00, 0x00, 0x00, 0x4f, 0x00, 0x00, 0x00,
  0x0d, 0x00, 0x00, 0x00, 0x07, 0x00, 0x00, 0x00, 0x62, 0xf8, 0xff, 0xff,
  0x14, 0x00, 0x00, 0x00, 0x00, 0x00, 0x00, 0x02, 0x20, 0x00, 0x00, 0x00,
  0x24, 0x00, 0x00, 0x00, 0x05, 0x00, 0x00, 0x00, 0xb8, 0xf9, 0xff, 0xff,
  0x01, 0x00, 0x00, 0x00, 0x01, 0x00, 0x00, 0x00, 0x01, 0x00, 0x00, 0x00,
  0x00, 0x00, 0x00, 0x01, 0x01, 0x00, 0x00, 0x00, 0x4f, 0x00, 0x00, 0x00,
  0x03, 0x00, 0x00, 0x00, 0x4e, 0x00, 0x00, 0x00, 0x14, 0x00, 0x00, 0x00,
  0x23, 0x00, 0x00, 0x00, 0x26, 0xf9, 0xff, 0xff, 0x0c, 0x00, 0x00, 0x00,
  0x10, 0x00, 0x00, 0x00, 0x04, 0x00, 0x00, 0x00, 0x01, 0x00, 0x00, 0x00,
  0x4e, 0x00, 0x00, 0x00, 0x03, 0x00, 0x00, 0x00, 0x4d, 0x00, 0x00, 0x00,
  0x0d, 0x00, 0x00, 0x00, 0x07, 0x00, 0x00, 0x00, 0xce, 0xf8, 0xff, 0xff,
  0x14, 0x00, 0x00, 0x00, 0x00, 0x00, 0x00, 0x34, 0x10, 0x00, 0x00, 0x00,
  0x14, 0x00, 0x00, 0x00, 0x01, 0x00, 0x00, 0x00, 0x10, 0xb6, 0xff, 0xff,
  0x01, 0x00, 0x00, 0x00, 0x4d, 0x00, 0x00, 0x00, 0x02, 0x00, 0x00, 0x00,
  0x4c, 0x00, 0x00, 0x00, 0x05, 0x00, 0x00, 0x00, 0xbe, 0xf8, 0xff, 0xff,
  0x10, 0x00, 0x00, 0x00, 0x00, 0x00, 0x00, 0x16, 0x0c, 0x00, 0x00, 0x00,
  0x10, 0x00, 0x00, 0x00, 0x3c, 0xb6, 0xff, 0xff, 0x01, 0x00, 0x00, 0x00,
  0x4c, 0x00, 0x00, 0x00, 0x02, 0x00, 0x00, 0x00, 0x4b, 0x00, 0x00, 0x00,
  0x0c, 0x00, 0x00, 0x00, 0x2a, 0xf9, 0xff, 0xff, 0x14, 0x00, 0x00, 0x00,
  0x00, 0x00, 0x00, 0x0b, 0x10, 0x00, 0x00, 0x00, 0x14, 0x00, 0x00, 0x00,
  0x07, 0x00, 0x00, 0x00, 0x6c, 0xb6, 0xff, 0xff, 0x01, 0x00, 0x00, 0x00,
  0x4b, 0x00, 0x00, 0x00, 0x02, 0x00, 0x00, 0x00, 0x4a, 0x00, 0x00, 0x00,
  0x40, 0x00, 0x00, 0x00, 0xda, 0xf9, 0xff, 0xff, 0x0c, 0x00, 0x00, 0x00,
  0x10, 0x00, 0x00, 0x00, 0x03, 0x00, 0x00, 0x00, 0x01, 0x00, 0x00, 0x00,
  0x4a, 0x00, 0x00, 0x00, 0x02, 0x00, 0x00, 0x00, 0x49, 0x00, 0x00, 0x00,
  0x03, 0x00, 0x00, 0x00, 0x7e, 0xf9, 0xff, 0xff, 0x14, 0x00, 0x00, 0x00,
  0x00, 0x00, 0x00, 0x01, 0x20, 0x00, 0x00, 0x00, 0x24, 0x00, 0x00, 0x00,
  0x02, 0x00, 0x00, 0x00, 0xd0, 0xf9, 0xff, 0xff, 0x00, 0x00, 0x00, 0x01,
  0x01, 0x00, 0x00, 0x00, 0x01, 0x00, 0x00, 0x00, 0x00, 0x00, 0x00, 0x01,
  0x01, 0x00, 0x00, 0x00, 0x49, 0x00, 0x00, 0x00, 0x03, 0x00, 0x00, 0x00,
  0x48, 0x00, 0x00, 0x00, 0x16, 0x00, 0x00, 0x00, 0x15, 0x00, 0x00, 0x00,
  0xc2, 0xf9, 0xff, 0xff, 0x14, 0x00, 0x00, 0x00, 0x00, 0x00, 0x00, 0x34,
  0x10, 0x00, 0x00, 0x00, 0x14, 0x00, 0x00, 0x00, 0x01, 0x00, 0x00, 0x00,
  0x04, 0xb7, 0xff, 0xff, 0x01, 0x00, 0x00, 0x00, 0x48, 0x00, 0x00, 0x00,
  0x02, 0x00, 0x00, 0x00, 0x47, 0x00, 0x00, 0x00, 0x02, 0x00, 0x00, 0x00,
  0x72, 0xfa, 0xff, 0xff, 0x0c, 0x00, 0x00, 0x00, 0x10, 0x00, 0x00, 0x00,
  0x03, 0x00, 0x00, 0x00, 0x01, 0x00, 0x00, 0x00, 0x47, 0x00, 0x00, 0x00,
  0x02, 0x00, 0x00, 0x00, 0x46, 0x00, 0x00, 0x00, 0x03, 0x00, 0x00, 0x00,
  0x16, 0xfa, 0xff, 0xff, 0x14, 0x00, 0x00, 0x00, 0x00, 0x00, 0x00, 0x0b,
  0x14, 0x00, 0x00, 0x00, 0x18, 0x00, 0x00, 0x00, 0x07, 0x00, 0x00, 0x00,
  0xce, 0xfb, 0xff, 0xff, 0x00, 0x00, 0x00, 0x01, 0x01, 0x00, 0x00, 0x00,
  0x46, 0x00, 0x00, 0x00, 0x02, 0x00, 0x00, 0x00, 0x45, 0x00, 0x00, 0x00,
  0x17, 0x00, 0x00, 0x00, 0xca, 0xfa, 0xff, 0xff, 0x0c, 0x00, 0x00, 0x00,
  0x10, 0x00, 0x00, 0x00, 0x06, 0x00, 0x00, 0x00, 0x01, 0x00, 0x00, 0x00,
  0x45, 0x00, 0x00, 0x00, 0x03, 0x00, 0x00, 0x00, 0x44, 0x00, 0x00, 0x00,
  0x0b, 0x00, 0x00, 0x00, 0x07, 0x00, 0x00, 0x00, 0x72, 0xfa, 0xff, 0xff,
  0x14, 0x00, 0x00, 0x00, 0x00, 0x00, 0x00, 0x02, 0x20, 0x00, 0x00, 0x00,
  0x24, 0x00, 0x00, 0x00, 0x05, 0x00, 0x00, 0x00, 0xc8, 0xfb, 0xff, 0xff,
  0x01, 0x00, 0x00, 0x00, 0x01, 0x00, 0x00, 0x00, 0x01, 0x00, 0x00, 0x00,
  0x00, 0x00, 0x00, 0x01, 0x01, 0x00, 0x00, 0x00, 0x44, 0x00, 0x00, 0x00,
  0x03, 0x00, 0x00, 0x00, 0x43, 0x00, 0x00, 0x00, 0x18, 0x00, 0x00, 0x00,
  0x22, 0x00, 0x00, 0x00, 0x36, 0xfb, 0xff, 0xff, 0x0c, 0x00, 0x00, 0x00,
  0x10, 0x00, 0x00, 0x00, 0x04, 0x00, 0x00, 0x00, 0x01, 0x00, 0x00, 0x00,
  0x43, 0x00, 0x00, 0x00, 0x03, 0x00, 0x00, 0x00, 0x42, 0x00, 0x00, 0x00,
  0x0b, 0x00, 0x00, 0x00, 0x07, 0x00, 0x00, 0x00, 0xde, 0xfa, 0xff, 0xff,
  0x14, 0x00, 0x00, 0x00, 0x00, 0x00, 0x00, 0x34, 0x10, 0x00, 0x00, 0x00,
  0x14, 0x00, 0x00, 0x00, 0x01, 0x00, 0x00, 0x00, 0x20, 0xb8, 0xff, 0xff,
  0x01, 0x00, 0x00, 0x00, 0x42, 0x00, 0x00, 0x00, 0x02, 0x00, 0x00, 0x00,
  0x41, 0x00, 0x00, 0x00, 0x05, 0x00, 0x00, 0x00, 0xce, 0xfa, 0xff, 0xff,
  0x10, 0x00, 0x00, 0x00, 0x00, 0x00, 0x00, 0x16, 0x0c, 0x00, 0x00, 0x00,
  0x10, 0x00, 0x00, 0x00, 0x4c, 0xb8, 0xff, 0xff, 0x01, 0x00, 0x00, 0x00,
  0x41, 0x00, 0x00, 0x00, 0x02, 0x00, 0x00, 0x00, 0x40, 0x00, 0x00, 0x00,
  0x0a, 0x00, 0x00, 0x00, 0x3a, 0xfb, 0xff, 0xff, 0x14, 0x00, 0x00, 0x00,
  0x00, 0x00, 0x00, 0x0b, 0x10, 0x00, 0x00, 0x00, 0x14, 0x00, 0x00, 0x00,
  0x07, 0x00, 0x00, 0x00, 0x7c, 0xb8, 0xff, 0xff, 0x01, 0x00, 0x00, 0x00,
  0x40, 0x00, 0x00, 0x00, 0x02, 0x00, 0x00, 0x00, 0x3f, 0x00, 0x00, 0x00,
  0x35, 0x00, 0x00, 0x00, 0xea, 0xfb, 0xff, 0xff, 0x0c, 0x00, 0x00, 0x00,
  0x10, 0x00, 0x00, 0x00, 0x03, 0x00, 0x00, 0x00, 0x01, 0x00, 0x00, 0x00,
  0x3f, 0x00, 0x00, 0x00, 0x02, 0x00, 0x00, 0x00, 0x3e, 0x00, 0x00, 0x00,
  0x03, 0x00, 0x00, 0x00, 0x8e, 0xfb, 0xff, 0xff, 0x14, 0x00, 0x00, 0x00,
  0x00, 0x00, 0x00, 0x01, 0x20, 0x00, 0x00, 0x00, 0x24, 0x00, 0x00, 0x00,
  0x02, 0x00, 0x00, 0x00, 0xe0, 0xfb, 0xff, 0xff, 0x00, 0x00, 0x00, 0x01,
  0x01, 0x00, 0x00, 0x00, 0x01, 0x00, 0x00, 0x00, 0x00, 0x00, 0x00, 0x01,
  0x01, 0x00, 0x00, 0x00, 0x3e, 0x00, 0x00, 0x00, 0x03, 0x00, 0x00, 0x00,
  0x3d, 0x00, 0x00, 0x00, 0x1a, 0x00, 0x00, 0x00, 0x19, 0x00, 0x00, 0x00,
  0xd2, 0xfb, 0xff, 0xff, 0x14, 0x00, 0x00, 0x00, 0x00, 0x00, 0x00, 0x34,
  0x10, 0x00, 0x00, 0x00, 0x14, 0x00, 0x00, 0x00, 0x01, 0x00, 0x00, 0x00,
  0x14, 0xb9, 0xff, 0xff, 0x01, 0x00, 0x00, 0x00, 0x3d, 0x00, 0x00, 0x00,
  0x02, 0x00, 0x00, 0x00, 0x3c, 0x00, 0x00, 0x00, 0x02, 0x00, 0x00, 0x00,
  0x82, 0xfc, 0xff, 0xff, 0x0c, 0x00, 0x00, 0x00, 0x10, 0x00, 0x00, 0x00,
  0x03, 0x00, 0x00, 0x00, 0x01, 0x00, 0x00, 0x00, 0x3c, 0x00, 0x00, 0x00,
  0x02, 0x00, 0x00, 0x00, 0x3b, 0x00, 0x00, 0x00, 0x03, 0x00, 0x00, 0x00,
  0x26, 0xfc, 0xff, 0xff, 0x14, 0x00, 0x00, 0x00, 0x00, 0x00, 0x00, 0x0b,
  0x14, 0x00, 0x00, 0x00, 0x18, 0x00, 0x00, 0x00, 0x07, 0x00, 0x00, 0x00,
  0xde, 0xfd, 0xff, 0xff, 0x00, 0x00, 0x00, 0x01, 0x01, 0x00, 0x00, 0x00,
  0x3b, 0x00, 0x00, 0x00, 0x02, 0x00, 0x00, 0x00, 0x3a, 0x00, 0x00, 0x00,
  0x1b, 0x00, 0x00, 0x00, 0xda, 0xfc, 0xff, 0xff, 0x0c, 0x00, 0x00, 0x00,
  0x10, 0x00, 0x00, 0x00, 0x06, 0x00, 0x00, 0x00, 0x01, 0x00, 0x00, 0x00,
  0x3a, 0x00, 0x00, 0x00, 0x03, 0x00, 0x00, 0x00, 0x39, 0x00, 0x00, 0x00,
  0x09, 0x00, 0x00, 0x00, 0x07, 0x00, 0x00, 0x00, 0x82, 0xfc, 0xff, 0xff,
  0x14, 0x00, 0x00, 0x00, 0x00, 0x00, 0x00, 0x02, 0x20, 0x00, 0x00, 0x00,
  0x24, 0x00, 0x00, 0x00, 0x05, 0x00, 0x00, 0x00, 0xd8, 0xfd, 0xff, 0xff,
  0x01, 0x00, 0x00, 0x00, 0x01, 0x00, 0x00, 0x00, 0x01, 0x00, 0x00, 0x00,
  0x00, 0x00, 0x00, 0x01, 0x01, 0x00, 0x00, 0x00, 0x39, 0x00, 0x00, 0x00,
  0x03, 0x00, 0x00, 0x00, 0x38, 0x00, 0x00, 0x00, 0x1c, 0x00, 0x00, 0x00,
  0x21, 0x00, 0x00, 0x00, 0x46, 0xfd, 0xff, 0xff, 0x0c, 0x00, 0x00, 0x00,
  0x10, 0x00, 0x00, 0x00, 0x04, 0x00, 0x00, 0x00, 0x01, 0x00, 0x00, 0x00,
  0x38, 0x00, 0x00, 0x00, 0x03, 0x00, 0x00, 0x00, 0x37, 0x00, 0x00, 0x00,
  0x09, 0x00, 0x00, 0x00, 0x07, 0x00, 0x00, 0x00, 0xee, 0xfc, 0xff, 0xff,
  0x14, 0x00, 0x00, 0x00, 0x00, 0x00, 0x00, 0x34, 0x10, 0x00, 0x00, 0x00,
  0x14, 0x00, 0x00, 0x00, 0x01, 0x00, 0x00, 0x00, 0x30, 0xba, 0xff, 0xff,
  0x01, 0x00, 0x00, 0x00, 0x37, 0x00, 0x00, 0x00, 0x02, 0x00, 0x00, 0x00,
  0x36, 0x00, 0x00, 0x00, 0x05, 0x00, 0x00, 0x00, 0xde, 0xfc, 0xff, 0xff,
  0x10, 0x00, 0x00, 0x00, 0x00, 0x00, 0x00, 0x16, 0x0c, 0x00, 0x00, 0x00,
  0x10, 0x00, 0x00, 0x00, 0x5c, 0xba, 0xff, 0xff, 0x01, 0x00, 0x00, 0x00,
  0x36, 0x00, 0x00, 0x00, 0x02, 0x00, 0x00, 0x00, 0x35, 0x00, 0x00, 0x00,
  0x08, 0x00, 0x00, 0x00, 0x4a, 0xfd, 0xff, 0xff, 0x14, 0x00, 0x00, 0x00,
  0x00, 0x00, 0x00, 0x0b, 0x10, 0x00, 0x00, 0x00, 0x14, 0x00, 0x00, 0x00,
  0x07, 0x00, 0x00, 0x00, 0x8c, 0xba, 0xff, 0xff, 0x01, 0x00, 0x00, 0x00,
  0x35, 0x00, 0x00, 0x00, 0x02, 0x00, 0x00, 0x00, 0x34, 0x00, 0x00, 0x00,
  0x2a, 0x00, 0x00, 0x00, 0xfa, 0xfd, 0xff, 0xff, 0x0c, 0x00, 0x00, 0x00,
  0x10, 0x00, 0x00, 0x00, 0x03, 0x00, 0x00, 0x00, 0x01, 0x00, 0x00, 0x00,
  0x34, 0x00, 0x00, 0x00, 0x02, 0x00, 0x00, 0x00, 0x33, 0x00, 0x00, 0x00,
  0x03, 0x00, 0x00, 0x00, 0x9e, 0xfd, 0xff, 0xff, 0x14, 0x00, 0x00, 0x00,
  0x00, 0x00, 0x00, 0x01, 0x20, 0x00, 0x00, 0x00, 0x24, 0x00, 0x00, 0x00,
  0x02, 0x00, 0x00, 0x00, 0xf0, 0xfd, 0xff, 0xff, 0x00, 0x00, 0x00, 0x01,
  0x01, 0x00, 0x00, 0x00, 0x01, 0x00, 0x00, 0x00, 0x00, 0x00, 0x00, 0x01,
  0x01, 0x00, 0x00, 0x00, 0x33, 0x00, 0x00, 0x00, 0x03, 0x00, 0x00, 0x00,
  0x32, 0x00, 0x00, 0x00, 0x1e, 0x00, 0x00, 0x00, 0x1d, 0x00, 0x00, 0x00,
  0xe2, 0xfd, 0xff, 0xff, 0x14, 0x00, 0x00, 0x00, 0x00, 0x00, 0x00, 0x34,
  0x10, 0x00, 0x00, 0x00, 0x14, 0x00, 0x00, 0x00, 0x01, 0x00, 0x00, 0x00,
  0x24, 0xbb, 0xff, 0xff, 0x01, 0x00, 0x00, 0x00, 0x32, 0x00, 0x00, 0x00,
  0x02, 0x00, 0x00, 0x00, 0x31, 0x00, 0x00, 0x00, 0x02, 0x00, 0x00, 0x00,
  0x92, 0xfe, 0xff, 0xff, 0x0c, 0x00, 0x00, 0x00, 0x10, 0x00, 0x00, 0x00,
  0x03, 0x00, 0x00, 0x00, 0x01, 0x00, 0x00, 0x00, 0x31, 0x00, 0x00, 0x00,
  0x02, 0x00, 0x00, 0x00, 0x30, 0x00, 0x00, 0x00, 0x03, 0x00, 0x00, 0x00,
  0x00, 0x00, 0x0e, 0x00, 0x1a, 0x00, 0x14, 0x00, 0x10, 0x00, 0x0c, 0x00,
  0x0b, 0x00, 0x04, 0x00, 0x0e, 0x00, 0x00, 0x00, 0x1c, 0x00, 0x00, 0x00,
  0x00, 0x00, 0x00, 0x0b, 0x1c, 0x00, 0x00, 0x00, 0x20, 0x00, 0x00, 0x00,
  0x07, 0x00, 0x00, 0x00, 0x00, 0x00, 0x06, 0x00, 0x08, 0x00, 0x07, 0x00,
  0x06, 0x00, 0x00, 0x00, 0x00, 0x00, 0x00, 0x01, 0x01, 0x00, 0x00, 0x00,
  0x30, 0x00, 0x00, 0x00, 0x02, 0x00, 0x00, 0x00, 0x2f, 0x00, 0x00, 0x00,
  0x1f, 0x00, 0x00, 0x00, 0x02, 0xff, 0xff, 0xff, 0x0c, 0x00, 0x00, 0x00,
  0x10, 0x00, 0x00, 0x00, 0x06, 0x00, 0x00, 0x00, 0x01, 0x00, 0x00, 0x00,
  0x2f, 0x00, 0x00, 0x00, 0x03, 0x00, 0x00, 0x00, 0x2e, 0x00, 0x00, 0x00,
  0x06, 0x00, 0x00, 0x00, 0x07, 0x00, 0x00, 0x00, 0xaa, 0xfe, 0xff, 0xff,
  0x20, 0x00, 0x00, 0x00, 0x00, 0x00, 0x00, 0x02, 0x2c, 0x00, 0x00, 0x00,
  0x30, 0x00, 0x00, 0x00, 0x05, 0x00, 0x00, 0x00, 0x0c, 0x00, 0x14, 0x00,
  0x13, 0x00, 0x0c, 0x00, 0x08, 0x00, 0x04, 0x00, 0x0c, 0x00, 0x00, 0x00,
  0x01, 0x00, 0x00, 0x00, 0x01, 0x00, 0x00, 0x00, 0x01, 0x00, 0x00, 0x00,
  0x00, 0x00, 0x00, 0x01, 0x01, 0x00, 0x00, 0x00, 0x2e, 0x00, 0x00, 0x00,
  0x03, 0x00, 0x00, 0x00, 0x2d, 0x00, 0x00, 0x00, 0x24, 0x00, 0x00, 0x00,
  0x20, 0x00, 0x00, 0x00, 0x7a, 0xff, 0xff, 0xff, 0x0c, 0x00, 0x00, 0x00,
  0x10, 0x00, 0x00, 0x00, 0x04, 0x00, 0x00, 0x00, 0x01, 0x00, 0x00, 0x00,
  0x2d, 0x00, 0x00, 0x00, 0x03, 0x00, 0x00, 0x00, 0x2c, 0x00, 0x00, 0x00,
  0x06, 0x00, 0x00, 0x00, 0x07, 0x00, 0x00, 0x00, 0x22, 0xff, 0xff, 0xff,
  0x14, 0x00, 0x00, 0x00, 0x00, 0x00, 0x00, 0x34, 0x10, 0x00, 0x00, 0x00,
  0x14, 0x00, 0x00, 0x00, 0x01, 0x00, 0x00, 0x00, 0x64, 0xbc, 0xff, 0xff,
  0x01, 0x00, 0x00, 0x00, 0x2c, 0x00, 0x00, 0x00, 0x02, 0x00, 0x00, 0x00,
  0x2b, 0x00, 0x00, 0x00, 0x05, 0x00, 0x00, 0x00, 0x12, 0xff, 0xff, 0xff,
  0x10, 0x00, 0x00, 0x00, 0x00, 0x00, 0x00, 0x16, 0x0c, 0x00, 0x00, 0x00,
  0x10, 0x00, 0x00, 0x00, 0x90, 0xbc, 0xff, 0xff, 0x01, 0x00, 0x00, 0x00,
  0x2b, 0x00, 0x00, 0x00, 0x02, 0x00, 0x00, 0x00, 0x2a, 0x00, 0x00, 0x00,
  0x04, 0x00, 0x00, 0x00, 0x00, 0x00, 0x0a, 0x00, 0x10, 0x00, 0x0c, 0x00,
  0x08, 0x00, 0x04, 0x00, 0x0a, 0x00, 0x00, 0x00, 0x0c, 0x00, 0x00, 0x00,
  0x10, 0x00, 0x00, 0x00, 0x03, 0x00, 0x00, 0x00, 0x01, 0x00, 0x00, 0x00,
  0x2a, 0x00, 0x00, 0x00, 0x02, 0x00, 0x00, 0x00, 0x29, 0x00, 0x00, 0x00,
  0x03, 0x00, 0x00, 0x00, 0xae, 0xff, 0xff, 0xff, 0x20, 0x00, 0x00, 0x00,
  0x00, 0x00, 0x00, 0x01, 0x2c, 0x00, 0x00, 0x00, 0x30, 0x00, 0x00, 0x00,
  0x02, 0x00, 0x00, 0x00, 0x0c, 0x00, 0x14, 0x00, 0x13, 0x00, 0x0c, 0x00,
  0x08, 0x00, 0x07, 0x00, 0x0c, 0x00, 0x00, 0x00, 0x00, 0x00, 0x00, 0x01,
  0x01, 0x00, 0x00, 0x00, 0x01, 0x00, 0x00, 0x00, 0x00, 0x00, 0x00, 0x01,
  0x01, 0x00, 0x00, 0x00, 0x29, 0x00, 0x00, 0x00, 0x03, 0x00, 0x00, 0x00,
  0x28, 0x00, 0x00, 0x00, 0x26, 0x00, 0x00, 0x00, 0x25, 0x00, 0x00, 0x00,
  0x00, 0x00, 0x0e, 0x00, 0x18, 0x00, 0x14, 0x00, 0x10, 0x00, 0x0c, 0x00,
  0x0b, 0x00, 0x04, 0x00, 0x0e, 0x00, 0x00, 0x00, 0x14, 0x00, 0x00, 0x00,
  0x00, 0x00, 0x00, 0x34, 0x10, 0x00, 0x00, 0x00, 0x14, 0x00, 0x00, 0x00,
  0x01, 0x00, 0x00, 0x00, 0x50, 0xbd, 0xff, 0xff, 0x01, 0x00, 0x00, 0x00,
  0x28, 0x00, 0x00, 0x00, 0x02, 0x00, 0x00, 0x00, 0x27, 0x00, 0x00, 0x00,
  0x02, 0x00, 0x00, 0x00, 0x00, 0x00, 0x0e, 0x00, 0x14, 0x00, 0x00, 0x00,
  0x10, 0x00, 0x0c, 0x00, 0x0b, 0x00, 0x04, 0x00, 0x0e, 0x00, 0x00, 0x00,
  0x10, 0x00, 0x00, 0x00, 0x00, 0x00, 0x00, 0x16, 0x0c, 0x00, 0x00, 0x00,
  0x10, 0x00, 0x00, 0x00, 0x8c, 0xbd, 0xff, 0xff, 0x01, 0x00, 0x00, 0x00,
  0x27, 0x00, 0x00, 0x00, 0x02, 0x00, 0x00, 0x00, 0x00, 0x00, 0x00, 0x00,
  0x01, 0x00, 0x00, 0x00, 0x01, 0x00, 0x00, 0x00, 0x5a, 0x00, 0x00, 0x00,
  0x01, 0x00, 0x00, 0x00, 0x00, 0x00, 0x00, 0x00, 0x5b, 0x00, 0x00, 0x00,
  0x88, 0x42, 0x00, 0x00, 0x28, 0x42, 0x00, 0x00, 0xd4, 0x41, 0x00, 0x00,
  0x94, 0x41, 0x00, 0x00, 0x50, 0x41, 0x00, 0x00, 0x14, 0x41, 0x00, 0x00,
  0xd4, 0x40, 0x00, 0x00, 0x90, 0x40, 0x00, 0x00, 0x4c, 0x40, 0x00, 0x00,
  0x0c, 0x40, 0x00, 0x00, 0xc8, 0x3f, 0x00, 0x00, 0x84, 0x3f, 0x00, 0x00,
  0x3c, 0x3f, 0x00, 0x00, 0xf8, 0x3e, 0x00, 0x00, 0xb4, 0x3e, 0x00, 0x00,
  0x44, 0x3e, 0x00, 0x00, 0xc8, 0x3d, 0x00, 0x00, 0x54, 0x3c, 0x00, 0x00,
  0xd0, 0x3a, 0x00, 0x00, 0x6c, 0x3a, 0x00, 0x00, 0xd0, 0x38, 0x00, 0x00,
  0x44, 0x37, 0x00, 0x00, 0xc0, 0x35, 0x00, 0x00, 0x5c, 0x35, 0x00, 0x00,
  0xd4, 0x33, 0x00, 0x00, 0x5c, 0x32, 0x00, 0x00, 0xd8, 0x30, 0x00, 0x00,
  0x74, 0x30, 0x00, 0x00, 0xec, 0x2e, 0x00, 0x00, 0x74, 0x2d, 0x00, 0x00,
  0xf0, 0x2b, 0x00, 0x00, 0x8c, 0x2b, 0x00, 0x00, 0x18, 0x2a, 0x00, 0x00,
  0xa4, 0x28, 0x00, 0x00, 0x30, 0x27, 0x00, 0x00, 0xbc, 0x25, 0x00, 0x00,
  0x34, 0x24, 0x00, 0x00, 0xbc, 0x22, 0x00, 0x00, 0x38, 0x21, 0x00, 0x00,
  0xb0, 0x20, 0x00, 0x00, 0x18, 0x20, 0x00, 0x00, 0x3c, 0x1f, 0x00, 0x00,
  0x7c, 0x1e, 0x00, 0x00, 0xf8, 0x1d, 0x00, 0x00, 0x68, 0x1d, 0x00, 0x00,
  0xcc, 0x1c, 0x00, 0x00, 0x38, 0x1c, 0x00, 0x00, 0x9c, 0x1b, 0x00, 0x00,
  0xd8, 0x1a, 0x00, 0x00, 0x38, 0x1a, 0x00, 0x00, 0xa0, 0x19, 0x00, 0x00,
  0xcc, 0x18, 0x00, 0x00, 0x14, 0x18, 0x00, 0x00, 0x90, 0x17, 0x00, 0x00,
  0x0c, 0x17, 0x00, 0x00, 0x7c, 0x16, 0x00, 0x00, 0xe0, 0x15, 0x00, 0x00,
  0x4c, 0x15, 0x00, 0x00, 0xb0, 0x14, 0x00, 0x00, 0xec, 0x13, 0x00, 0x00,
  0x4c, 0x13, 0x00, 0x00, 0xb4, 0x12, 0x00, 0x00, 0xe0, 0x11, 0x00, 0x00,
  0x28, 0x11, 0x00, 0x00, 0xa4, 0x10, 0x00, 0x00, 0x20, 0x10, 0x00, 0x00,
  0x90, 0x0f, 0x00, 0x00, 0xf4, 0x0e, 0x00, 0x00, 0x60, 0x0e, 0x00, 0x00,
  0xc4, 0x0d, 0x00, 0x00, 0x00, 0x0d, 0x00, 0x00, 0x60, 0x0c, 0x00, 0x00,
  0xc8, 0x0b, 0x00, 0x00, 0xf4, 0x0a, 0x00, 0x00, 0x3c, 0x0a, 0x00, 0x00,
  0xb8, 0x09, 0x00, 0x00, 0x34, 0x09, 0x00, 0x00, 0xa4, 0x08, 0x00, 0x00,
  0x00, 0x08, 0x00, 0x00, 0x6c, 0x07, 0x00, 0x00, 0xc8, 0x06, 0x00, 0x00,
  0x04, 0x06, 0x00, 0x00, 0x64, 0x05, 0x00, 0x00, 0xcc, 0x04, 0x00, 0x00,
  0xf8, 0x03, 0x00, 0x00, 0x40, 0x03, 0x00, 0x00, 0xbc, 0x02, 0x00, 0x00,
  0x24, 0x02, 0x00, 0x00, 0x58, 0x01, 0x00, 0x00, 0x8c, 0x00, 0x00, 0x00,
  0x04, 0x00, 0x00, 0x00, 0xfa, 0xbe, 0xff, 0xff, 0x00, 0x00, 0x00, 0x01,
  0x18, 0x00, 0x00, 0x00, 0x24, 0x00, 0x00, 0x00, 0x44, 0x00, 0x00, 0x00,
  0x5b, 0x00, 0x00, 0x00, 0x00, 0x00, 0x00, 0x09, 0x58, 0x00, 0x00, 0x00,
  0x03, 0x00, 0x00, 0x00, 0xff, 0xff, 0xff, 0xff, 0x80, 0x00, 0x00, 0x00,
  0x02, 0x00, 0x00, 0x00, 0xe4, 0xbe, 0xff, 0xff, 0x08, 0x00, 0x00, 0x00,
  0x14, 0x00, 0x00, 0x00, 0x01, 0x00, 0x00, 0x00, 0x80, 0xff, 0xff, 0xff,
  0xff, 0xff, 0xff, 0xff, 0x00, 0x00, 0x00, 0x00, 0x01, 0x00, 0x00, 0x00,
  0x00, 0x00, 0x80, 0x3b, 0x19, 0x00, 0x00, 0x00, 0x53, 0x74, 0x61, 0x74,
  0x65, 0x66, 0x75, 0x6c, 0x50, 0x61, 0x72, 0x74, 0x69, 0x74, 0x69, 0x6f,
  0x6e, 0x65, 0x64, 0x43, 0x61, 0x6c, 0x6c, 0x3a, 0x30, 0x00, 0x00, 0x00,
  0x03, 0x00, 0x00, 0x00, 0x01, 0x00, 0x00, 0x00, 0x80, 0x00, 0x00, 0x00,
  0x02, 0x00, 0x00, 0x00, 0x7e, 0xbf, 0xff, 0xff, 0x00, 0x00, 0x00, 0x01,
  0x18, 0x00, 0x00, 0x00, 0x28, 0x00, 0x00, 0x00, 0x44, 0x00, 0x00, 0x00,
  0x5a, 0x00, 0x00, 0x00, 0x00, 0x00, 0x00, 0x09, 0x98, 0x00, 0x00, 0x00,
  0x04, 0x00, 0x00, 0x00, 0xff, 0xff, 0xff, 0xff, 0x01, 0x00, 0x00, 0x00,
  0x80, 0x00, 0x00, 0x00, 0x02, 0x00, 0x00, 0x00, 0x6c, 0xbf, 0xff, 0xff,
  0x08, 0x00, 0x00, 0x00, 0x10, 0x00, 0x00, 0x00, 0x01, 0x00, 0x00, 0x00,
  0x80, 0xff, 0xff, 0xff, 0xff, 0xff, 0xff, 0xff, 0x01, 0x00, 0x00, 0x00,
  0x00, 0x00, 0x80, 0x3b, 0x58, 0x00, 0x00, 0x00, 0x64, 0x73, 0x5f, 0x74,
  0x63, 0x6e, 0x2f, 0x6f, 0x75, 0x74, 0x70, 0x75, 0x74, 0x5f, 0x63, 0x6f,
  0x6e, 0x76, 0x2f, 0x53, 0x69, 0x67, 0x6d, 0x6f, 0x69, 0x64, 0x3b, 0x64,
  0x73, 0x5f, 0x74, 0x63, 0x6e, 0x2f, 0x6f, 0x75, 0x74, 0x70, 0x75, 0x74,
  0x5f, 0x63, 0x6f, 0x6e, 0x76, 0x2f, 0x42, 0x69, 0x61, 0x73, 0x41, 0x64,
  0x64, 0x3b, 0x64, 0x73, 0x5f, 0x74, 0x63, 0x6e, 0x2f, 0x6f, 0x75, 0x74,
  0x70, 0x75, 0x74, 0x5f, 0x63, 0x6f, 0x6e, 0x76, 0x2f, 0x43, 0x6f, 0x6e,
  0x76, 0x31, 0x44, 0x2f, 0x53, 0x71, 0x75, 0x65, 0x65, 0x7a, 0x65, 0x3b,
  0x00, 0x00, 0x00, 0x00, 0x04, 0x00, 0x00, 0x00, 0x01, 0x00, 0x00, 0x00,
  0x01, 0x00, 0x00, 0x00, 0x80, 0x00, 0x00, 0x00, 0x02, 0x00, 0x00, 0x00,
  0x46, 0xc0, 0xff, 0xff, 0x00, 0x00, 0x00, 0x01, 0x18, 0x00, 0x00, 0x00,
  0x28, 0x00, 0x00, 0x00, 0x48, 0x00, 0x00, 0x00, 0x59, 0x00, 0x00, 0x00,
  0x00, 0x00, 0x00, 0x09, 0x98, 0x00, 0x00, 0x00, 0x04, 0x00, 0x00, 0x00,
  0xff, 0xff, 0xff, 0xff, 0x01, 0x00, 0x00, 0x00, 0x80, 0x00, 0x00, 0x00,
  0x02, 0x00, 0x00, 0x00, 0x34, 0xc0, 0xff, 0xff, 0x08, 0x00, 0x00, 0x00,
  0x14, 0x00, 0x00, 0x00, 0x01, 0x00, 0x00, 0x00, 0xf2, 0xff, 0xff, 0xff,
  0xff, 0xff, 0xff, 0xff, 0x00, 0x00, 0x00, 0x00, 0x01, 0x00, 0x00, 0x00,
  0xa9, 0xb2, 0x24, 0x3c, 0x57, 0x00, 0x00, 0x00, 0x64, 0x73, 0x5f, 0x74,
  0x63, 0x6e, 0x2f, 0x6f, 0x75, 0x74, 0x70, 0x75, 0x74, 0x5f, 0x63, 0x6f,
  0x6e, 0x76, 0x2f, 0x42, 0x69, 0x61, 0x73, 0x41, 0x64, 0x64, 0x3b, 0x64,
  0x73, 0x5f, 0x74, 0x63, 0x6e, 0x2f, 0x6f, 0x75, 0x74, 0x70, 0x75, 0x74,
  0x5f, 0x63, 0x6f, 0x6e, 0x76, 0x2f, 0x43, 0x6f, 0x6e, 0x76, 0x31, 0x44,
  0x2f, 0x53, 0x71, 0x75, 0x65, 0x65, 0x7a, 0x65, 0x3b, 0x3b, 0x64, 0x73,
  0x5f, 0x74, 0x63, 0x6e, 0x2f, 0x6f, 0x75, 0x74, 0x70, 0x75, 0x74, 0x5f,
  0x63, 0x6f, 0x6e, 0x76, 0x2f, 0x43, 0x6f, 0x6e, 0x76, 0x31, 0x44, 0x00,
  0x04, 0x00, 0x00, 0x00, 0x01, 0x00, 0x00, 0x00, 0x01, 0x00, 0x00, 0x00,
  0x80, 0x00, 0x00, 0x00, 0x02, 0x00, 0x00, 0x00, 0x0e, 0xc1, 0xff, 0xff,
  0x00, 0x00, 0x00, 0x01, 0x18, 0x00, 0x00, 0x00, 0x28, 0x00, 0x00, 0x00,
  0x44, 0x00, 0x00, 0x00, 0x58, 0x00, 0x00, 0x00, 0x00, 0x00, 0x00, 0x09,
  0x64, 0x00, 0x00, 0x00, 0x04, 0x00, 0x00, 0x00, 0xff, 0xff, 0xff, 0xff,
  0x01, 0x00, 0x00, 0x00, 0x80, 0x00, 0x00, 0x00, 0x18, 0x00, 0x00, 0x00,
  0xfc, 0xc0, 0xff, 0xff, 0x08, 0x00, 0x00, 0x00, 0x10, 0x00, 0x00, 0x00,
  0x01, 0x00, 0x00, 0x00, 0x80, 0xff, 0xff, 0xff, 0xff, 0xff, 0xff, 0xff,
  0x01, 0x00, 0x00, 0x00, 0x8b, 0x7a, 0xb1, 0x3c, 0x24, 0x00, 0x00, 0x00,
  0x64, 0x73, 0x5f, 0x74, 0x63, 0x6e, 0x2f, 0x6f, 0x75, 0x74, 0x70, 0x75,
  0x74, 0x5f, 0x63, 0x6f, 0x6e, 0x76, 0x2f, 0x43, 0x6f, 0x6e, 0x76, 0x31,
  0x44, 0x2f, 0x45, 0x78, 0x70, 0x61, 0x6e, 0x64, 0x44, 0x69, 0x6d, 0x73,
  0x00, 0x00, 0x00, 0x00, 0x04, 0x00, 0x00, 0x00, 0x01, 0x00, 0x00, 0x00,
  0x01, 0x00, 0x00, 0x00, 0x80, 0x00, 0x00, 0x00, 0x18, 0x00, 0x00, 0x00,
  0xa2, 0xc1, 0xff, 0xff, 0x00, 0x00, 0x00, 0x01, 0x18, 0x00, 0x00, 0x00,
  0x24, 0x00, 0x00, 0x00, 0x44, 0x00, 0x00, 0x00, 0x57, 0x00, 0x00, 0x00,
  0x00, 0x00, 0x00, 0x09, 0x54, 0x00, 0x00, 0x00, 0x03, 0x00, 0x00, 0x00,
  0xff, 0xff, 0xff, 0xff, 0x80, 0x00, 0x00, 0x00, 0x18, 0x00, 0x00, 0x00,
  0x8c, 0xc1, 0xff, 0xff, 0x08, 0x00, 0x00, 0x00, 0x14, 0x00, 0x00, 0x00,
  0x01, 0x00, 0x00, 0x00, 0x80, 0xff, 0xff, 0xff, 0xff, 0xff, 0xff, 0xff,
  0x00, 0x00, 0x00, 0x00, 0x01, 0x00, 0x00, 0x00, 0x8b, 0x7a, 0xb1, 0x3c,
  0x14, 0x00, 0x00, 0x00, 0x64, 0x73, 0x5f, 0x74, 0x63, 0x6e, 0x2f, 0x72,
  0x65, 0x73, 0x69, 0x64, 0x75, 0x61, 0x6c, 0x34, 0x2f, 0x61, 0x64, 0x64,
  0x00, 0x00, 0x00, 0x00, 0x03, 0x00, 0x00, 0x00, 0x01, 0x00, 0x00, 0x00,
  0x80, 0x00, 0x00, 0x00, 0x18, 0x00, 0x00, 0x00, 0x22, 0xc2, 0xff, 0xff,
  0x00, 0x00, 0x00, 0x01, 0x18, 0x00, 0x00, 0x00, 0x24, 0x00, 0x00, 0x00,
  0x40, 0x00, 0x00, 0x00, 0x56, 0x00, 0x00, 0x00, 0x00, 0x00, 0x00, 0x09,
  0x88, 0x00, 0x00, 0x00, 0x03, 0x00, 0x00, 0x00, 0xff, 0xff, 0xff, 0xff,
  0x80, 0x00, 0x00, 0x00, 0x18, 0x00, 0x00, 0x00, 0x0c, 0xc2, 0xff, 0xff,
  0x08, 0x00, 0x00, 0x00, 0x10, 0x00, 0x00, 0x00, 0x01, 0x00, 0x00, 0x00,
  0x80, 0xff, 0xff, 0xff, 0xff, 0xff, 0xff, 0xff, 0x01, 0x00, 0x00, 0x00,
  0x42, 0x10, 0xf7, 0x3b, 0x4c, 0x00, 0x00, 0x00, 0x64, 0x73, 0x5f, 0x74,
  0x63, 0x6e, 0x2f, 0x70, 0x77, 0x5f, 0x63, 0x6f, 0x6e, 0x76, 0x34, 0x2f,
  0x52, 0x65, 0x6c, 0x75, 0x3b, 0x64, 0x73, 0x5f, 0x74, 0x63, 0x6e, 0x2f,
  0x70, 0x77, 0x5f, 0x63, 0x6f, 0x6e, 0x76, 0x34, 0x2f, 0x42, 0x69, 0x61,
  0x73, 0x41, 0x64, 0x64, 0x3b, 0x64, 0x73, 0x5f, 0x74, 0x63, 0x6e, 0x2f,
  0x70, 0x77, 0x5f, 0x63, 0x6f, 0x6e, 0x76, 0x34, 0x2f, 0x43, 0x6f, 0x6e,
  0x76, 0x31, 0x44, 0x2f, 0x53, 0x71, 0x75, 0x65, 0x65, 0x7a, 0x65, 0x3b,
  0x00, 0x00, 0x00, 0x00, 0x03, 0x00, 0x00, 0x00, 0x01, 0x00, 0x00, 0x00,
  0x80, 0x00, 0x00, 0x00, 0x18, 0x00, 0x00, 0x00, 0xd6, 0xc2, 0xff, 0xff,
  0x00, 0x00, 0x00, 0x01, 0x18, 0x00, 0x00, 0x00, 0x28, 0x00, 0x00, 0x00,
  0x44, 0x00, 0x00, 0x00, 0x55, 0x00, 0x00, 0x00, 0x00, 0x00, 0x00, 0x09,
  0xa0, 0x00, 0x00, 0x00, 0x04, 0x00, 0x00, 0x00, 0xff, 0xff, 0xff, 0xff,
  0x01, 0x00, 0x00, 0x00, 0x80, 0x00, 0x00, 0x00, 0x18, 0x00, 0x00, 0x00,
  0xc4, 0xc2, 0xff, 0xff, 0x08, 0x00, 0x00, 0x00, 0x10, 0x00, 0x00, 0x00,
  0x01, 0x00, 0x00, 0x00, 0x80, 0xff, 0xff, 0xff, 0xff, 0xff, 0xff, 0xff,
  0x01, 0x00, 0x00, 0x00, 0x42, 0x10, 0xf7, 0x3b, 0x63, 0x00, 0x00, 0x00,
  0x64, 0x73, 0x5f, 0x74, 0x63, 0x6e, 0x2f, 0x70, 0x77, 0x5f, 0x63, 0x6f,
  0x6e, 0x76, 0x34, 0x2f, 0x52, 0x65, 0x6c, 0x75, 0x3b, 0x64, 0x73, 0x5f,
  0x74, 0x63, 0x6e, 0x2f, 0x70, 0x77, 0x5f, 0x63, 0x6f, 0x6e, 0x76, 0x34,
  0x2f, 0x42, 0x69, 0x61, 0x73, 0x41, 0x64, 0x64, 0x3b, 0x64, 0x73, 0x5f,
  0x74, 0x63, 0x6e, 0x2f, 0x70, 0x77, 0x5f, 0x63, 0x6f, 0x6e, 0x76, 0x34,
  0x2f, 0x43, 0x6f, 0x6e, 0x76, 0x31, 0x44, 0x2f, 0x53, 0x71, 0x75, 0x65,
  0x65, 0x7a, 0x65, 0x3b, 0x3b, 0x64, 0x73, 0x5f, 0x74, 0x63, 0x6e, 0x2f,
  0x70, 0x77, 0x5f, 0x63, 0x6f, 0x6e, 0x76, 0x34, 0x2f, 0x43, 0x6f, 0x6e,
  0x76, 0x31, 0x44, 0x00, 0x04, 0x00, 0x00, 0x00, 0x01, 0x00, 0x00, 0x00,
  0x01, 0x00, 0x00, 0x00, 0x80, 0x00, 0x00, 0x00, 0x18, 0x00, 0x00, 0x00,
  0xa6, 0xc3, 0xff, 0xff, 0x00, 0x00, 0x00, 0x01, 0x18, 0x00, 0x00, 0x00,
  0x28, 0x00, 0x00, 0x00, 0x48, 0x00, 0x00, 0x00, 0x54, 0x00, 0x00, 0x00,
  0x00, 0x00, 0x00, 0x09, 0x64, 0x00, 0x00, 0x00, 0x04, 0x00, 0x00, 0x00,
  0xff, 0xff, 0xff, 0xff, 0x01, 0x00, 0x00, 0x00, 0x80, 0x00, 0x00, 0x00,
  0x18, 0x00, 0x00, 0x00, 0x94, 0xc3, 0xff, 0xff, 0x08, 0x00, 0x00, 0x00,
  0x14, 0x00, 0x00, 0x00, 0x01, 0x00, 0x00, 0x00, 0x80, 0xff, 0xff, 0xff,
  0xff, 0xff, 0xff, 0xff, 0x00, 0x00, 0x00, 0x00, 0x01, 0x00, 0x00, 0x00,
  0xf8, 0x0c, 0x42, 0x3c, 0x21, 0x00, 0x00, 0x00, 0x64, 0x73, 0x5f, 0x74,
  0x63, 0x6e, 0x2f, 0x70, 0x77, 0x5f, 0x63, 0x6f, 0x6e, 0x76, 0x34, 0x2f,
  0x43, 0x6f, 0x6e, 0x76, 0x31, 0x44, 0x2f, 0x45, 0x78, 0x70, 0x61, 0x6e,
  0x64, 0x44, 0x69, 0x6d, 0x73, 0x00, 0x00, 0x00, 0x04, 0x00, 0x00, 0x00,
  0x01, 0x00, 0x00, 0x00, 0x01, 0x00, 0x00, 0x00, 0x80, 0x00, 0x00, 0x00,
  0x18, 0x00, 0x00, 0x00, 0x3a, 0xc4, 0xff, 0xff, 0x00, 0x00, 0x00, 0x01,
  0x18, 0x00, 0x00, 0x00, 0x24, 0x00, 0x00, 0x00, 0x40, 0x00, 0x00, 0x00,
  0x53, 0x00, 0x00, 0x00, 0x00, 0x00, 0x00, 0x09, 0x70, 0x00, 0x00, 0x00,
  0x03, 0x00, 0x00, 0x00, 0xff, 0xff, 0xff, 0xff, 0x80, 0x00, 0x00, 0x00,
  0x18, 0x00, 0x00, 0x00, 0x24, 0xc4, 0xff, 0xff, 0x08, 0x00, 0x00, 0x00,
  0x10, 0x00, 0x00, 0x00, 0x01, 0x00, 0x00, 0x00, 0x80, 0xff, 0xff, 0xff,
  0xff, 0xff, 0xff, 0xff, 0x01, 0x00, 0x00, 0x00, 0xf8, 0x0c, 0x42, 0x3c,
  0x34, 0x00, 0x00, 0x00, 0x64, 0x73, 0x5f, 0x74, 0x63, 0x6e, 0x2f, 0x64,
  0x77, 0x5f, 0x63, 0x6f, 0x6e, 0x76, 0x34, 0x5f, 0x64, 0x31, 0x36, 0x2f,
  0x52, 0x65, 0x6c, 0x75, 0x3b, 0x64, 0x73, 0x5f, 0x74, 0x63, 0x6e, 0x2f,
  0x64, 0x77, 0x5f, 0x63, 0x6f, 0x6e, 0x76, 0x34, 0x5f, 0x64, 0x31, 0x36,
  0x2f, 0x53, 0x71, 0x75, 0x65, 0x65, 0x7a, 0x65, 0x00, 0x00, 0x00, 0x00,
  0x03, 0x00, 0x00, 0x00, 0x01, 0x00, 0x00, 0x00, 0x80, 0x00, 0x00, 0x00,
  0x18, 0x00, 0x00, 0x00, 0xd6, 0xc4, 0xff, 0xff, 0x00, 0x00, 0x00, 0x01,
  0x18, 0x00, 0x00, 0x00, 0x28, 0x00, 0x00, 0x00, 0x44, 0x00, 0x00, 0x00,
  0x52, 0x00, 0x00, 0x00, 0x00, 0x00, 0x00, 0x09, 0x90, 0x00, 0x00, 0x00,
  0x04, 0x00, 0x00, 0x00, 0xff, 0xff, 0xff, 0xff, 0x01, 0x00, 0x00, 0x00,
  0x80, 0x00, 0x00, 0x00, 0x18, 0x00, 0x00, 0x00, 0xc4, 0xc4, 0xff, 0xff,
  0x08, 0x00, 0x00, 0x00, 0x10, 0x00, 0x00, 0x00, 0x01, 0x00, 0x00, 0x00,
  0x80, 0xff, 0xff, 0xff, 0xff, 0xff, 0xff, 0xff, 0x01, 0x00, 0x00, 0x00,
  0xf8, 0x0c, 0x42, 0x3c, 0x50, 0x00, 0x00, 0x00, 0x64, 0x73, 0x5f, 0x74,
  0x63, 0x6e, 0x2f, 0x64, 0x77, 0x5f, 0x63, 0x6f, 0x6e, 0x76, 0x34, 0x5f,
  0x64, 0x31, 0x36, 0x2f, 0x52, 0x65, 0x6c, 0x75, 0x3b, 0x64, 0x73, 0x5f,
  0x74, 0x63, 0x6e, 0x2f, 0x64, 0x77, 0x5f, 0x63, 0x6f, 0x6e, 0x76, 0x34,
  0x5f, 0x64, 0x31, 0x36, 0x2f, 0x53, 0x71, 0x75, 0x65, 0x65, 0x7a, 0x65,
  0x3b, 0x64, 0x73, 0x5f, 0x74, 0x63, 0x6e, 0x2f, 0x64, 0x77, 0x5f, 0x63,
  0x6f, 0x6e, 0x76, 0x34, 0x5f, 0x64, 0x31, 0x36, 0x2f, 0x42, 0x69, 0x61,
  0x73, 0x41, 0x64, 0x64, 0x00, 0x00, 0x00, 0x00, 0x04, 0x00, 0x00, 0x00,
  0x01, 0x00, 0x00, 0x00, 0x01, 0x00, 0x00, 0x00, 0x80, 0x00, 0x00, 0x00,
  0x18, 0x00, 0x00, 0x00, 0x96, 0xc5, 0xff, 0xff, 0x00, 0x00, 0x00, 0x01,
  0x18, 0x00, 0x00, 0x00, 0x28, 0x00, 0x00, 0x00, 0x48, 0x00, 0x00, 0x00,
  0x51, 0x00, 0x00, 0x00, 0x00, 0x00, 0x00, 0x09, 0x70, 0x00, 0x00, 0x00,
  0x04, 0x00, 0x00, 0x00, 0xff, 0xff, 0xff, 0xff, 0x01, 0x00, 0x00, 0x00,
  0x80, 0x00, 0x00, 0x00, 0x18, 0x00, 0x00, 0x00, 0x84, 0xc5, 0xff, 0xff,
  0x08, 0x00, 0x00, 0x00, 0x14, 0x00, 0x00, 0x00, 0x01, 0x00, 0x00, 0x00,
  0xfd, 0xff, 0xff, 0xff, 0xff, 0xff, 0xff, 0xff, 0x00, 0x00, 0x00, 0x00,
  0x01, 0x00, 0x00, 0x00, 0x83, 0xbc, 0x03, 0x3d, 0x2c, 0x00, 0x00, 0x00,
  0x64, 0x73, 0x5f, 0x74, 0x63, 0x6e, 0x2f, 0x64, 0x77, 0x5f, 0x63, 0x6f,
  0x6e, 0x76, 0x34, 0x5f, 0x64, 0x31, 0x36, 0x2f, 0x64, 0x65, 0x70, 0x74,
  0x68, 0x77, 0x69, 0x73, 0x65, 0x2f, 0x42, 0x61, 0x74, 0x63, 0x68, 0x54,
  0x6f, 0x53, 0x70, 0x61, 0x63, 0x65, 0x4e, 0x44, 0x00, 0x00, 0x00, 0x00,
  0x04, 0x00, 0x00, 0x00, 0x01, 0x00, 0x00, 0x00, 0x01, 0x00, 0x00, 0x00,
  0x80, 0x00, 0x00, 0x00, 0x18, 0x00, 0x00, 0x00, 0x36, 0xc6, 0xff, 0xff,
  0x00, 0x00, 0x00, 0x01, 0x18, 0x00, 0x00, 0x00, 0x28, 0x00, 0x00, 0x00,
  0x48, 0x00, 0x00, 0x00, 0x50, 0x00, 0x00, 0x00, 0x00, 0x00, 0x00, 0x09,
  0x60, 0x00, 0x00, 0x00, 0x04, 0x00, 0x00, 0x00, 0xff, 0xff, 0xff, 0xff,
  0x01, 0x00, 0x00, 0x00, 0x08, 0x00, 0x00, 0x00, 0x18, 0x00, 0x00, 0x00,
  0x24, 0xc6, 0xff, 0xff, 0x08, 0x00, 0x00, 0x00, 0x14, 0x00, 0x00, 0x00,
  0x01, 0x00, 0x00, 0x00, 0xfd, 0xff, 0xff, 0xff, 0xff, 0xff, 0xff, 0xff,
  0x00, 0x00, 0x00, 0x00, 0x01, 0x00, 0x00, 0x00, 0x83, 0xbc, 0x03, 0x3d,
  0x1d, 0x00, 0x00, 0x00, 0x64, 0x73, 0x5f, 0x74, 0x63, 0x6e, 0x2f, 0x64,
  0x77, 0x5f, 0x63, 0x6f, 0x6e, 0x76, 0x34, 0x5f, 0x64, 0x31, 0x36, 0x2f,
  0x64, 0x65, 0x70, 0x74, 0x68, 0x77, 0x69, 0x73, 0x65, 0x00, 0x00, 0x00,
  0x04, 0x00, 0x00, 0x00, 0x01, 0x00, 0x00, 0x00, 0x01, 0x00, 0x00, 0x00,
  0x08, 0x00, 0x00, 0x00, 0x18, 0x00, 0x00, 0x00, 0xc6, 0xc6, 0xff, 0xff,
  0x00, 0x00, 0x00, 0x01, 0x18, 0x00, 0x00, 0x00, 0x28, 0x00, 0x00, 0x00,
  0x48, 0x00, 0x00, 0x00, 0x4f, 0x00, 0x00, 0x00, 0x00, 0x00, 0x00, 0x09,
  0x70, 0x00, 0x00, 0x00, 0x04, 0x00, 0x00, 0x00, 0xff, 0xff, 0xff, 0xff,
  0x01, 0x00, 0x00, 0x00, 0x0a, 0x00, 0x00, 0x00, 0x18, 0x00, 0x00, 0x00,
  0xb4, 0xc6, 0xff, 0xff, 0x08, 0x00, 0x00, 0x00, 0x14, 0x00, 0x00, 0x00,
  0x01, 0x00, 0x00, 0x00, 0x80, 0xff, 0xff, 0xff, 0xff, 0xff, 0xff, 0xff,
  0x00, 0x00, 0x00, 0x00, 0x01, 0x00, 0x00, 0x00, 0x8b, 0x7a, 0xb1, 0x3c,
  0x2c, 0x00, 0x00, 0x00, 0x64, 0x73, 0x5f, 0x74, 0x63, 0x6e, 0x2f, 0x64,
  0x77, 0x5f, 0x63, 0x6f, 0x6e, 0x76, 0x34, 0x5f, 0x64, 0x31, 0x36, 0x2f,
  0x64, 0x65, 0x70, 0x74, 0x68, 0x77, 0x69, 0x73, 0x65, 0x2f, 0x53, 0x70,
  0x61, 0x63, 0x65, 0x54, 0x6f, 0x42, 0x61, 0x74, 0x63, 0x68, 0x4e, 0x44,
  0x00, 0x00, 0x00, 0x00, 0x04, 0x00, 0x00, 0x00, 0x01, 0x00, 0x00, 0x00,
  0x01, 0x00, 0x00, 0x00, 0x0a, 0x00, 0x00, 0x00, 0x18, 0x00, 0x00, 0x00,
  0x66, 0xc7, 0xff, 0xff, 0x00, 0x00, 0x00, 0x01, 0x18, 0x00, 0x00, 0x00,
  0x28, 0x00, 0x00, 0x00, 0x44, 0x00, 0x00, 0x00, 0x4e, 0x00, 0x00, 0x00,
  0x00, 0x00, 0x00, 0x09, 0x5c, 0x00, 0x00, 0x00, 0x04, 0x00, 0x00, 0x00,
  0xff, 0xff, 0xff, 0xff, 0x01, 0x00, 0x00, 0x00, 0xa0, 0x00, 0x00, 0x00,
  0x18, 0x00, 0x00, 0x00, 0x54, 0xc7, 0xff, 0xff, 0x08, 0x00, 0x00, 0x00,
  0x10, 0x00, 0x00, 0x00, 0x01, 0x00, 0x00, 0x00, 0x80, 0xff, 0xff, 0xff,
  0xff, 0xff, 0xff, 0xff, 0x01, 0x00, 0x00, 0x00, 0x8b, 0x7a, 0xb1, 0x3c,
  0x1e, 0x00, 0x00, 0x00, 0x64, 0x73, 0x5f, 0x74, 0x63, 0x6e, 0x2f, 0x64,
  0x77, 0x5f, 0x63, 0x6f, 0x6e, 0x76, 0x34, 0x5f, 0x64, 0x31, 0x36, 0x2f,
  0x45, 0x78, 0x70, 0x61, 0x6e, 0x64, 0x44, 0x69, 0x6d, 0x73, 0x00, 0x00,
  0x04, 0x00, 0x00, 0x00, 0x01, 0x00, 0x00, 0x00, 0x01, 0x00, 0x00, 0x00,
  0xa0, 0x00, 0x00, 0x00, 0x18, 0x00, 0x00, 0x00, 0xf2, 0xc7, 0xff, 0xff,
  0x00, 0x00, 0x00, 0x01, 0x18, 0x00, 0x00, 0x00, 0x24, 0x00, 0x00, 0x00,
  0x40, 0x00, 0x00, 0x00, 0x4d, 0x00, 0x00, 0x00, 0x00, 0x00, 0x00, 0x09,
  0x54, 0x00, 0x00, 0x00, 0x03, 0x00, 0x00, 0x00, 0xff, 0xff, 0xff, 0xff,
  0xa0, 0x00, 0x00, 0x00, 0x18, 0x00, 0x00, 0x00, 0xdc, 0xc7, 0xff, 0xff,
  0x08, 0x00, 0x00, 0x00, 0x10, 0x00, 0x00, 0x00, 0x01, 0x00, 0x00, 0x00,
  0x80, 0xff, 0xff, 0xff, 0xff, 0xff, 0xff, 0xff, 0x01, 0x00, 0x00, 0x00,
  0x8b, 0x7a, 0xb1, 0x3c, 0x1b, 0x00, 0x00, 0x00, 0x64, 0x73, 0x5f, 0x74,
  0x63, 0x6e, 0x2f, 0x7a, 0x65, 0x72, 0x6f, 0x5f, 0x70, 0x61, 0x64, 0x64,
  0x69, 0x6e, 0x67, 0x31, 0x64, 0x5f, 0x34, 0x2f, 0x50, 0x61, 0x64, 0x00,
  0x03, 0x00, 0x00, 0x00, 0x01, 0x00, 0x00, 0x00, 0xa0, 0x00, 0x00, 0x00,
  0x18, 0x00, 0x00, 0x00, 0x72, 0xc8, 0xff, 0xff, 0x00, 0x00, 0x00, 0x01,
  0x18, 0x00, 0x00, 0x00, 0x24, 0x00, 0x00, 0x00, 0x44, 0x00, 0x00, 0x00,
  0x4c, 0x00, 0x00, 0x00, 0x00, 0x00, 0x00, 0x09, 0x54, 0x00, 0x00, 0x00,
  0x03, 0x00, 0x00, 0x00, 0xff, 0xff, 0xff, 0xff, 0x80, 0x00, 0x00, 0x00,
  0x18, 0x00, 0x00, 0x00, 0x5c, 0xc8, 0xff, 0xff, 0x08, 0x00, 0x00, 0x00,
  0x14, 0x00, 0x00, 0x00, 0x01, 0x00, 0x00, 0x00, 0x80, 0xff, 0xff, 0xff,
  0xff, 0xff, 0xff, 0xff, 0x00, 0x00, 0x00, 0x00, 0x01, 0x00, 0x00, 0x00,
  0x8b, 0x7a, 0xb1, 0x3c, 0x14, 0x00, 0x00, 0x00, 0x64, 0x73, 0x5f, 0x74,
  0x63, 0x6e, 0x2f, 0x72, 0x65, 0x73, 0x69, 0x64, 0x75, 0x61, 0x6c, 0x33,
  0x2f, 0x61, 0x64, 0x64, 0x00, 0x00, 0x00, 0x00, 0x03, 0x00, 0x00, 0x00,
  0x01, 0x00, 0x00, 0x00, 0x80, 0x00, 0x00, 0x00, 0x18, 0x00, 0x00, 0x00,
  0xf2, 0xc8, 0xff, 0xff, 0x00, 0x00, 0x00, 0x01, 0x18, 0x00, 0x00, 0x00,
  0x24, 0x00, 0x00, 0x00, 0x40, 0x00, 0x00, 0x00, 0x4b, 0x00, 0x00, 0x00,
  0x00, 0x00, 0x00, 0x09, 0x88, 0x00, 0x00, 0x00, 0x03, 0x00, 0x00, 0x00,
  0xff, 0xff, 0xff, 0xff, 0x80, 0x00, 0x00, 0x00, 0x18, 0x00, 0x00, 0x00,
  0xdc, 0xc8, 0xff, 0xff, 0x08, 0x00, 0x00, 0x00, 0x10, 0x00, 0x00, 0x00,
  0x01, 0x00, 0x00, 0x00, 0x80, 0xff, 0xff, 0xff, 0xff, 0xff, 0xff, 0xff,
  0x01, 0x00, 0x00, 0x00, 0xfa, 0x88, 0x08, 0x3c, 0x4c, 0x00, 0x00, 0x00,
  0x64, 0x73, 0x5f, 0x74, 0x63, 0x6e, 0x2f, 0x70, 0x77, 0x5f, 0x63, 0x6f,
  0x6e, 0x76, 0x33, 0x2f, 0x52, 0x65, 0x6c, 0x75, 0x3b, 0x64, 0x73, 0x5f,
  0x74, 0x63, 0x6e, 0x2f, 0x70, 0x77, 0x5f, 0x63, 0x6f, 0x6e, 0x76, 0x33,
  0x2f, 0x42, 0x69, 0x61, 0x73, 0x41, 0x64, 0x64, 0x3b, 0x64, 0x73, 0x5f,
  0x74, 0x63, 0x6e, 0x2f, 0x70, 0x77, 0x5f, 0x63, 0x6f, 0x6e, 0x76, 0x33,
  0x2f, 0x43, 0x6f, 0x6e, 0x76, 0x31, 0x44, 0x2f, 0x53, 0x71, 0x75, 0x65,
  0x65, 0x7a, 0x65, 0x3b, 0x00, 0x00, 0x00, 0x00, 0x03, 0x00, 0x00, 0x00,
  0x01, 0x00, 0x00, 0x00, 0x80, 0x00, 0x00, 0x00, 0x18, 0x00, 0x00, 0x00,
  0xa6, 0xc9, 0xff, 0xff, 0x00, 0x00, 0x00, 0x01, 0x18, 0x00, 0x00, 0x00,
  0x28, 0x00, 0x00, 0x00, 0x44, 0x00, 0x00, 0x00, 0x4a, 0x00, 0x00, 0x00,
  0x00, 0x00, 0x00, 0x09, 0xa0, 0x00, 0x00, 0x00, 0x04, 0x00, 0x00, 0x00,
  0xff, 0xff, 0xff, 0xff, 0x01, 0x00, 0x00, 0x00, 0x80, 0x00, 0x00, 0x00,
  0x18, 0x00, 0x00, 0x00, 0x94, 0xc9, 0xff, 0xff, 0x08, 0x00, 0x00, 0x00,
  0x10, 0x00, 0x00, 0x00, 0x01, 0x00, 0x00, 0x00, 0x80, 0xff, 0xff, 0xff,
  0xff, 0xff, 0xff, 0xff, 0x01, 0x00, 0x00, 0x00, 0xfa, 0x88, 0x08, 0x3c,
  0x63, 0x00, 0x00, 0x00, 0x64, 0x73, 0x5f, 0x74, 0x63, 0x6e, 0x2f, 0x70,
  0x77, 0x5f, 0x63, 0x6f, 0x6e, 0x76, 0x33, 0x2f, 0x52, 0x65, 0x6c, 0x75,
  0x3b, 0x64, 0x73, 0x5f, 0x74, 0x63, 0x6e, 0x2f, 0x70, 0x77, 0x5f, 0x63,
  0x6f, 0x6e, 0x76, 0x33, 0x2f, 0x42, 0x69, 0x61, 0x73, 0x41, 0x64, 0x64,
  0x3b, 0x64, 0x73, 0x5f, 0x74, 0x63, 0x6e, 0x2f, 0x70, 0x77, 0x5f, 0x63,
  0x6f, 0x6e, 0x76, 0x33, 0x2f, 0x43, 0x6f, 0x6e, 0x76, 0x31, 0x44, 0x2f,
  0x53, 0x71, 0x75, 0x65, 0x65, 0x7a, 0x65, 0x3b, 0x3b, 0x64, 0x73, 0x5f,
  0x74, 0x63, 0x6e, 0x2f, 0x70, 0x77, 0x5f, 0x63, 0x6f, 0x6e, 0x76, 0x33,
  0x2f, 0x43, 0x6f, 0x6e, 0x76, 0x31, 0x44, 0x00, 0x04, 0x00, 0x00, 0x00,
  0x01, 0x00, 0x00, 0x00, 0x01, 0x00, 0x00, 0x00, 0x80, 0x00, 0x00, 0x00,
  0x18, 0x00, 0x00, 0x00, 0x76, 0xca, 0xff, 0xff, 0x00, 0x00, 0x00, 0x01,
  0x18, 0x00, 0x00, 0x00, 0x28, 0x00, 0x00, 0x00, 0x48, 0x00, 0x00, 0x00,
  0x49, 0x00, 0x00, 0x00, 0x00, 0x00, 0x00, 0x09, 0x64, 0x00, 0x00, 0x00,
  0x04, 0x00, 0x00, 0x00, 0xff, 0xff, 0xff, 0xff, 0x01, 0x00, 0x00, 0x00,
  0x80, 0x00, 0x00, 0x00, 0x18, 0x00, 0x00, 0x00, 0x64, 0xca, 0xff, 0xff,
  0x08, 0x00, 0x00, 0x00, 0x14, 0x00, 0x00, 0x00, 0x01, 0x00, 0x00, 0x00,
  0x80, 0xff, 0xff, 0xff, 0xff, 0xff, 0xff, 0xff, 0x00, 0x00, 0x00, 0x00,
  0x01, 0x00, 0x00, 0x00, 0x2a, 0xa8, 0x32, 0x3c, 0x21, 0x00, 0x00, 0x00,
  0x64, 0x73, 0x5f, 0x74, 0x63, 0x6e, 0x2f, 0x70, 0x77, 0x5f, 0x63, 0x6f,
  0x6e, 0x76, 0x33, 0x2f, 0x43, 0x6f, 0x6e, 0x76, 0x31, 0x44, 0x2f, 0x45,
  0x78, 0x70, 0x61, 0x6e, 0x64, 0x44, 0x69, 0x6d, 0x73, 0x00, 0x00, 0x00,
  0x04, 0x00, 0x00, 0x00, 0x01, 0x00, 0x00, 0x00, 0x01, 0x00, 0x00, 0x00,
  0x80, 0x00, 0x00, 0x00, 0x18, 0x00, 0x00, 0x00, 0x0a, 0xcb, 0xff, 0xff,
  0x00, 0x00, 0x00, 0x01, 0x18, 0x00, 0x00, 0x00, 0x24, 0x00, 0x00, 0x00,
  0x44, 0x00, 0x00, 0x00, 0x48, 0x00, 0x00, 0x00, 0x00, 0x00, 0x00, 0x09,
  0x70, 0x00, 0x00, 0x00, 0x03, 0x00, 0x00, 0x00, 0xff, 0xff, 0xff, 0xff,
  0x80, 0x00, 0x00, 0x00, 0x18, 0x00, 0x00, 0x00, 0xf4, 0xca, 0xff, 0xff,
  0x08, 0x00, 0x00, 0x00, 0x14, 0x00, 0x00, 0x00, 0x01, 0x00, 0x00, 0x00,
  0x80, 0xff, 0xff, 0xff, 0xff, 0xff, 0xff, 0xff, 0x00, 0x00, 0x00, 0x00,
  0x01, 0x00, 0x00, 0x00, 0x2a, 0xa8, 0x32, 0x3c, 0x32, 0x00, 0x00, 0x00,
  0x64, 0x73, 0x5f, 0x74, 0x63, 0x6e, 0x2f, 0x64, 0x77, 0x5f, 0x63, 0x6f,
  0x6e, 0x76, 0x33, 0x5f, 0x64, 0x38, 0x2f, 0x52, 0x65, 0x6c, 0x75, 0x3b,
  0x64, 0x73, 0x5f, 0x74, 0x63, 0x6e, 0x2f, 0x64, 0x77, 0x5f, 0x63, 0x6f,
  0x6e, 0x76, 0x33, 0x5f, 0x64, 0x38, 0x2f, 0x53, 0x71, 0x75, 0x65, 0x65,
  0x7a, 0x65, 0x00, 0x00, 0x03, 0x00, 0x00, 0x00, 0x01, 0x00, 0x00, 0x00,
  0x80, 0x00, 0x00, 0x00, 0x18, 0x00, 0x00, 0x00, 0xa6, 0xcb, 0xff, 0xff,
  0x00, 0x00, 0x00, 0x01, 0x18, 0x00, 0x00, 0x00, 0x28, 0x00, 0x00, 0x00,
  0x48, 0x00, 0x00, 0x00, 0x47, 0x00, 0x00, 0x00, 0x00, 0x00, 0x00, 0x09,
  0x90, 0x00, 0x00, 0x00, 0x04, 0x00, 0x00, 0x00, 0xff, 0xff, 0xff, 0xff,
  0x01, 0x00, 0x00, 0x00, 0x80, 0x00, 0x00, 0x00, 0x18, 0x00, 0x00, 0x00,
  0x94, 0xcb, 0xff, 0xff, 0x08, 0x00, 0x00, 0x00, 0x14, 0x00, 0x00, 0x00,
  0x01, 0x00, 0x00, 0x00, 0x80, 0xff, 0xff, 0xff, 0xff, 0xff, 0xff, 0xff,
  0x00, 0x00, 0x00, 0x00, 0x01, 0x00, 0x00, 0x00, 0x2a, 0xa8, 0x32, 0x3c,
  0x4d, 0x00, 0x00, 0x00, 0x64, 0x73, 0x5f, 0x74, 0x63, 0x6e, 0x2f, 0x64,
  0x77, 0x5f, 0x63, 0x6f, 0x6e, 0x76, 0x33, 0x5f, 0x64, 0x38, 0x2f, 0x52,
  0x65, 0x6c, 0x75, 0x3b, 0x64, 0x73, 0x5f, 0x74, 0x63, 0x6e, 0x2f, 0x64,
  0x77, 0x5f, 0x63, 0x6f, 0x6e, 0x76, 0x33, 0x5f, 0x64, 0x38, 0x2f, 0x53,
  0x71, 0x75, 0x65, 0x65, 0x7a, 0x65, 0x3b, 0x64, 0x73, 0x5f, 0x74, 0x63,
  0x6e, 0x2f, 0x64, 0x77, 0x5f, 0x63, 0x6f, 0x6e, 0x76, 0x33, 0x5f, 0x64,
  0x38, 0x2f, 0x42, 0x69, 0x61, 0x73, 0x41, 0x64, 0x64, 0x00, 0x00, 0x00,
  0x04, 0x00, 0x00, 0x00, 0x01, 0x00, 0x00, 0x00, 0x01, 0x00, 0x00, 0x00,
  0x80, 0x00, 0x00, 0x00, 0x18, 0x00, 0x00, 0x00, 0x66, 0xcc, 0xff, 0xff,
  0x00, 0x00, 0x00, 0x01, 0x18, 0x00, 0x00, 0x00, 0x28, 0x00, 0x00, 0x00,
  0x44, 0x00, 0x00, 0x00, 0x46, 0x00, 0x00, 0x00, 0x00, 0x00, 0x00, 0x09,
  0x68, 0x00, 0x00, 0x00, 0x04, 0x00, 0x00, 0x00, 0xff, 0xff, 0xff, 0xff,
  0x01, 0x00, 0x00, 0x00, 0x80, 0x00, 0x00, 0x00, 0x18, 0x00, 0x00, 0x00,
  0x54, 0xcc, 0xff, 0xff, 0x08, 0x00, 0x00, 0x00, 0x10, 0x00, 0x00, 0x00,
  0x01, 0x00, 0x00, 0x00, 0x0b, 0x00, 0x00, 0x00, 0x00, 0x00, 0x00, 0x00,
  0x01, 0x00, 0x00, 0x00, 0xda, 0x39, 0x01, 0x3d, 0x2b, 0x00, 0x00, 0x00,
  0x64, 0x73, 0x5f, 0x74, 0x63, 0x6e, 0x2f, 0x64, 0x77, 0x5f, 0x63, 0x6f,
  0x6e, 0x76, 0x33, 0x5f, 0x64, 0x38, 0x2f, 0x64, 0x65, 0x70, 0x74, 0x68,
  0x77, 0x69, 0x73, 0x65, 0x2f, 0x42, 0x61, 0x74, 0x63, 0x68, 0x54, 0x6f,
  0x53, 0x70, 0x61, 0x63, 0x65, 0x4e, 0x44, 0x00, 0x04, 0x00, 0x00, 0x00,
  0x01, 0x00, 0x00, 0x00, 0x01, 0x00, 0x00, 0x00, 0x80, 0x00, 0x00, 0x00,
  0x18, 0x00, 0x00, 0x00, 0xfe, 0xcc, 0xff, 0xff, 0x00, 0x00, 0x00, 0x01,
  0x18, 0x00, 0x00, 0x00, 0x28, 0x00, 0x00, 0x00, 0x48, 0x00, 0x00, 0x00,
  0x45, 0x00, 0x00, 0x00, 0x00, 0x00, 0x00, 0x09, 0x60, 0x00, 0x00, 0x00,
  0x04, 0x00, 0x00, 0x00, 0xff, 0xff, 0xff, 0xff, 0x01, 0x00, 0x00, 0x00,
  0x10, 0x00, 0x00, 0x00, 0x18, 0x00, 0x00, 0x00, 0xec, 0xcc, 0xff, 0xff,
  0x08, 0x00, 0x00, 0x00, 0x14, 0x00, 0x00, 0x00, 0x01, 0x00, 0x00, 0x00,
  0x0b, 0x00, 0x00, 0x00, 0x00, 0x00, 0x00, 0x00, 0x00, 0x00, 0x00, 0x00,
  0x01, 0x00, 0x00, 0x00, 0xda, 0x39, 0x01, 0x3d, 0x1c, 0x00, 0x00, 0x00,
  0x64, 0x73, 0x5f, 0x74, 0x63, 0x6e, 0x2f, 0x64, 0x77, 0x5f, 0x63, 0x6f,
  0x6e, 0x76, 0x33, 0x5f, 0x64, 0x38, 0x2f, 0x64, 0x65, 0x70, 0x74, 0x68,
  0x77, 0x69, 0x73, 0x65, 0x00, 0x00, 0x00, 0x00, 0x04, 0x00, 0x00, 0x00,
  0x01, 0x00, 0x00, 0x00, 0x01, 0x00, 0x00, 0x00, 0x10, 0x00, 0x00, 0x00,
  0x18, 0x00, 0x00, 0x00, 0x8e, 0xcd, 0xff, 0xff, 0x00, 0x00, 0x00, 0x01,
  0x18, 0x00, 0x00, 0x00, 0x28, 0x00, 0x00, 0x00, 0x44, 0x00, 0x00, 0x00,
  0x44, 0x00, 0x00, 0x00, 0x00, 0x00, 0x00, 0x09, 0x68, 0x00, 0x00, 0x00,
  0x04, 0x00, 0x00, 0x00, 0xff, 0xff, 0xff, 0xff, 0x01, 0x00, 0x00, 0x00,
  0x12, 0x00, 0x00, 0x00, 0x18, 0x00, 0x00, 0x00, 0x7c, 0xcd, 0xff, 0xff,
  0x08, 0x00, 0x00, 0x00, 0x10, 0x00, 0x00, 0x00, 0x01, 0x00, 0x00, 0x00,
  0x80, 0xff, 0xff, 0xff, 0xff, 0xff, 0xff, 0xff, 0x01, 0x00, 0x00, 0x00,
  0x88, 0xbd, 0xa2, 0x3c, 0x2b, 0x00, 0x00, 0x00, 0x64, 0x73, 0x5f, 0x74,
  0x63, 0x6e, 0x2f, 0x64, 0x77, 0x5f, 0x63, 0x6f, 0x6e, 0x76, 0x33, 0x5f,
  0x64, 0x38, 0x2f, 0x64, 0x65, 0x70, 0x74, 0x68, 0x77, 0x69, 0x73, 0x65,
  0x2f, 0x53, 0x70, 0x61, 0x63, 0x65, 0x54, 0x6f, 0x42, 0x61, 0x74, 0x63,
  0x68, 0x4e, 0x44, 0x00, 0x04, 0x00, 0x00, 0x00, 0x01, 0x00, 0x00, 0x00,
  0x01, 0x00, 0x00, 0x00, 0x12, 0x00, 0x00, 0x00, 0x18, 0x00, 0x00, 0x00,
  0x26, 0xce, 0xff, 0xff, 0x00, 0x00, 0x00, 0x01, 0x18, 0x00, 0x00, 0x00,
  0x28, 0x00, 0x00, 0x00, 0x44, 0x00, 0x00, 0x00, 0x43, 0x00, 0x00, 0x00,
  0x00, 0x00, 0x00, 0x09, 0x5c, 0x00, 0x00, 0x00, 0x04, 0x00, 0x00, 0x00,
  0xff, 0xff, 0xff, 0xff, 0x01, 0x00, 0x00, 0x00, 0x90, 0x00, 0x00, 0x00,
  0x18, 0x00, 0x00, 0x00, 0x14, 0xce, 0xff, 0xff, 0x08, 0x00, 0x00, 0x00,
  0x10, 0x00, 0x00, 0x00, 0x01, 0x00, 0x00, 0x00, 0x80, 0xff, 0xff, 0xff,
  0xff, 0xff, 0xff, 0xff, 0x01, 0x00, 0x00, 0x00, 0x88, 0xbd, 0xa2, 0x3c,
  0x1d, 0x00, 0x00, 0x00, 0x64, 0x73, 0x5f, 0x74, 0x63, 0x6e, 0x2f, 0x64,
  0x77, 0x5f, 0x63, 0x6f, 0x6e, 0x76, 0x33, 0x5f, 0x64, 0x38, 0x2f, 0x45,
  0x78, 0x70, 0x61, 0x6e, 0x64, 0x44, 0x69, 0x6d, 0x73, 0x00, 0x00, 0x00,
  0x04, 0x00, 0x00, 0x00, 0x01, 0x00, 0x00, 0x00, 0x01, 0x00, 0x00, 0x00,
  0x90, 0x00, 0x00, 0x00, 0x18, 0x00, 0x00, 0x00, 0xb2, 0xce, 0xff, 0xff,
  0x00, 0x00, 0x00, 0x01, 0x18, 0x00, 0x00, 0x00, 0x24, 0x00, 0x00, 0x00,
  0x40, 0x00, 0x00, 0x00, 0x42, 0x00, 0x00, 0x00, 0x00, 0x00, 0x00, 0x09,
  0x54, 0x00, 0x00, 0x00, 0x03, 0x00, 0x00, 0x00, 0xff, 0xff, 0xff, 0xff,
  0x90, 0x00, 0x00, 0x00, 0x18, 0x00, 0x00, 0x00, 0x9c, 0xce, 0xff, 0xff,
  0x08, 0x00, 0x00, 0x00, 0x10, 0x00, 0x00, 0x00, 0x01, 0x00, 0x00, 0x00,
  0x80, 0xff, 0xff, 0xff, 0xff, 0xff, 0xff, 0xff, 0x01, 0x00, 0x00, 0x00,
  0x88, 0xbd, 0xa2, 0x3c, 0x1b, 0x00, 0x00, 0x00, 0x64, 0x73, 0x5f, 0x74,
  0x63, 0x6e, 0x2f, 0x7a, 0x65, 0x72, 0x6f, 0x5f, 0x70, 0x61, 0x64, 0x64,
  0x69, 0x6e, 0x67, 0x31, 0x64, 0x5f, 0x33, 0x2f, 0x50, 0x61, 0x64, 0x00,
  0x03, 0x00, 0x00, 0x00, 0x01, 0x00, 0x00, 0x00, 0x90, 0x00, 0x00, 0x00,
  0x18, 0x00, 0x00, 0x00, 0x32, 0xcf, 0xff, 0xff, 0x00, 0x00, 0x00, 0x01,
  0x18, 0x00, 0x00, 0x00, 0x24, 0x00, 0x00, 0x00, 0x44, 0x00, 0x00, 0x00,
  0x41, 0x00, 0x00, 0x00, 0x00, 0x00, 0x00, 0x09, 0x54, 0x00, 0x00, 0x00,
  0x03, 0x00, 0x00, 0x00, 0xff, 0xff, 0xff, 0xff, 0x80, 0x00, 0x00, 0x00,
  0x18, 0x00, 0x00, 0x00, 0x1c, 0xcf, 0xff, 0xff, 0x08, 0x00, 0x00, 0x00,
  0x14, 0x00, 0x00, 0x00, 0x01, 0x00, 0x00, 0x00, 0x80, 0xff, 0xff, 0xff,
  0xff, 0xff, 0xff, 0xff, 0x00, 0x00, 0x00, 0x00, 0x01, 0x00, 0x00, 0x00,
  0x88, 0xbd, 0xa2, 0x3c, 0x14, 0x00, 0x00, 0x00, 0x64, 0x73, 0x5f, 0x74,
  0x63, 0x6e, 0x2f, 0x72, 0x65, 0x73, 0x69, 0x64, 0x75, 0x61, 0x6c, 0x32,
  0x2f, 0x61, 0x64, 0x64, 0x00, 0x00, 0x00, 0x00, 0x03, 0x00, 0x00, 0x00,
  0x01, 0x00, 0x00, 0x00, 0x80, 0x00, 0x00, 0x00, 0x18, 0x00, 0x00, 0x00,
  0xb2, 0xcf, 0xff, 0xff, 0x00, 0x00, 0x00, 0x01, 0x18, 0x00, 0x00, 0x00,
  0x24, 0x00, 0x00, 0x00, 0x40, 0x00, 0x00, 0x00, 0x40, 0x00, 0x00, 0x00,
  0x00, 0x00, 0x00, 0x09, 0x88, 0x00, 0x00, 0x00, 0x03, 0x00, 0x00, 0x00,
  0xff, 0xff, 0xff, 0xff, 0x80, 0x00, 0x00, 0x00, 0x18, 0x00, 0x00, 0x00,
  0x9c, 0xcf, 0xff, 0xff, 0x08, 0x00, 0x00, 0x00, 0x10, 0x00, 0x00, 0x00,
  0x01, 0x00, 0x00, 0x00, 0x80, 0xff, 0xff, 0xff, 0xff, 0xff, 0xff, 0xff,
  0x01, 0x00, 0x00, 0x00, 0xd6, 0x35, 0x1a, 0x3c, 0x4c, 0x00, 0x00, 0x00,
  0x64, 0x73, 0x5f, 0x74, 0x63, 0x6e, 0x2f, 0x70, 0x77, 0x5f, 0x63, 0x6f,
  0x6e, 0x76, 0x32, 0x2f, 0x52, 0x65, 0x6c, 0x75, 0x3b, 0x64, 0x73, 0x5f,
  0x74, 0x63, 0x6e, 0x2f, 0x70, 0x77, 0x5f, 0x63, 0x6f, 0x6e, 0x76, 0x32,
  0x2f, 0x42, 0x69, 0x61, 0x73, 0x41, 0x64, 0x64, 0x3b, 0x64, 0x73, 0x5f,
  0x74, 0x63, 0x6e, 0x2f, 0x70, 0x77, 0x5f, 0x63, 0x6f, 0x6e, 0x76, 0x32,
  0x2f, 0x43, 0x6f, 0x6e, 0x76, 0x31, 0x44, 0x2f, 0x53, 0x71, 0x75, 0x65,
  0x65, 0x7a, 0x65, 0x3b, 0x00, 0x00, 0x00, 0x00, 0x03, 0x00, 0x00, 0x00,
  0x01, 0x00, 0x00, 0x00, 0x80, 0x00, 0x00, 0x00, 0x18, 0x00, 0x00, 0x00,
  0x66, 0xd0, 0xff, 0xff, 0x00, 0x00, 0x00, 0x01, 0x18, 0x00, 0x00, 0x00,
  0x28, 0x00, 0x00, 0x00, 0x44, 0x00, 0x00, 0x00, 0x3f, 0x00, 0x00, 0x00,
  0x00, 0x00, 0x00, 0x09, 0xa0, 0x00, 0x00, 0x00, 0x04, 0x00, 0x00, 0x00,
  0xff, 0xff, 0xff, 0xff, 0x01, 0x00, 0x00, 0x00, 0x80, 0x00, 0x00, 0x00,
  0x18, 0x00, 0x00, 0x00, 0x54, 0xd0, 0xff, 0xff, 0x08, 0x00, 0x00, 0x00,
  0x10, 0x00, 0x00, 0x00, 0x01, 0x00, 0x00, 0x00, 0x80, 0xff, 0xff, 0xff,
  0xff, 0xff, 0xff, 0xff, 0x01, 0x00, 0x00, 0x00, 0xd6, 0x35, 0x1a, 0x3c,
  0x63, 0x00, 0x00, 0x00, 0x64, 0x73, 0x5f, 0x74, 0x63, 0x6e, 0x2f, 0x70,
  0x77, 0x5f, 0x63, 0x6f, 0x6e, 0x76, 0x32, 0x2f, 0x52, 0x65, 0x6c, 0x75,
  0x3b, 0x64, 0x73, 0x5f, 0x74, 0x63, 0x6e, 0x2f, 0x70, 0x77, 0x5f, 0x63,
  0x6f, 0x6e, 0x76, 0x32, 0x2f, 0x42, 0x69, 0x61, 0x73, 0x41, 0x64, 0x64,
  0x3b, 0x64, 0x73, 0x5f, 0x74, 0x63, 0x6e, 0x2f, 0x70, 0x77, 0x5f, 0x63,
  0x6f, 0x6e, 0x76, 0x32, 0x2f, 0x43, 0x6f, 0x6e, 0x76, 0x31, 0x44, 0x2f,
  0x53, 0x71, 0x75, 0x65, 0x65, 0x7a, 0x65, 0x3b, 0x3b, 0x64, 0x73, 0x5f,
  0x74, 0x63, 0x6e, 0x2f, 0x70, 0x77, 0x5f, 0x63, 0x6f, 0x6e, 0x76, 0x32,
  0x2f, 0x43, 0x6f, 0x6e, 0x76, 0x31, 0x44, 0x00, 0x04, 0x00, 0x00, 0x00,
  0x01, 0x00, 0x00, 0x00, 0x01, 0x00, 0x00, 0x00, 0x80, 0x00, 0x00, 0x00,
  0x18, 0x00, 0x00, 0x00, 0x36, 0xd1, 0xff, 0xff, 0x00, 0x00, 0x00, 0x01,
  0x18, 0x00, 0x00, 0x00, 0x28, 0x00, 0x00, 0x00, 0x48, 0x00, 0x00, 0x00,
  0x3e, 0x00, 0x00, 0x00, 0x00, 0x00, 0x00, 0x09, 0x64, 0x00, 0x00, 0x00,
  0x04, 0x00, 0x00, 0x00, 0xff, 0xff, 0xff, 0xff, 0x01, 0x00, 0x00, 0x00,
  0x80, 0x00, 0x00, 0x00, 0x18, 0x00, 0x00, 0x00, 0x24, 0xd1, 0xff, 0xff,
  0x08, 0x00, 0x00, 0x00, 0x14, 0x00, 0x00, 0x00, 0x01, 0x00, 0x00, 0x00,
  0x80, 0xff, 0xff, 0xff, 0xff, 0xff, 0xff, 0xff, 0x00, 0x00, 0x00, 0x00,
  0x01, 0x00, 0x00, 0x00, 0xc1, 0x38, 0x59, 0x3c, 0x21, 0x00, 0x00, 0x00,
  0x64, 0x73, 0x5f, 0x74, 0x63, 0x6e, 0x2f, 0x70, 0x77, 0x5f, 0x63, 0x6f,
  0x6e, 0x76, 0x32, 0x2f, 0x43, 0x6f, 0x6e, 0x76, 0x31, 0x44, 0x2f, 0x45,
  0x78, 0x70, 0x61, 0x6e, 0x64, 0x44, 0x69, 0x6d, 0x73, 0x00, 0x00, 0x00,
  0x04, 0x00, 0x00, 0x00, 0x01, 0x00, 0x00, 0x00, 0x01, 0x00, 0x00, 0x00,
  0x80, 0x00, 0x00, 0x00, 0x18, 0x00, 0x00, 0x00, 0xca, 0xd1, 0xff, 0xff,
  0x00, 0x00, 0x00, 0x01, 0x18, 0x00, 0x00, 0x00, 0x24, 0x00, 0x00, 0x00,
  0x44, 0x00, 0x00, 0x00, 0x3d, 0x00, 0x00, 0x00, 0x00, 0x00, 0x00, 0x09,
  0x70, 0x00, 0x00, 0x00, 0x03, 0x00, 0x00, 0x00, 0xff, 0xff, 0xff, 0xff,
  0x80, 0x00, 0x00, 0x00, 0x18, 0x00, 0x00, 0x00, 0xb4, 0xd1, 0xff, 0xff,
  0x08, 0x00, 0x00, 0x00, 0x14, 0x00, 0x00, 0x00, 0x01, 0x00, 0x00, 0x00,
  0x80, 0xff, 0xff, 0xff, 0xff, 0xff, 0xff, 0xff, 0x00, 0x00, 0x00, 0x00,
  0x01, 0x00, 0x00, 0x00, 0xc1, 0x38, 0x59, 0x3c, 0x32, 0x00, 0x00, 0x00,
  0x64, 0x73, 0x5f, 0x74, 0x63, 0x6e, 0x2f, 0x64, 0x77, 0x5f, 0x63, 0x6f,
  0x6e, 0x76, 0x32, 0x5f, 0x64, 0x34, 0x2f, 0x52, 0x65, 0x6c, 0x75, 0x3b,
  0x64, 0x73, 0x5f, 0x74, 0x63, 0x6e, 0x2f, 0x64, 0x77, 0x5f, 0x63, 0x6f,
  0x6e, 0x76, 0x32, 0x5f, 0x64, 0x34, 0x2f, 0x53, 0x71, 0x75, 0x65, 0x65,
  0x7a, 0x65, 0x00, 0x00, 0x03, 0x00, 0x00, 0x00, 0x01, 0x00, 0x00, 0x00,
  0x80, 0x00, 0x00, 0x00, 0x18, 0x00, 0x00, 0x00, 0x66, 0xd2, 0xff, 0xff,
  0x00, 0x00, 0x00, 0x01, 0x18, 0x00, 0x00, 0x00, 0x28, 0x00, 0x00, 0x00,
  0x48, 0x00, 0x00, 0x00, 0x3c, 0x00, 0x00, 0x00, 0x00, 0x00, 0x00, 0x09,
  0x90, 0x00, 0x00, 0x00, 0x04, 0x00, 0x00, 0x00, 0xff, 0xff, 0xff, 0xff,
  0x01, 0x00, 0x00, 0x00, 0x80, 0x00, 0x00, 0x00, 0x18, 0x00, 0x00, 0x00,
  0x54, 0xd2, 0xff, 0xff, 0x08, 0x00, 0x00, 0x00, 0x14, 0x00, 0x00, 0x00,
  0x01, 0x00, 0x00, 0x00, 0x80, 0xff, 0xff, 0xff, 0xff, 0xff, 0xff, 0xff,
  0x00, 0x00, 0x00, 0x00, 0x01, 0x00, 0x00, 0x00, 0xc1, 0x38, 0x59, 0x3c,
  0x4d, 0x00, 0x00, 0x00, 0x64, 0x73, 0x5f, 0x74, 0x63, 0x6e, 0x2f, 0x64,
  0x77, 0x5f, 0x63, 0x6f, 0x6e, 0x76, 0x32, 0x5f, 0x64, 0x34, 0x2f, 0x52,
  0x65, 0x6c, 0x75, 0x3b, 0x64, 0x73, 0x5f, 0x74, 0x63, 0x6e, 0x2f, 0x64,
  0x77, 0x5f, 0x63, 0x6f, 0x6e, 0x76, 0x32, 0x5f, 0x64, 0x34, 0x2f, 0x53,
  0x71, 0x75, 0x65, 0x65, 0x7a, 0x65, 0x3b, 0x64, 0x73, 0x5f, 0x74, 0x63,
  0x6e, 0x2f, 0x64, 0x77, 0x5f, 0x63, 0x6f, 0x6e, 0x76, 0x32, 0x5f, 0x64,
  0x34, 0x2f, 0x42, 0x69, 0x61, 0x73, 0x41, 0x64, 0x64, 0x00, 0x00, 0x00,
  0x04, 0x00, 0x00, 0x00, 0x01, 0x00, 0x00, 0x00, 0x01, 0x00, 0x00, 0x00,
  0x80, 0x00, 0x00, 0x00, 0x18, 0x00, 0x00, 0x00, 0x26, 0xd3, 0xff, 0xff,
  0x00, 0x00, 0x00, 0x01, 0x18, 0x00, 0x00, 0x00, 0x28, 0x00, 0x00, 0x00,
  0x44, 0x00, 0x00, 0x00, 0x3b, 0x00, 0x00, 0x00, 0x00, 0x00, 0x00, 0x09,
  0x68, 0x00, 0x00, 0x00, 0x04, 0x00, 0x00, 0x00, 0xff, 0xff, 0xff, 0xff,
  0x01, 0x00, 0x00, 0x00, 0x80, 0x00, 0x00, 0x00, 0x18, 0x00, 0x00, 0x00,
  0x14, 0xd3, 0xff, 0xff, 0x08, 0x00, 0x00, 0x00, 0x10, 0x00, 0x00, 0x00,
  0x01, 0x00, 0x00, 0x00, 0xfe, 0xff, 0xff, 0xff, 0xff, 0xff, 0xff, 0xff,
  0x01, 0x00, 0x00, 0x00, 0xb3, 0x42, 0x09, 0x3d, 0x2b, 0x00, 0x00, 0x00,
  0x64, 0x73, 0x5f, 0x74, 0x63, 0x6e, 0x2f, 0x64, 0x77, 0x5f, 0x63, 0x6f,
  0x6e, 0x76, 0x32, 0x5f, 0x64, 0x34, 0x2f, 0x64, 0x65, 0x70, 0x74, 0x68,
  0x77, 0x69, 0x73, 0x65, 0x2f, 0x42, 0x61, 0x74, 0x63, 0x68, 0x54, 0x6f,
  0x53, 0x70, 0x61, 0x63, 0x65, 0x4e, 0x44, 0x00, 0x04, 0x00, 0x00, 0x00,
  0x01, 0x00, 0x00, 0x00, 0x01, 0x00, 0x00, 0x00, 0x80, 0x00, 0x00, 0x00,
  0x18, 0x00, 0x00, 0x00, 0xbe, 0xd3, 0xff, 0xff, 0x00, 0x00, 0x00, 0x01,
  0x18, 0x00, 0x00, 0x00, 0x28, 0x00, 0x00, 0x00, 0x48, 0x00, 0x00, 0x00,
  0x3a, 0x00, 0x00, 0x00, 0x00, 0x00, 0x00, 0x09, 0x60, 0x00, 0x00, 0x00,
  0x04, 0x00, 0x00, 0x00, 0xff, 0xff, 0xff, 0xff, 0x01, 0x00, 0x00, 0x00,
  0x20, 0x00, 0x00, 0x00, 0x18, 0x00, 0x00, 0x00, 0xac, 0xd3, 0xff, 0xff,
  0x08, 0x00, 0x00, 0x00, 0x14, 0x00, 0x00, 0x00, 0x01, 0x00, 0x00, 0x00,
  0xfe, 0xff, 0xff, 0xff, 0xff, 0xff, 0xff, 0xff, 0x00, 0x00, 0x00, 0x00,
  0x01, 0x00, 0x00, 0x00, 0xb3, 0x42, 0x09, 0x3d, 0x1c, 0x00, 0x00, 0x00,
  0x64, 0x73, 0x5f, 0x74, 0x63, 0x6e, 0x2f, 0x64, 0x77, 0x5f, 0x63, 0x6f,
  0x6e, 0x76, 0x32, 0x5f, 0x64, 0x34, 0x2f, 0x64, 0x65, 0x70, 0x74, 0x68,
  0x77, 0x69, 0x73, 0x65, 0x00, 0x00, 0x00, 0x00, 0x04, 0x00, 0x00, 0x00,
  0x01, 0x00, 0x00, 0x00, 0x01, 0x00, 0x00, 0x00, 0x20, 0x00, 0x00, 0x00,
  0x18, 0x00, 0x00, 0x00, 0x4e, 0xd4, 0xff, 0xff, 0x00, 0x00, 0x00, 0x01,
  0x18, 0x00, 0x00, 0x00, 0x28, 0x00, 0x00, 0x00, 0x44, 0x00, 0x00, 0x00,
  0x39, 0x00, 0x00, 0x00, 0x00, 0x00, 0x00, 0x09, 0x68, 0x00, 0x00, 0x00,
  0x04, 0x00, 0x00, 0x00, 0xff, 0xff, 0xff, 0xff, 0x01, 0x00, 0x00, 0x00,
  0x22, 0x00, 0x00, 0x00, 0x18, 0x00, 0x00, 0x00, 0x3c, 0xd4, 0xff, 0xff,
  0x08, 0x00, 0x00, 0x00, 0x10, 0x00, 0x00, 0x00, 0x01, 0x00, 0x00, 0x00,
  0x80, 0xff, 0xff, 0xff, 0xff, 0xff, 0xff, 0xff, 0x01, 0x00, 0x00, 0x00,
  0x9e, 0x23, 0x8e, 0x3c, 0x2b, 0x00, 0x00, 0x00, 0x64, 0x73, 0x5f, 0x74,
  0x63, 0x6e, 0x2f, 0x64, 0x77, 0x5f, 0x63, 0x6f, 0x6e, 0x76, 0x32, 0x5f,
  0x64, 0x34, 0x2f, 0x64, 0x65, 0x70, 0x74, 0x68, 0x77, 0x69, 0x73, 0x65,
  0x2f, 0x53, 0x70, 0x61, 0x63, 0x65, 0x54, 0x6f, 0x42, 0x61, 0x74, 0x63,
  0x68, 0x4e, 0x44, 0x00, 0x04, 0x00, 0x00, 0x00, 0x01, 0x00, 0x00, 0x00,
  0x01, 0x00, 0x00, 0x00, 0x22, 0x00, 0x00, 0x00, 0x18, 0x00, 0x00, 0x00,
  0xe6, 0xd4, 0xff, 0xff, 0x00, 0x00, 0x00, 0x01, 0x18, 0x00, 0x00, 0x00,
  0x28, 0x00, 0x00, 0x00, 0x44, 0x00, 0x00, 0x00, 0x38, 0x00, 0x00, 0x00,
  0x00, 0x00, 0x00, 0x09, 0x5c, 0x00, 0x00, 0x00, 0x04, 0x00, 0x00, 0x00,
  0xff, 0xff, 0xff, 0xff, 0x01, 0x00, 0x00, 0x00, 0x88, 0x00, 0x00, 0x00,
  0x18, 0x00, 0x00, 0x00, 0xd4, 0xd4, 0xff, 0xff, 0x08, 0x00, 0x00, 0x00,
  0x10, 0x00, 0x00, 0x00, 0x01, 0x00, 0x00, 0x00, 0x80, 0xff, 0xff, 0xff,
  0xff, 0xff, 0xff, 0xff, 0x01, 0x00, 0x00, 0x00, 0x9e, 0x23, 0x8e, 0x3c,
  0x1d, 0x00, 0x00, 0x00, 0x64, 0x73, 0x5f, 0x74, 0x63, 0x6e, 0x2f, 0x64,
  0x77, 0x5f, 0x63, 0x6f, 0x6e, 0x76, 0x32, 0x5f, 0x64, 0x34, 0x2f, 0x45,
  0x78, 0x70, 0x61, 0x6e, 0x64, 0x44, 0x69, 0x6d, 0x73, 0x00, 0x00, 0x00,
  0x04, 0x00, 0x00, 0x00, 0x01, 0x00, 0x00, 0x00, 0x01, 0x00, 0x00, 0x00,
  0x88, 0x00, 0x00, 0x00, 0x18, 0x00, 0x00, 0x00, 0x72, 0xd5, 0xff, 0xff,
  0x00, 0x00, 0x00, 0x01, 0x18, 0x00, 0x00, 0x00, 0x24, 0x00, 0x00, 0x00,
  0x40, 0x00, 0x00, 0x00, 0x37, 0x00, 0x00, 0x00, 0x00, 0x00, 0x00, 0x09,
  0x54, 0x00, 0x00, 0x00, 0x03, 0x00, 0x00, 0x00, 0xff, 0xff, 0xff, 0xff,
  0x88, 0x00, 0x00, 0x00, 0x18, 0x00, 0x00, 0x00, 0x5c, 0xd5, 0xff, 0xff,
  0x08, 0x00, 0x00, 0x00, 0x10, 0x00, 0x00, 0x00, 0x01, 0x00, 0x00, 0x00,
  0x80, 0xff, 0xff, 0xff, 0xff, 0xff, 0xff, 0xff, 0x01, 0x00, 0x00, 0x00,
  0x9e, 0x23, 0x8e, 0x3c, 0x1b, 0x00, 0x00, 0x00, 0x64, 0x73, 0x5f, 0x74,
  0x63, 0x6e, 0x2f, 0x7a, 0x65, 0x72, 0x6f, 0x5f, 0x70, 0x61, 0x64, 0x64,
  0x69, 0x6e, 0x67, 0x31, 0x64, 0x5f, 0x32, 0x2f, 0x50, 0x61, 0x64, 0x00,
  0x03, 0x00, 0x00, 0x00, 0x01, 0x00, 0x00, 0x00, 0x88, 0x00, 0x00, 0x00,
  0x18, 0x00, 0x00, 0x00, 0xf2, 0xd5, 0xff, 0xff, 0x00, 0x00, 0x00, 0x01,
  0x18, 0x00, 0x00, 0x00, 0x24, 0x00, 0x00, 0x00, 0x44, 0x00, 0x00, 0x00,
  0x36, 0x00, 0x00, 0x00, 0x00, 0x00, 0x00, 0x09, 0x54, 0x00, 0x00, 0x00,
  0x03, 0x00, 0x00, 0x00, 0xff, 0xff, 0xff, 0xff, 0x80, 0x00, 0x00, 0x00,
  0x18, 0x00, 0x00, 0x00, 0xdc, 0xd5, 0xff, 0xff, 0x08, 0x00, 0x00, 0x00,
  0x14, 0x00, 0x00, 0x00, 0x01, 0x00, 0x00, 0x00, 0x80, 0xff, 0xff, 0xff,
  0xff, 0xff, 0xff, 0xff, 0x00, 0x00, 0x00, 0x00, 0x01, 0x00, 0x00, 0x00,
  0x9e, 0x23, 0x8e, 0x3c, 0x14, 0x00, 0x00, 0x00, 0x64, 0x73, 0x5f, 0x74,
  0x63, 0x6e, 0x2f, 0x72, 0x65, 0x73, 0x69, 0x64, 0x75, 0x61, 0x6c, 0x31,
  0x2f, 0x61, 0x64, 0x64, 0x00, 0x00, 0x00, 0x00, 0x03, 0x00, 0x00, 0x00,
  0x01, 0x00, 0x00, 0x00, 0x80, 0x00, 0x00, 0x00, 0x18, 0x00, 0x00, 0x00,
  0x72, 0xd6, 0xff, 0xff, 0x00, 0x00, 0x00, 0x01, 0x18, 0x00, 0x00, 0x00,
  0x24, 0x00, 0x00, 0x00, 0x40, 0x00, 0x00, 0x00, 0x35, 0x00, 0x00, 0x00,
  0x00, 0x00, 0x00, 0x09, 0x88, 0x00, 0x00, 0x00, 0x03, 0x00, 0x00, 0x00,
  0xff, 0xff, 0xff, 0xff, 0x80, 0x00, 0x00, 0x00, 0x18, 0x00, 0x00, 0x00,
