// Auto-generated by export_tflite.py — do not edit
// Model size: 13888 bytes (13.6 KB)
// SHA256 prefix: 6832e15c5415c0af
// Exported: 2026-03-20T20:50:56Z

#ifndef FRAME_ONSET_MODEL_DATA_V8_H
#define FRAME_ONSET_MODEL_DATA_V8_H

#define FRAME_ONSET_MODEL_DATA_V8_HASH "6832e15c5415c0af"
#define FRAME_ONSET_MODEL_DATA_SIZE 13888

alignas(8) static const unsigned char frame_onset_model_data[] = {
  0x1c, 0x00, 0x00, 0x00, 0x54, 0x46, 0x4c, 0x33, 0x14, 0x00, 0x20, 0x00,
  0x1c, 0x00, 0x18, 0x00, 0x14, 0x00, 0x10, 0x00, 0x0c, 0x00, 0x00, 0x00,
  0x08, 0x00, 0x04, 0x00, 0x14, 0x00, 0x00, 0x00, 0x1c, 0x00, 0x00, 0x00,
  0x88, 0x00, 0x00, 0x00, 0xe0, 0x00, 0x00, 0x00, 0x54, 0x1f, 0x00, 0x00,
  0x64, 0x1f, 0x00, 0x00, 0x94, 0x35, 0x00, 0x00, 0x03, 0x00, 0x00, 0x00,
  0x01, 0x00, 0x00, 0x00, 0x04, 0x00, 0x00, 0x00, 0xaa, 0xde, 0xff, 0xff,
  0x0c, 0x00, 0x00, 0x00, 0x1c, 0x00, 0x00, 0x00, 0x3c, 0x00, 0x00, 0x00,
  0x0f, 0x00, 0x00, 0x00, 0x73, 0x65, 0x72, 0x76, 0x69, 0x6e, 0x67, 0x5f,
  0x64, 0x65, 0x66, 0x61, 0x75, 0x6c, 0x74, 0x00, 0x01, 0x00, 0x00, 0x00,
  0x04, 0x00, 0x00, 0x00, 0x94, 0xff, 0xff, 0xff, 0x17, 0x00, 0x00, 0x00,
  0x04, 0x00, 0x00, 0x00, 0x0b, 0x00, 0x00, 0x00, 0x6f, 0x75, 0x74, 0x70,
  0x75, 0x74, 0x5f, 0x63, 0x6f, 0x6e, 0x76, 0x00, 0x01, 0x00, 0x00, 0x00,
  0x04, 0x00, 0x00, 0x00, 0x46, 0xe1, 0xff, 0xff, 0x04, 0x00, 0x00, 0x00,
  0x09, 0x00, 0x00, 0x00, 0x6d, 0x65, 0x6c, 0x5f, 0x69, 0x6e, 0x70, 0x75,
  0x74, 0x00, 0x00, 0x00, 0x02, 0x00, 0x00, 0x00, 0x34, 0x00, 0x00, 0x00,
  0x04, 0x00, 0x00, 0x00, 0xdc, 0xff, 0xff, 0xff, 0x1a, 0x00, 0x00, 0x00,
  0x04, 0x00, 0x00, 0x00, 0x13, 0x00, 0x00, 0x00, 0x43, 0x4f, 0x4e, 0x56,
  0x45, 0x52, 0x53, 0x49, 0x4f, 0x4e, 0x5f, 0x4d, 0x45, 0x54, 0x41, 0x44,
  0x41, 0x54, 0x41, 0x00, 0x08, 0x00, 0x0c, 0x00, 0x08, 0x00, 0x04, 0x00,
  0x08, 0x00, 0x00, 0x00, 0x19, 0x00, 0x00, 0x00, 0x04, 0x00, 0x00, 0x00,
  0x13, 0x00, 0x00, 0x00, 0x6d, 0x69, 0x6e, 0x5f, 0x72, 0x75, 0x6e, 0x74,
  0x69, 0x6d, 0x65, 0x5f, 0x76, 0x65, 0x72, 0x73, 0x69, 0x6f, 0x6e, 0x00,
  0x1b, 0x00, 0x00, 0x00, 0x70, 0x1e, 0x00, 0x00, 0x68, 0x1e, 0x00, 0x00,
  0x40, 0x1e, 0x00, 0x00, 0x24, 0x1e, 0x00, 0x00, 0x08, 0x1e, 0x00, 0x00,
  0xec, 0x1d, 0x00, 0x00, 0xd0, 0x1d, 0x00, 0x00, 0xb4, 0x1d, 0x00, 0x00,
  0x44, 0x1d, 0x00, 0x00, 0xb4, 0x1c, 0x00, 0x00, 0xa4, 0x0d, 0x00, 0x00,
  0x34, 0x0d, 0x00, 0x00, 0xf4, 0x00, 0x00, 0x00, 0xec, 0x00, 0x00, 0x00,
  0xe4, 0x00, 0x00, 0x00, 0xdc, 0x00, 0x00, 0x00, 0xd4, 0x00, 0x00, 0x00,
  0xcc, 0x00, 0x00, 0x00, 0xc4, 0x00, 0x00, 0x00, 0xbc, 0x00, 0x00, 0x00,
  0xb4, 0x00, 0x00, 0x00, 0xac, 0x00, 0x00, 0x00, 0xa4, 0x00, 0x00, 0x00,
  0x9c, 0x00, 0x00, 0x00, 0x94, 0x00, 0x00, 0x00, 0x74, 0x00, 0x00, 0x00,
  0x04, 0x00, 0x00, 0x00, 0x2a, 0xe2, 0xff, 0xff, 0x04, 0x00, 0x00, 0x00,
  0x60, 0x00, 0x00, 0x00, 0x0c, 0x00, 0x00, 0x00, 0x08, 0x00, 0x0e, 0x00,
  0x08, 0x00, 0x04, 0x00, 0x08, 0x00, 0x00, 0x00, 0x10, 0x00, 0x00, 0x00,
  0x28, 0x00, 0x00, 0x00, 0x00, 0x00, 0x06, 0x00, 0x08, 0x00, 0x04, 0x00,
  0x06, 0x00, 0x00, 0x00, 0x04, 0x00, 0x00, 0x00, 0x01, 0x00, 0x00, 0x00,
  0xeb, 0x03, 0x00, 0x00, 0x0c, 0x00, 0x18, 0x00, 0x14, 0x00, 0x10, 0x00,
  0x0c, 0x00, 0x04, 0x00, 0x0c, 0x00, 0x00, 0x00, 0xd6, 0x0f, 0x5e, 0xb3,
  0x0f, 0xa3, 0x2e, 0x67, 0x02, 0x00, 0x00, 0x00, 0x02, 0x00, 0x00, 0x00,
  0x04, 0x00, 0x00, 0x00, 0x06, 0x00, 0x00, 0x00, 0x32, 0x2e, 0x32, 0x30,
  0x2e, 0x30, 0x00, 0x00, 0x96, 0xe2, 0xff, 0xff, 0x04, 0x00, 0x00, 0x00,
  0x10, 0x00, 0x00, 0x00, 0x31, 0x2e, 0x31, 0x34, 0x2e, 0x30, 0x00, 0x00,
  0x00, 0x00, 0x00, 0x00, 0x00, 0x00, 0x00, 0x00, 0x04, 0xcd, 0xff, 0xff,
  0x08, 0xcd, 0xff, 0xff, 0x0c, 0xcd, 0xff, 0xff, 0x10, 0xcd, 0xff, 0xff,
  0x14, 0xcd, 0xff, 0xff, 0x18, 0xcd, 0xff, 0xff, 0x1c, 0xcd, 0xff, 0xff,
  0x20, 0xcd, 0xff, 0xff, 0x24, 0xcd, 0xff, 0xff, 0x28, 0xcd, 0xff, 0xff,
  0x2c, 0xcd, 0xff, 0xff, 0x30, 0xcd, 0xff, 0xff, 0xe2, 0xe2, 0xff, 0xff,
  0x04, 0x00, 0x00, 0x00, 0x30, 0x0c, 0x00, 0x00, 0x03, 0xfc, 0x04, 0x05,
  0x01, 0x06, 0xfb, 0xff, 0xfd, 0xff, 0xfa, 0xfb, 0xfb, 0xff, 0xfa, 0xff,
  0xff, 0xf8, 0x04, 0x03, 0x0b, 0x09, 0x11, 0x07, 0xdc, 0xad, 0xf8, 0xff,
  0x02, 0xfa, 0xfd, 0xfe, 0x01, 0xfd, 0xf8, 0xfd, 0x00, 0xfd, 0x00, 0xfc,
  0xfe, 0x05, 0x04, 0xfa, 0x06, 0x09, 0x05, 0x0b, 0x05, 0x05, 0xda, 0xc1,
  0xfc, 0xff, 0xfd, 0x01, 0xff, 0xfc, 0xfe, 0x06, 0xfb, 0x04, 0x05, 0xfd,
  0x04, 0xfd, 0x00, 0xfa, 0xfb, 0xff, 0xfd, 0xfc, 0x04, 0x04, 0x02, 0xf7,
  0x01, 0x0f, 0xfe, 0x03, 0xff, 0xfd, 0x04, 0x04, 0x00, 0xf9, 0x07, 0xfa,
  0xf8, 0xff, 0xfb, 0x04, 0xf8, 0x01, 0x00, 0x08, 0xf8, 0xf2, 0xf4, 0xec,
  0xfa, 0xfc, 0x26, 0x7f, 0x06, 0x01, 0xfb, 0x02, 0xfc, 0xf8, 0x03, 0x01,
  0x05, 0x02, 0x05, 0x07, 0x02, 0x01, 0x0c, 0xfe, 0xfd, 0x04, 0xfc, 0x02,
  0xf5, 0xf7, 0xea, 0xfa, 0x1c, 0x73, 0xc5, 0xb2, 0xd2, 0xde, 0xe2, 0xe2,
  0xe0, 0xda, 0xe0, 0xce, 0xd5, 0xd0, 0xcf, 0xc5, 0xbd, 0xb9, 0xb8, 0xd6,
  0xa2, 0x98, 0x85, 0x81, 0x9e, 0x99, 0xc3, 0xd9, 0xba, 0x05, 0x07, 0x0b,
  0x15, 0x15, 0x1c, 0x35, 0x14, 0x41, 0xf7, 0x4e, 0x22, 0x37, 0x40, 0x3f,
  0x4e, 0x02, 0x5f, 0x50, 0x5b, 0x6c, 0x3e, 0x63, 0x35, 0x6d, 0x24, 0x73,
  0x25, 0x12, 0x26, 0x0a, 0x15, 0x0b, 0xfd, 0x0a, 0x12, 0xf5, 0x0f, 0x04,
  0x03, 0xf8, 0xfa, 0x06, 0xf5, 0x04, 0xfb, 0xfe, 0xf8, 0xef, 0xf9, 0xde,
  0x32, 0x11, 0x00, 0x10, 0xf8, 0x09, 0x0d, 0xfc, 0x1b, 0xfe, 0x1e, 0xfd,
  0x0a, 0x05, 0x17, 0x1c, 0x10, 0x13, 0x0d, 0x15, 0x1e, 0x0e, 0x23, 0x03,
  0x10, 0xf8, 0x37, 0xc9, 0x08, 0xf9, 0xf3, 0xff, 0xe8, 0xf7, 0xfc, 0xed,
  0x0a, 0xf7, 0xfd, 0x02, 0xee, 0xfc, 0xf5, 0x19, 0x01, 0x05, 0x09, 0x08,
  0x0d, 0x11, 0x16, 0x11, 0xf4, 0xfe, 0x19, 0x0e, 0xf5, 0xf8, 0x06, 0x09,
  0xd9, 0xf0, 0xed, 0xfd, 0xe5, 0xf5, 0xf3, 0xe7, 0xdc, 0xe6, 0xb8, 0xb1,
  0x92, 0x89, 0x81, 0x90, 0x97, 0xd4, 0xed, 0xf1, 0x0b, 0x15, 0xf0, 0x0a,
  0x0f, 0xf8, 0xf2, 0x09, 0xec, 0x02, 0x07, 0xed, 0xe0, 0xe4, 0xce, 0xd5,
  0xe1, 0xb5, 0xc0, 0xa7, 0x9f, 0xbb, 0xca, 0xe3, 0x0f, 0x11, 0xfd, 0xf9,
  0x24, 0x13, 0xf6, 0xfb, 0x01, 0x00, 0xea, 0x13, 0xfb, 0xf2, 0x0a, 0x02,
  0x08, 0xf1, 0x04, 0x0d, 0xfd, 0xff, 0xeb, 0xe0, 0xe9, 0xff, 0x06, 0xe7,
  0xe4, 0xf7, 0x04, 0xe2, 0xf7, 0x16, 0x19, 0x08, 0x12, 0x11, 0x1d, 0x1d,
  0x27, 0x22, 0x3c, 0x3e, 0x43, 0x5f, 0x66, 0x6b, 0x7c, 0x5c, 0x58, 0x0e,
  0x0d, 0x19, 0xfa, 0xf0, 0xf7, 0x0c, 0x01, 0xf1, 0x1c, 0x00, 0x2e, 0xdf,
  0x00, 0x0f, 0xfe, 0x13, 0x15, 0x17, 0x22, 0x31, 0x4a, 0x69, 0x78, 0x78,
  0x60, 0x3a, 0x08, 0x04, 0xfd, 0xfe, 0x03, 0x00, 0x04, 0xf7, 0x00, 0xf4,
  0xf4, 0xf3, 0xf2, 0xf6, 0xe7, 0xf9, 0xf1, 0xf6, 0xf9, 0xff, 0x08, 0x14,
  0x06, 0x0c, 0x04, 0x05, 0xff, 0x13, 0x06, 0x02, 0x03, 0x04, 0xf5, 0xeb,
  0xe3, 0xce, 0xed, 0xc8, 0xcb, 0xc7, 0xbd, 0xbb, 0xc7, 0xdf, 0xc6, 0xdb,
  0xe6, 0xef, 0xed, 0xf7, 0x03, 0x07, 0x03, 0x0b, 0x08, 0x0a, 0x02, 0xf5,
  0xfd, 0xee, 0xf3, 0xd8, 0xf9, 0xd0, 0xdd, 0xd1, 0xdb, 0xce, 0xcd, 0xe3,
  0xd3, 0xd6, 0xd6, 0xd2, 0xea, 0xf7, 0x04, 0x10, 0xfe, 0xf4, 0xf2, 0xef,
  0xf7, 0x0b, 0x11, 0x2d, 0x25, 0x69, 0x24, 0x72, 0x66, 0x6f, 0x7b, 0x7f,
  0x78, 0x39, 0x70, 0x54, 0x44, 0x34, 0x1b, 0x0f, 0x12, 0xde, 0xf7, 0xe8,
  0x05, 0x06, 0x03, 0xfd, 0xf8, 0x03, 0x06, 0xfc, 0x03, 0x02, 0x00, 0x01,
  0x07, 0xff, 0x01, 0x0e, 0xfc, 0xfc, 0xfc, 0xf5, 0x09, 0xfc, 0xe4, 0x0b,
  0x6d, 0x7f, 0x68, 0x48, 0x46, 0x31, 0x2d, 0x2b, 0x14, 0x34, 0x07, 0x27,
  0x1e, 0x1d, 0x1a, 0x23, 0x23, 0x05, 0x21, 0x17, 0x19, 0x19, 0x14, 0x1f,
  0x07, 0x14, 0xf2, 0x0f, 0x0e, 0x09, 0x0b, 0x14, 0x09, 0x01, 0x00, 0x03,
  0xf6, 0x0b, 0x02, 0x0d, 0xf6, 0x01, 0x05, 0xfc, 0x04, 0xfa, 0xfd, 0x02,
  0x0c, 0x05, 0x01, 0x07, 0x8c, 0xab, 0xae, 0xcc, 0xd4, 0xd5, 0xe2, 0xec,
  0xe6, 0xf3, 0xe2, 0xf1, 0xec, 0xe5, 0xf3, 0xec, 0xf7, 0xd3, 0xf7, 0xf5,
  0xe9, 0xe5, 0xd6, 0xe0, 0xea, 0xe6, 0xce, 0xef, 0xf2, 0xfa, 0xf6, 0xfe,
  0xf5, 0xfa, 0xf1, 0xf8, 0xf8, 0xf6, 0xf6, 0xf2, 0xfe, 0xfe, 0xfa, 0xfe,
  0xfd, 0x03, 0x07, 0x00, 0x0b, 0x0f, 0x02, 0x0b, 0x34, 0xd5, 0xdc, 0xe1,
  0xe3, 0xe8, 0xf3, 0xef, 0x12, 0xe4, 0x21, 0xf2, 0xfe, 0xfe, 0x03, 0xf8,
  0xed, 0x28, 0xf1, 0xfb, 0xff, 0x0a, 0x08, 0xfc, 0x08, 0x04, 0x0f, 0xf5,
  0xfc, 0xfc, 0x02, 0xee, 0x01, 0x03, 0xfa, 0xff, 0xee, 0x03, 0x04, 0xf1,
  0xfc, 0x09, 0xea, 0x01, 0xf8, 0xeb, 0x02, 0xf1, 0xe1, 0xf3, 0xf8, 0x00,
  0x12, 0xf2, 0xf7, 0xef, 0xfd, 0xf5, 0x0a, 0xf7, 0xfc, 0x00, 0xfe, 0xed,
  0xfd, 0xfe, 0xe7, 0xe3, 0xe7, 0xe0, 0xe3, 0xe6, 0xc8, 0xc5, 0xef, 0xd5,
  0xd8, 0xcc, 0xef, 0xf4, 0xf1, 0x09, 0xf9, 0x16, 0xf8, 0x0b, 0x08, 0x02,
  0x01, 0x10, 0xfa, 0xfb, 0x00, 0x16, 0x0d, 0xfe, 0xf4, 0x0d, 0x0d, 0x05,
  0x01, 0xfc, 0xed, 0xe1, 0x05, 0x23, 0x2f, 0x2e, 0x27, 0x2d, 0x1f, 0x27,
  0x2c, 0x1e, 0x33, 0x2f, 0x1b, 0x48, 0x45, 0x30, 0x49, 0x40, 0x50, 0x48,
  0x48, 0x5c, 0x56, 0x57, 0x6a, 0x7f, 0x24, 0x1e, 0x08, 0xf8, 0x02, 0xf5,
  0xf8, 0xf2, 0xf6, 0xfd, 0xf9, 0xf0, 0x07, 0xe6, 0xf5, 0xf1, 0xf8, 0xfc,
  0x04, 0xfb, 0x00, 0x0f, 0xf6, 0x00, 0xf4, 0x0e, 0xe0, 0xee, 0xe8, 0xe0,
  0xe0, 0x09, 0x1d, 0x34, 0x46, 0x55, 0x57, 0x69, 0x6d, 0x65, 0x69, 0x6d,
  0x7c, 0x6b, 0x69, 0x72, 0x7f, 0x73, 0x70, 0x5c, 0x56, 0x4b, 0xe0, 0xbd,
  0xb3, 0xb8, 0xb9, 0xc7, 0xdf, 0xec, 0x02, 0xdb, 0xfa, 0xe2, 0xe7, 0xf0,
  0xe7, 0xf6, 0xe4, 0xf4, 0xe2, 0xf6, 0xdb, 0xdc, 0xe7, 0xf2, 0xee, 0xd3,
  0xec, 0x06, 0x1c, 0x15, 0x2c, 0x38, 0x08, 0xf8, 0xf8, 0xe8, 0xf1, 0xe6,
  0xd9, 0xe3, 0xf0, 0xd5, 0xd7, 0xf1, 0xe1, 0xd4, 0xd8, 0xec, 0xbe, 0xd8,
  0xea, 0xe3, 0x60, 0x6b, 0x4e, 0x59, 0x4d, 0x0a, 0x0f, 0xf4, 0xe7, 0xec,
  0xea, 0xe3, 0xe2, 0xe0, 0xdd, 0xe6, 0xd9, 0xda, 0xe5, 0xdd, 0xde, 0xd6,
  0xdc, 0xdb, 0xe0, 0xed, 0xfa, 0xe5, 0xfe, 0xff, 0xf3, 0xf2, 0xf1, 0xf8,
  0xde, 0x03, 0xd7, 0xf2, 0xf3, 0xec, 0xea, 0xe6, 0xf5, 0xd8, 0xf6, 0xee,
  0xf6, 0xf3, 0x10, 0x03, 0xfb, 0x2a, 0x10, 0x07, 0x0f, 0x19, 0x0e, 0x12,
  0x15, 0x1b, 0x2a, 0x1b, 0x2e, 0x35, 0x30, 0x3f, 0x43, 0x44, 0x52, 0x44,
  0x59, 0x63, 0x77, 0x77, 0x7f, 0x7f, 0x7b, 0x6f, 0x22, 0x18, 0x08, 0xfe,
  0x08, 0x05, 0x09, 0xfc, 0x04, 0x02, 0x0b, 0xfb, 0x0a, 0xf7, 0x00, 0xfa,
  0xed, 0x17, 0xfc, 0xf9, 0xf7, 0x01, 0xef, 0xe9, 0xe3, 0xd3, 0x02, 0x03,
  0xff, 0x00, 0x00, 0xfc, 0xfc, 0xff, 0x01, 0xfc, 0xec, 0x00, 0xfa, 0xfd,
  0xf5, 0xf4, 0xf4, 0xf0, 0xed, 0xf3, 0xec, 0xe6, 0xeb, 0xee, 0xd4, 0xf6,
  0xeb, 0xe5, 0xf4, 0xf7, 0xf3, 0xf5, 0xf5, 0xf9, 0xe6, 0xf5, 0xf0, 0xee,
  0xee, 0xe9, 0xe5, 0xf0, 0xf1, 0xd6, 0xee, 0xda, 0xde, 0xda, 0xe4, 0xe7,
  0xe9, 0xec, 0xdb, 0xf5, 0xf4, 0xf0, 0xf4, 0xf6, 0xed, 0xed, 0xe8, 0xee,
  0xe8, 0xde, 0xdc, 0xe3, 0xde, 0xdc, 0xd8, 0xdc, 0xcd, 0xd3, 0xc4, 0xc2,
  0xc4, 0xc2, 0xe2, 0xd7, 0xf2, 0x00, 0xfb, 0xf6, 0xfc, 0xf7, 0xf9, 0xfb,
  0xf7, 0xf8, 0xf8, 0xf8, 0xfc, 0xf3, 0xfd, 0xfe, 0xf6, 0xf6, 0xf5, 0xfa,
  0xf7, 0xff, 0xf8, 0xf6, 0x09, 0x25, 0xcd, 0xf3, 0xf7, 0xfe, 0xff, 0xff,
  0x01, 0xf4, 0xfc, 0x06, 0xfd, 0x03, 0xf7, 0x0a, 0x02, 0x01, 0x03, 0x08,
  0x01, 0x02, 0x0e, 0x02, 0x0c, 0x0c, 0xfe, 0x16, 0xe1, 0x12, 0x05, 0x01,
  0xff, 0x21, 0x28, 0x36, 0x46, 0x3d, 0x59, 0x47, 0x4f, 0x59, 0x5e, 0x50,
  0x61, 0x62, 0x6f, 0x77, 0x68, 0x7f, 0x6c, 0x60, 0x65, 0x4a, 0x13, 0x21,
  0x03, 0x02, 0x02, 0xf5, 0xf0, 0xe7, 0xe2, 0xdc, 0xd5, 0xd7, 0xd4, 0xd0,
  0xc8, 0xcb, 0xc1, 0xc2, 0xb9, 0xb6, 0xb0, 0xb7, 0xd1, 0xc3, 0xc2, 0xc2,
  0x51, 0xdf, 0x0c, 0x0d, 0x06, 0xf8, 0xf5, 0xf8, 0xe6, 0xec, 0xdf, 0xe9,
  0xed, 0xdd, 0xdc, 0xe5, 0xe7, 0xe2, 0xe2, 0xd6, 0xe3, 0xca, 0xc3, 0xdd,
  0xd8, 0xc9, 0x56, 0x7f, 0x5c, 0x47, 0x45, 0x2b, 0x18, 0x09, 0x0a, 0xf7,
  0x0f, 0xf0, 0xfe, 0xf8, 0xfe, 0xfb, 0xf5, 0x06, 0xf4, 0xf5, 0xfc, 0xff,
  0xf8, 0x02, 0x05, 0x00, 0x10, 0xc4, 0xde, 0xf6, 0xf4, 0xfa, 0xfb, 0xf3,
  0xf9, 0xf2, 0xf8, 0xf8, 0xff, 0xfc, 0xf6, 0xfb, 0xf7, 0xf5, 0xf5, 0x01,
  0xfb, 0x02, 0xfe, 0xfb, 0x00, 0x07, 0xdf, 0xd1, 0xf0, 0xe1, 0xe4, 0xee,
  0xf6, 0x00, 0x00, 0x0d, 0xff, 0x0d, 0xff, 0x07, 0x0e, 0x08, 0x09, 0x04,
  0x0c, 0x07, 0x07, 0xfd, 0x08, 0x05, 0xf8, 0xfe, 0xd6, 0xf1, 0xeb, 0xf2,
  0xf0, 0xf3, 0xf6, 0x04, 0xfc, 0x08, 0xfa, 0x09, 0x01, 0x04, 0xff, 0x00,
  0x08, 0x05, 0x03, 0x01, 0x04, 0x03, 0x02, 0xfe, 0x03, 0xf6, 0xe7, 0xfb,
  0xec, 0xf1, 0xf3, 0xf9, 0x00, 0x00, 0x02, 0x01, 0xff, 0x02, 0x03, 0x01,
  0xfe, 0x02, 0x03, 0xfb, 0x06, 0x01, 0xfe, 0xfd, 0xfe, 0xff, 0xff, 0x04,
  0x81, 0xbf, 0xb8, 0xcc, 0xda, 0xd9, 0xdf, 0xf4, 0xe5, 0x10, 0xbf, 0x0c,
  0xf5, 0xf8, 0xff, 0xfe, 0x10, 0xd1, 0x0f, 0xfa, 0x06, 0xfe, 0x05, 0x00,
  0xed, 0x03, 0xc4, 0xed, 0xce, 0xde, 0xf1, 0xee, 0xf6, 0x06, 0xe4, 0x26,
  0xd5, 0x18, 0xef, 0x00, 0xf1, 0x02, 0x08, 0xd8, 0x11, 0x00, 0xf6, 0x04,
  0xee, 0x12, 0xe4, 0x0a, 0x10, 0x1d, 0x21, 0x23, 0x1d, 0x1d, 0x12, 0x1d,
  0xf9, 0x19, 0xfa, 0x10, 0x0f, 0x0c, 0x08, 0x08, 0x11, 0xfe, 0x10, 0x0a,
  0x07, 0x0b, 0x07, 0x0c, 0x01, 0x09, 0x42, 0x24, 0x37, 0x22, 0x0c, 0x0f,
  0x07, 0xf8, 0x14, 0xe9, 0x19, 0xf6, 0xfd, 0x01, 0xfd, 0xfa, 0xf4, 0x12,
  0xf4, 0xfb, 0xfb, 0xfe, 0xf9, 0xf9, 0x05, 0xfd, 0x56, 0x11, 0x17, 0x09,
  0x0a, 0x0a, 0x0f, 0xf5, 0x21, 0xd3, 0x48, 0xe1, 0x0f, 0xfb, 0x0a, 0x01,
  0xe7, 0x37, 0xe6, 0x03, 0x02, 0xf7, 0x0b, 0xf1, 0x21, 0xf3, 0x30, 0x02,
  0x10, 0x10, 0x08, 0x11, 0x0c, 0x17, 0x14, 0x1a, 0x18, 0x20, 0x21, 0x15,
  0x26, 0x19, 0x1a, 0x17, 0x13, 0x1b, 0xfd, 0xe5, 0xd8, 0xee, 0xfe, 0xfc,
  0x16, 0xfd, 0x06, 0x08, 0x0b, 0xff, 0x15, 0x0f, 0x0e, 0x14, 0x15, 0x16,
  0x09, 0x1f, 0x17, 0x1a, 0x1f, 0xfe, 0x0d, 0xfb, 0xeb, 0xc9, 0xc5, 0xc2,
  0xe5, 0xd5, 0xf2, 0x07, 0x10, 0x02, 0x02, 0x0d, 0x03, 0x04, 0x09, 0x13,
  0xe3, 0x0d, 0x0b, 0xf4, 0xf6, 0x02, 0xe9, 0xed, 0xda, 0xc3, 0xad, 0xb3,
  0xc0, 0xb0, 0xac, 0x93, 0xe3, 0x04, 0xe5, 0xdd, 0xee, 0xdf, 0xdf, 0xde,
  0xdf, 0xcb, 0xf9, 0xd4, 0xd7, 0xe4, 0xf2, 0xe2, 0x00, 0x09, 0x1a, 0x2d,
  0x59, 0x7f, 0x7b, 0x6f, 0x52, 0x4b, 0xe6, 0xf8, 0xf6, 0x09, 0xfe, 0x03,
  0xfe, 0xfa, 0xf9, 0xf5, 0xf8, 0xea, 0xf3, 0xf5, 0xdf, 0xec, 0xe1, 0xf7,
  0xee, 0xf7, 0x0e, 0x20, 0x22, 0x29, 0x1b, 0x46, 0xf8, 0xfa, 0xe7, 0xe8,
  0xe9, 0xea, 0xd0, 0xdd, 0xe8, 0xed, 0xd9, 0xe2, 0xea, 0xda, 0xf1, 0xf3,
  0xe5, 0xe9, 0xf6, 0x04, 0xfa, 0xf0, 0xf1, 0xfd, 0xf4, 0x0f, 0xf2, 0xf3,
  0xe8, 0xd5, 0xd9, 0xd3, 0xd4, 0xdb, 0xd9, 0xd6, 0xec, 0xd5, 0xd4, 0xe3,
  0xed, 0xe8, 0xe2, 0xf3, 0xdd, 0x02, 0xee, 0xeb, 0xf3, 0xf9, 0xfe, 0x09,
  0x00, 0xf2, 0xee, 0xf2, 0xda, 0xd9, 0xd7, 0xd3, 0xf1, 0xe3, 0xe5, 0xdc,
  0xd3, 0xee, 0xde, 0xe6, 0xf7, 0xd7, 0xf6, 0xf5, 0xdd, 0xec, 0xe7, 0xed,
  0x05, 0xfd, 0x0f, 0xf0, 0xf9, 0x05, 0x12, 0x0c, 0x04, 0x02, 0x0d, 0x05,
  0x16, 0xfd, 0x18, 0xf4, 0x0b, 0x04, 0xfc, 0x1f, 0xfd, 0xea, 0xf4, 0xe0,
  0xf3, 0xe8, 0xe2, 0xed, 0x0a, 0x34, 0x4d, 0x4c, 0x53, 0x5e, 0x7f, 0x73,
  0x41, 0x55, 0x41, 0x73, 0x59, 0x63, 0x3b, 0x3f, 0x49, 0x31, 0x3d, 0x1e,
  0x4a, 0x5b, 0x44, 0x38, 0x2a, 0x08, 0xbb, 0xed, 0xe1, 0xe8, 0xdf, 0xdf,
  0xde, 0xef, 0xd9, 0xf2, 0xd5, 0xeb, 0xdc, 0xe6, 0xde, 0xe3, 0xec, 0xd9,
  0xec, 0xdc, 0xe8, 0xe3, 0xd9, 0xe9, 0xee, 0x0b, 0xe8, 0x09, 0x05, 0x00,
  0xe2, 0x08, 0xf1, 0xf3, 0xf6, 0xff, 0xeb, 0x00, 0xe9, 0xfa, 0xed, 0xf2,
  0x02, 0xf2, 0x05, 0xf1, 0xf3, 0x01, 0x0c, 0xfd, 0x01, 0x11, 0xc9, 0x11,
  0xfc, 0xf6, 0xf0, 0xea, 0xea, 0xf6, 0xcb, 0x07, 0xc1, 0xfd, 0xeb, 0xf0,
  0xe4, 0xe9, 0x01, 0xb0, 0xfa, 0xed, 0xdd, 0xe0, 0xd9, 0xf5, 0xe7, 0x21,
  0x03, 0x27, 0x08, 0x0a, 0x1e, 0xfe, 0x0e, 0x1b, 0x05, 0x22, 0xf9, 0x1f,
  0x14, 0x14, 0x17, 0x13, 0x16, 0xfe, 0x1e, 0x14, 0x1e, 0x11, 0x0e, 0x17,
  0xf9, 0x0d, 0x7f, 0xde, 0x16, 0x14, 0x2b, 0x31, 0x35, 0x17, 0x4c, 0x01,
  0x5e, 0x10, 0x38, 0x24, 0x35, 0x2d, 0x13, 0x5e, 0x12, 0x29, 0x28, 0x2a,
  0x2f, 0x1a, 0x24, 0x10, 0x11, 0x01, 0x00, 0xfa, 0x00, 0x00, 0x08, 0xfc,
  0xfb, 0x06, 0x01, 0x02, 0x01, 0x03, 0x01, 0xfc, 0x04, 0xf4, 0xff, 0xf8,
  0x00, 0xef, 0xef, 0xf7, 0xe9, 0xf3, 0x08, 0xfe, 0xf7, 0x01, 0xff, 0x05,
  0xfd, 0xfd, 0x05, 0x01, 0xfc, 0x08, 0x07, 0xfa, 0xf8, 0xfc, 0xf8, 0xeb,
  0xf5, 0xda, 0xe1, 0xde, 0xe0, 0xe4, 0xe7, 0xf7, 0xfd, 0xfc, 0xfb, 0x03,
  0xff, 0xf9, 0x00, 0x02, 0xf4, 0xfb, 0xf0, 0xfa, 0xfe, 0xfb, 0xf0, 0xea,
  0xe2, 0xeb, 0xc8, 0xbc, 0xb3, 0xb8, 0xc1, 0xbb, 0xd6, 0xda, 0xfb, 0x08,
  0x0e, 0x04, 0x09, 0x0d, 0x0c, 0x06, 0x01, 0xfd, 0xfa, 0xfc, 0xf7, 0x02,
  0x01, 0xfa, 0xf3, 0x0d, 0xef, 0xfd, 0xf4, 0xfa, 0xff, 0xf6, 0xf8, 0xe7,
  0xef, 0xfc, 0x03, 0xfe, 0xfa, 0xf8, 0xf1, 0xff, 0x0b, 0x04, 0x19, 0x01,
  0x05, 0x08, 0x19, 0x25, 0x31, 0x2b, 0x54, 0x74, 0x75, 0x7f, 0x6f, 0x71,
  0x60, 0x58, 0xbe, 0xfe, 0xe7, 0xfc, 0xf1, 0xec, 0xe6, 0xdf, 0xd5, 0xd9,
  0xbf, 0xcc, 0xbc, 0xc9, 0xbf, 0xb5, 0xaf, 0xbd, 0xa7, 0xaa, 0xb8, 0xb1,
  0xb6, 0xa3, 0xa5, 0x81, 0xc4, 0xdb, 0xeb, 0xf0, 0xf0, 0xeb, 0xef, 0xe2,
  0xe1, 0xe5, 0xe2, 0xe2, 0xdd, 0xd3, 0xbe, 0xde, 0xd6, 0xd2, 0xd9, 0xd0,
  0xc8, 0xce, 0xe2, 0xe0, 0xbf, 0xb9, 0xf7, 0xc2, 0xda, 0xd9, 0xeb, 0xfd,
  0xf3, 0x01, 0xff, 0x13, 0xf7, 0x0f, 0xfa, 0x01, 0x09, 0x01, 0xfe, 0x0d,
  0x09, 0x1d, 0x02, 0x23, 0x0a, 0x23, 0x0e, 0x34, 0x3e, 0x1d, 0x24, 0x29,
  0x37, 0x31, 0x2d, 0x35, 0x2c, 0x33, 0x2b, 0x4b, 0x3b, 0x50, 0x57, 0x57,
  0x5f, 0x2e, 0x61, 0x51, 0x66, 0x44, 0x44, 0x49, 0x3e, 0x63, 0x4e, 0x52,
  0x38, 0x15, 0x08, 0x00, 0x11, 0x0b, 0x20, 0x01, 0x37, 0xfd, 0x2f, 0x0f,
  0x23, 0x11, 0x1a, 0x2d, 0x0e, 0x11, 0x13, 0x1a, 0x1e, 0x10, 0x3f, 0x3e,
  0xe6, 0xdf, 0xdf, 0xd7, 0xe0, 0xee, 0xfe, 0x04, 0x07, 0x06, 0x0b, 0x07,
  0x09, 0x04, 0x0e, 0x08, 0x07, 0x0e, 0x07, 0x06, 0x0c, 0x05, 0x05, 0x01,
  0x0a, 0xf3, 0xec, 0xe5, 0xdb, 0xcf, 0xdb, 0xee, 0xf6, 0x03, 0x05, 0x03,
  0x0a, 0x03, 0x01, 0x09, 0x01, 0x05, 0x01, 0x10, 0x06, 0x06, 0x09, 0x0c,
  0x02, 0x05, 0xfe, 0xfa, 0xf2, 0xf6, 0xe0, 0xdb, 0xd7, 0xf0, 0x06, 0x02,
  0x05, 0xfb, 0x09, 0xff, 0xff, 0xfc, 0xfb, 0xf8, 0xff, 0xfd, 0xf6, 0xf8,
  0xf2, 0xfb, 0x00, 0xfc, 0xf6, 0xff, 0xf2, 0xf6, 0xf5, 0xfc, 0x08, 0x13,
  0x0e, 0xfe, 0xfe, 0x00, 0xec, 0xfc, 0xf7, 0xfc, 0xf7, 0xfc, 0xf8, 0xf3,
  0xfa, 0xfe, 0xfa, 0xf5, 0xfd, 0xfe, 0xfd, 0x09, 0x48, 0x4c, 0x6e, 0x7f,
  0x63, 0x20, 0xf7, 0xf9, 0xf2, 0xfe, 0xf8, 0xfc, 0x00, 0xfc, 0x01, 0x00,
  0x03, 0xf5, 0x05, 0xff, 0x00, 0x02, 0xfd, 0x02, 0x04, 0x08, 0x13, 0xf6,
  0x06, 0x07, 0x06, 0x0b, 0x0c, 0x15, 0x11, 0x22, 0x10, 0x2e, 0x1f, 0x26,
  0x29, 0x29, 0x2a, 0x19, 0x23, 0x2c, 0x1b, 0x2b, 0x20, 0x17, 0x1d, 0x1f,
  0x09, 0x01, 0xd2, 0xd2, 0xc6, 0xca, 0xd2, 0xd0, 0xd4, 0xb7, 0xd6, 0xba,
  0xb7, 0xbd, 0xb3, 0xb4, 0xa3, 0xd2, 0xb1, 0xa6, 0xb9, 0xa1, 0xb6, 0xbe,
  0xec, 0x1c, 0xea, 0x46, 0x63, 0x78, 0x7f, 0x6a, 0x5a, 0x54, 0x3f, 0x58,
  0x4e, 0x44, 0x53, 0x57, 0x58, 0x51, 0x53, 0x4c, 0x48, 0x46, 0x49, 0x3e,
  0x2a, 0x19, 0x0c, 0xd5, 0x17, 0xce, 0xc3, 0xb1, 0xb4, 0xc9, 0xd3, 0xbd,
  0xe7, 0xc7, 0xde, 0xc8, 0xd8, 0xc5, 0xce, 0xcf, 0xd4, 0xd3, 0xd8, 0xdd,
  0xde, 0xf2, 0xf5, 0x0b, 0x05, 0xf5, 0xea, 0xf2, 0x04, 0xff, 0x01, 0xf8,
  0xf9, 0x0c, 0xf7, 0x09, 0xf2, 0x0e, 0x02, 0x06, 0x01, 0x05, 0x0e, 0xfa,
  0x10, 0x0d, 0x0a, 0x08, 0x0c, 0x0a, 0xf3, 0xf6, 0x27, 0x06, 0x1b, 0x16,
  0x1b, 0x0b, 0xf9, 0xec, 0x02, 0xd4, 0xe1, 0xe0, 0xd3, 0xde, 0xcd, 0xc7,
  0xe1, 0xe6, 0xd0, 0xd7, 0xd2, 0xca, 0xe1, 0xf4, 0x2f, 0x21, 0x09, 0xfc,
  0x14, 0x1a, 0x10, 0x0b, 0x02, 0xec, 0xe5, 0xcc, 0xeb, 0xd2, 0xc1, 0xc4,
  0xe1, 0xc2, 0xbf, 0xf9, 0xcf, 0xd9, 0xd7, 0xdb, 0xf6, 0xfb, 0x34, 0x32,
  0x05, 0xf6, 0x04, 0x20, 0x1a, 0x1f, 0x04, 0xfa, 0xee, 0xf2, 0xf8, 0xcf,
  0xee, 0xdd, 0xe5, 0xe4, 0xe2, 0xe4, 0xf0, 0xf2, 0xfe, 0xf7, 0x00, 0x1c,
  0x0a, 0x32, 0x01, 0x13, 0xef, 0xef, 0xf2, 0xdb, 0xf5, 0xf7, 0x03, 0xf1,
  0x10, 0xfd, 0x0c, 0x14, 0x04, 0x11, 0x10, 0x0e, 0x12, 0x15, 0x19, 0x2b,
  0x0b, 0x09, 0xe3, 0xd8, 0xd9, 0xfe, 0xe6, 0xcd, 0xd1, 0xf4, 0x0d, 0x38,
  0x27, 0x78, 0x2d, 0x7f, 0x71, 0x69, 0x68, 0x7b, 0x65, 0x2c, 0x59, 0x47,
  0x3b, 0x3c, 0x19, 0xea, 0xb2, 0x91, 0x62, 0x7f, 0x4b, 0x4d, 0x5f, 0x51,
  0x48, 0x44, 0x3f, 0x4c, 0x33, 0x48, 0x4e, 0x44, 0x44, 0x56, 0x48, 0x3f,
  0x46, 0x3c, 0x3e, 0x28, 0x24, 0x00, 0xf0, 0xc3, 0x2e, 0x2c, 0x38, 0x2c,
  0x15, 0x11, 0x10, 0x14, 0x0c, 0xfa, 0x10, 0x05, 0x09, 0xf3, 0x0e, 0xf0,
  0xfd, 0x17, 0xef, 0x00, 0xf0, 0xf6, 0xf4, 0xfd, 0xe5, 0xdc, 0x15, 0xdd,
  0xe3, 0xf1, 0xee, 0xf0, 0xe5, 0xdf, 0xf1, 0xe9, 0xf7, 0xe3, 0xe6, 0xf1,
  0xdc, 0xec, 0xf0, 0xed, 0xf3, 0xe4, 0xf0, 0xee, 0xfd, 0x06, 0x17, 0x1e,
  0xce, 0xb8, 0xd9, 0xcc, 0xcc, 0xca, 0xe4, 0xdf, 0xe8, 0xda, 0xe1, 0xe8,
  0xda, 0xe3, 0xe9, 0xe2, 0xe1, 0xda, 0xe4, 0xea, 0xf9, 0xe9, 0xef, 0xff,
  0x0c, 0x23, 0x8d, 0xc2, 0xc0, 0xc7, 0xd0, 0xdf, 0xdc, 0xe8, 0xdb, 0xf5,
  0xe7, 0xe8, 0xe8, 0xf5, 0xe9, 0xed, 0xeb, 0xe6, 0xf6, 0xf6, 0xe9, 0x0b,
  0xfd, 0x00, 0x03, 0x13, 0xfe, 0xfc, 0xfa, 0xf1, 0xea, 0xec, 0xeb, 0xf8,
  0xfb, 0xfb, 0xfb, 0x01, 0x02, 0x02, 0x01, 0x02, 0x02, 0x05, 0xfe, 0x02,
  0xfb, 0x01, 0x02, 0xfc, 0xfa, 0xfc, 0xf9, 0xf1, 0xe1, 0xe2, 0xce, 0xd1,
  0xd6, 0xdf, 0xef, 0xec, 0xf0, 0xf6, 0x01, 0xfa, 0x03, 0x00, 0x00, 0x04,
  0x04, 0xfb, 0x0c, 0xfc, 0x03, 0x00, 0x00, 0xf2, 0xbf, 0xd0, 0xb4, 0xa8,
  0x97, 0xa8, 0xb5, 0xbb, 0xd9, 0xc7, 0xe2, 0xe2, 0xee, 0xf7, 0xe7, 0xf3,
  0x05, 0xe6, 0x07, 0xff, 0x01, 0x0d, 0x02, 0x09, 0x08, 0x09, 0xf9, 0x4b,
  0x60, 0x63, 0x7f, 0x6d, 0x60, 0x65, 0x2d, 0x5e, 0x27, 0x37, 0x1a, 0x1a,
  0x24, 0x1f, 0x06, 0x10, 0x06, 0x12, 0x08, 0xf8, 0xfd, 0xf6, 0xfe, 0x01,
  0x53, 0xfc, 0x11, 0x21, 0x2f, 0x2b, 0x26, 0x06, 0x0f, 0xf4, 0x0e, 0xf1,
  0xf7, 0xf3, 0xf2, 0xef, 0xf5, 0x02, 0xf1, 0xf3, 0xed, 0xff, 0xfd, 0x05,
  0x00, 0x06, 0x1f, 0x03, 0x08, 0x09, 0x0c, 0xf5, 0x01, 0xf3, 0x02, 0xe4,
  0xec, 0xe8, 0xeb, 0xdd, 0xdd, 0xdf, 0xc4, 0xf8, 0xb4, 0xb8, 0xb5, 0x9d,
  0xb9, 0x9d, 0xbc, 0xb6, 0x1d, 0x00, 0x00, 0xff, 0xfa, 0x07, 0xed, 0xe8,
  0xf5, 0xea, 0xe5, 0xd7, 0xd7, 0xdc, 0xd6, 0xe1, 0xe9, 0xd8, 0xce, 0xdb,
  0xf1, 0xe9, 0xe9, 0xd5, 0xfb, 0x0d, 0xe3, 0xe3, 0xff, 0xf6, 0x08, 0xfe,
  0x0f, 0x08, 0x04, 0x0d, 0x11, 0x16, 0x21, 0x1f, 0x2b, 0x2d, 0x2c, 0x11,
  0x56, 0x49, 0x56, 0x68, 0x45, 0x7f, 0x66, 0x66, 0xef, 0x1a, 0x01, 0x10,
  0xfa, 0x07, 0x02, 0x09, 0xf8, 0x20, 0x0e, 0x1f, 0x12, 0x1b, 0x16, 0x0d,
  0x25, 0x15, 0x1d, 0x2f, 0x23, 0x26, 0x33, 0x2f, 0x14, 0x0e, 0xf2, 0x01,
  0xf7, 0xee, 0xf8, 0xfe, 0x02, 0x13, 0x0a, 0x06, 0x0f, 0x0a, 0x0a, 0x0b,
  0x09, 0x04, 0x01, 0x08, 0x09, 0xf2, 0xdf, 0xe9, 0xe4, 0xdf, 0xcb, 0xbe,
  0xd9, 0xe9, 0xfd, 0x09, 0x0b, 0xfe, 0x00, 0xfe, 0x01, 0xfa, 0x04, 0xfc,
  0x01, 0xfd, 0xff, 0x01, 0xfe, 0x06, 0xfc, 0x01, 0xfe, 0xfd, 0x05, 0xfe,
  0x02, 0xfb, 0xd1, 0xda, 0xf8, 0x05, 0x07, 0xff, 0x00, 0x03, 0xfc, 0x04,
  0x00, 0x03, 0xfd, 0x03, 0x04, 0x01, 0x01, 0xfd, 0x01, 0xff, 0x01, 0xff,
  0xfa, 0x01, 0xfe, 0xfd, 0xe1, 0xdc, 0x0e, 0x13, 0x0d, 0x07, 0x05, 0x01,
  0x02, 0x02, 0x00, 0x01, 0x05, 0xfe, 0x01, 0xff, 0xfe, 0x07, 0xfd, 0xff,
  0xff, 0x00, 0xff, 0xfe, 0x00, 0x01, 0x47, 0x7f, 0x13, 0xea, 0xea, 0xfc,
  0xfa, 0xfc, 0x04, 0xfa, 0x02, 0xfe, 0xfc, 0x01, 0xfe, 0xff, 0x00, 0xfc,
  0x02, 0x00, 0x01, 0x03, 0x00, 0x00, 0x03, 0x06, 0x49, 0xdd, 0xe9, 0xf4,
  0xf6, 0xff, 0x01, 0x01, 0xfd, 0x04, 0xf9, 0x01, 0x01, 0x00, 0xff, 0x00,
  0x02, 0xfa, 0x03, 0xff, 0x00, 0x00, 0x02, 0x02, 0xfd, 0x00, 0xd4, 0x0d,
  0xfb, 0xf5, 0xf0, 0xf1, 0xf5, 0x06, 0xe9, 0x1c, 0xcb, 0x14, 0xf7, 0xf9,
  0xf3, 0x02, 0x13, 0xc6, 0x16, 0x03, 0x02, 0x01, 0xf1, 0x08, 0xf9, 0x0d,
  0x9a, 0x15, 0x02, 0xfd, 0xee, 0xe9, 0xf8, 0x05, 0xd3, 0x19, 0x91, 0x10,
  0xf7, 0xfa, 0xf7, 0x03, 0x0c, 0x81, 0x14, 0xff, 0xfd, 0xfe, 0xf1, 0x09,
  0xf9, 0x19, 0xb2, 0xf7, 0xf1, 0xeb, 0xe4, 0xd4, 0xe4, 0xf1, 0xc6, 0x08,
  0xaa, 0x00, 0xde, 0xe8, 0xe5, 0xf4, 0xf3, 0x9a, 0xfc, 0xf5, 0xf2, 0xf2,
  0xd2, 0xfb, 0xf2, 0x0b, 0xf6, 0x05, 0x00, 0x03, 0xff, 0x00, 0x00, 0x05,
  0xff, 0x0b, 0xfc, 0x0b, 0x02, 0x07, 0x04, 0x0a, 0x0c, 0x02, 0x0e, 0x0e,
  0x0a, 0x0f, 0x0a, 0x11, 0x0b, 0x18, 0x10, 0xfb, 0x00, 0xfd, 0x02, 0x06,
  0x04, 0x01, 0x0a, 0xfb, 0x12, 0xfd, 0x07, 0x05, 0x08, 0x01, 0x01, 0x11,
  0x03, 0x06, 0x07, 0x05, 0x07, 0x02, 0x02, 0x03, 0x1e, 0xef, 0xff, 0xff,
  0x04, 0x00, 0x00, 0x00, 0x60, 0x00, 0x00, 0x00, 0x14, 0xfc, 0xff, 0xff,
  0x81, 0x80, 0xff, 0xff, 0x60, 0xee, 0xff, 0xff, 0x3a, 0xf5, 0xff, 0xff,
  0x66, 0xab, 0xff, 0xff, 0xae, 0x28, 0xfe, 0xff, 0x76, 0xce, 0xff, 0xff,
  0xa1, 0x27, 0x00, 0x00, 0x64, 0xe0, 0xff, 0xff, 0x9a, 0x00, 0x00, 0x00,
  0x03, 0xe9, 0xff, 0xff, 0x63, 0xf3, 0xff, 0xff, 0xd5, 0xe4, 0xff, 0xff,
  0xad, 0x64, 0xff, 0xff, 0x46, 0xf3, 0xff, 0xff, 0x1d, 0x9f, 0xff, 0xff,
  0x3b, 0xfd, 0xff, 0xff, 0xa7, 0xdc, 0xff, 0xff, 0x5e, 0xed, 0xff, 0xff,
  0xa9, 0x20, 0x00, 0x00, 0xa8, 0xf9, 0xff, 0xff, 0xcb, 0x19, 0x00, 0x00,
  0x49, 0xf3, 0xff, 0xff, 0xe4, 0x68, 0x00, 0x00, 0x8a, 0xef, 0xff, 0xff,
  0x04, 0x00, 0x00, 0x00, 0x00, 0x0f, 0x00, 0x00, 0xfa, 0x04, 0xfe, 0xff,
  0xff, 0xf7, 0x04, 0xf8, 0xf5, 0xfd, 0x04, 0xdb, 0x02, 0x00, 0xfd, 0x03,
  0xff, 0x07, 0x02, 0x0a, 0xfe, 0xfc, 0x01, 0xf1, 0x0b, 0x00, 0x07, 0x02,
  0x04, 0xeb, 0xfe, 0xf5, 0xe6, 0xfe, 0x02, 0xf4, 0x03, 0x01, 0x05, 0x02,
  0xf9, 0x0c, 0x03, 0x07, 0xe5, 0xf8, 0x01, 0xb6, 0x1c, 0xd3, 0x0c, 0x02,
  0xf9, 0xea, 0xfc, 0xe0, 0xf0, 0xfe, 0x14, 0x1d, 0xf4, 0xe5, 0xff, 0x81,
  0xfb, 0x14, 0x03, 0x08, 0xe3, 0x06, 0xeb, 0xaa, 0x1c, 0xd7, 0xfe, 0xe3,
  0xd4, 0xe4, 0xf0, 0xdc, 0x06, 0xff, 0xb0, 0x43, 0xe8, 0xea, 0xff, 0xbc,
  0xfa, 0x09, 0x00, 0x05, 0xe1, 0x05, 0xd9, 0xec, 0x11, 0xd4, 0xf8, 0xdb,
  0xd9, 0xdc, 0x01, 0xfa, 0x03, 0xf7, 0xd8, 0x21, 0xe7, 0xeb, 0xf5, 0x11,
  0xfd, 0xfd, 0xf9, 0x01, 0xf3, 0xfd, 0xd4, 0xe1, 0xc1, 0xf7, 0xee, 0xeb,
  0xff, 0xf5, 0x12, 0xe7, 0xf7, 0xf7, 0x15, 0x06, 0xf0, 0x31, 0x01, 0xfd,
  0xf8, 0xf5, 0xf3, 0x07, 0xfe, 0xf0, 0xe8, 0x07, 0xfb, 0xe4, 0x10, 0x10,
  0xfa, 0xf0, 0x10, 0xc1, 0xde, 0xfe, 0x07, 0x06, 0x0c, 0x91, 0x02, 0xe6,
  0x14, 0xf1, 0x0b, 0xf5, 0x09, 0x0e, 0xfa, 0x95, 0x2e, 0xfb, 0x10, 0x02,
  0xf6, 0x00, 0x18, 0xb4, 0xee, 0xf5, 0x07, 0x2a, 0x0d, 0x8d, 0x0a, 0xd4,
  0x32, 0xff, 0x0a, 0xe1, 0x15, 0x1c, 0x18, 0x81, 0x28, 0xf7, 0x09, 0x18,
  0x94, 0x05, 0x08, 0xf3, 0x21, 0xeb, 0xda, 0x45, 0x00, 0xab, 0xff, 0xc9,
  0x11, 0x2a, 0x1e, 0xfa, 0xf4, 0x19, 0x54, 0x87, 0x09, 0x09, 0x07, 0xe0,
  0xbf, 0x12, 0xfe, 0x04, 0xf3, 0x05, 0xe5, 0xd4, 0xeb, 0xe9, 0xcf, 0xe5,
  0x0d, 0x10, 0x0f, 0x0c, 0xa2, 0x0d, 0x08, 0xe5, 0xe5, 0xae, 0x05, 0xfb,
  0xde, 0xa9, 0x04, 0xfd, 0xed, 0x19, 0xf8, 0x14, 0xfd, 0xa3, 0x09, 0xa1,
  0x29, 0x19, 0xdd, 0x0c, 0x03, 0x1b, 0x14, 0xdc, 0xff, 0xef, 0x0c, 0x07,
  0xe6, 0xe9, 0xf9, 0xf3, 0xfb, 0x1d, 0x08, 0x02, 0xf7, 0xc5, 0x08, 0xd8,
  0xf1, 0x19, 0xfd, 0x0b, 0x1c, 0x0c, 0x1e, 0xc9, 0x17, 0x14, 0x0e, 0xf0,
  0xe9, 0xfb, 0xec, 0xfb, 0xf5, 0x12, 0x11, 0x18, 0xdf, 0x81, 0x05, 0xde,
  0xe9, 0x0f, 0xfc, 0xff, 0xd5, 0x01, 0xe0, 0xc4, 0x21, 0x19, 0x16, 0xc5,
  0xed, 0xc4, 0xf8, 0xff, 0x02, 0x0a, 0x1d, 0x0d, 0xe9, 0xa6, 0x10, 0xdf,
  0xfd, 0x03, 0x0b, 0xf3, 0xc6, 0x03, 0xb2, 0xe6, 0xfe, 0xb4, 0x0b, 0xe1,
  0xf9, 0xa5, 0xff, 0x02, 0x06, 0x0a, 0xf9, 0x08, 0xe1, 0xea, 0xf6, 0xdd,
  0x0e, 0x03, 0xf2, 0xfc, 0xf5, 0x02, 0xc3, 0xcc, 0x04, 0x00, 0x02, 0xfd,
  0xfc, 0x01, 0xf4, 0xce, 0xf8, 0xf0, 0xff, 0xf9, 0x00, 0xfc, 0x00, 0xff,
  0x08, 0x0b, 0x02, 0xe2, 0xfb, 0x01, 0xfe, 0x01, 0x03, 0xfe, 0x01, 0x03,
  0xf8, 0xff, 0x06, 0x0d, 0xfa, 0xfe, 0x01, 0xff, 0xff, 0xfa, 0xfd, 0xff,
  0xfd, 0x18, 0xff, 0x13, 0x0b, 0xff, 0x10, 0x03, 0x0b, 0xfa, 0x08, 0xf9,
  0x0d, 0xfc, 0xf6, 0xe5, 0xff, 0x09, 0x04, 0xc6, 0x05, 0xf2, 0xf5, 0xfc,
  0xff, 0x12, 0x06, 0xec, 0xeb, 0xfe, 0x07, 0x22, 0x06, 0x00, 0x10, 0xdd,
  0xf5, 0x01, 0xf7, 0x00, 0xf3, 0x14, 0x03, 0xc4, 0x0d, 0xeb, 0xff, 0xf7,
  0xfc, 0xfc, 0xfe, 0xf0, 0xd4, 0xf8, 0xee, 0xc6, 0x10, 0xfc, 0x0a, 0xe3,
  0xf3, 0x05, 0xfe, 0x00, 0xed, 0x0c, 0x0a, 0xdd, 0x29, 0xb6, 0x0f, 0x81,
  0x03, 0xf9, 0xf1, 0x03, 0xde, 0xc9, 0xd0, 0x93, 0xfa, 0x04, 0xef, 0x1e,
  0xf4, 0xec, 0x12, 0xf4, 0xfe, 0x81, 0xeb, 0xf6, 0x0b, 0xa1, 0xfa, 0x00,
  0x17, 0xfa, 0xf4, 0xcc, 0xfd, 0x11, 0x1c, 0xb1, 0x14, 0xf4, 0xfd, 0x03,
  0xd0, 0xf5, 0x0f, 0xf1, 0xef, 0xb8, 0xd3, 0xf5, 0x0c, 0xc6, 0x00, 0xec,
  0x18, 0x16, 0x00, 0x89, 0x09, 0x01, 0x3c, 0xd2, 0x0f, 0xf8, 0x03, 0x06,
  0xfc, 0xfb, 0x1e, 0xcf, 0xf0, 0x2b, 0xed, 0xef, 0x11, 0xdb, 0x00, 0xf1,
  0x0c, 0x15, 0x0b, 0xe4, 0x07, 0x02, 0x37, 0xd1, 0x0d, 0xfc, 0x02, 0x09,
  0xf2, 0xf5, 0xfa, 0xbd, 0xf1, 0x23, 0xff, 0xe9, 0x11, 0xe8, 0x00, 0xec,
  0xf9, 0x01, 0x0c, 0xdb, 0xed, 0x00, 0x1d, 0xe2, 0x07, 0xf1, 0x0d, 0xfb,
  0xf6, 0xf0, 0xf7, 0xff, 0x01, 0x19, 0xf2, 0xf9, 0xfb, 0xe5, 0x00, 0xf0,
  0xf1, 0xf7, 0xfe, 0xfa, 0xd0, 0x03, 0xee, 0xf8, 0xfb, 0x00, 0xfd, 0xfb,
  0xe8, 0xf0, 0xff, 0xfc, 0x04, 0x0a, 0x03, 0x06, 0x00, 0x0c, 0x02, 0xfe,
  0xf4, 0x05, 0xfc, 0x03, 0xff, 0xfe, 0xff, 0xaf, 0xfe, 0xfd, 0x01, 0x03,
  0xfb, 0xdb, 0xf6, 0xfb, 0xfa, 0x07, 0x09, 0x02, 0x00, 0x07, 0x01, 0x00,
  0xdc, 0x04, 0x08, 0xf9, 0xfa, 0x04, 0xe8, 0xc2, 0x09, 0xf4, 0x04, 0x05,
  0x06, 0xeb, 0xed, 0xe8, 0xfe, 0x09, 0x8c, 0x09, 0x00, 0x81, 0x00, 0xe7,
  0xe8, 0xfd, 0x0a, 0xe8, 0xf9, 0x05, 0xd5, 0xf2, 0x0a, 0xf8, 0x01, 0x07,
  0xe3, 0xf0, 0xf0, 0xfe, 0x09, 0x0a, 0xe4, 0x08, 0x04, 0xfc, 0xfc, 0x03,
  0x00, 0x0a, 0x03, 0xf1, 0x02, 0x04, 0xea, 0xfd, 0x00, 0xfe, 0xfd, 0xfe,
  0xf3, 0xf9, 0xfe, 0x00, 0x00, 0x05, 0xfe, 0x00, 0xfd, 0x01, 0xfa, 0x0a,
  0xfe, 0x07, 0xfa, 0xff, 0x05, 0x00, 0x03, 0xf7, 0x04, 0xff, 0x01, 0x0d,
  0xfe, 0x05, 0xfe, 0x08, 0x0a, 0x04, 0xfe, 0x0d, 0xfe, 0xfb, 0xfe, 0x00,
  0x06, 0xfe, 0x00, 0xff, 0x0a, 0x02, 0x06, 0x03, 0x06, 0x03, 0xff, 0xff,
  0xf2, 0xff, 0x03, 0x01, 0x01, 0x08, 0x00, 0x0a, 0xfd, 0xf5, 0xee, 0xfe,
  0xfc, 0x05, 0xfe, 0x09, 0xfb, 0xfd, 0x07, 0x21, 0xf6, 0x16, 0xfa, 0xe0,
  0xf3, 0xfc, 0x06, 0x02, 0xf9, 0x0c, 0x00, 0xe5, 0xf9, 0xf0, 0xed, 0xfb,
  0xf9, 0x00, 0xed, 0x07, 0xc8, 0xf6, 0xed, 0xac, 0xf1, 0xea, 0xfc, 0xf2,
  0xf6, 0xfb, 0x05, 0x03, 0xfb, 0x01, 0x14, 0xde, 0x0e, 0xb5, 0x05, 0xd2,
  0xfa, 0xfb, 0x04, 0x00, 0xde, 0xee, 0xc4, 0x81, 0x0a, 0xf5, 0x0d, 0x0a,
  0xf9, 0x03, 0xfc, 0x07, 0xfe, 0xf7, 0xe3, 0x00, 0x06, 0xe5, 0x0e, 0xee,
  0xff, 0x02, 0x0e, 0x00, 0xff, 0xf7, 0xec, 0xbe, 0xff, 0x04, 0xfc, 0x01,
  0xf7, 0x08, 0xff, 0xf9, 0xfb, 0x08, 0xfe, 0xfd, 0xfe, 0xfd, 0xfa, 0x04,
  0x06, 0x03, 0xfb, 0x09, 0x05, 0xff, 0x07, 0x07, 0x02, 0x05, 0xff, 0xfd,
  0xf2, 0x00, 0xfd, 0xd8, 0xf6, 0x0d, 0x03, 0x06, 0x01, 0xf8, 0x00, 0xfd,
  0xf4, 0x0b, 0x00, 0x08, 0x0a, 0xfc, 0x05, 0xfe, 0x10, 0xff, 0x07, 0x03,
  0xdd, 0xfc, 0xf4, 0x8b, 0xe7, 0x0d, 0xfe, 0x0d, 0x02, 0xbe, 0x08, 0xf0,
  0xee, 0x0b, 0x06, 0xf9, 0xf4, 0x05, 0xf6, 0xf8, 0x0c, 0xf9, 0x04, 0x07,
  0xbb, 0xfe, 0xde, 0xcf, 0x0b, 0x11, 0x0d, 0x3c, 0xf3, 0x81, 0xf7, 0xf6,
  0xf6, 0x0e, 0x00, 0xee, 0xfe, 0x09, 0xf2, 0x07, 0x01, 0xf3, 0xfa, 0xe6,
  0xe3, 0xfd, 0xf8, 0x03, 0xff, 0x16, 0xea, 0xf3, 0xf8, 0xd9, 0xed, 0xef,
  0x0f, 0x05, 0x0a, 0xfb, 0x07, 0x04, 0xe6, 0x05, 0x02, 0x02, 0xff, 0x01,
  0x05, 0x02, 0xfa, 0xf6, 0x0a, 0xff, 0x00, 0x02, 0xfe, 0xfe, 0x00, 0x01,
  0xfd, 0x03, 0xfd, 0xf8, 0xfe, 0xff, 0x08, 0xff, 0xfd, 0xff, 0xfe, 0xfe,
  0x06, 0x01, 0xfb, 0xed, 0x1d, 0xff, 0x04, 0xff, 0xfd, 0x01, 0xff, 0x00,
  0x02, 0x08, 0xfe, 0xf8, 0xfe, 0x01, 0xfc, 0x03, 0x02, 0xfe, 0xfe, 0xfe,
  0x0b, 0xfb, 0xf8, 0xc9, 0xde, 0x01, 0x07, 0x0c, 0x02, 0x01, 0x01, 0x01,
  0xf9, 0xff, 0x09, 0xe0, 0x03, 0xfc, 0xf6, 0xdb, 0x07, 0x02, 0x05, 0x0a,
  0xe6, 0x05, 0xf6, 0xf0, 0xb9, 0xfa, 0x0a, 0xf3, 0x08, 0xf3, 0x09, 0x04,
  0x09, 0xdd, 0x0d, 0xd5, 0x05, 0xff, 0x04, 0x8c, 0x0e, 0xfc, 0x09, 0x0e,
  0x81, 0x01, 0x01, 0xf7, 0x1b, 0x08, 0xec, 0x01, 0xf7, 0xc3, 0x00, 0xfc,
  0xf7, 0x1e, 0xff, 0xec, 0x1b, 0x09, 0x12, 0xb0, 0xe1, 0xe7, 0xe3, 0xee,
  0xdd, 0x12, 0xfb, 0x08, 0xef, 0x1d, 0x11, 0x01, 0xf7, 0xec, 0x09, 0xf5,
  0xe9, 0x01, 0xe8, 0x0b, 0x0c, 0xee, 0xf2, 0x08, 0x08, 0xfa, 0x03, 0x00,
  0xe3, 0x04, 0xf6, 0x04, 0xf3, 0x1f, 0x10, 0x08, 0x07, 0xdd, 0x04, 0xf0,
  0xc5, 0x13, 0x13, 0x00, 0xf8, 0x04, 0x07, 0x9f, 0x15, 0x0e, 0x09, 0x12,
  0xef, 0xf4, 0xf0, 0xfb, 0xec, 0x25, 0x13, 0xf3, 0x0c, 0xa0, 0x08, 0xf6,
  0xc0, 0x1c, 0x1a, 0xf3, 0xfb, 0x06, 0xb8, 0x81, 0x14, 0xe8, 0x09, 0x12,
  0xf9, 0xfd, 0xc4, 0xf6, 0x06, 0x27, 0xb2, 0x1f, 0x07, 0xe7, 0x0f, 0xf8,
  0xe4, 0x14, 0x10, 0xf6, 0x00, 0x07, 0xc0, 0xed, 0x17, 0xf6, 0x01, 0x11,
  0xfc, 0x09, 0xdd, 0xf6, 0x1b, 0x28, 0x05, 0x13, 0xfc, 0xfa, 0xff, 0x0a,
  0xf2, 0xf9, 0x08, 0xfa, 0x0a, 0x09, 0xed, 0xf0, 0x05, 0x02, 0xfd, 0xfc,
  0xd0, 0xfa, 0x04, 0x00, 0x06, 0x1c, 0x07, 0x09, 0xf7, 0xfb, 0x01, 0xfb,
  0xeb, 0x14, 0xff, 0x0a, 0xe9, 0x0c, 0xed, 0xf2, 0x00, 0x05, 0xfe, 0x0d,
  0xd0, 0xf9, 0x07, 0x01, 0xfc, 0x0f, 0x03, 0x03, 0xe0, 0x90, 0x07, 0xee,
  0xc5, 0x14, 0x0e, 0xfc, 0xc4, 0x0a, 0xbf, 0xe3, 0x03, 0xf0, 0x04, 0x05,
  0xe2, 0xfd, 0xfd, 0x02, 0x05, 0xfe, 0x18, 0x0f, 0xed, 0xfb, 0x05, 0xea,
  0xc7, 0x00, 0x0c, 0xf1, 0xb8, 0x0a, 0x89, 0xed, 0x05, 0xef, 0x04, 0x04,
  0xf5, 0xfc, 0x04, 0x01, 0x05, 0xf3, 0x20, 0x0a, 0xfb, 0xf4, 0x03, 0xf9,
  0xed, 0xfd, 0x06, 0xfb, 0xe1, 0x08, 0x94, 0xa5, 0x00, 0xf5, 0xfd, 0x06,
  0xfc, 0xfd, 0x01, 0xff, 0x01, 0xf8, 0xc6, 0x06, 0xf8, 0xf5, 0x02, 0xfe,
  0xfa, 0x02, 0xfd, 0x00, 0x02, 0x04, 0xe5, 0x81, 0xec, 0xac, 0xea, 0xf0,
  0xdb, 0xb2, 0x00, 0xee, 0xef, 0x00, 0xee, 0xe6, 0xfe, 0xf3, 0xfd, 0xcb,
  0x01, 0x08, 0xf9, 0xfe, 0xf9, 0xf0, 0xfc, 0xde, 0x11, 0xd6, 0x05, 0x02,
  0xd7, 0xe4, 0xfe, 0xdd, 0xe9, 0x01, 0x12, 0xf7, 0x07, 0xcf, 0x06, 0x81,
  0xf5, 0x0b, 0x05, 0xfe, 0xf6, 0xfb, 0x06, 0xd3, 0x17, 0xfa, 0x07, 0x09,
  0xf1, 0xf5, 0xfc, 0xfd, 0xfb, 0x01, 0x0e, 0x0c, 0x0a, 0xc0, 0x03, 0xc7,
  0xff, 0x09, 0x07, 0xfc, 0xfb, 0xff, 0xf8, 0xcb, 0x0f, 0xff, 0x03, 0x0a,
  0xee, 0xf2, 0xfd, 0x00, 0x04, 0x00, 0xbb, 0xfb, 0x02, 0xea, 0xfd, 0xe5,
  0xfc, 0x0b, 0x06, 0x00, 0xfa, 0xfe, 0x05, 0xf2, 0xfa, 0x05, 0xfd, 0x03,
  0x01, 0xdb, 0x00, 0x00, 0xff, 0x00, 0xe9, 0x00, 0xf9, 0x0a, 0xfc, 0xf1,
  0x00, 0x03, 0xfe, 0x01, 0x01, 0xfa, 0x06, 0xfd, 0xef, 0xef, 0xee, 0xe0,
  0x18, 0xed, 0x0c, 0xfa, 0xfd, 0xbe, 0x03, 0xe6, 0xf4, 0x0e, 0xf0, 0x07,
  0xf8, 0xe6, 0xe0, 0xf4, 0xb7, 0x02, 0x9b, 0xf7, 0x13, 0xd5, 0x14, 0x00,
  0xb8, 0xf8, 0xfa, 0xde, 0xe2, 0x87, 0x9c, 0xdb, 0x0b, 0x8e, 0x01, 0xa5,
  0x20, 0xe1, 0xfa, 0xdd, 0xf3, 0x0d, 0xda, 0xe1, 0x0d, 0x04, 0x06, 0x02,
  0xf8, 0xe4, 0x24, 0xdb, 0x17, 0x81, 0xba, 0x01, 0x0a, 0xe5, 0x04, 0xe5,
  0x25, 0xef, 0x05, 0xdb, 0x13, 0x10, 0x64, 0xda, 0x0e, 0xf9, 0x04, 0x0b,
  0x07, 0xfc, 0x24, 0xf0, 0x0d, 0xde, 0xdd, 0xfc, 0x06, 0xfe, 0x03, 0xf8,
  0x11, 0x16, 0x06, 0xd6, 0x18, 0x06, 0x41, 0xe0, 0x06, 0xff, 0x00, 0x08,
  0xc8, 0x04, 0xe7, 0x00, 0x02, 0xe5, 0xf5, 0xf8, 0xfa, 0xf2, 0xf4, 0xfb,
  0xfb, 0x14, 0xff, 0x07, 0xf2, 0x01, 0x1d, 0x01, 0x0b, 0x05, 0xd1, 0xe2,
  0xe0, 0x01, 0x08, 0x03, 0x00, 0xf9, 0xfe, 0xe1, 0xca, 0xf3, 0xd2, 0x21,
  0xea, 0xf8, 0xec, 0x09, 0xe8, 0xdf, 0xc9, 0xd8, 0xfa, 0x02, 0xeb, 0xd3,
  0xfb, 0xfe, 0xff, 0xfd, 0xf9, 0xf3, 0xb9, 0xd8, 0x11, 0xad, 0xff, 0x93,
  0x0c, 0xfc, 0xff, 0xff, 0xf2, 0x01, 0xbe, 0xd1, 0x02, 0xec, 0x00, 0x03,
  0xf4, 0xfc, 0xf2, 0x01, 0x02, 0xe4, 0x81, 0xf4, 0x0b, 0xd8, 0x02, 0xfd,
  0x17, 0xf5, 0x02, 0xe7, 0x07, 0x03, 0x29, 0xd9, 0x0a, 0xf5, 0x00, 0x0a,
  0xf0, 0x02, 0x02, 0x01, 0xfc, 0xe7, 0xe2, 0xfc, 0x07, 0xf5, 0x05, 0x00,
  0x12, 0x03, 0xff, 0xea, 0x0c, 0x02, 0x37, 0xef, 0x07, 0x08, 0x00, 0x05,
  0xd6, 0x02, 0xfc, 0x05, 0xfd, 0x01, 0xf9, 0xf8, 0x01, 0xf5, 0x03, 0x01,
  0xfc, 0x15, 0xff, 0x01, 0x01, 0xfd, 0x29, 0xd5, 0x0f, 0xfd, 0x07, 0x02,
  0xe8, 0xfe, 0xd9, 0x81, 0x17, 0xf6, 0xea, 0xff, 0x06, 0xe2, 0x04, 0xfd,
  0x04, 0xf9, 0x0a, 0xdc, 0x07, 0x0c, 0xf8, 0xe1, 0x12, 0x05, 0x04, 0x0a,
  0xe3, 0x03, 0xf6, 0x09, 0x0e, 0xfe, 0xed, 0x0a, 0x00, 0xde, 0x00, 0xf6,
  0x01, 0x01, 0x05, 0xf5, 0x0d, 0x05, 0x0f, 0xee, 0x13, 0x01, 0x03, 0xfa,
  0xea, 0xf8, 0x01, 0xff, 0xfb, 0x07, 0xfc, 0x10, 0xf7, 0xd8, 0xf6, 0x04,
  0x03, 0xff, 0x06, 0x04, 0xf7, 0x02, 0x08, 0xf2, 0xfe, 0x03, 0xf9, 0xd8,
  0xf9, 0xdf, 0x07, 0xf9, 0xfd, 0x08, 0x01, 0x06, 0xe9, 0xe8, 0xf0, 0xfe,
  0x03, 0xfd, 0xf4, 0x00, 0xf3, 0xf8, 0x02, 0xf2, 0x01, 0xc8, 0xf9, 0xfb,
  0xfa, 0xdb, 0x06, 0xfd, 0xfc, 0x01, 0xf9, 0x04, 0xd9, 0x18, 0xdf, 0xf4,
  0xfd, 0xf8, 0xef, 0x00, 0xf1, 0xf1, 0xf4, 0xdd, 0x02, 0xff, 0xff, 0xfc,
  0xe7, 0xfc, 0xff, 0xfe, 0x00, 0xf7, 0x03, 0xf8, 0x01, 0xff, 0xfa, 0x01,
  0xfd, 0x0e, 0x00, 0xfe, 0xff, 0x00, 0x04, 0x0a, 0x03, 0x01, 0x00, 0xeb,
  0xfc, 0xf6, 0x04, 0x00, 0xfe, 0x03, 0x02, 0xf7, 0xff, 0xfc, 0xe6, 0x01,
  0xf7, 0x09, 0xfb, 0x00, 0xe4, 0xfd, 0xfb, 0x07, 0xf5, 0x19, 0xea, 0xdb,
  0xff, 0xf5, 0x01, 0x00, 0xfe, 0x01, 0x08, 0xfb, 0xed, 0xc0, 0xec, 0xee,
  0xf4, 0xff, 0xee, 0xff, 0xe7, 0xfa, 0xdf, 0x06, 0xf9, 0xdf, 0xfc, 0xe3,
  0x01, 0xf6, 0xff, 0xff, 0x00, 0x00, 0xd3, 0xfd, 0x08, 0x9b, 0x02, 0x81,
  0xfd, 0x00, 0x01, 0x00, 0xe7, 0xfe, 0xdd, 0xfd, 0x00, 0xfc, 0xff, 0x08,
  0x01, 0xfe, 0x00, 0x00, 0x01, 0xff, 0xe8, 0x05, 0xf5, 0xe7, 0xf7, 0x02,
  0xfb, 0x01, 0xf2, 0x00, 0x09, 0x02, 0xfe, 0xfd, 0xf2, 0xfa, 0xf4, 0xec,
  0xed, 0xa6, 0x03, 0x00, 0xff, 0xed, 0x06, 0x17, 0xf5, 0xde, 0x03, 0x08,
  0xfe, 0x04, 0xe7, 0x09, 0x02, 0xeb, 0xed, 0x84, 0xed, 0xe7, 0xf8, 0xff,
  0xfa, 0xd3, 0x01, 0xf8, 0xf7, 0xd9, 0xb8, 0x0a, 0xfe, 0xf7, 0x01, 0xe2,
  0x19, 0x04, 0xe6, 0xef, 0x06, 0xf7, 0x0d, 0x2e, 0xfe, 0xf2, 0xfe, 0xff,
  0xf7, 0xf5, 0x11, 0xf7, 0x09, 0xc4, 0xdb, 0x00, 0x01, 0xee, 0x00, 0xf8,
  0x1a, 0x03, 0xfc, 0xeb, 0x06, 0xff, 0x25, 0x81, 0x03, 0xfd, 0x01, 0xfd,
  0xa7, 0x06, 0x0e, 0xff, 0x01, 0xdb, 0xed, 0x00, 0x03, 0x04, 0x00, 0x02,
  0x04, 0x0d, 0x03, 0x06, 0x0b, 0xff, 0x2c, 0xc3, 0xfe, 0x01, 0x00, 0xfe,
  0xf3, 0xf4, 0xfe, 0xff, 0xff, 0xff, 0x01, 0xff, 0xf6, 0xbc, 0xfb, 0x02,
  0xf1, 0xfe, 0x03, 0x05, 0xec, 0xfe, 0x03, 0x99, 0x05, 0x00, 0xef, 0xfc,
  0x0c, 0x06, 0xf0, 0x00, 0xff, 0xeb, 0xf7, 0xe7, 0x10, 0xbb, 0xe3, 0x81,
  0xf2, 0x04, 0xfe, 0xf8, 0xe6, 0xd7, 0xb2, 0x14, 0x10, 0x09, 0x07, 0xe5,
  0xf4, 0x04, 0xfd, 0xe9, 0x08, 0xe8, 0x1e, 0xf1, 0x00, 0xdf, 0x31, 0xe6,
  0xf2, 0x0f, 0x00, 0x05, 0xe8, 0xcc, 0xe3, 0xd8, 0x10, 0x03, 0xf3, 0xfa,
  0xf7, 0x00, 0xff, 0xe3, 0xff, 0xf4, 0x09, 0xf3, 0xde, 0x06, 0xf4, 0xc7,
  0x03, 0x0f, 0x05, 0x0f, 0xed, 0xea, 0xe3, 0xee, 0x00, 0xf3, 0xe3, 0xf8,
  0xe0, 0xff, 0x04, 0xe7, 0x02, 0x0c, 0xf9, 0x3c, 0xd7, 0x08, 0xa9, 0xdd,
  0xf8, 0x01, 0x0e, 0x0f, 0x22, 0x03, 0x0a, 0xf2, 0x03, 0x03, 0xe8, 0xa8,
  0xe1, 0x04, 0x02, 0xcf, 0xfe, 0x07, 0xe8, 0xec, 0xfc, 0xd5, 0xe2, 0xf0,
  0x04, 0x02, 0xe2, 0xf6, 0xf4, 0x30, 0x15, 0xd0, 0xd4, 0xd5, 0xeb, 0xf1,
  0xe2, 0x17, 0x01, 0x0a, 0xf9, 0x14, 0x44, 0x13, 0xfa, 0x10, 0x05, 0xf6,
  0xf8, 0xe6, 0x00, 0x07, 0x09, 0xb8, 0xdb, 0x0b, 0xf4, 0xf8, 0xfc, 0x08,
  0xeb, 0xfe, 0xed, 0xf3, 0xf9, 0x28, 0x21, 0x19, 0x10, 0xcd, 0x05, 0xf6,
  0x06, 0x12, 0x1b, 0xfb, 0x10, 0x03, 0x0d, 0xf8, 0x17, 0xf9, 0x0d, 0x0e,
  0xff, 0xe1, 0xef, 0xed, 0xcf, 0x25, 0xfe, 0x21, 0x20, 0xdb, 0x2d, 0xed,
  0xfa, 0x07, 0x27, 0xf2, 0x01, 0x02, 0xee, 0xfe, 0x46, 0xe2, 0x23, 0x39,
  0x19, 0x18, 0xda, 0xe1, 0xef, 0xf9, 0xf3, 0x34, 0xf8, 0xf3, 0x0b, 0xf9,
  0x03, 0xef, 0x02, 0xe8, 0x17, 0x0f, 0xe9, 0xf5, 0x47, 0xea, 0xf4, 0xe0,
  0x74, 0xfa, 0xfe, 0xf0, 0x59, 0xd5, 0xfc, 0x31, 0xd0, 0xe3, 0xca, 0xf8,
  0x0e, 0x04, 0xd9, 0xe1, 0xeb, 0x14, 0x34, 0x7f, 0xf0, 0x5d, 0xd8, 0x09,
  0xd3, 0xec, 0x1b, 0x03, 0xf6, 0x17, 0xba, 0xfe, 0xc9, 0x81, 0xf2, 0xd5,
  0xf5, 0xfa, 0xd8, 0x0d, 0x21, 0xd7, 0xeb, 0x1c, 0xe4, 0xe3, 0xda, 0xf6,
  0xe2, 0xf6, 0x07, 0xf4, 0x08, 0x13, 0xeb, 0x09, 0xd8, 0xfc, 0xf0, 0x19,
  0xec, 0xf6, 0xde, 0x02, 0x03, 0xff, 0x09, 0xc3, 0xe6, 0xd1, 0xef, 0xed,
  0xf3, 0xf9, 0xfb, 0xfc, 0x03, 0x04, 0xd3, 0xef, 0xff, 0x0d, 0x00, 0x03,
  0xf6, 0xff, 0xea, 0xfa, 0xef, 0x0d, 0xd6, 0xb9, 0xf9, 0xf2, 0x05, 0xfc,
  0xfd, 0xf7, 0x03, 0x06, 0xff, 0xfb, 0xb5, 0xff, 0x02, 0xbe, 0x01, 0xfb,
  0xfe, 0xff, 0xfb, 0xfe, 0x0e, 0x00, 0xdc, 0xc9, 0xf8, 0xf7, 0x01, 0xfc,
  0xfe, 0xfb, 0xff, 0x02, 0xfc, 0xfe, 0xe5, 0xfc, 0x03, 0xf3, 0x01, 0x07,
  0x03, 0xff, 0x00, 0xff, 0x05, 0xfd, 0x13, 0xc0, 0xf6, 0xd9, 0x14, 0xfc,
  0xcf, 0x90, 0x04, 0x0a, 0x18, 0x1e, 0x01, 0x05, 0xfc, 0xdc, 0x14, 0xfa,
  0xf5, 0xda, 0x13, 0xfc, 0xf2, 0x16, 0xde, 0xe0, 0xfc, 0xda, 0x0e, 0x09,
  0xf9, 0xb9, 0x08, 0xe8, 0x00, 0x02, 0x14, 0xf9, 0x0a, 0xc9, 0x16, 0xeb,
  0xf7, 0xc2, 0x12, 0xda, 0x01, 0x09, 0xec, 0xbf, 0x00, 0xeb, 0x0b, 0x18,
  0xd8, 0xea, 0xf0, 0xf8, 0x10, 0xf5, 0xe7, 0x03, 0x0b, 0xa1, 0xff, 0xe8,
  0x04, 0xdc, 0x0b, 0xae, 0x2a, 0x04, 0x02, 0x81, 0x00, 0xfd, 0x00, 0xf3,
  0x9d, 0xe8, 0x0c, 0x0f, 0x07, 0xf1, 0xcc, 0xf8, 0x07, 0xc0, 0xf2, 0xf2,
  0x0a, 0x11, 0x0f, 0xea, 0x6f, 0xf9, 0x22, 0xb1, 0xfb, 0x08, 0xfd, 0xfe,
  0xeb, 0xcb, 0x03, 0x06, 0xf5, 0xe7, 0xd9, 0x12, 0xf5, 0xe6, 0xf6, 0xf6,
  0x01, 0xf7, 0x02, 0x07, 0x05, 0xe9, 0x10, 0x0e, 0xfe, 0xff, 0xfe, 0x04,
  0xf6, 0x03, 0x07, 0xff, 0x0a, 0x05, 0x03, 0x03, 0xfe, 0x00, 0xff, 0x00,
  0xfd, 0xfb, 0xfe, 0xfa, 0x12, 0xfd, 0x0b, 0x00, 0x05, 0xff, 0xfe, 0xfa,
  0xe9, 0xfc, 0xf9, 0xee, 0x03, 0x16, 0x05, 0x1e, 0xfb, 0xfb, 0xf8, 0xff,
  0xf3, 0x1d, 0x01, 0xff, 0xf3, 0x06, 0x02, 0x14, 0x0c, 0x05, 0xfc, 0xb7,
  0xd8, 0xf0, 0xfe, 0xee, 0xea, 0x1e, 0xff, 0x18, 0xea, 0xf4, 0xf1, 0xfb,
  0xf2, 0x1e, 0xf0, 0xfc, 0xd0, 0x07, 0xdf, 0xfa, 0xf0, 0x9b, 0xe4, 0xc7,
  0xd4, 0xec, 0xfe, 0xf0, 0xfa, 0x12, 0x16, 0x0d, 0xe1, 0xdd, 0xff, 0xa8,
  0xf8, 0xf1, 0xf0, 0x00, 0xe1, 0x07, 0xc1, 0xfb, 0xf8, 0x81, 0x01, 0xec,
  0xd5, 0xec, 0xfb, 0xf1, 0xf4, 0xfb, 0xba, 0xf4, 0xfb, 0xd2, 0xf6, 0x0b,
  0x08, 0xfd, 0xfd, 0xf9, 0xff, 0x1e, 0xe7, 0xfa, 0x0b, 0xa1, 0x10, 0xca,
  0xe0, 0xe2, 0xe9, 0xdc, 0xd6, 0xef, 0xea, 0xe9, 0x06, 0xf0, 0x03, 0xc5,
  0xfd, 0xe2, 0x08, 0xfa, 0xe6, 0xe9, 0xc3, 0xfc, 0x16, 0xfd, 0x08, 0x06,
  0x07, 0x0b, 0xd6, 0x81, 0xb6, 0xf4, 0xa3, 0x04, 0x08, 0xcf, 0x0a, 0xe8,
  0x0f, 0xe2, 0x0e, 0xe4, 0x02, 0x09, 0x0b, 0xce, 0x1e, 0xf9, 0x09, 0x12,
  0xeb, 0xfb, 0xfd, 0xf5, 0x0d, 0x05, 0xf2, 0x19, 0x08, 0x89, 0x06, 0xd7,
  0xfb, 0x0a, 0x0f, 0xfa, 0x0d, 0x07, 0x24, 0xcd, 0x1a, 0xf2, 0x07, 0x05,
  0xd0, 0xf4, 0xf6, 0xfc, 0x04, 0x11, 0xcf, 0x0d, 0xf8, 0xcc, 0xed, 0xec,
  0x02, 0x0e, 0x0f, 0xfc, 0xf3, 0x05, 0x0a, 0xf4, 0xf6, 0x03, 0xed, 0xc2,
  0xfb, 0xf2, 0x04, 0xff, 0xfe, 0x05, 0xc1, 0xfb, 0xe0, 0xee, 0xf3, 0x26,
  0x03, 0x03, 0xe7, 0xff, 0xe9, 0xf8, 0xf8, 0xfb, 0xaf, 0xe4, 0xbd, 0x00,
  0xf0, 0x15, 0xdf, 0xc3, 0xee, 0xe8, 0x31, 0xca, 0xcc, 0x1a, 0xf7, 0x1a,
  0xb7, 0xdb, 0xc5, 0xf4, 0xde, 0xfe, 0x98, 0x9e, 0x4b, 0xe7, 0x19, 0xf5,
  0xd8, 0xc9, 0xc1, 0x90, 0x88, 0xde, 0x05, 0x1d, 0x13, 0xaa, 0x0c, 0xd2,
  0x1a, 0xd7, 0x2c, 0x90, 0x13, 0x05, 0xa8, 0x83, 0x32, 0xf9, 0x16, 0x19,
  0x03, 0xee, 0xda, 0x0c, 0x14, 0xfc, 0x01, 0x21, 0x19, 0xc3, 0x0e, 0xe8,
  0x1d, 0xe7, 0x29, 0xc6, 0x13, 0x1d, 0x2a, 0xa8, 0x32, 0xf3, 0x08, 0x22,
  0xdc, 0xfc, 0xea, 0xc5, 0x31, 0x27, 0xf4, 0x28, 0x02, 0xb3, 0x01, 0xe0,
  0x03, 0x1d, 0x25, 0xea, 0x34, 0x13, 0x3e, 0xda, 0x22, 0xf5, 0xfd, 0xda,
  0xf2, 0x1f, 0xee, 0xe8, 0x0e, 0x1f, 0xcb, 0xce, 0xce, 0xd6, 0xe6, 0xee,
  0xf8, 0x0c, 0xf1, 0xed, 0xdf, 0x0b, 0x16, 0x7f, 0x03, 0xff, 0x00, 0xfc,
  0xa7, 0x03, 0xe0, 0xdf, 0xec, 0xc7, 0xfe, 0xf1, 0x03, 0xff, 0x08, 0xff,
  0x05, 0xf6, 0x06, 0xf2, 0xfe, 0xf8, 0x0d, 0xc6, 0x11, 0xf3, 0x0a, 0x02,
  0xa2, 0x04, 0xdc, 0x07, 0x22, 0xb1, 0xf7, 0xe2, 0x0b, 0xe9, 0x07, 0xf4,
  0x11, 0x1a, 0x0c, 0xa5, 0xf6, 0x06, 0x0b, 0xc7, 0x17, 0xf7, 0x0e, 0x0b,
  0x9f, 0x01, 0xf5, 0xf4, 0x12, 0xb1, 0xee, 0xf0, 0x09, 0xca, 0xfe, 0xea,
  0x0d, 0x26, 0x06, 0x9c, 0x09, 0x08, 0x0f, 0xa9, 0x13, 0x03, 0x0f, 0xe0,
  0xee, 0x02, 0x01, 0x08, 0xff, 0xf2, 0x06, 0xbd, 0x1e, 0xbd, 0xfb, 0x02,
  0xf6, 0x20, 0xfd, 0xf9, 0xb5, 0x06, 0x09, 0xf0, 0x03, 0x08, 0x0d, 0x05,
  0xf4, 0x07, 0xfd, 0x00, 0x00, 0x02, 0xf1, 0xf9, 0xb9, 0xad, 0xef, 0xdb,
  0xc8, 0x00, 0xf5, 0x05, 0x81, 0xe0, 0xb8, 0xfd, 0x00, 0x03, 0xff, 0x00,
  0xc7, 0xf8, 0x04, 0x01, 0x02, 0xf3, 0x02, 0x03, 0xff, 0x00, 0xfd, 0x01,
  0xfa, 0x06, 0x00, 0xfd, 0xfe, 0x00, 0xfe, 0x05, 0x00, 0x01, 0xff, 0xfa,
  0xee, 0xec, 0xff, 0x02, 0xf9, 0xe0, 0x04, 0xfd, 0x00, 0x02, 0xff, 0x02,
  0xfe, 0x01, 0xff, 0x00, 0xee, 0x00, 0xed, 0xa6, 0x07, 0x02, 0x03, 0x00,
  0xe6, 0xf0, 0xfd, 0x01, 0xfc, 0xd0, 0x81, 0xfe, 0x02, 0xcd, 0x00, 0xed,
  0x14, 0x03, 0xff, 0xeb, 0x02, 0xfb, 0x0c, 0xb0, 0x06, 0xf3, 0x01, 0x01,
  0xf0, 0xfb, 0x10, 0xfb, 0x03, 0xc1, 0xd9, 0x00, 0x00, 0x06, 0x00, 0xfd,
  0x08, 0x0f, 0x01, 0xe6, 0x03, 0x02, 0x27, 0xe9, 0x04, 0x00, 0x01, 0x02,
  0xa8, 0xff, 0x07, 0x03, 0xfd, 0xd4, 0x01, 0xfe, 0xfe, 0x01, 0xfe, 0xff,
  0xfb, 0x0c, 0x02, 0xfe, 0xf8, 0x00, 0x09, 0xd6, 0xfc, 0x0e, 0xf5, 0xdb,
  0xf6, 0xe2, 0x06, 0xfd, 0xfd, 0x0f, 0x00, 0xe3, 0x0d, 0xfe, 0xec, 0xfd,
  0x08, 0x0f, 0xfd, 0x03, 0xd3, 0xf5, 0xfd, 0x2c, 0x03, 0x5e, 0xe5, 0xe8,
  0xf7, 0xc6, 0x06, 0xfc, 0xf0, 0x12, 0xdc, 0xe7, 0xc1, 0x81, 0x9a, 0xe0,
  0xfe, 0x1a, 0xd9, 0xfe, 0x19, 0xf7, 0xef, 0xf4, 0xfb, 0x08, 0xbf, 0xc8,
  0xf2, 0xc4, 0x02, 0xfe, 0x06, 0x02, 0xf0, 0xfd, 0xc7, 0xfa, 0xc7, 0xed,
  0xf9, 0x05, 0xf8, 0xff, 0x14, 0xfd, 0x0b, 0xf6, 0x06, 0xff, 0xeb, 0xd8,
  0xf8, 0xc0, 0xfc, 0xfe, 0x03, 0x00, 0x05, 0xfe, 0xfd, 0xc2, 0x03, 0xbf,
  0x00, 0x07, 0x00, 0xff, 0xf7, 0x05, 0xff, 0xf6, 0xfc, 0x10, 0xf0, 0x04,
  0x00, 0xfb, 0x01, 0xff, 0x03, 0x03, 0xf4, 0x00, 0xfa, 0xed, 0xfc, 0x04,
  0x06, 0x02, 0xf9, 0x00, 0x05, 0xfa, 0xf6, 0xfa, 0xe0, 0xfe, 0xf2, 0xba,
  0xa7, 0x00, 0x09, 0xef, 0xf6, 0xfa, 0x14, 0xe5, 0xee, 0x15, 0x01, 0x0d,
  0xdf, 0xf4, 0xf4, 0x06, 0xae, 0xe0, 0xcd, 0xf1, 0xfb, 0xd5, 0x05, 0xf8,
  0xd1, 0xfc, 0xfe, 0xd8, 0xe5, 0xee, 0xfb, 0xf1, 0x07, 0x02, 0x06, 0x2a,
  0xec, 0xf7, 0x0d, 0xea, 0xf0, 0xf5, 0xb3, 0xbe, 0x0b, 0xfa, 0x0b, 0x07,
  0xbe, 0x09, 0xe7, 0xd2, 0xec, 0xef, 0xe9, 0x04, 0x0b, 0xcf, 0x06, 0xf5,
  0x0e, 0xe1, 0x0b, 0xc7, 0xff, 0x01, 0xf9, 0xb6, 0x10, 0x07, 0x07, 0x19,
  0xc9, 0xff, 0x09, 0xf4, 0x10, 0xfe, 0xe9, 0x14, 0x0e, 0xa8, 0xff, 0xe7,
  0xfd, 0x05, 0x09, 0xf1, 0x31, 0x08, 0x36, 0xc9, 0x07, 0xfa, 0x05, 0x10,
  0xe2, 0xf6, 0xf7, 0xff, 0x00, 0x08, 0xc2, 0x06, 0xe7, 0x81, 0xdc, 0xff,
  0xff, 0x08, 0xef, 0x00, 0xe0, 0x04, 0x28, 0xe8, 0x03, 0x03, 0x03, 0x05,
  0x00, 0x00, 0x01, 0xfc, 0x03, 0x00, 0x03, 0xff, 0x00, 0xfa, 0xfd, 0xff,
  0x09, 0x01, 0x04, 0x02, 0x03, 0x06, 0x08, 0x04, 0xff, 0x00, 0x00, 0x00,
  0x03, 0xf9, 0x03, 0xe2, 0xec, 0x06, 0x00, 0xfb, 0xfe, 0xfd, 0xfe, 0xff,
  0xfb, 0x0b, 0x00, 0x03, 0x03, 0xff, 0x0b, 0x02, 0x0f, 0x01, 0x07, 0x02,
  0x0b, 0xfd, 0xfd, 0x8e, 0xb4, 0x05, 0x03, 0x0b, 0x04, 0xfa, 0x05, 0xfd,
  0x07, 0xfd, 0x00, 0xee, 0xfc, 0x00, 0xfe, 0xf1, 0x0f, 0xfe, 0x05, 0x01,
  0x0c, 0xfc, 0xf8, 0x81, 0x0c, 0xfa, 0x01, 0x1a, 0xfe, 0xff, 0x02, 0xfb,
  0xff, 0x05, 0x03, 0xe9, 0x0c, 0x0b, 0x0d, 0xfa, 0x12, 0xf4, 0x01, 0xf5,
  0xc8, 0xfa, 0xe9, 0xe9, 0x09, 0x04, 0x00, 0x0f, 0xf0, 0xae, 0xee, 0xf1,
  0x03, 0x14, 0x07, 0xf5, 0xc7, 0x09, 0x07, 0xed, 0xfb, 0x01, 0xfb, 0xf9,
  0xe9, 0xfc, 0x00, 0xfa, 0xf5, 0x06, 0x03, 0xec, 0xfb, 0x03, 0xf5, 0x05,
  0xfd, 0x02, 0xfa, 0xfe, 0xf5, 0xfb, 0xfe, 0xe8, 0xfd, 0xfd, 0xf0, 0xe6,
  0x0b, 0xfd, 0xfa, 0xf5, 0xfd, 0x06, 0x07, 0xeb, 0xea, 0x00, 0xf8, 0x19,
  0xf9, 0x03, 0xf1, 0xfb, 0xe8, 0xfe, 0xf6, 0xfe, 0x0d, 0xf2, 0x02, 0xed,
  0xfd, 0xfd, 0xfd, 0x00, 0x05, 0x01, 0x15, 0xed, 0x07, 0x81, 0x01, 0xed,
  0xe1, 0x03, 0x14, 0xf9, 0xdf, 0x02, 0xe2, 0xcb, 0x0b, 0xfb, 0x02, 0xfe,
  0xf7, 0xfe, 0xed, 0xe5, 0xda, 0x02, 0xa7, 0xfd, 0x06, 0xf3, 0x03, 0x03,
  0x01, 0x13, 0x0d, 0xdf, 0xfd, 0x00, 0xe8, 0xd5, 0x06, 0xfb, 0x01, 0x0b,
  0xe4, 0x0d, 0xf2, 0xf2, 0x0e, 0x0f, 0xe5, 0x07, 0xfb, 0x02, 0xfd, 0x01,
  0xf0, 0x0e, 0x01, 0xd9, 0x0d, 0x00, 0x0f, 0xe8, 0x04, 0x06, 0xfd, 0xfd,
  0xc6, 0x10, 0xfa, 0x0b, 0xfb, 0xfc, 0xfd, 0x09, 0xfb, 0xfb, 0xfc, 0x03,
  0xf9, 0x28, 0x02, 0x03, 0x0a, 0xfb, 0x05, 0xd9, 0x09, 0xfd, 0xfa, 0xed,
  0xc2, 0xfe, 0x00, 0x05, 0xff, 0xfe, 0xef, 0xf9, 0xed, 0xbf, 0xf0, 0xfd,
  0xf7, 0x0f, 0xfd, 0x02, 0xd9, 0xfa, 0xf9, 0xaf, 0x01, 0x26, 0xf5, 0xe2,
  0xd9, 0xf2, 0x01, 0xfe, 0xfd, 0xfa, 0xfe, 0xee, 0xdf, 0xc8, 0xe9, 0xf5,
  0xfa, 0x02, 0xf4, 0xfd, 0xde, 0xff, 0xde, 0xa8, 0xf9, 0xc0, 0xed, 0xfc,
  0xf3, 0xea, 0x01, 0xfd, 0x01, 0xff, 0x14, 0x03, 0xd6, 0xed, 0xcc, 0xcc,
  0xf6, 0xfc, 0xf9, 0xff, 0xfd, 0x01, 0xe7, 0xf0, 0x0c, 0x81, 0x02, 0xbb,
  0xfa, 0xe2, 0x02, 0xff, 0xff, 0x00, 0xfe, 0xf4, 0x10, 0xce, 0x01, 0xd2,
  0x03, 0x06, 0x0b, 0x01, 0xd7, 0x14, 0xd8, 0xa7, 0xe4, 0x03, 0xf6, 0xf8,
  0xd1, 0xfd, 0x0b, 0xe9, 0xdc, 0x1e, 0x18, 0xfc, 0xf9, 0x02, 0x0a, 0xfc,
  0xeb, 0x14, 0xf6, 0x15, 0x02, 0xf9, 0xe5, 0x81, 0x0d, 0xf4, 0x1a, 0x09,
  0x93, 0xff, 0x01, 0x92, 0xdb, 0x1a, 0xe1, 0x09, 0x00, 0xa8, 0x15, 0x93,
  0xbe, 0x0b, 0x08, 0x09, 0xea, 0x0d, 0xe2, 0xa6, 0x22, 0xf3, 0x19, 0x0d,
  0xc1, 0x03, 0xe7, 0xf8, 0x01, 0x1b, 0xdb, 0x34, 0xf4, 0xa0, 0x0e, 0xcd,
  0xed, 0x0b, 0x06, 0x01, 0xec, 0x0b, 0xb4, 0xd9, 0x20, 0xe9, 0x05, 0xe7,
  0xf6, 0xfd, 0xf9, 0x04, 0x02, 0x13, 0x03, 0xfb, 0xec, 0xfb, 0xed, 0xad,
  0x05, 0xfc, 0xf6, 0x03, 0x01, 0x05, 0xd7, 0xf5, 0xd8, 0x16, 0xdd, 0x00,
  0xfc, 0xfe, 0x05, 0x06, 0xfb, 0xfd, 0xa4, 0xf2, 0x0b, 0xe4, 0xf6, 0xd4,
  0x12, 0xfe, 0xf0, 0x01, 0x0f, 0xff, 0xee, 0xf5, 0x96, 0xfe, 0xff, 0xff,
  0x04, 0x00, 0x00, 0x00, 0x80, 0x00, 0x00, 0x00, 0xa9, 0x00, 0x00, 0x00,
  0x55, 0x02, 0x00, 0x00, 0xdd, 0x01, 0x00, 0x00, 0x09, 0x01, 0x00, 0x00,
  0x69, 0xff, 0xff, 0xff, 0xeb, 0x00, 0x00, 0x00, 0x1b, 0x01, 0x00, 0x00,
  0xb8, 0x00, 0x00, 0x00, 0x8c, 0x00, 0x00, 0x00, 0x5b, 0x00, 0x00, 0x00,
  0x2d, 0x01, 0x00, 0x00, 0xd7, 0x00, 0x00, 0x00, 0xc9, 0xfc, 0xff, 0xff,
  0x2b, 0x01, 0x00, 0x00, 0xb5, 0xff, 0xff, 0xff, 0x14, 0x01, 0x00, 0x00,
  0x36, 0x01, 0x00, 0x00, 0x8c, 0x00, 0x00, 0x00, 0xc5, 0x02, 0x00, 0x00,
  0x59, 0x01, 0x00, 0x00, 0xc0, 0x01, 0x00, 0x00, 0x73, 0x02, 0x00, 0x00,
  0x68, 0xfe, 0xff, 0xff, 0x85, 0xf9, 0xff, 0xff, 0xc3, 0xff, 0xff, 0xff,
  0x77, 0x00, 0x00, 0x00, 0x90, 0x01, 0x00, 0x00, 0x14, 0x00, 0x00, 0x00,
  0xf0, 0x00, 0x00, 0x00, 0xe7, 0x00, 0x00, 0x00, 0xd8, 0x00, 0x00, 0x00,
  0xe8, 0x00, 0x00, 0x00, 0x22, 0xff, 0xff, 0xff, 0x04, 0x00, 0x00, 0x00,
  0x60, 0x00, 0x00, 0x00, 0xf4, 0x28, 0xf9, 0xc2, 0xce, 0xe7, 0xd9, 0xfe,
  0x22, 0xf8, 0x88, 0x30, 0x81, 0x2e, 0xf7, 0xbd, 0x5b, 0x41, 0x0b, 0xce,
  0x2b, 0xd6, 0xdf, 0xbd, 0xde, 0x74, 0xe2, 0x0f, 0x28, 0xf3, 0x9c, 0xf0,
  0x06, 0x14, 0xe2, 0xa7, 0xde, 0x45, 0xec, 0x39, 0x2f, 0x2c, 0xf8, 0x42,
  0x81, 0x0b, 0x04, 0xb4, 0xc0, 0x61, 0x14, 0xb0, 0x30, 0xa2, 0x97, 0xa3,
  0xa8, 0xe8, 0x8a, 0x0b, 0x29, 0x48, 0x9e, 0x17, 0x2e, 0x14, 0x24, 0xf0,
  0x60, 0x19, 0xe0, 0x27, 0xec, 0x07, 0x14, 0x2a, 0x29, 0xe1, 0xa5, 0xca,
  0xfc, 0x3b, 0x06, 0xaf, 0x0b, 0xff, 0x81, 0xbb, 0xc8, 0xe4, 0xad, 0xa0,
  0x14, 0xc5, 0xb5, 0x28, 0x8e, 0xff, 0xff, 0xff, 0x04, 0x00, 0x00, 0x00,
  0x0c, 0x00, 0x00, 0x00, 0xd9, 0x06, 0x00, 0x00, 0x0c, 0x03, 0x00, 0x00,
  0x00, 0x04, 0x00, 0x00, 0xa6, 0xff, 0xff, 0xff, 0x04, 0x00, 0x00, 0x00,
  0x0c, 0x00, 0x00, 0x00, 0xff, 0xff, 0xff, 0xff, 0x10, 0x00, 0x00, 0x00,
  0x03, 0x00, 0x00, 0x00, 0xbe, 0xff, 0xff, 0xff, 0x04, 0x00, 0x00, 0x00,
  0x0c, 0x00, 0x00, 0x00, 0xff, 0xff, 0xff, 0xff, 0x10, 0x00, 0x00, 0x00,
  0x20, 0x00, 0x00, 0x00, 0xd6, 0xff, 0xff, 0xff, 0x04, 0x00, 0x00, 0x00,
  0x0c, 0x00, 0x00, 0x00, 0xff, 0xff, 0xff, 0xff, 0x10, 0x00, 0x00, 0x00,
  0x18, 0x00, 0x00, 0x00, 0xee, 0xff, 0xff, 0xff, 0x04, 0x00, 0x00, 0x00,
  0x04, 0x00, 0x00, 0x00, 0xfd, 0xff, 0xff, 0xff, 0x00, 0x00, 0x06, 0x00,
  0x08, 0x00, 0x04, 0x00, 0x06, 0x00, 0x00, 0x00, 0x04, 0x00, 0x00, 0x00,
  0x18, 0x00, 0x00, 0x00, 0x00, 0x00, 0x00, 0x00, 0x00, 0x00, 0x00, 0x00,
  0x04, 0x00, 0x00, 0x00, 0x00, 0x00, 0x00, 0x00, 0x00, 0x00, 0x00, 0x00,
  0x00, 0x00, 0x00, 0x00, 0x7c, 0xea, 0xff, 0xff, 0x80, 0xea, 0xff, 0xff,
  0x0f, 0x00, 0x00, 0x00, 0x4d, 0x4c, 0x49, 0x52, 0x20, 0x43, 0x6f, 0x6e,
  0x76, 0x65, 0x72, 0x74, 0x65, 0x64, 0x2e, 0x00, 0x01, 0x00, 0x00, 0x00,
  0x14, 0x00, 0x00, 0x00, 0x00, 0x00, 0x0e, 0x00, 0x18, 0x00, 0x14, 0x00,
  0x10, 0x00, 0x0c, 0x00, 0x08, 0x00, 0x04, 0x00, 0x0e, 0x00, 0x00, 0x00,
  0x14, 0x00, 0x00, 0x00, 0x1c, 0x00, 0x00, 0x00, 0xdc, 0x02, 0x00, 0x00,
  0xe0, 0x02, 0x00, 0x00, 0xe4, 0x02, 0x00, 0x00, 0x04, 0x00, 0x00, 0x00,
  0x6d, 0x61, 0x69, 0x6e, 0x00, 0x00, 0x00, 0x00, 0x0c, 0x00, 0x00, 0x00,
  0x94, 0x02, 0x00, 0x00, 0x50, 0x02, 0x00, 0x00, 0xec, 0x01, 0x00, 0x00,
  0xc4, 0x01, 0x00, 0x00, 0x88, 0x01, 0x00, 0x00, 0x54, 0x01, 0x00, 0x00,
  0x0c, 0x01, 0x00, 0x00, 0xe4, 0x00, 0x00, 0x00, 0xb0, 0x00, 0x00, 0x00,
  0x60, 0x00, 0x00, 0x00, 0x2c, 0x00, 0x00, 0x00, 0x04, 0x00, 0x00, 0x00,
  0x6a, 0xfe, 0xff, 0xff, 0x0c, 0x00, 0x00, 0x00, 0x10, 0x00, 0x00, 0x00,
  0x03, 0x00, 0x00, 0x00, 0x01, 0x00, 0x00, 0x00, 0x17, 0x00, 0x00, 0x00,
  0x02, 0x00, 0x00, 0x00, 0x16, 0x00, 0x00, 0x00, 0x05, 0x00, 0x00, 0x00,
  0x8e, 0xfe, 0xff, 0xff, 0x0c, 0x00, 0x00, 0x00, 0x10, 0x00, 0x00, 0x00,
  0x04, 0x00, 0x00, 0x00, 0x01, 0x00, 0x00, 0x00, 0x16, 0x00, 0x00, 0x00,
  0x01, 0x00, 0x00, 0x00, 0x15, 0x00, 0x00, 0x00, 0x00, 0x00, 0x0e, 0x00,
  0x1a, 0x00, 0x14, 0x00, 0x10, 0x00, 0x0c, 0x00, 0x0b, 0x00, 0x04, 0x00,
  0x0e, 0x00, 0x00, 0x00, 0x20, 0x00, 0x00, 0x00, 0x00, 0x00, 0x00, 0x01,
  0x28, 0x00, 0x00, 0x00, 0x2c, 0x00, 0x00, 0x00, 0x02, 0x00, 0x00, 0x00,
  0x00, 0x00, 0x0a, 0x00, 0x10, 0x00, 0x0f, 0x00, 0x08, 0x00, 0x04, 0x00,
  0x0a, 0x00, 0x00, 0x00, 0x01, 0x00, 0x00, 0x00, 0x01, 0x00, 0x00, 0x00,
  0x00, 0x00, 0x00, 0x01, 0x01, 0x00, 0x00, 0x00, 0x15, 0x00, 0x00, 0x00,
  0x03, 0x00, 0x00, 0x00, 0x14, 0x00, 0x00, 0x00, 0x07, 0x00, 0x00, 0x00,
  0x06, 0x00, 0x00, 0x00, 0x8a, 0xfe, 0xff, 0xff, 0x14, 0x00, 0x00, 0x00,
  0x00, 0x00, 0x00, 0x34, 0x10, 0x00, 0x00, 0x00, 0x14, 0x00, 0x00, 0x00,
  0x01, 0x00, 0x00, 0x00, 0xc0, 0xeb, 0xff, 0xff, 0x01, 0x00, 0x00, 0x00,
  0x14, 0x00, 0x00, 0x00, 0x02, 0x00, 0x00, 0x00, 0x13, 0x00, 0x00, 0x00,
  0x02, 0x00, 0x00, 0x00, 0x3a, 0xff, 0xff, 0xff, 0x0c, 0x00, 0x00, 0x00,
  0x10, 0x00, 0x00, 0x00, 0x03, 0x00, 0x00, 0x00, 0x01, 0x00, 0x00, 0x00,
  0x13, 0x00, 0x00, 0x00, 0x02, 0x00, 0x00, 0x00, 0x12, 0x00, 0x00, 0x00,
  0x04, 0x00, 0x00, 0x00, 0xde, 0xfe, 0xff, 0xff, 0x14, 0x00, 0x00, 0x00,
  0x00, 0x00, 0x00, 0x01, 0x20, 0x00, 0x00, 0x00, 0x24, 0x00, 0x00, 0x00,
  0x02, 0x00, 0x00, 0x00, 0x30, 0xff, 0xff, 0xff, 0x00, 0x00, 0x00, 0x01,
  0x01, 0x00, 0x00, 0x00, 0x01, 0x00, 0x00, 0x00, 0x00, 0x00, 0x00, 0x01,
  0x01, 0x00, 0x00, 0x00, 0x12, 0x00, 0x00, 0x00, 0x03, 0x00, 0x00, 0x00,
  0x11, 0x00, 0x00, 0x00, 0x09, 0x00, 0x00, 0x00, 0x08, 0x00, 0x00, 0x00,
  0x22, 0xff, 0xff, 0xff, 0x14, 0x00, 0x00, 0x00, 0x00, 0x00, 0x00, 0x34,
  0x10, 0x00, 0x00, 0x00, 0x14, 0x00, 0x00, 0x00, 0x01, 0x00, 0x00, 0x00,
  0x58, 0xec, 0xff, 0xff, 0x01, 0x00, 0x00, 0x00, 0x11, 0x00, 0x00, 0x00,
  0x02, 0x00, 0x00, 0x00, 0x10, 0x00, 0x00, 0x00, 0x02, 0x00, 0x00, 0x00,
  0x12, 0xff, 0xff, 0xff, 0x10, 0x00, 0x00, 0x00, 0x00, 0x00, 0x00, 0x16,
  0x0c, 0x00, 0x00, 0x00, 0x10, 0x00, 0x00, 0x00, 0x84, 0xec, 0xff, 0xff,
  0x01, 0x00, 0x00, 0x00, 0x10, 0x00, 0x00, 0x00, 0x02, 0x00, 0x00, 0x00,
  0x0f, 0x00, 0x00, 0x00, 0x01, 0x00, 0x00, 0x00, 0x00, 0x00, 0x0a, 0x00,
  0x10, 0x00, 0x0c, 0x00, 0x08, 0x00, 0x04, 0x00, 0x0a, 0x00, 0x00, 0x00,
  0x0c, 0x00, 0x00, 0x00, 0x10, 0x00, 0x00, 0x00, 0x03, 0x00, 0x00, 0x00,
  0x01, 0x00, 0x00, 0x00, 0x0f, 0x00, 0x00, 0x00, 0x02, 0x00, 0x00, 0x00,
  0x0e, 0x00, 0x00, 0x00, 0x03, 0x00, 0x00, 0x00, 0xae, 0xff, 0xff, 0xff,
  0x20, 0x00, 0x00, 0x00, 0x00, 0x00, 0x00, 0x01, 0x2c, 0x00, 0x00, 0x00,
  0x30, 0x00, 0x00, 0x00, 0x02, 0x00, 0x00, 0x00, 0x0c, 0x00, 0x14, 0x00,
  0x13, 0x00, 0x0c, 0x00, 0x08, 0x00, 0x07, 0x00, 0x0c, 0x00, 0x00, 0x00,
  0x00, 0x00, 0x00, 0x01, 0x01, 0x00, 0x00, 0x00, 0x01, 0x00, 0x00, 0x00,
  0x00, 0x00, 0x00, 0x01, 0x01, 0x00, 0x00, 0x00, 0x0e, 0x00, 0x00, 0x00,
  0x03, 0x00, 0x00, 0x00, 0x0d, 0x00, 0x00, 0x00, 0x0b, 0x00, 0x00, 0x00,
  0x0a, 0x00, 0x00, 0x00, 0x00, 0x00, 0x0e, 0x00, 0x18, 0x00, 0x14, 0x00,
  0x10, 0x00, 0x0c, 0x00, 0x0b, 0x00, 0x04, 0x00, 0x0e, 0x00, 0x00, 0x00,
  0x14, 0x00, 0x00, 0x00, 0x00, 0x00, 0x00, 0x34, 0x10, 0x00, 0x00, 0x00,
  0x14, 0x00, 0x00, 0x00, 0x01, 0x00, 0x00, 0x00, 0x44, 0xed, 0xff, 0xff,
  0x01, 0x00, 0x00, 0x00, 0x0d, 0x00, 0x00, 0x00, 0x02, 0x00, 0x00, 0x00,
  0x0c, 0x00, 0x00, 0x00, 0x02, 0x00, 0x00, 0x00, 0x00, 0x00, 0x0e, 0x00,
  0x14, 0x00, 0x00, 0x00, 0x10, 0x00, 0x0c, 0x00, 0x0b, 0x00, 0x04, 0x00,
  0x0e, 0x00, 0x00, 0x00, 0x10, 0x00, 0x00, 0x00, 0x00, 0x00, 0x00, 0x16,
  0x0c, 0x00, 0x00, 0x00, 0x10, 0x00, 0x00, 0x00, 0x80, 0xed, 0xff, 0xff,
  0x01, 0x00, 0x00, 0x00, 0x0c, 0x00, 0x00, 0x00, 0x02, 0x00, 0x00, 0x00,
  0x00, 0x00, 0x00, 0x00, 0x01, 0x00, 0x00, 0x00, 0x01, 0x00, 0x00, 0x00,
  0x17, 0x00, 0x00, 0x00, 0x01, 0x00, 0x00, 0x00, 0x00, 0x00, 0x00, 0x00,
  0x18, 0x00, 0x00, 0x00, 0x94, 0x12, 0x00, 0x00, 0x34, 0x12, 0x00, 0x00,
  0xe0, 0x11, 0x00, 0x00, 0xa0, 0x11, 0x00, 0x00, 0x60, 0x11, 0x00, 0x00,
  0x20, 0x11, 0x00, 0x00, 0xa4, 0x10, 0x00, 0x00, 0x20, 0x10, 0x00, 0x00,
  0x4c, 0x0e, 0x00, 0x00, 0x68, 0x0c, 0x00, 0x00, 0xf4, 0x0a, 0x00, 0x00,
  0x70, 0x09, 0x00, 0x00, 0xe0, 0x08, 0x00, 0x00, 0x40, 0x08, 0x00, 0x00,
  0x14, 0x07, 0x00, 0x00, 0x14, 0x06, 0x00, 0x00, 0x80, 0x05, 0x00, 0x00,
  0xe0, 0x04, 0x00, 0x00, 0xe4, 0x03, 0x00, 0x00, 0x14, 0x03, 0x00, 0x00,
  0x6c, 0x02, 0x00, 0x00, 0x80, 0x01, 0x00, 0x00, 0x8c, 0x00, 0x00, 0x00,
  0x04, 0x00, 0x00, 0x00, 0xe2, 0xed, 0xff, 0xff, 0x00, 0x00, 0x00, 0x01,
  0x18, 0x00, 0x00, 0x00, 0x24, 0x00, 0x00, 0x00, 0x44, 0x00, 0x00, 0x00,
  0x18, 0x00, 0x00, 0x00, 0x00, 0x00, 0x00, 0x09, 0x58, 0x00, 0x00, 0x00,
  0x03, 0x00, 0x00, 0x00, 0xff, 0xff, 0xff, 0xff, 0x10, 0x00, 0x00, 0x00,
  0x03, 0x00, 0x00, 0x00, 0xcc, 0xed, 0xff, 0xff, 0x08, 0x00, 0x00, 0x00,
  0x14, 0x00, 0x00, 0x00, 0x01, 0x00, 0x00, 0x00, 0x80, 0xff, 0xff, 0xff,
  0xff, 0xff, 0xff, 0xff, 0x00, 0x00, 0x00, 0x00, 0x01, 0x00, 0x00, 0x00,
  0x00, 0x00, 0x80, 0x3b, 0x19, 0x00, 0x00, 0x00, 0x53, 0x74, 0x61, 0x74,
  0x65, 0x66, 0x75, 0x6c, 0x50, 0x61, 0x72, 0x74, 0x69, 0x74, 0x69, 0x6f,
  0x6e, 0x65, 0x64, 0x43, 0x61, 0x6c, 0x6c, 0x3a, 0x30, 0x00, 0x00, 0x00,
  0x03, 0x00, 0x00, 0x00, 0x01, 0x00, 0x00, 0x00, 0x10, 0x00, 0x00, 0x00,
  0x03, 0x00, 0x00, 0x00, 0x66, 0xee, 0xff, 0xff, 0x00, 0x00, 0x00, 0x01,
  0x18, 0x00, 0x00, 0x00, 0x28, 0x00, 0x00, 0x00, 0x48, 0x00, 0x00, 0x00,
  0x17, 0x00, 0x00, 0x00, 0x00, 0x00, 0x00, 0x09, 0xc0, 0x00, 0x00, 0x00,
  0x04, 0x00, 0x00, 0x00, 0xff, 0xff, 0xff, 0xff, 0x01, 0x00, 0x00, 0x00,
  0x10, 0x00, 0x00, 0x00, 0x03, 0x00, 0x00, 0x00, 0x54, 0xee, 0xff, 0xff,
  0x08, 0x00, 0x00, 0x00, 0x14, 0x00, 0x00, 0x00, 0x01, 0x00, 0x00, 0x00,
  0x80, 0xff, 0xff, 0xff, 0xff, 0xff, 0xff, 0xff, 0x00, 0x00, 0x00, 0x00,
  0x01, 0x00, 0x00, 0x00, 0x00, 0x00, 0x80, 0x3b, 0x7c, 0x00, 0x00, 0x00,
  0x66, 0x72, 0x61, 0x6d, 0x65, 0x5f, 0x6f, 0x6e, 0x73, 0x65, 0x74, 0x5f,
  0x63, 0x6f, 0x6e, 0x76, 0x31, 0x64, 0x2f, 0x6f, 0x75, 0x74, 0x70, 0x75,
  0x74, 0x5f, 0x63, 0x6f, 0x6e, 0x76, 0x2f, 0x53, 0x69, 0x67, 0x6d, 0x6f,
  0x69, 0x64, 0x3b, 0x66, 0x72, 0x61, 0x6d, 0x65, 0x5f, 0x6f, 0x6e, 0x73,
  0x65, 0x74, 0x5f, 0x63, 0x6f, 0x6e, 0x76, 0x31, 0x64, 0x2f, 0x6f, 0x75,
  0x74, 0x70, 0x75, 0x74, 0x5f, 0x63, 0x6f, 0x6e, 0x76, 0x2f, 0x42, 0x69,
  0x61, 0x73, 0x41, 0x64, 0x64, 0x3b, 0x66, 0x72, 0x61, 0x6d, 0x65, 0x5f,
  0x6f, 0x6e, 0x73, 0x65, 0x74, 0x5f, 0x63, 0x6f, 0x6e, 0x76, 0x31, 0x64,
  0x2f, 0x6f, 0x75, 0x74, 0x70, 0x75, 0x74, 0x5f, 0x63, 0x6f, 0x6e, 0x76,
  0x2f, 0x43, 0x6f, 0x6e, 0x76, 0x31, 0x44, 0x2f, 0x53, 0x71, 0x75, 0x65,
  0x65, 0x7a, 0x65, 0x3b, 0x00, 0x00, 0x00, 0x00, 0x04, 0x00, 0x00, 0x00,
  0x01, 0x00, 0x00, 0x00, 0x01, 0x00, 0x00, 0x00, 0x10, 0x00, 0x00, 0x00,
  0x03, 0x00, 0x00, 0x00, 0x56, 0xef, 0xff, 0xff, 0x00, 0x00, 0x00, 0x01,
  0x18, 0x00, 0x00, 0x00, 0x28, 0x00, 0x00, 0x00, 0x44, 0x00, 0x00, 0x00,
  0x16, 0x00, 0x00, 0x00, 0x00, 0x00, 0x00, 0x09, 0xb8, 0x00, 0x00, 0x00,
  0x04, 0x00, 0x00, 0x00, 0xff, 0xff, 0xff, 0xff, 0x01, 0x00, 0x00, 0x00,
  0x10, 0x00, 0x00, 0x00, 0x03, 0x00, 0x00, 0x00, 0x44, 0xef, 0xff, 0xff,
  0x08, 0x00, 0x00, 0x00, 0x10, 0x00, 0x00, 0x00, 0x01, 0x00, 0x00, 0x00,
  0xfe, 0xff, 0xff, 0xff, 0xff, 0xff, 0xff, 0xff, 0x01, 0x00, 0x00, 0x00,
  0x9a, 0xba, 0xec, 0x3c, 0x7b, 0x00, 0x00, 0x00, 0x66, 0x72, 0x61, 0x6d,
  0x65, 0x5f, 0x6f, 0x6e, 0x73, 0x65, 0x74, 0x5f, 0x63, 0x6f, 0x6e, 0x76,
  0x31, 0x64, 0x2f, 0x6f, 0x75, 0x74, 0x70, 0x75, 0x74, 0x5f, 0x63, 0x6f,
  0x6e, 0x76, 0x2f, 0x42, 0x69, 0x61, 0x73, 0x41, 0x64, 0x64, 0x3b, 0x66,
  0x72, 0x61, 0x6d, 0x65, 0x5f, 0x6f, 0x6e, 0x73, 0x65, 0x74, 0x5f, 0x63,
  0x6f, 0x6e, 0x76, 0x31, 0x64, 0x2f, 0x6f, 0x75, 0x74, 0x70, 0x75, 0x74,
  0x5f, 0x63, 0x6f, 0x6e, 0x76, 0x2f, 0x43, 0x6f, 0x6e, 0x76, 0x31, 0x44,
  0x2f, 0x53, 0x71, 0x75, 0x65, 0x65, 0x7a, 0x65, 0x3b, 0x3b, 0x66, 0x72,
  0x61, 0x6d, 0x65, 0x5f, 0x6f, 0x6e, 0x73, 0x65, 0x74, 0x5f, 0x63, 0x6f,
  0x6e, 0x76, 0x31, 0x64, 0x2f, 0x6f, 0x75, 0x74, 0x70, 0x75, 0x74, 0x5f,
  0x63, 0x6f, 0x6e, 0x76, 0x2f, 0x43, 0x6f, 0x6e, 0x76, 0x31, 0x44, 0x00,
  0x04, 0x00, 0x00, 0x00, 0x01, 0x00, 0x00, 0x00, 0x01, 0x00, 0x00, 0x00,
  0x10, 0x00, 0x00, 0x00, 0x03, 0x00, 0x00, 0x00, 0x3e, 0xf0, 0xff, 0xff,
  0x00, 0x00, 0x00, 0x01, 0x18, 0x00, 0x00, 0x00, 0x28, 0x00, 0x00, 0x00,
  0x48, 0x00, 0x00, 0x00, 0x15, 0x00, 0x00, 0x00, 0x00, 0x00, 0x00, 0x09,
  0x74, 0x00, 0x00, 0x00, 0x04, 0x00, 0x00, 0x00, 0xff, 0xff, 0xff, 0xff,
  0x01, 0x00, 0x00, 0x00, 0x10, 0x00, 0x00, 0x00, 0x20, 0x00, 0x00, 0x00,
  0x2c, 0xf0, 0xff, 0xff, 0x08, 0x00, 0x00, 0x00, 0x14, 0x00, 0x00, 0x00,
  0x01, 0x00, 0x00, 0x00, 0x80, 0xff, 0xff, 0xff, 0xff, 0xff, 0xff, 0xff,
  0x00, 0x00, 0x00, 0x00, 0x01, 0x00, 0x00, 0x00, 0xa8, 0x22, 0x36, 0x3c,
  0x30, 0x00, 0x00, 0x00, 0x66, 0x72, 0x61, 0x6d, 0x65, 0x5f, 0x6f, 0x6e,
  0x73, 0x65, 0x74, 0x5f, 0x63, 0x6f, 0x6e, 0x76, 0x31, 0x64, 0x2f, 0x6f,
  0x75, 0x74, 0x70, 0x75, 0x74, 0x5f, 0x63, 0x6f, 0x6e, 0x76, 0x2f, 0x43,
  0x6f, 0x6e, 0x76, 0x31, 0x44, 0x2f, 0x45, 0x78, 0x70, 0x61, 0x6e, 0x64,
  0x44, 0x69, 0x6d, 0x73, 0x00, 0x00, 0x00, 0x00, 0x04, 0x00, 0x00, 0x00,
  0x01, 0x00, 0x00, 0x00, 0x01, 0x00, 0x00, 0x00, 0x10, 0x00, 0x00, 0x00,
  0x20, 0x00, 0x00, 0x00, 0xe2, 0xf0, 0xff, 0xff, 0x00, 0x00, 0x00, 0x01,
  0x18, 0x00, 0x00, 0x00, 0x24, 0x00, 0x00, 0x00, 0x40, 0x00, 0x00, 0x00,
  0x14, 0x00, 0x00, 0x00, 0x00, 0x00, 0x00, 0x09, 0xa0, 0x00, 0x00, 0x00,
  0x03, 0x00, 0x00, 0x00, 0xff, 0xff, 0xff, 0xff, 0x10, 0x00, 0x00, 0x00,
  0x20, 0x00, 0x00, 0x00, 0xcc, 0xf0, 0xff, 0xff, 0x08, 0x00, 0x00, 0x00,
  0x10, 0x00, 0x00, 0x00, 0x01, 0x00, 0x00, 0x00, 0x80, 0xff, 0xff, 0xff,
  0xff, 0xff, 0xff, 0xff, 0x01, 0x00, 0x00, 0x00, 0xa8, 0x22, 0x36, 0x3c,
  0x67, 0x00, 0x00, 0x00, 0x66, 0x72, 0x61, 0x6d, 0x65, 0x5f, 0x6f, 0x6e,
  0x73, 0x65, 0x74, 0x5f, 0x63, 0x6f, 0x6e, 0x76, 0x31, 0x64, 0x2f, 0x63,
  0x6f, 0x6e, 0x76, 0x32, 0x2f, 0x52, 0x65, 0x6c, 0x75, 0x3b, 0x66, 0x72,
  0x61, 0x6d, 0x65, 0x5f, 0x6f, 0x6e, 0x73, 0x65, 0x74, 0x5f, 0x63, 0x6f,
  0x6e, 0x76, 0x31, 0x64, 0x2f, 0x63, 0x6f, 0x6e, 0x76, 0x32, 0x2f, 0x42,
  0x69, 0x61, 0x73, 0x41, 0x64, 0x64, 0x3b, 0x66, 0x72, 0x61, 0x6d, 0x65,
  0x5f, 0x6f, 0x6e, 0x73, 0x65, 0x74, 0x5f, 0x63, 0x6f, 0x6e, 0x76, 0x31,
  0x64, 0x2f, 0x63, 0x6f, 0x6e, 0x76, 0x32, 0x2f, 0x43, 0x6f, 0x6e, 0x76,
  0x31, 0x44, 0x2f, 0x53, 0x71, 0x75, 0x65, 0x65, 0x7a, 0x65, 0x3b, 0x00,
  0x03, 0x00, 0x00, 0x00, 0x01, 0x00, 0x00, 0x00, 0x10, 0x00, 0x00, 0x00,
  0x20, 0x00, 0x00, 0x00, 0xae, 0xf1, 0xff, 0xff, 0x00, 0x00, 0x00, 0x01,
  0x18, 0x00, 0x00, 0x00, 0x28, 0x00, 0x00, 0x00, 0x48, 0x00, 0x00, 0x00,
  0x13, 0x00, 0x00, 0x00, 0x00, 0x00, 0x00, 0x09, 0xc8, 0x00, 0x00, 0x00,
  0x04, 0x00, 0x00, 0x00, 0xff, 0xff, 0xff, 0xff, 0x01, 0x00, 0x00, 0x00,
  0x10, 0x00, 0x00, 0x00, 0x20, 0x00, 0x00, 0x00, 0x9c, 0xf1, 0xff, 0xff,
  0x08, 0x00, 0x00, 0x00, 0x14, 0x00, 0x00, 0x00, 0x01, 0x00, 0x00, 0x00,
  0x80, 0xff, 0xff, 0xff, 0xff, 0xff, 0xff, 0xff, 0x00, 0x00, 0x00, 0x00,
  0x01, 0x00, 0x00, 0x00, 0xa8, 0x22, 0x36, 0x3c, 0x87, 0x00, 0x00, 0x00,
  0x66, 0x72, 0x61, 0x6d, 0x65, 0x5f, 0x6f, 0x6e, 0x73, 0x65, 0x74, 0x5f,
  0x63, 0x6f, 0x6e, 0x76, 0x31, 0x64, 0x2f, 0x63, 0x6f, 0x6e, 0x76, 0x32,
  0x2f, 0x52, 0x65, 0x6c, 0x75, 0x3b, 0x66, 0x72, 0x61, 0x6d, 0x65, 0x5f,
  0x6f, 0x6e, 0x73, 0x65, 0x74, 0x5f, 0x63, 0x6f, 0x6e, 0x76, 0x31, 0x64,
  0x2f, 0x63, 0x6f, 0x6e, 0x76, 0x32, 0x2f, 0x42, 0x69, 0x61, 0x73, 0x41,
  0x64, 0x64, 0x3b, 0x66, 0x72, 0x61, 0x6d, 0x65, 0x5f, 0x6f, 0x6e, 0x73,
  0x65, 0x74, 0x5f, 0x63, 0x6f, 0x6e, 0x76, 0x31, 0x64, 0x2f, 0x63, 0x6f,
  0x6e, 0x76, 0x32, 0x2f, 0x43, 0x6f, 0x6e, 0x76, 0x31, 0x44, 0x2f, 0x53,
  0x71, 0x75, 0x65, 0x65, 0x7a, 0x65, 0x3b, 0x3b, 0x66, 0x72, 0x61, 0x6d,
  0x65, 0x5f, 0x6f, 0x6e, 0x73, 0x65, 0x74, 0x5f, 0x63, 0x6f, 0x6e, 0x76,
  0x31, 0x64, 0x2f, 0x63, 0x6f, 0x6e, 0x76, 0x32, 0x2f, 0x43, 0x6f, 0x6e,
  0x76, 0x31, 0x44, 0x00, 0x04, 0x00, 0x00, 0x00, 0x01, 0x00, 0x00, 0x00,
  0x01, 0x00, 0x00, 0x00, 0x10, 0x00, 0x00, 0x00, 0x20, 0x00, 0x00, 0x00,
  0xa6, 0xf2, 0xff, 0xff, 0x00, 0x00, 0x00, 0x01, 0x18, 0x00, 0x00, 0x00,
  0x28, 0x00, 0x00, 0x00, 0x48, 0x00, 0x00, 0x00, 0x12, 0x00, 0x00, 0x00,
  0x00, 0x00, 0x00, 0x09, 0x6c, 0x00, 0x00, 0x00, 0x04, 0x00, 0x00, 0x00,
  0xff, 0xff, 0xff, 0xff, 0x01, 0x00, 0x00, 0x00, 0x14, 0x00, 0x00, 0x00,
  0x18, 0x00, 0x00, 0x00, 0x94, 0xf2, 0xff, 0xff, 0x08, 0x00, 0x00, 0x00,
  0x14, 0x00, 0x00, 0x00, 0x01, 0x00, 0x00, 0x00, 0x80, 0xff, 0xff, 0xff,
  0xff, 0xff, 0xff, 0xff, 0x00, 0x00, 0x00, 0x00, 0x01, 0x00, 0x00, 0x00,
  0xea, 0x89, 0x05, 0x3d, 0x2a, 0x00, 0x00, 0x00, 0x66, 0x72, 0x61, 0x6d,
  0x65, 0x5f, 0x6f, 0x6e, 0x73, 0x65, 0x74, 0x5f, 0x63, 0x6f, 0x6e, 0x76,
  0x31, 0x64, 0x2f, 0x63, 0x6f, 0x6e, 0x76, 0x32, 0x2f, 0x43, 0x6f, 0x6e,
  0x76, 0x31, 0x44, 0x2f, 0x45, 0x78, 0x70, 0x61, 0x6e, 0x64, 0x44, 0x69,
  0x6d, 0x73, 0x00, 0x00, 0x04, 0x00, 0x00, 0x00, 0x01, 0x00, 0x00, 0x00,
  0x01, 0x00, 0x00, 0x00, 0x14, 0x00, 0x00, 0x00, 0x18, 0x00, 0x00, 0x00,
  0x42, 0xf3, 0xff, 0xff, 0x00, 0x00, 0x00, 0x01, 0x18, 0x00, 0x00, 0x00,
  0x24, 0x00, 0x00, 0x00, 0x44, 0x00, 0x00, 0x00, 0x11, 0x00, 0x00, 0x00,
  0x00, 0x00, 0x00, 0x09, 0x64, 0x00, 0x00, 0x00, 0x03, 0x00, 0x00, 0x00,
  0xff, 0xff, 0xff, 0xff, 0x14, 0x00, 0x00, 0x00, 0x18, 0x00, 0x00, 0x00,
  0x2c, 0xf3, 0xff, 0xff, 0x08, 0x00, 0x00, 0x00, 0x14, 0x00, 0x00, 0x00,
  0x01, 0x00, 0x00, 0x00, 0x80, 0xff, 0xff, 0xff, 0xff, 0xff, 0xff, 0xff,
  0x00, 0x00, 0x00, 0x00, 0x01, 0x00, 0x00, 0x00, 0xea, 0x89, 0x05, 0x3d,
  0x27, 0x00, 0x00, 0x00, 0x66, 0x72, 0x61, 0x6d, 0x65, 0x5f, 0x6f, 0x6e,
  0x73, 0x65, 0x74, 0x5f, 0x63, 0x6f, 0x6e, 0x76, 0x31, 0x64, 0x2f, 0x7a,
  0x65, 0x72, 0x6f, 0x5f, 0x70, 0x61, 0x64, 0x64, 0x69, 0x6e, 0x67, 0x31,
  0x64, 0x5f, 0x31, 0x2f, 0x50, 0x61, 0x64, 0x00, 0x03, 0x00, 0x00, 0x00,
  0x01, 0x00, 0x00, 0x00, 0x14, 0x00, 0x00, 0x00, 0x18, 0x00, 0x00, 0x00,
  0xd2, 0xf3, 0xff, 0xff, 0x00, 0x00, 0x00, 0x01, 0x18, 0x00, 0x00, 0x00,
  0x24, 0x00, 0x00, 0x00, 0x40, 0x00, 0x00, 0x00, 0x10, 0x00, 0x00, 0x00,
  0x00, 0x00, 0x00, 0x09, 0xd0, 0x00, 0x00, 0x00, 0x03, 0x00, 0x00, 0x00,
  0xff, 0xff, 0xff, 0xff, 0x10, 0x00, 0x00, 0x00, 0x18, 0x00, 0x00, 0x00,
  0xbc, 0xf3, 0xff, 0xff, 0x08, 0x00, 0x00, 0x00, 0x10, 0x00, 0x00, 0x00,
  0x01, 0x00, 0x00, 0x00, 0x80, 0xff, 0xff, 0xff, 0xff, 0xff, 0xff, 0xff,
  0x01, 0x00, 0x00, 0x00, 0xea, 0x89, 0x05, 0x3d, 0x96, 0x00, 0x00, 0x00,
  0x66, 0x72, 0x61, 0x6d, 0x65, 0x5f, 0x6f, 0x6e, 0x73, 0x65, 0x74, 0x5f,
  0x63, 0x6f, 0x6e, 0x76, 0x31, 0x64, 0x2f, 0x63, 0x6f, 0x6e, 0x76, 0x31,
  0x2f, 0x52, 0x65, 0x6c, 0x75, 0x3b, 0x66, 0x72, 0x61, 0x6d, 0x65, 0x5f,
  0x6f, 0x6e, 0x73, 0x65, 0x74, 0x5f, 0x63, 0x6f, 0x6e, 0x76, 0x31, 0x64,
  0x2f, 0x63, 0x6f, 0x6e, 0x76, 0x31, 0x2f, 0x42, 0x69, 0x61, 0x73, 0x41,
  0x64, 0x64, 0x3b, 0x66, 0x72, 0x61, 0x6d, 0x65, 0x5f, 0x6f, 0x6e, 0x73,
  0x65, 0x74, 0x5f, 0x63, 0x6f, 0x6e, 0x76, 0x31, 0x64, 0x2f, 0x63, 0x6f,
  0x6e, 0x76, 0x31, 0x2f, 0x43, 0x6f, 0x6e, 0x76, 0x31, 0x44, 0x2f, 0x53,
  0x71, 0x75, 0x65, 0x65, 0x7a, 0x65, 0x3b, 0x66, 0x72, 0x61, 0x6d, 0x65,
  0x5f, 0x6f, 0x6e, 0x73, 0x65, 0x74, 0x5f, 0x63, 0x6f, 0x6e, 0x76, 0x31,
  0x64, 0x2f, 0x63, 0x6f, 0x6e, 0x76, 0x31, 0x2f, 0x42, 0x69, 0x61, 0x73,
  0x41, 0x64, 0x64, 0x2f, 0x52, 0x65, 0x61, 0x64, 0x56, 0x61, 0x72, 0x69,
  0x61, 0x62, 0x6c, 0x65, 0x4f, 0x70, 0x00, 0x00, 0x03, 0x00, 0x00, 0x00,
  0x01, 0x00, 0x00, 0x00, 0x10, 0x00, 0x00, 0x00, 0x18, 0x00, 0x00, 0x00,
  0xce, 0xf4, 0xff, 0xff, 0x00, 0x00, 0x00, 0x01, 0x18, 0x00, 0x00, 0x00,
  0x28, 0x00, 0x00, 0x00, 0x48, 0x00, 0x00, 0x00, 0x0f, 0x00, 0x00, 0x00,
  0x00, 0x00, 0x00, 0x09, 0xf8, 0x00, 0x00, 0x00, 0x04, 0x00, 0x00, 0x00,
  0xff, 0xff, 0xff, 0xff, 0x01, 0x00, 0x00, 0x00, 0x10, 0x00, 0x00, 0x00,
  0x18, 0x00, 0x00, 0x00, 0xbc, 0xf4, 0xff, 0xff, 0x08, 0x00, 0x00, 0x00,
  0x14, 0x00, 0x00, 0x00, 0x01, 0x00, 0x00, 0x00, 0x80, 0xff, 0xff, 0xff,
  0xff, 0xff, 0xff, 0xff, 0x00, 0x00, 0x00, 0x00, 0x01, 0x00, 0x00, 0x00,
  0xea, 0x89, 0x05, 0x3d, 0xb6, 0x00, 0x00, 0x00, 0x66, 0x72, 0x61, 0x6d,
  0x65, 0x5f, 0x6f, 0x6e, 0x73, 0x65, 0x74, 0x5f, 0x63, 0x6f, 0x6e, 0x76,
  0x31, 0x64, 0x2f, 0x63, 0x6f, 0x6e, 0x76, 0x31, 0x2f, 0x52, 0x65, 0x6c,
  0x75, 0x3b, 0x66, 0x72, 0x61, 0x6d, 0x65, 0x5f, 0x6f, 0x6e, 0x73, 0x65,
  0x74, 0x5f, 0x63, 0x6f, 0x6e, 0x76, 0x31, 0x64, 0x2f, 0x63, 0x6f, 0x6e,
  0x76, 0x31, 0x2f, 0x42, 0x69, 0x61, 0x73, 0x41, 0x64, 0x64, 0x3b, 0x66,
  0x72, 0x61, 0x6d, 0x65, 0x5f, 0x6f, 0x6e, 0x73, 0x65, 0x74, 0x5f, 0x63,
  0x6f, 0x6e, 0x76, 0x31, 0x64, 0x2f, 0x63, 0x6f, 0x6e, 0x76, 0x31, 0x2f,
  0x43, 0x6f, 0x6e, 0x76, 0x31, 0x44, 0x2f, 0x53, 0x71, 0x75, 0x65, 0x65,
  0x7a, 0x65, 0x3b, 0x66, 0x72, 0x61, 0x6d, 0x65, 0x5f, 0x6f, 0x6e, 0x73,
  0x65, 0x74, 0x5f, 0x63, 0x6f, 0x6e, 0x76, 0x31, 0x64, 0x2f, 0x63, 0x6f,
  0x6e, 0x76, 0x31, 0x2f, 0x42, 0x69, 0x61, 0x73, 0x41, 0x64, 0x64, 0x2f,
  0x52, 0x65, 0x61, 0x64, 0x56, 0x61, 0x72, 0x69, 0x61, 0x62, 0x6c, 0x65,
  0x4f, 0x70, 0x3b, 0x66, 0x72, 0x61, 0x6d, 0x65, 0x5f, 0x6f, 0x6e, 0x73,
  0x65, 0x74, 0x5f, 0x63, 0x6f, 0x6e, 0x76, 0x31, 0x64, 0x2f, 0x63, 0x6f,
  0x6e, 0x76, 0x31, 0x2f, 0x43, 0x6f, 0x6e, 0x76, 0x31, 0x44, 0x00, 0x00,
  0x04, 0x00, 0x00, 0x00, 0x01, 0x00, 0x00, 0x00, 0x01, 0x00, 0x00, 0x00,
  0x10, 0x00, 0x00, 0x00, 0x18, 0x00, 0x00, 0x00, 0xf6, 0xf5, 0xff, 0xff,
  0x00, 0x00, 0x00, 0x01, 0x18, 0x00, 0x00, 0x00, 0x28, 0x00, 0x00, 0x00,
  0x48, 0x00, 0x00, 0x00, 0x0e, 0x00, 0x00, 0x00, 0x00, 0x00, 0x00, 0x09,
  0x6c, 0x00, 0x00, 0x00, 0x04, 0x00, 0x00, 0x00, 0xff, 0xff, 0xff, 0xff,
  0x01, 0x00, 0x00, 0x00, 0x14, 0x00, 0x00, 0x00, 0x1a, 0x00, 0x00, 0x00,
  0xe4, 0xf5, 0xff, 0xff, 0x08, 0x00, 0x00, 0x00, 0x14, 0x00, 0x00, 0x00,
  0x01, 0x00, 0x00, 0x00, 0x80, 0xff, 0xff, 0xff, 0xff, 0xff, 0xff, 0xff,
  0x00, 0x00, 0x00, 0x00, 0x01, 0x00, 0x00, 0x00, 0x81, 0x80, 0x80, 0x3b,
  0x2a, 0x00, 0x00, 0x00, 0x66, 0x72, 0x61, 0x6d, 0x65, 0x5f, 0x6f, 0x6e,
  0x73, 0x65, 0x74, 0x5f, 0x63, 0x6f, 0x6e, 0x76, 0x31, 0x64, 0x2f, 0x63,
  0x6f, 0x6e, 0x76, 0x31, 0x2f, 0x43, 0x6f, 0x6e, 0x76, 0x31, 0x44, 0x2f,
  0x45, 0x78, 0x70, 0x61, 0x6e, 0x64, 0x44, 0x69, 0x6d, 0x73, 0x00, 0x00,
  0x04, 0x00, 0x00, 0x00, 0x01, 0x00, 0x00, 0x00, 0x01, 0x00, 0x00, 0x00,
  0x14, 0x00, 0x00, 0x00, 0x1a, 0x00, 0x00, 0x00, 0x92, 0xf6, 0xff, 0xff,
  0x00, 0x00, 0x00, 0x01, 0x18, 0x00, 0x00, 0x00, 0x24, 0x00, 0x00, 0x00,
  0x40, 0x00, 0x00, 0x00, 0x0d, 0x00, 0x00, 0x00, 0x00, 0x00, 0x00, 0x09,
  0x60, 0x00, 0x00, 0x00, 0x03, 0x00, 0x00, 0x00, 0xff, 0xff, 0xff, 0xff,
  0x14, 0x00, 0x00, 0x00, 0x1a, 0x00, 0x00, 0x00, 0x7c, 0xf6, 0xff, 0xff,
  0x08, 0x00, 0x00, 0x00, 0x10, 0x00, 0x00, 0x00, 0x01, 0x00, 0x00, 0x00,
  0x80, 0xff, 0xff, 0xff, 0xff, 0xff, 0xff, 0xff, 0x01, 0x00, 0x00, 0x00,
  0x81, 0x80, 0x80, 0x3b, 0x25, 0x00, 0x00, 0x00, 0x66, 0x72, 0x61, 0x6d,
  0x65, 0x5f, 0x6f, 0x6e, 0x73, 0x65, 0x74, 0x5f, 0x63, 0x6f, 0x6e, 0x76,
  0x31, 0x64, 0x2f, 0x7a, 0x65, 0x72, 0x6f, 0x5f, 0x70, 0x61, 0x64, 0x64,
  0x69, 0x6e, 0x67, 0x31, 0x64, 0x2f, 0x50, 0x61, 0x64, 0x00, 0x00, 0x00,
  0x03, 0x00, 0x00, 0x00, 0x01, 0x00, 0x00, 0x00, 0x14, 0x00, 0x00, 0x00,
  0x1a, 0x00, 0x00, 0x00, 0x7a, 0xf7, 0xff, 0xff, 0x00, 0x00, 0x00, 0x01,
  0x14, 0x00, 0x00, 0x00, 0x48, 0x01, 0x00, 0x00, 0x0c, 0x00, 0x00, 0x00,
  0x00, 0x00, 0x00, 0x09, 0x54, 0x01, 0x00, 0x00, 0xf4, 0xf6, 0xff, 0xff,
  0x08, 0x00, 0x00, 0x00, 0xcc, 0x00, 0x00, 0x00, 0x18, 0x00, 0x00, 0x00,
  0x00, 0x00, 0x00, 0x00, 0x00, 0x00, 0x00, 0x00, 0x00, 0x00, 0x00, 0x00,
  0x00, 0x00, 0x00, 0x00, 0x00, 0x00, 0x00, 0x00, 0x00, 0x00, 0x00, 0x00,
  0x00, 0x00, 0x00, 0x00, 0x00, 0x00, 0x00, 0x00, 0x00, 0x00, 0x00, 0x00,
  0x00, 0x00, 0x00, 0x00, 0x00, 0x00, 0x00, 0x00, 0x00, 0x00, 0x00, 0x00,
  0x00, 0x00, 0x00, 0x00, 0x00, 0x00, 0x00, 0x00, 0x00, 0x00, 0x00, 0x00,
  0x00, 0x00, 0x00, 0x00, 0x00, 0x00, 0x00, 0x00, 0x00, 0x00, 0x00, 0x00,
  0x00, 0x00, 0x00, 0x00, 0x00, 0x00, 0x00, 0x00, 0x00, 0x00, 0x00, 0x00,
  0x00, 0x00, 0x00, 0x00, 0x00, 0x00, 0x00, 0x00, 0x00, 0x00, 0x00, 0x00,
  0x00, 0x00, 0x00, 0x00, 0x00, 0x00, 0x00, 0x00, 0x00, 0x00, 0x00, 0x00,
  0x00, 0x00, 0x00, 0x00, 0x00, 0x00, 0x00, 0x00, 0x00, 0x00, 0x00, 0x00,
  0x00, 0x00, 0x00, 0x00, 0x00, 0x00, 0x00, 0x00, 0x00, 0x00, 0x00, 0x00,
  0x00, 0x00, 0x00, 0x00, 0x00, 0x00, 0x00, 0x00, 0x00, 0x00, 0x00, 0x00,
  0x00, 0x00, 0x00, 0x00, 0x00, 0x00, 0x00, 0x00, 0x00, 0x00, 0x00, 0x00,
  0x00, 0x00, 0x00, 0x00, 0x00, 0x00, 0x00, 0x00, 0x00, 0x00, 0x00, 0x00,
  0x00, 0x00, 0x00, 0x00, 0x00, 0x00, 0x00, 0x00, 0x00, 0x00, 0x00, 0x00,
  0x00, 0x00, 0x00, 0x00, 0x00, 0x00, 0x00, 0x00, 0x00, 0x00, 0x00, 0x00,
  0x00, 0x00, 0x00, 0x00, 0x18, 0x00, 0x00, 0x00, 0xe5, 0x34, 0x01, 0x3c,
  0xfd, 0x7d, 0x73, 0x3b, 0xf6, 0xa8, 0x2e, 0x3b, 0x9c, 0x08, 0x94, 0x3b,
  0xbe, 0x17, 0x00, 0x3c, 0xf9, 0xc0, 0x67, 0x3b, 0x82, 0xb4, 0x54, 0x3b,
  0x3c, 0x9f, 0x91, 0x3b, 0x4f, 0xe3, 0x87, 0x3b, 0xa9, 0x06, 0xe6, 0x3b,
  0x95, 0x7e, 0xe8, 0x3b, 0xc1, 0x0c, 0x8a, 0x3b, 0x5d, 0x4f, 0x5a, 0x3b,
  0x1d, 0x58, 0xac, 0x3b, 0xd7, 0xde, 0xb6, 0x3b, 0xce, 0x75, 0x65, 0x3b,
  0x1e, 0xb4, 0xf2, 0x3b, 0x76, 0xcb, 0x8f, 0x3b, 0xc5, 0x4b, 0x6c, 0x3b,
  0xa3, 0xff, 0x56, 0x3b, 0xec, 0x30, 0x92, 0x3b, 0x5c, 0xbc, 0x68, 0x3b,
  0xec, 0x5f, 0x01, 0x3c, 0xfd, 0x1b, 0xad, 0x3c, 0x12, 0x00, 0x00, 0x00,
  0x74, 0x66, 0x6c, 0x2e, 0x70, 0x73, 0x65, 0x75, 0x64, 0x6f, 0x5f, 0x71,
  0x63, 0x6f, 0x6e, 0x73, 0x74, 0x35, 0x00, 0x00, 0x04, 0x00, 0x00, 0x00,
  0x18, 0x00, 0x00, 0x00, 0x01, 0x00, 0x00, 0x00, 0x05, 0x00, 0x00, 0x00,
  0x1a, 0x00, 0x00, 0x00, 0xfa, 0xf8, 0xff, 0xff, 0x00, 0x00, 0x00, 0x01,
  0x14, 0x00, 0x00, 0x00, 0x44, 0x01, 0x00, 0x00, 0x0b, 0x00, 0x00, 0x00,
  0x00, 0x00, 0x00, 0x02, 0x50, 0x01, 0x00, 0x00, 0x74, 0xf8, 0xff, 0xff,
  0x08, 0x00, 0x00, 0x00, 0xc8, 0x00, 0x00, 0x00, 0x18, 0x00, 0x00, 0x00,
  0x00, 0x00, 0x00, 0x00, 0x00, 0x00, 0x00, 0x00, 0x00, 0x00, 0x00, 0x00,
  0x00, 0x00, 0x00, 0x00, 0x00, 0x00, 0x00, 0x00, 0x00, 0x00, 0x00, 0x00,
  0x00, 0x00, 0x00, 0x00, 0x00, 0x00, 0x00, 0x00, 0x00, 0x00, 0x00, 0x00,
  0x00, 0x00, 0x00, 0x00, 0x00, 0x00, 0x00, 0x00, 0x00, 0x00, 0x00, 0x00,
  0x00, 0x00, 0x00, 0x00, 0x00, 0x00, 0x00, 0x00, 0x00, 0x00, 0x00, 0x00,
  0x00, 0x00, 0x00, 0x00, 0x00, 0x00, 0x00, 0x00, 0x00, 0x00, 0x00, 0x00,
  0x00, 0x00, 0x00, 0x00, 0x00, 0x00, 0x00, 0x00, 0x00, 0x00, 0x00, 0x00,
  0x00, 0x00, 0x00, 0x00, 0x00, 0x00, 0x00, 0x00, 0x00, 0x00, 0x00, 0x00,
  0x00, 0x00, 0x00, 0x00, 0x00, 0x00, 0x00, 0x00, 0x00, 0x00, 0x00, 0x00,
  0x00, 0x00, 0x00, 0x00, 0x00, 0x00, 0x00, 0x00, 0x00, 0x00, 0x00, 0x00,
  0x00, 0x00, 0x00, 0x00, 0x00, 0x00, 0x00, 0x00, 0x00, 0x00, 0x00, 0x00,
  0x00, 0x00, 0x00, 0x00, 0x00, 0x00, 0x00, 0x00, 0x00, 0x00, 0x00, 0x00,
  0x00, 0x00, 0x00, 0x00, 0x00, 0x00, 0x00, 0x00, 0x00, 0x00, 0x00, 0x00,
  0x00, 0x00, 0x00, 0x00, 0x00, 0x00, 0x00, 0x00, 0x00, 0x00, 0x00, 0x00,
  0x00, 0x00, 0x00, 0x00, 0x00, 0x00, 0x00, 0x00, 0x00, 0x00, 0x00, 0x00,
  0x00, 0x00, 0x00, 0x00, 0x00, 0x00, 0x00, 0x00, 0x00, 0x00, 0x00, 0x00,
  0x18, 0x00, 0x00, 0x00, 0x9c, 0xb6, 0x01, 0x38, 0x70, 0x72, 0x74, 0x37,
  0x4f, 0x58, 0x2f, 0x37, 0x3a, 0x9d, 0x94, 0x37, 0x57, 0x98, 0x00, 0x38,
  0xa4, 0xa9, 0x68, 0x37, 0x0d, 0x8a, 0x55, 0x37, 0x6e, 0x31, 0x92, 0x37,
  0xbb, 0x6b, 0x88, 0x37, 0x97, 0xed, 0xe6, 0x37, 0xfe, 0x67, 0xe9, 0x37,
  0x59, 0x97, 0x8a, 0x37, 0x88, 0x2a, 0x5b, 0x37, 0x23, 0x05, 0xad, 0x37,
  0x6e, 0x96, 0xb7, 0x37, 0x2b, 0x5c, 0x66, 0x37, 0xc7, 0xa7, 0xf3, 0x37,
  0xd2, 0x5b, 0x90, 0x37, 0xff, 0x38, 0x6d, 0x37, 0x7b, 0xd7, 0x57, 0x37,
  0xb0, 0xc3, 0x92, 0x37, 0x03, 0xa6, 0x69, 0x37, 0xce, 0xe1, 0x01, 0x38,
  0xc7, 0xc9, 0xad, 0x38, 0x12, 0x00, 0x00, 0x00, 0x74, 0x66, 0x6c, 0x2e,
  0x70, 0x73, 0x65, 0x75, 0x64, 0x6f, 0x5f, 0x71, 0x63, 0x6f, 0x6e, 0x73,
  0x74, 0x34, 0x00, 0x00, 0x01, 0x00, 0x00, 0x00, 0x18, 0x00, 0x00, 0x00,
  0x6a, 0xfa, 0xff, 0xff, 0x00, 0x00, 0x00, 0x01, 0x14, 0x00, 0x00, 0x00,
  0xa8, 0x01, 0x00, 0x00, 0x0a, 0x00, 0x00, 0x00, 0x00, 0x00, 0x00, 0x09,
  0xb4, 0x01, 0x00, 0x00, 0xe4, 0xf9, 0xff, 0xff, 0x08, 0x00, 0x00, 0x00,
  0x0c, 0x01, 0x00, 0x00, 0x20, 0x00, 0x00, 0x00, 0x00, 0x00, 0x00, 0x00,
  0x00, 0x00, 0x00, 0x00, 0x00, 0x00, 0x00, 0x00, 0x00, 0x00, 0x00, 0x00,
  0x00, 0x00, 0x00, 0x00, 0x00, 0x00, 0x00, 0x00, 0x00, 0x00, 0x00, 0x00,
  0x00, 0x00, 0x00, 0x00, 0x00, 0x00, 0x00, 0x00, 0x00, 0x00, 0x00, 0x00,
  0x00, 0x00, 0x00, 0x00, 0x00, 0x00, 0x00, 0x00, 0x00, 0x00, 0x00, 0x00,
  0x00, 0x00, 0x00, 0x00, 0x00, 0x00, 0x00, 0x00, 0x00, 0x00, 0x00, 0x00,
  0x00, 0x00, 0x00, 0x00, 0x00, 0x00, 0x00, 0x00, 0x00, 0x00, 0x00, 0x00,
  0x00, 0x00, 0x00, 0x00, 0x00, 0x00, 0x00, 0x00, 0x00, 0x00, 0x00, 0x00,
  0x00, 0x00, 0x00, 0x00, 0x00, 0x00, 0x00, 0x00, 0x00, 0x00, 0x00, 0x00,
  0x00, 0x00, 0x00, 0x00, 0x00, 0x00, 0x00, 0x00, 0x00, 0x00, 0x00, 0x00,
  0x00, 0x00, 0x00, 0x00, 0x00, 0x00, 0x00, 0x00, 0x00, 0x00, 0x00, 0x00,
  0x00, 0x00, 0x00, 0x00, 0x00, 0x00, 0x00, 0x00, 0x00, 0x00, 0x00, 0x00,
  0x00, 0x00, 0x00, 0x00, 0x00, 0x00, 0x00, 0x00, 0x00, 0x00, 0x00, 0x00,
  0x00, 0x00, 0x00, 0x00, 0x00, 0x00, 0x00, 0x00, 0x00, 0x00, 0x00, 0x00,
  0x00, 0x00, 0x00, 0x00, 0x00, 0x00, 0x00, 0x00, 0x00, 0x00, 0x00, 0x00,
  0x00, 0x00, 0x00, 0x00, 0x00, 0x00, 0x00, 0x00, 0x00, 0x00, 0x00, 0x00,
  0x00, 0x00, 0x00, 0x00, 0x00, 0x00, 0x00, 0x00, 0x00, 0x00, 0x00, 0x00,
  0x00, 0x00, 0x00, 0x00, 0x00, 0x00, 0x00, 0x00, 0x00, 0x00, 0x00, 0x00,
  0x00, 0x00, 0x00, 0x00, 0x00, 0x00, 0x00, 0x00, 0x00, 0x00, 0x00, 0x00,
  0x00, 0x00, 0x00, 0x00, 0x00, 0x00, 0x00, 0x00, 0x00, 0x00, 0x00, 0x00,
  0x00, 0x00, 0x00, 0x00, 0x00, 0x00, 0x00, 0x00, 0x00, 0x00, 0x00, 0x00,
  0x00, 0x00, 0x00, 0x00, 0x00, 0x00, 0x00, 0x00, 0x00, 0x00, 0x00, 0x00,
  0x00, 0x00, 0x00, 0x00, 0x20, 0x00, 0x00, 0x00, 0x07, 0xcd, 0xbb, 0x3c,
  0x18, 0xda, 0xec, 0x3b, 0xe4, 0x0f, 0x4f, 0x3c, 0xd7, 0x77, 0x86, 0x3c,
  0xe7, 0xd4, 0x51, 0x3c, 0x4d, 0xd2, 0xd9, 0x3c, 0x36, 0x3e, 0x96, 0x3c,
  0x9f, 0x58, 0x99, 0x3c, 0xf7, 0x4f, 0x80, 0x3c, 0x96, 0x22, 0x25, 0x3c,
  0x91, 0xcf, 0x7e, 0x3c, 0x9e, 0x9a, 0xd9, 0x3c, 0x52, 0xe4, 0x3c, 0x3c,
  0x02, 0xba, 0x98, 0x3c, 0x50, 0x29, 0xb9, 0x3c, 0xa2, 0xa3, 0xda, 0x3c,
  0x34, 0xb1, 0x92, 0x3c, 0x76, 0xb2, 0x8a, 0x3c, 0xc4, 0xd2, 0x9a, 0x3b,
  0x38, 0x8f, 0x77, 0x3c, 0xf4, 0x83, 0x29, 0x3c, 0x10, 0xcb, 0x60, 0x3c,
  0x5f, 0xc0, 0x5c, 0x3c, 0xeb, 0x89, 0xb0, 0x3b, 0x73, 0x67, 0x2f, 0x3c,
  0xd2, 0xf2, 0xf3, 0x3c, 0x42, 0x67, 0x64, 0x3c, 0x60, 0x7c, 0x41, 0x3c,
  0x86, 0x57, 0x87, 0x3c, 0x65, 0x72, 0xbe, 0x3c, 0x6b, 0xa0, 0xa4, 0x3c,
  0x89, 0xa6, 0x40, 0x3c, 0x12, 0x00, 0x00, 0x00, 0x74, 0x66, 0x6c, 0x2e,
  0x70, 0x73, 0x65, 0x75, 0x64, 0x6f, 0x5f, 0x71, 0x63, 0x6f, 0x6e, 0x73,
  0x74, 0x33, 0x00, 0x00, 0x04, 0x00, 0x00, 0x00, 0x20, 0x00, 0x00, 0x00,
  0x01, 0x00, 0x00, 0x00, 0x05, 0x00, 0x00, 0x00, 0x18, 0x00, 0x00, 0x00,
  0x4a, 0xfc, 0xff, 0xff, 0x00, 0x00, 0x00, 0x01, 0x14, 0x00, 0x00, 0x00,
  0xa4, 0x01, 0x00, 0x00, 0x09, 0x00, 0x00, 0x00, 0x00, 0x00, 0x00, 0x02,
  0xb0, 0x01, 0x00, 0x00, 0xc4, 0xfb, 0xff, 0xff, 0x08, 0x00, 0x00, 0x00,
  0x08, 0x01, 0x00, 0x00, 0x20, 0x00, 0x00, 0x00, 0x00, 0x00, 0x00, 0x00,
  0x00, 0x00, 0x00, 0x00, 0x00, 0x00, 0x00, 0x00, 0x00, 0x00, 0x00, 0x00,
  0x00, 0x00, 0x00, 0x00, 0x00, 0x00, 0x00, 0x00, 0x00, 0x00, 0x00, 0x00,
  0x00, 0x00, 0x00, 0x00, 0x00, 0x00, 0x00, 0x00, 0x00, 0x00, 0x00, 0x00,
  0x00, 0x00, 0x00, 0x00, 0x00, 0x00, 0x00, 0x00, 0x00, 0x00, 0x00, 0x00,
  0x00, 0x00, 0x00, 0x00, 0x00, 0x00, 0x00, 0x00, 0x00, 0x00, 0x00, 0x00,
  0x00, 0x00, 0x00, 0x00, 0x00, 0x00, 0x00, 0x00, 0x00, 0x00, 0x00, 0x00,
  0x00, 0x00, 0x00, 0x00, 0x00, 0x00, 0x00, 0x00, 0x00, 0x00, 0x00, 0x00,
  0x00, 0x00, 0x00, 0x00, 0x00, 0x00, 0x00, 0x00, 0x00, 0x00, 0x00, 0x00,
  0x00, 0x00, 0x00, 0x00, 0x00, 0x00, 0x00, 0x00, 0x00, 0x00, 0x00, 0x00,
  0x00, 0x00, 0x00, 0x00, 0x00, 0x00, 0x00, 0x00, 0x00, 0x00, 0x00, 0x00,
  0x00, 0x00, 0x00, 0x00, 0x00, 0x00, 0x00, 0x00, 0x00, 0x00, 0x00, 0x00,
  0x00, 0x00, 0x00, 0x00, 0x00, 0x00, 0x00, 0x00, 0x00, 0x00, 0x00, 0x00,
  0x00, 0x00, 0x00, 0x00, 0x00, 0x00, 0x00, 0x00, 0x00, 0x00, 0x00, 0x00,
  0x00, 0x00, 0x00, 0x00, 0x00, 0x00, 0x00, 0x00, 0x00, 0x00, 0x00, 0x00,
  0x00, 0x00, 0x00, 0x00, 0x00, 0x00, 0x00, 0x00, 0x00, 0x00, 0x00, 0x00,
  0x00, 0x00, 0x00, 0x00, 0x00, 0x00, 0x00, 0x00, 0x00, 0x00, 0x00, 0x00,
  0x00, 0x00, 0x00, 0x00, 0x00, 0x00, 0x00, 0x00, 0x00, 0x00, 0x00, 0x00,
  0x00, 0x00, 0x00, 0x00, 0x00, 0x00, 0x00, 0x00, 0x00, 0x00, 0x00, 0x00,
  0x00, 0x00, 0x00, 0x00, 0x00, 0x00, 0x00, 0x00, 0x00, 0x00, 0x00, 0x00,
  0x00, 0x00, 0x00, 0x00, 0x00, 0x00, 0x00, 0x00, 0x00, 0x00, 0x00, 0x00,
  0x00, 0x00, 0x00, 0x00, 0x00, 0x00, 0x00, 0x00, 0x00, 0x00, 0x00, 0x00,
  0x20, 0x00, 0x00, 0x00, 0x62, 0xed, 0x43, 0x3a, 0xcf, 0x19, 0x77, 0x39,
  0x9c, 0x05, 0xd8, 0x39, 0x67, 0x49, 0x0c, 0x3a, 0x4d, 0xe9, 0xda, 0x39,
  0x35, 0x3f, 0x63, 0x3a, 0x85, 0xbe, 0x1c, 0x3a, 0x4e, 0xfb, 0x1f, 0x3a,
  0x57, 0xdd, 0x05, 0x3a, 0xdd, 0x47, 0xac, 0x39, 0x1c, 0xeb, 0x04, 0x3a,
  0x1d, 0x05, 0x63, 0x3a, 0xc3, 0x10, 0xc5, 0x39, 0xd4, 0x55, 0x1f, 0x3a,
  0x6e, 0x2c, 0x41, 0x3a, 0x99, 0x19, 0x64, 0x3a, 0x2e, 0x0a, 0x19, 0x3a,
  0xdf, 0xb2, 0x10, 0x3a, 0xd0, 0x85, 0x21, 0x39, 0xc6, 0x22, 0x01, 0x3a,
  0xc1, 0xd9, 0xb0, 0x39, 0x33, 0x85, 0xea, 0x39, 0xbc, 0x4d, 0xe6, 0x39,
  0x85, 0x2d, 0x38, 0x39, 0x7b, 0xfe, 0xb6, 0x39, 0x26, 0x81, 0x7e, 0x3a,
  0x63, 0x49, 0xee, 0x39, 0xb5, 0xdb, 0xc9, 0x39, 0xc4, 0x32, 0x0d, 0x3a,
  0x10, 0xb0, 0x46, 0x3a, 0x10, 0xc0, 0x2b, 0x3a, 0x9d, 0xfc, 0xc8, 0x39,
  0x12, 0x00, 0x00, 0x00, 0x74, 0x66, 0x6c, 0x2e, 0x70, 0x73, 0x65, 0x75,
  0x64, 0x6f, 0x5f, 0x71, 0x63, 0x6f, 0x6e, 0x73, 0x74, 0x32, 0x00, 0x00,
  0x01, 0x00, 0x00, 0x00, 0x20, 0x00, 0x00, 0x00, 0x1a, 0xfe, 0xff, 0xff,
  0x00, 0x00, 0x00, 0x01, 0x14, 0x00, 0x00, 0x00, 0x48, 0x00, 0x00, 0x00,
  0x08, 0x00, 0x00, 0x00, 0x00, 0x00, 0x00, 0x09, 0x54, 0x00, 0x00, 0x00,
  0x94, 0xfd, 0xff, 0xff, 0x08, 0x00, 0x00, 0x00, 0x20, 0x00, 0x00, 0x00,
  0x03, 0x00, 0x00, 0x00, 0x00, 0x00, 0x00, 0x00, 0x00, 0x00, 0x00, 0x00,
  0x00, 0x00, 0x00, 0x00, 0x00, 0x00, 0x00, 0x00, 0x00, 0x00, 0x00, 0x00,
  0x00, 0x00, 0x00, 0x00, 0x03, 0x00, 0x00, 0x00, 0x59, 0x97, 0x0d, 0x3c,
  0x12, 0x86, 0x14, 0x3c, 0x55, 0x21, 0x65, 0x3c, 0x12, 0x00, 0x00, 0x00,
  0x74, 0x66, 0x6c, 0x2e, 0x70, 0x73, 0x65, 0x75, 0x64, 0x6f, 0x5f, 0x71,
  0x63, 0x6f, 0x6e, 0x73, 0x74, 0x31, 0x00, 0x00, 0x04, 0x00, 0x00, 0x00,
  0x03, 0x00, 0x00, 0x00, 0x01, 0x00, 0x00, 0x00, 0x01, 0x00, 0x00, 0x00,
  0x20, 0x00, 0x00, 0x00, 0x9a, 0xfe, 0xff, 0xff, 0x00, 0x00, 0x00, 0x01,
  0x14, 0x00, 0x00, 0x00, 0x4c, 0x00, 0x00, 0x00, 0x07, 0x00, 0x00, 0x00,
  0x00, 0x00, 0x00, 0x02, 0x58, 0x00, 0x00, 0x00, 0x14, 0xfe, 0xff, 0xff,
  0x08, 0x00, 0x00, 0x00, 0x24, 0x00, 0x00, 0x00, 0x03, 0x00, 0x00, 0x00,
  0x00, 0x00, 0x00, 0x00, 0x00, 0x00, 0x00, 0x00, 0x00, 0x00, 0x00, 0x00,
  0x00, 0x00, 0x00, 0x00, 0x00, 0x00, 0x00, 0x00, 0x00, 0x00, 0x00, 0x00,
  0x00, 0x00, 0x00, 0x00, 0x03, 0x00, 0x00, 0x00, 0x89, 0x79, 0xc9, 0x38,
  0xd8, 0x56, 0xd3, 0x38, 0xb7, 0x04, 0x23, 0x39, 0x11, 0x00, 0x00, 0x00,
  0x74, 0x66, 0x6c, 0x2e, 0x70, 0x73, 0x65, 0x75, 0x64, 0x6f, 0x5f, 0x71,
  0x63, 0x6f, 0x6e, 0x73, 0x74, 0x00, 0x00, 0x00, 0x01, 0x00, 0x00, 0x00,
  0x03, 0x00, 0x00, 0x00, 0x12, 0xff, 0xff, 0xff, 0x00, 0x00, 0x00, 0x01,
  0x14, 0x00, 0x00, 0x00, 0x14, 0x00, 0x00, 0x00, 0x06, 0x00, 0x00, 0x00,
  0x00, 0x00, 0x00, 0x02, 0x1c, 0x00, 0x00, 0x00, 0xfc, 0xfe, 0xff, 0xff,
  0x0f, 0x00, 0x00, 0x00, 0x61, 0x72, 0x69, 0x74, 0x68, 0x2e, 0x63, 0x6f,
  0x6e, 0x73, 0x74, 0x61, 0x6e, 0x74, 0x34, 0x00, 0x01, 0x00, 0x00, 0x00,
  0x03, 0x00, 0x00, 0x00, 0x4e, 0xff, 0xff, 0xff, 0x00, 0x00, 0x00, 0x01,
  0x14, 0x00, 0x00, 0x00, 0x14, 0x00, 0x00, 0x00, 0x05, 0x00, 0x00, 0x00,
  0x00, 0x00, 0x00, 0x02, 0x1c, 0x00, 0x00, 0x00, 0x38, 0xff, 0xff, 0xff,
  0x0f, 0x00, 0x00, 0x00, 0x61, 0x72, 0x69, 0x74, 0x68, 0x2e, 0x63, 0x6f,
  0x6e, 0x73, 0x74, 0x61, 0x6e, 0x74, 0x33, 0x00, 0x01, 0x00, 0x00, 0x00,
  0x03, 0x00, 0x00, 0x00, 0x8a, 0xff, 0xff, 0xff, 0x00, 0x00, 0x00, 0x01,
  0x14, 0x00, 0x00, 0x00, 0x14, 0x00, 0x00, 0x00, 0x04, 0x00, 0x00, 0x00,
  0x00, 0x00, 0x00, 0x02, 0x1c, 0x00, 0x00, 0x00, 0x74, 0xff, 0xff, 0xff,
  0x0f, 0x00, 0x00, 0x00, 0x61, 0x72, 0x69, 0x74, 0x68, 0x2e, 0x63, 0x6f,
  0x6e, 0x73, 0x74, 0x61, 0x6e, 0x74, 0x32, 0x00, 0x01, 0x00, 0x00, 0x00,
  0x03, 0x00, 0x00, 0x00, 0xc6, 0xff, 0xff, 0xff, 0x00, 0x00, 0x00, 0x01,
  0x14, 0x00, 0x00, 0x00, 0x14, 0x00, 0x00, 0x00, 0x03, 0x00, 0x00, 0x00,
  0x00, 0x00, 0x00, 0x02, 0x1c, 0x00, 0x00, 0x00, 0xb0, 0xff, 0xff, 0xff,
  0x0f, 0x00, 0x00, 0x00, 0x61, 0x72, 0x69, 0x74, 0x68, 0x2e, 0x63, 0x6f,
  0x6e, 0x73, 0x74, 0x61, 0x6e, 0x74, 0x31, 0x00, 0x00, 0x00, 0x00, 0x00,
  0x00, 0x00, 0x16, 0x00, 0x1c, 0x00, 0x18, 0x00, 0x17, 0x00, 0x10, 0x00,
  0x0c, 0x00, 0x08, 0x00, 0x00, 0x00, 0x00, 0x00, 0x00, 0x00, 0x07, 0x00,
  0x16, 0x00, 0x00, 0x00, 0x00, 0x00, 0x00, 0x01, 0x18, 0x00, 0x00, 0x00,
  0x18, 0x00, 0x00, 0x00, 0x02, 0x00, 0x00, 0x00, 0x00, 0x00, 0x00, 0x02,
  0x20, 0x00, 0x00, 0x00, 0x04, 0x00, 0x04, 0x00, 0x04, 0x00, 0x00, 0x00,
  0x0e, 0x00, 0x00, 0x00, 0x61, 0x72, 0x69, 0x74, 0x68, 0x2e, 0x63, 0x6f,
  0x6e, 0x73, 0x74, 0x61, 0x6e, 0x74, 0x00, 0x00, 0x02, 0x00, 0x00, 0x00,
  0x03, 0x00, 0x00, 0x00, 0x02, 0x00, 0x00, 0x00, 0x00, 0x00, 0x16, 0x00,
  0x20, 0x00, 0x1c, 0x00, 0x1b, 0x00, 0x14, 0x00, 0x10, 0x00, 0x0c, 0x00,
  0x00, 0x00, 0x00, 0x00, 0x08, 0x00, 0x07, 0x00, 0x16, 0x00, 0x00, 0x00,
  0x00, 0x00, 0x00, 0x01, 0x18, 0x00, 0x00, 0x00, 0x30, 0x00, 0x00, 0x00,
  0x4c, 0x00, 0x00, 0x00, 0x01, 0x00, 0x00, 0x00, 0x00, 0x00, 0x00, 0x09,
  0x60, 0x00, 0x00, 0x00, 0x03, 0x00, 0x00, 0x00, 0xff, 0xff, 0xff, 0xff,
  0x10, 0x00, 0x00, 0x00, 0x1a, 0x00, 0x00, 0x00, 0x0c, 0x00, 0x0c, 0x00,
  0x00, 0x00, 0x00, 0x00, 0x08, 0x00, 0x04, 0x00, 0x0c, 0x00, 0x00, 0x00,
  0x08, 0x00, 0x00, 0x00, 0x10, 0x00, 0x00, 0x00, 0x01, 0x00, 0x00, 0x00,
  0x80, 0xff, 0xff, 0xff, 0xff, 0xff, 0xff, 0xff, 0x01, 0x00, 0x00, 0x00,
  0x81, 0x80, 0x80, 0x3b, 0x1b, 0x00, 0x00, 0x00, 0x73, 0x65, 0x72, 0x76,
  0x69, 0x6e, 0x67, 0x5f, 0x64, 0x65, 0x66, 0x61, 0x75, 0x6c, 0x74, 0x5f,
  0x6d, 0x65, 0x6c, 0x5f, 0x69, 0x6e, 0x70, 0x75, 0x74, 0x3a, 0x30, 0x00,
  0x03, 0x00, 0x00, 0x00, 0x01, 0x00, 0x00, 0x00, 0x10, 0x00, 0x00, 0x00,
  0x1a, 0x00, 0x00, 0x00, 0x05, 0x00, 0x00, 0x00, 0x64, 0x00, 0x00, 0x00,
  0x48, 0x00, 0x00, 0x00, 0x28, 0x00, 0x00, 0x00, 0x18, 0x00, 0x00, 0x00,
  0x04, 0x00, 0x00, 0x00, 0xbc, 0xff, 0xff, 0xff, 0x0e, 0x00, 0x00, 0x00,
  0x02, 0x00, 0x00, 0x00, 0x00, 0x00, 0x00, 0x0e, 0xe4, 0xff, 0xff, 0xff,
  0x16, 0x00, 0x00, 0x00, 0x00, 0x00, 0x00, 0x16, 0xd8, 0xff, 0xff, 0xff,
  0x03, 0x00, 0x00, 0x00, 0x03, 0x00, 0x00, 0x00, 0x00, 0x00, 0x00, 0x03,
  0x0c, 0x00, 0x0c, 0x00, 0x0b, 0x00, 0x00, 0x00, 0x00, 0x00, 0x04, 0x00,
  0x0c, 0x00, 0x00, 0x00, 0x46, 0x00, 0x00, 0x00, 0x00, 0x00, 0x00, 0x46,
  0x0c, 0x00, 0x10, 0x00, 0x0f, 0x00, 0x00, 0x00, 0x08, 0x00, 0x04, 0x00,
  0x0c, 0x00, 0x00, 0x00, 0x22, 0x00, 0x00, 0x00, 0x02, 0x00, 0x00, 0x00,
  0x00, 0x00, 0x00, 0x22,
};

static const unsigned int frame_onset_model_data_len = 13888;

#endif // FRAME_ONSET_MODEL_DATA_V8_H
