// Auto-generated by export_tflite.py — do not edit
// Model size: 17176 bytes (16.8 KB)
// SHA256 prefix: 93236165e3083bde
// Exported: 2026-04-19T17:32:53Z

#ifndef FRAME_ONSET_MODEL_DATA_V27_H
#define FRAME_ONSET_MODEL_DATA_V27_H

#define FRAME_ONSET_MODEL_DATA_HASH "93236165e3083bde"
#define FRAME_ONSET_MODEL_DATA_SIZE 17176

alignas(8) static const unsigned char frame_onset_model_data[] = {
  0x1c, 0x00, 0x00, 0x00, 0x54, 0x46, 0x4c, 0x33, 0x14, 0x00, 0x20, 0x00,
  0x1c, 0x00, 0x18, 0x00, 0x14, 0x00, 0x10, 0x00, 0x0c, 0x00, 0x00, 0x00,
  0x08, 0x00, 0x04, 0x00, 0x14, 0x00, 0x00, 0x00, 0x1c, 0x00, 0x00, 0x00,
  0x88, 0x00, 0x00, 0x00, 0xe0, 0x00, 0x00, 0x00, 0xe0, 0x2b, 0x00, 0x00,
  0xf0, 0x2b, 0x00, 0x00, 0x6c, 0x42, 0x00, 0x00, 0x03, 0x00, 0x00, 0x00,
  0x01, 0x00, 0x00, 0x00, 0x04, 0x00, 0x00, 0x00, 0x1e, 0xd2, 0xff, 0xff,
  0x0c, 0x00, 0x00, 0x00, 0x1c, 0x00, 0x00, 0x00, 0x3c, 0x00, 0x00, 0x00,
  0x0f, 0x00, 0x00, 0x00, 0x73, 0x65, 0x72, 0x76, 0x69, 0x6e, 0x67, 0x5f,
  0x64, 0x65, 0x66, 0x61, 0x75, 0x6c, 0x74, 0x00, 0x01, 0x00, 0x00, 0x00,
  0x04, 0x00, 0x00, 0x00, 0x94, 0xff, 0xff, 0xff, 0x16, 0x00, 0x00, 0x00,
  0x04, 0x00, 0x00, 0x00, 0x0b, 0x00, 0x00, 0x00, 0x6f, 0x75, 0x74, 0x70,
  0x75, 0x74, 0x5f, 0x63, 0x6f, 0x6e, 0x76, 0x00, 0x01, 0x00, 0x00, 0x00,
  0x04, 0x00, 0x00, 0x00, 0xba, 0xd4, 0xff, 0xff, 0x04, 0x00, 0x00, 0x00,
  0x09, 0x00, 0x00, 0x00, 0x6d, 0x65, 0x6c, 0x5f, 0x69, 0x6e, 0x70, 0x75,
  0x74, 0x00, 0x00, 0x00, 0x02, 0x00, 0x00, 0x00, 0x34, 0x00, 0x00, 0x00,
  0x04, 0x00, 0x00, 0x00, 0xdc, 0xff, 0xff, 0xff, 0x19, 0x00, 0x00, 0x00,
  0x04, 0x00, 0x00, 0x00, 0x13, 0x00, 0x00, 0x00, 0x43, 0x4f, 0x4e, 0x56,
  0x45, 0x52, 0x53, 0x49, 0x4f, 0x4e, 0x5f, 0x4d, 0x45, 0x54, 0x41, 0x44,
  0x41, 0x54, 0x41, 0x00, 0x08, 0x00, 0x0c, 0x00, 0x08, 0x00, 0x04, 0x00,
  0x08, 0x00, 0x00, 0x00, 0x18, 0x00, 0x00, 0x00, 0x04, 0x00, 0x00, 0x00,
  0x13, 0x00, 0x00, 0x00, 0x6d, 0x69, 0x6e, 0x5f, 0x72, 0x75, 0x6e, 0x74,
  0x69, 0x6d, 0x65, 0x5f, 0x76, 0x65, 0x72, 0x73, 0x69, 0x6f, 0x6e, 0x00,
  0x1a, 0x00, 0x00, 0x00, 0xfc, 0x2a, 0x00, 0x00, 0xf4, 0x2a, 0x00, 0x00,
  0xcc, 0x2a, 0x00, 0x00, 0xb0, 0x2a, 0x00, 0x00, 0x94, 0x2a, 0x00, 0x00,
  0x78, 0x2a, 0x00, 0x00, 0x64, 0x2a, 0x00, 0x00, 0x34, 0x2a, 0x00, 0x00,
  0xa4, 0x29, 0x00, 0x00, 0x94, 0x15, 0x00, 0x00, 0x04, 0x15, 0x00, 0x00,
  0xf4, 0x00, 0x00, 0x00, 0xec, 0x00, 0x00, 0x00, 0xe4, 0x00, 0x00, 0x00,
  0xdc, 0x00, 0x00, 0x00, 0xd4, 0x00, 0x00, 0x00, 0xcc, 0x00, 0x00, 0x00,
  0xc4, 0x00, 0x00, 0x00, 0xbc, 0x00, 0x00, 0x00, 0xb4, 0x00, 0x00, 0x00,
  0xac, 0x00, 0x00, 0x00, 0xa4, 0x00, 0x00, 0x00, 0x9c, 0x00, 0x00, 0x00,
  0x94, 0x00, 0x00, 0x00, 0x74, 0x00, 0x00, 0x00, 0x04, 0x00, 0x00, 0x00,
  0x9a, 0xd5, 0xff, 0xff, 0x04, 0x00, 0x00, 0x00, 0x60, 0x00, 0x00, 0x00,
  0x0c, 0x00, 0x00, 0x00, 0x08, 0x00, 0x0e, 0x00, 0x08, 0x00, 0x04, 0x00,
  0x08, 0x00, 0x00, 0x00, 0x10, 0x00, 0x00, 0x00, 0x28, 0x00, 0x00, 0x00,
  0x00, 0x00, 0x06, 0x00, 0x08, 0x00, 0x04, 0x00, 0x06, 0x00, 0x00, 0x00,
  0x04, 0x00, 0x00, 0x00, 0x01, 0x00, 0x00, 0x00, 0xeb, 0x03, 0x00, 0x00,
  0x0c, 0x00, 0x18, 0x00, 0x14, 0x00, 0x10, 0x00, 0x0c, 0x00, 0x04, 0x00,
  0x0c, 0x00, 0x00, 0x00, 0x21, 0x88, 0x3e, 0x2f, 0x24, 0x02, 0x66, 0x99,
  0x02, 0x00, 0x00, 0x00, 0x02, 0x00, 0x00, 0x00, 0x04, 0x00, 0x00, 0x00,
  0x06, 0x00, 0x00, 0x00, 0x32, 0x2e, 0x32, 0x30, 0x2e, 0x30, 0x00, 0x00,
  0x06, 0xd6, 0xff, 0xff, 0x04, 0x00, 0x00, 0x00, 0x10, 0x00, 0x00, 0x00,
  0x31, 0x2e, 0x31, 0x34, 0x2e, 0x30, 0x00, 0x00, 0x00, 0x00, 0x00, 0x00,
  0x00, 0x00, 0x00, 0x00, 0x28, 0xc0, 0xff, 0xff, 0x2c, 0xc0, 0xff, 0xff,
  0x30, 0xc0, 0xff, 0xff, 0x34, 0xc0, 0xff, 0xff, 0x38, 0xc0, 0xff, 0xff,
  0x3c, 0xc0, 0xff, 0xff, 0x40, 0xc0, 0xff, 0xff, 0x44, 0xc0, 0xff, 0xff,
  0x48, 0xc0, 0xff, 0xff, 0x4c, 0xc0, 0xff, 0xff, 0x50, 0xc0, 0xff, 0xff,
  0x54, 0xc0, 0xff, 0xff, 0x52, 0xd6, 0xff, 0xff, 0x04, 0x00, 0x00, 0x00,
  0x00, 0x14, 0x00, 0x00, 0x00, 0x00, 0x00, 0x00, 0x00, 0x00, 0x00, 0x00,
  0x00, 0x00, 0x00, 0x00, 0x00, 0x00, 0x00, 0x00, 0x00, 0x00, 0x00, 0x00,
  0x00, 0x00, 0x00, 0x00, 0x00, 0x00, 0x00, 0x00, 0x00, 0x00, 0x01, 0xb0,
  0x00, 0x00, 0x00, 0x00, 0x00, 0x00, 0x00, 0x00, 0x00, 0x00, 0x00, 0x00,
  0x00, 0x00, 0x00, 0x00, 0x00, 0x00, 0x00, 0x00, 0x00, 0x00, 0x00, 0x00,
  0x00, 0x00, 0x00, 0x00, 0x00, 0x00, 0x00, 0x98, 0x00, 0x00, 0x00, 0x00,
  0x00, 0x00, 0x00, 0x00, 0x00, 0x00, 0x00, 0x00, 0x00, 0x00, 0x00, 0x00,
  0x00, 0x00, 0x00, 0x00, 0x00, 0x00, 0x00, 0x00, 0x00, 0x00, 0x00, 0x00,
  0x00, 0x00, 0x00, 0x81, 0x00, 0x00, 0x00, 0x00, 0x00, 0x00, 0x00, 0x00,
  0x00, 0x00, 0x00, 0x00, 0x00, 0x00, 0x00, 0x00, 0x00, 0x00, 0x00, 0x00,
  0x00, 0x00, 0x00, 0xff, 0x01, 0xff, 0x00, 0x00, 0x00, 0x00, 0xff, 0xa6,
  0x00, 0x00, 0x00, 0x00, 0x00, 0x00, 0x00, 0x00, 0x00, 0x00, 0x00, 0x00,
  0x00, 0x00, 0x00, 0x00, 0x00, 0x00, 0x00, 0x00, 0x00, 0x00, 0x00, 0x00,
  0xff, 0x01, 0xff, 0x00, 0x00, 0x00, 0x00, 0xdb, 0x00, 0x00, 0x00, 0x00,
  0x00, 0x00, 0x00, 0x00, 0x00, 0x00, 0x00, 0x00, 0x00, 0x00, 0x00, 0x00,
  0x00, 0x00, 0x00, 0x00, 0x00, 0x00, 0x00, 0x00, 0x00, 0x00, 0x00, 0x00,
  0x00, 0x00, 0x00, 0xe7, 0x00, 0x00, 0x00, 0x00, 0x00, 0x00, 0x00, 0x00,
  0x00, 0x00, 0x00, 0x00, 0x00, 0x00, 0x00, 0x00, 0x00, 0x00, 0x00, 0x00,
  0x00, 0x00, 0x00, 0x00, 0x00, 0x00, 0x00, 0x00, 0x00, 0x00, 0x00, 0xef,
  0x00, 0x00, 0x00, 0x00, 0x00, 0x00, 0x00, 0x00, 0x00, 0x00, 0x00, 0x00,
  0x00, 0x00, 0x00, 0x00, 0x00, 0x00, 0x00, 0x00, 0x00, 0x00, 0x00, 0x00,
  0x00, 0x00, 0x00, 0x00, 0x00, 0x00, 0xfe, 0xd7, 0x00, 0x00, 0x00, 0x00,
  0x00, 0x00, 0x00, 0x00, 0x00, 0x00, 0x00, 0x00, 0x00, 0x00, 0x00, 0x00,
  0x00, 0x00, 0x00, 0x00, 0x00, 0x00, 0x00, 0x00, 0x00, 0x00, 0x00, 0x00,
  0x00, 0x00, 0xff, 0x28, 0x00, 0x00, 0x00, 0x00, 0x00, 0x00, 0x00, 0x00,
  0x00, 0x00, 0x00, 0x00, 0x00, 0x00, 0x00, 0x00, 0x00, 0x00, 0x00, 0x00,
  0x00, 0x00, 0x00, 0x00, 0x00, 0x00, 0x00, 0x00, 0x00, 0x00, 0x02, 0x7f,
  0x00, 0x01, 0x01, 0x01, 0x01, 0x01, 0x01, 0x01, 0x01, 0x01, 0x00, 0x01,
  0x01, 0x01, 0x01, 0x01, 0x01, 0x01, 0x01, 0x01, 0x01, 0x01, 0x01, 0x01,
  0x01, 0x01, 0x01, 0x01, 0x01, 0x01, 0x02, 0xdd, 0x00, 0x00, 0x01, 0x00,
  0x00, 0x00, 0x00, 0x00, 0x00, 0x00, 0x00, 0x00, 0x00, 0x00, 0x00, 0x00,
  0x00, 0x00, 0x00, 0x00, 0x00, 0x00, 0x00, 0x00, 0x00, 0x00, 0x00, 0x00,
  0x00, 0x00, 0x01, 0x81, 0x00, 0x00, 0x00, 0x00, 0x00, 0x00, 0x00, 0x00,
  0x00, 0x00, 0x00, 0x00, 0x00, 0x00, 0x00, 0x00, 0x00, 0x00, 0x00, 0xff,
  0x00, 0x00, 0x00, 0x00, 0xff, 0x00, 0xff, 0x00, 0xff, 0x00, 0xff, 0xa7,
  0x00, 0x00, 0x00, 0x00, 0xff, 0x00, 0xff, 0x00, 0x00, 0xff, 0x00, 0x00,
  0x00, 0xff, 0x00, 0x00, 0x00, 0x00, 0x00, 0x00, 0xff, 0xff, 0x00, 0x00,
  0xff, 0x00, 0x00, 0x00, 0x01, 0x00, 0xfe, 0x4d, 0x00, 0xfe, 0xfe, 0xff,
  0x00, 0x00, 0x00, 0x00, 0x00, 0x00, 0x00, 0x00, 0x00, 0x00, 0x00, 0x00,
  0x00, 0x00, 0x00, 0x00, 0x00, 0x00, 0x00, 0xff, 0x00, 0xff, 0x00, 0xff,
  0x00, 0xfe, 0x00, 0x52, 0x00, 0x00, 0x00, 0x00, 0x00, 0x00, 0x00, 0x00,
  0x00, 0x00, 0x00, 0x00, 0x00, 0x00, 0x00, 0x00, 0x00, 0x00, 0x00, 0x00,
  0x00, 0x00, 0x00, 0x00, 0x00, 0x00, 0x00, 0x00, 0x00, 0x00, 0x00, 0xc6,
  0x00, 0x00, 0x00, 0x00, 0x00, 0x00, 0x00, 0x00, 0x00, 0x00, 0x00, 0x00,
  0x00, 0x00, 0x00, 0x00, 0x00, 0x00, 0x00, 0x00, 0x00, 0x00, 0x00, 0x00,
  0x00, 0x00, 0x00, 0x00, 0x00, 0x00, 0x00, 0xb6, 0x00, 0x00, 0x00, 0x00,
  0x00, 0x00, 0x00, 0x00, 0x00, 0x00, 0x00, 0x00, 0x00, 0x00, 0x00, 0x00,
  0x00, 0x00, 0x00, 0x00, 0x00, 0x00, 0x00, 0x00, 0x00, 0x00, 0x00, 0x00,
  0x00, 0x00, 0xff, 0xb9, 0x00, 0x00, 0x00, 0x00, 0x00, 0x00, 0x00, 0x00,
  0x00, 0x00, 0x00, 0x00, 0x00, 0x00, 0x00, 0x00, 0x00, 0x00, 0x00, 0x00,
  0x00, 0x00, 0x00, 0x00, 0x00, 0x00, 0x00, 0x00, 0x00, 0x00, 0x01, 0x7f,
  0x00, 0x00, 0x00, 0x00, 0x00, 0x00, 0x00, 0x00, 0x00, 0x00, 0x00, 0x00,
  0x00, 0x00, 0x00, 0x00, 0x00, 0x00, 0x00, 0x00, 0x00, 0x00, 0x00, 0x00,
  0x00, 0x00, 0x00, 0x00, 0x00, 0x00, 0x00, 0x5b, 0x00, 0x00, 0x00, 0x00,
  0xff, 0x00, 0xff, 0x00, 0x00, 0xff, 0xff, 0x00, 0xff, 0x00, 0x00, 0xff,
  0x00, 0x00, 0x00, 0x00, 0x00, 0xff, 0x00, 0x00, 0x00, 0x00, 0xff, 0xff,
  0xff, 0xff, 0x01, 0x9f, 0x00, 0x00, 0x00, 0xff, 0xfe, 0xff, 0xff, 0xfe,
  0xff, 0xff, 0xff, 0xff, 0xff, 0xff, 0xfe, 0xff, 0xff, 0xfe, 0xff, 0xff,
  0xff, 0xff, 0xfe, 0xfe, 0xfe, 0xff, 0xff, 0xff, 0xff, 0xff, 0xff, 0xc5,
  0x00, 0x00, 0x00, 0xff, 0xff, 0xff, 0xff, 0xff, 0xfe, 0xff, 0xff, 0xfe,
  0xff, 0xfe, 0xff, 0xff, 0xfe, 0xff, 0xff, 0xfe, 0xff, 0xff, 0xff, 0xff,
  0xff, 0xff, 0xff, 0xff, 0xff, 0x00, 0x00, 0x8e, 0x00, 0x00, 0x00, 0x00,
  0x00, 0x00, 0x00, 0x00, 0x00, 0x00, 0x00, 0x00, 0x00, 0x00, 0x00, 0x00,
  0x00, 0x00, 0x00, 0x00, 0x00, 0x00, 0x00, 0x00, 0x00, 0x00, 0x00, 0x00,
  0x00, 0x01, 0x00, 0xe1, 0x00, 0x00, 0x01, 0x02, 0x03, 0x02, 0x02, 0x03,
  0x03, 0x03, 0x03, 0x03, 0x03, 0x03, 0x03, 0x03, 0x03, 0x03, 0x03, 0x03,
  0x02, 0x03, 0x02, 0x03, 0x03, 0x02, 0x02, 0x02, 0x02, 0x02, 0x00, 0x7f,
  0x00, 0x00, 0x00, 0x00, 0x00, 0x00, 0x00, 0x00, 0x00, 0x00, 0x00, 0x00,
  0x00, 0x00, 0x00, 0x00, 0x00, 0x00, 0x00, 0x00, 0x00, 0x00, 0x00, 0x00,
  0x00, 0x00, 0x00, 0x00, 0x00, 0x00, 0xfe, 0x85, 0x00, 0x00, 0x00, 0x00,
  0x00, 0x00, 0x00, 0x00, 0x00, 0x00, 0x00, 0x00, 0x00, 0x00, 0x00, 0x00,
  0x00, 0x00, 0x00, 0x00, 0x00, 0x00, 0x00, 0x00, 0x00, 0x00, 0x00, 0x00,
  0x00, 0x00, 0x00, 0xbe, 0x00, 0x00, 0x00, 0x00, 0x00, 0x00, 0x00, 0x00,
  0x00, 0x00, 0x00, 0x00, 0x00, 0x00, 0x00, 0x00, 0x00, 0x00, 0x00, 0x00,
  0x00, 0x00, 0x00, 0x00, 0x00, 0x00, 0x00, 0x00, 0x00, 0x00, 0x01, 0x28,
  0x00, 0x00, 0x00, 0x00, 0x00, 0x00, 0x00, 0x00, 0x00, 0x00, 0x00, 0x00,
  0x00, 0x00, 0x00, 0x00, 0x00, 0x00, 0x00, 0x00, 0x00, 0x00, 0x00, 0x00,
  0x00, 0x00, 0x00, 0x00, 0x00, 0x00, 0x00, 0x70, 0x00, 0x00, 0x00, 0x00,
  0x00, 0x00, 0x00, 0x00, 0x00, 0x00, 0x00, 0x00, 0x00, 0x00, 0x00, 0x00,
  0x00, 0x00, 0x00, 0x00, 0x00, 0x00, 0x00, 0x00, 0x00, 0x00, 0x00, 0x00,
  0x00, 0x00, 0x01, 0x7f, 0x00, 0x00, 0x00, 0x00, 0x00, 0x00, 0x00, 0x00,
  0x00, 0x00, 0x00, 0x00, 0x00, 0x00, 0x00, 0x00, 0x00, 0x00, 0x00, 0x00,
  0x00, 0x00, 0x00, 0x00, 0x00, 0x00, 0x00, 0x00, 0x00, 0x00, 0x00, 0x39,
  0x00, 0x00, 0x00, 0x00, 0x00, 0x00, 0x00, 0x00, 0x00, 0x00, 0x00, 0x00,
  0x00, 0x00, 0x00, 0x00, 0x00, 0x00, 0x00, 0x00, 0x00, 0x00, 0x00, 0x00,
  0x00, 0x00, 0x00, 0x00, 0x00, 0x00, 0x00, 0x5a, 0x00, 0x00, 0x00, 0x00,
  0x00, 0x00, 0x00, 0x00, 0x00, 0x00, 0x00, 0x00, 0x00, 0x00, 0x00, 0x00,
  0x00, 0x00, 0x00, 0x00, 0x00, 0x00, 0x00, 0x00, 0x00, 0x00, 0x00, 0x00,
  0x00, 0x00, 0x00, 0x70, 0x00, 0x00, 0x00, 0x00, 0x00, 0x00, 0x00, 0x00,
  0x00, 0x00, 0x00, 0x00, 0x00, 0x00, 0x00, 0x00, 0x00, 0x00, 0x00, 0x00,
  0x00, 0x00, 0x00, 0x00, 0x00, 0x00, 0x00, 0x00, 0x00, 0x00, 0x00, 0x52,
  0x00, 0x00, 0x00, 0x00, 0x00, 0x00, 0x00, 0x00, 0x00, 0x00, 0x00, 0x00,
  0x00, 0x00, 0x00, 0x00, 0x00, 0x00, 0x00, 0x00, 0x00, 0x00, 0x00, 0x00,
  0x00, 0x00, 0x00, 0x00, 0x00, 0x00, 0x00, 0x7f, 0x00, 0x00, 0x00, 0x00,
  0x00, 0x00, 0x00, 0x00, 0x00, 0x00, 0x00, 0x00, 0x00, 0x00, 0x00, 0x00,
  0x00, 0x00, 0x00, 0x00, 0x00, 0x00, 0x00, 0x00, 0x00, 0x00, 0x00, 0x00,
  0x00, 0x00, 0x00, 0x1d, 0x00, 0x00, 0x00, 0x00, 0x00, 0x00, 0x00, 0x00,
  0x00, 0x00, 0x00, 0x00, 0x00, 0x00, 0x00, 0x00, 0x00, 0x00, 0x00, 0x00,
  0x00, 0x00, 0x00, 0x00, 0x00, 0x00, 0x00, 0x00, 0x00, 0x00, 0x00, 0x09,
  0x00, 0x00, 0x00, 0x00, 0x00, 0x00, 0x00, 0x00, 0x00, 0x00, 0x00, 0x00,
  0x00, 0x00, 0x00, 0x00, 0x00, 0x00, 0x00, 0x00, 0x00, 0x00, 0x00, 0x00,
  0x00, 0x00, 0x00, 0x00, 0x00, 0x00, 0x01, 0x47, 0x00, 0x00, 0x00, 0x00,
  0x00, 0x00, 0x00, 0x00, 0x00, 0x00, 0x00, 0x00, 0x00, 0x00, 0x00, 0x00,
  0x00, 0x00, 0x00, 0x00, 0x00, 0x00, 0x00, 0x00, 0x00, 0x00, 0x00, 0x00,
  0x00, 0x00, 0xff, 0x15, 0x00, 0x00, 0x00, 0x00, 0x00, 0x00, 0x00, 0x00,
  0x00, 0x00, 0x00, 0x00, 0x00, 0x00, 0x00, 0x00, 0x00, 0x00, 0x00, 0x00,
  0x00, 0x00, 0x00, 0x00, 0x00, 0x00, 0x00, 0x00, 0x00, 0x00, 0x01, 0x7f,
  0x00, 0x00, 0x00, 0x00, 0x00, 0x00, 0x00, 0x00, 0x00, 0x00, 0x00, 0x00,
  0x00, 0x00, 0x00, 0x00, 0x00, 0x00, 0x00, 0x00, 0x00, 0x00, 0x00, 0x00,
  0x00, 0x00, 0x00, 0x00, 0x00, 0x00, 0xfe, 0xbd, 0x00, 0x00, 0x00, 0x00,
  0x00, 0x00, 0x00, 0x00, 0x00, 0x00, 0x00, 0x00, 0x00, 0x00, 0x00, 0x00,
  0x00, 0x00, 0x00, 0x00, 0x00, 0x00, 0x00, 0x00, 0x00, 0x00, 0x00, 0x00,
  0x00, 0x00, 0xff, 0xcc, 0x00, 0x00, 0x00, 0x00, 0x00, 0x00, 0x00, 0x00,
  0x00, 0x00, 0x00, 0x00, 0x00, 0x00, 0x00, 0x00, 0x00, 0x00, 0x00, 0x00,
  0x00, 0x00, 0x00, 0x00, 0x00, 0x00, 0x00, 0x00, 0x00, 0x00, 0xfe, 0xc9,
  0x00, 0x00, 0x00, 0x00, 0x00, 0x00, 0x00, 0x00, 0x00, 0x00, 0x00, 0x00,
  0x00, 0x00, 0x00, 0x00, 0x00, 0x00, 0x00, 0x00, 0x00, 0x00, 0x00, 0x00,
  0x00, 0x00, 0x00, 0x00, 0x00, 0x00, 0xfc, 0xe4, 0x00, 0x00, 0x00, 0x00,
  0x00, 0x00, 0x00, 0x00, 0x00, 0x00, 0x00, 0x00, 0x00, 0x00, 0x00, 0x00,
  0x00, 0x00, 0x00, 0x00, 0x00, 0x00, 0x00, 0x00, 0x00, 0x00, 0x00, 0x00,
  0x00, 0x00, 0x04, 0x7f, 0x00, 0x00, 0x00, 0x00, 0x00, 0x00, 0x00, 0x00,
  0x00, 0x00, 0x00, 0x00, 0x00, 0x00, 0x00, 0x00, 0x00, 0x00, 0x00, 0x00,
  0x00, 0x00, 0x00, 0x00, 0x00, 0x00, 0x00, 0x00, 0x00, 0x00, 0x03, 0x2f,
  0x00, 0x00, 0x00, 0x00, 0x00, 0x00, 0x00, 0x00, 0x00, 0x00, 0x00, 0x00,
  0x00, 0x00, 0x00, 0x00, 0x00, 0x00, 0x00, 0x00, 0x00, 0x00, 0x00, 0x00,
  0x00, 0x00, 0x00, 0x00, 0x00, 0x00, 0x00, 0xf0, 0x00, 0x00, 0x00, 0x00,
  0x00, 0x00, 0x00, 0x00, 0x00, 0x00, 0x00, 0x00, 0x00, 0x00, 0x00, 0x00,
  0x00, 0x00, 0x00, 0x00, 0x00, 0x00, 0x00, 0x00, 0x00, 0x00, 0x00, 0x00,
  0x00, 0x00, 0xff, 0xe6, 0x00, 0x00, 0x00, 0x00, 0x00, 0x00, 0x00, 0x00,
  0x00, 0x00, 0x00, 0x00, 0x00, 0x00, 0x00, 0x00, 0x00, 0x00, 0x00, 0x00,
  0x00, 0x00, 0x00, 0x00, 0x00, 0x00, 0x00, 0x00, 0x00, 0x00, 0xff, 0x2e,
  0x00, 0x00, 0x00, 0x00, 0x00, 0x00, 0x00, 0x00, 0x00, 0x00, 0x00, 0x00,
  0x00, 0x00, 0x00, 0x00, 0x00, 0x00, 0x00, 0x00, 0x00, 0x00, 0x00, 0x00,
  0x00, 0x00, 0x00, 0x00, 0x00, 0x00, 0xfe, 0x7f, 0xff, 0x00, 0x00, 0x00,
  0x00, 0x00, 0x00, 0x00, 0x00, 0x00, 0x00, 0x00, 0x00, 0x00, 0x00, 0x00,
  0x00, 0x00, 0x00, 0x00, 0x00, 0x00, 0x00, 0x00, 0x00, 0x00, 0x00, 0x00,
  0x00, 0x00, 0x00, 0xbf, 0x00, 0x00, 0x00, 0x00, 0x00, 0x00, 0x00, 0x00,
  0x00, 0x00, 0x00, 0x00, 0x00, 0x00, 0x00, 0x00, 0x00, 0x00, 0x00, 0x00,
  0x00, 0x00, 0x00, 0x00, 0x01, 0x00, 0x00, 0x00, 0x00, 0x00, 0xfe, 0x81,
  0xfe, 0xfe, 0xfe, 0xfe, 0xfe, 0xfe, 0xfe, 0xfe, 0xfe, 0xfe, 0xfe, 0xfe,
  0xff, 0xfe, 0xff, 0xfe, 0xfe, 0xfe, 0xfe, 0xfe, 0xfe, 0xfe, 0xfe, 0xfe,
  0xff, 0xfe, 0xfe, 0xff, 0xfe, 0xfe, 0xf7, 0x9c, 0x00, 0x00, 0x00, 0x01,
  0x00, 0x01, 0x00, 0x01, 0x00, 0x00, 0x00, 0x00, 0x00, 0x00, 0x01, 0xff,
  0x00, 0x00, 0x00, 0x00, 0xff, 0x01, 0x00, 0xff, 0x01, 0x00, 0xff, 0x01,
  0x00, 0xff, 0x02, 0x21, 0x02, 0x01, 0x02, 0x00, 0x02, 0x00, 0x02, 0x00,
  0x01, 0x01, 0x00, 0x01, 0x00, 0x02, 0xff, 0x02, 0x01, 0x00, 0x01, 0x01,
  0x01, 0xff, 0x01, 0x02, 0xff, 0x01, 0x01, 0xff, 0x01, 0x03, 0x03, 0x4c,
  0x00, 0x00, 0x00, 0x00, 0x00, 0x00, 0x00, 0x00, 0x00, 0x00, 0x00, 0x00,
  0x00, 0x00, 0x00, 0x00, 0x00, 0x00, 0x00, 0x00, 0x00, 0x00, 0x00, 0x00,
  0x00, 0x00, 0x00, 0x00, 0x00, 0x00, 0x00, 0x9c, 0x00, 0x00, 0x00, 0x00,
  0x00, 0x00, 0x00, 0x00, 0x00, 0x00, 0x00, 0x00, 0x00, 0x00, 0x00, 0x00,
  0x00, 0x00, 0x00, 0x00, 0x00, 0x00, 0x00, 0x00, 0x00, 0x00, 0x00, 0x00,
  0x00, 0x00, 0xff, 0x99, 0x00, 0x00, 0x00, 0x00, 0x00, 0x00, 0x00, 0x00,
  0x00, 0x00, 0x00, 0x00, 0x00, 0x00, 0x00, 0x00, 0x00, 0x00, 0x00, 0x00,
  0x00, 0x00, 0x00, 0x00, 0x00, 0x00, 0x00, 0x00, 0x00, 0x00, 0x00, 0x37,
  0x00, 0x00, 0x00, 0x00, 0x00, 0x00, 0x00, 0x00, 0x00, 0x00, 0x00, 0x00,
  0x00, 0x00, 0x00, 0x00, 0x00, 0x00, 0x00, 0x00, 0x00, 0x00, 0x00, 0x00,
  0x00, 0x00, 0x00, 0x00, 0x00, 0x00, 0x00, 0x7e, 0x00, 0x00, 0x00, 0x00,
  0x00, 0x00, 0x00, 0x00, 0x00, 0x00, 0x00, 0x00, 0x00, 0x00, 0x00, 0x00,
  0x00, 0x00, 0x00, 0x00, 0x00, 0x00, 0x00, 0x00, 0x00, 0x00, 0x00, 0x00,
  0x00, 0x00, 0x01, 0x7f, 0x00, 0x00, 0x00, 0x00, 0x00, 0x00, 0x00, 0x00,
  0x00, 0x00, 0x00, 0x00, 0x00, 0x00, 0x00, 0x00, 0x00, 0x00, 0x00, 0x00,
  0x00, 0x00, 0x00, 0x00, 0x00, 0x00, 0x00, 0x00, 0x00, 0x00, 0x01, 0xe0,
  0x00, 0x00, 0x00, 0x00, 0x00, 0x00, 0x00, 0x00, 0x00, 0x00, 0x00, 0x00,
  0x00, 0x00, 0x00, 0x00, 0x00, 0x00, 0x00, 0x00, 0x00, 0x00, 0x00, 0x00,
  0x00, 0x00, 0x00, 0x00, 0x00, 0x00, 0xff, 0xdb, 0x00, 0x00, 0x00, 0x00,
  0x00, 0x00, 0x00, 0x00, 0x00, 0x00, 0x00, 0x00, 0x00, 0x00, 0x00, 0x00,
  0x00, 0x00, 0x00, 0x00, 0x00, 0x00, 0x00, 0x00, 0x00, 0x00, 0x00, 0x00,
  0x00, 0x00, 0xfd, 0xe8, 0x00, 0x00, 0x00, 0x00, 0x00, 0x00, 0x00, 0x00,
  0x00, 0x00, 0x00, 0x00, 0x00, 0x00, 0x00, 0x00, 0x00, 0x00, 0x00, 0x00,
  0x00, 0x00, 0x00, 0x00, 0x00, 0x00, 0x00, 0x00, 0x00, 0x00, 0xff, 0x3f,
  0x00, 0x00, 0x00, 0x00, 0x00, 0x00, 0x00, 0x00, 0x00, 0x00, 0x00, 0x00,
  0x00, 0x00, 0x00, 0x00, 0x00, 0x00, 0x00, 0x00, 0x00, 0x00, 0x00, 0x00,
  0x00, 0x00, 0x00, 0x00, 0x00, 0x00, 0x04, 0x7f, 0x00, 0x00, 0x00, 0x00,
  0x00, 0x00, 0x00, 0xff, 0x00, 0x00, 0x00, 0x00, 0x01, 0x00, 0x00, 0x01,
  0xff, 0x00, 0x00, 0x01, 0xff, 0x01, 0x00, 0x00, 0xff, 0xff, 0x00, 0x01,
  0x00, 0x00, 0xff, 0xd6, 0x00, 0x00, 0x00, 0x00, 0x00, 0x00, 0xff, 0x01,
  0xff, 0x01, 0x00, 0x00, 0xff, 0x01, 0x00, 0xff, 0x01, 0x00, 0x00, 0xff,
  0x01, 0xff, 0x00, 0x00, 0x00, 0x00, 0x00, 0xfe, 0xff, 0x00, 0x00, 0xeb,
  0x00, 0x00, 0x00, 0xff, 0xff, 0x00, 0x00, 0xff, 0x00, 0xff, 0xff, 0x00,
  0x00, 0xff, 0x00, 0xff, 0xff, 0xff, 0xff, 0xff, 0xfe, 0xfe, 0xfd, 0xfe,
  0xfe, 0xfe, 0xfe, 0xfe, 0xfe, 0xfd, 0xff, 0xb7, 0x00, 0x00, 0x00, 0x00,
  0x00, 0x00, 0x00, 0x00, 0x00, 0x00, 0x00, 0x00, 0x00, 0x00, 0x00, 0x00,
  0x00, 0x00, 0x00, 0x00, 0x01, 0x00, 0x01, 0x01, 0x01, 0x01, 0x01, 0x01,
  0x01, 0x01, 0x00, 0x4b, 0x00, 0x00, 0x01, 0x01, 0x01, 0x00, 0x00, 0x00,
  0x00, 0x00, 0x00, 0x00, 0x00, 0x00, 0x00, 0x01, 0x01, 0x01, 0x01, 0x01,
  0x02, 0x02, 0x02, 0x02, 0x02, 0x02, 0x02, 0x02, 0x02, 0x02, 0x01, 0x7f,
  0x00, 0x00, 0x00, 0x00, 0x00, 0x00, 0x00, 0x00, 0x00, 0x00, 0x00, 0x00,
  0x00, 0x00, 0x00, 0x00, 0x00, 0x00, 0x00, 0x00, 0x00, 0x00, 0x00, 0x00,
  0x00, 0x00, 0x00, 0x00, 0x00, 0x00, 0x01, 0x81, 0x00, 0x00, 0x00, 0x00,
  0x00, 0x00, 0x00, 0x00, 0x00, 0x00, 0x00, 0x00, 0x00, 0x00, 0x00, 0x00,
  0x00, 0x00, 0x00, 0x00, 0x00, 0x00, 0x00, 0x00, 0x00, 0x00, 0x00, 0x00,
  0x00, 0x00, 0x00, 0x83, 0x00, 0x00, 0x00, 0x01, 0x00, 0x00, 0x00, 0x00,
  0x00, 0x00, 0x00, 0x00, 0x00, 0x00, 0x00, 0x00, 0x00, 0x00, 0x00, 0x00,
  0x00, 0x00, 0x00, 0x00, 0x00, 0x00, 0x00, 0x00, 0x01, 0x00, 0xff, 0x97,
  0x01, 0x00, 0x00, 0xff, 0x00, 0x00, 0xff, 0x00, 0xff, 0x00, 0x00, 0x00,
  0x00, 0x00, 0x00, 0x00, 0xff, 0x00, 0x00, 0x00, 0x00, 0x00, 0x00, 0x01,
  0xff, 0x00, 0xff, 0x00, 0x01, 0x01, 0xff, 0x4e, 0xff, 0xff, 0xff, 0x00,
  0x00, 0x00, 0x00, 0x00, 0x01, 0x00, 0x00, 0x00, 0x01, 0x00, 0x00, 0x00,
  0x00, 0x00, 0x00, 0x00, 0x00, 0x00, 0x00, 0xff, 0x01, 0x00, 0x02, 0x00,
  0xff, 0x02, 0xfe, 0x64, 0x00, 0x00, 0x00, 0x00, 0x00, 0x00, 0x00, 0x00,
  0x00, 0x00, 0x00, 0x00, 0x00, 0x00, 0x00, 0x00, 0x00, 0x00, 0x00, 0x00,
  0x00, 0x00, 0x00, 0x00, 0x00, 0x00, 0x00, 0x00, 0x00, 0x00, 0x00, 0x37,
  0x00, 0x00, 0x00, 0x00, 0x00, 0x00, 0x00, 0x00, 0x00, 0x00, 0x00, 0x00,
  0x00, 0x00, 0x00, 0x00, 0x00, 0x00, 0x00, 0x00, 0x00, 0x00, 0x00, 0x00,
  0x00, 0x00, 0x00, 0x00, 0x00, 0x00, 0x00, 0x37, 0x00, 0x00, 0x00, 0x00,
  0x00, 0x00, 0x00, 0x00, 0x00, 0x00, 0x00, 0x00, 0x00, 0x00, 0x00, 0x00,
  0x00, 0xff, 0xff, 0xff, 0xff, 0x00, 0xff, 0x00, 0xff, 0xff, 0x00, 0x00,
  0x00, 0xff, 0x00, 0x16, 0x00, 0x00, 0x00, 0x00, 0xff, 0xff, 0xff, 0xff,
  0xff, 0xff, 0xff, 0xff, 0xff, 0xff, 0xff, 0xff, 0xff, 0xff, 0xff, 0xff,
  0xff, 0xff, 0xff, 0xff, 0xff, 0xff, 0xff, 0xff, 0xff, 0xff, 0x00, 0xf9,
  0x00, 0x00, 0x00, 0x01, 0x01, 0x01, 0x01, 0x01, 0x01, 0x01, 0x01, 0x01,
  0x01, 0x01, 0x01, 0x01, 0x02, 0x02, 0x02, 0x02, 0x02, 0x02, 0x02, 0x02,
  0x02, 0x01, 0x01, 0x01, 0x01, 0x01, 0x00, 0x7f, 0x00, 0x00, 0x00, 0x00,
  0x00, 0x00, 0x00, 0x00, 0x00, 0x00, 0x00, 0x00, 0x00, 0x00, 0x00, 0x00,
  0x00, 0x00, 0x00, 0x00, 0x00, 0x00, 0x00, 0x00, 0x00, 0x00, 0x00, 0x00,
  0x00, 0x00, 0x00, 0xdc, 0x00, 0x00, 0x00, 0x00, 0x00, 0x00, 0x00, 0x00,
  0x00, 0x00, 0x00, 0x00, 0x00, 0x00, 0x00, 0x00, 0x00, 0x00, 0x00, 0x00,
  0x00, 0x00, 0x00, 0x00, 0x00, 0x00, 0x00, 0x00, 0x00, 0x00, 0x00, 0xe8,
  0x00, 0x00, 0x00, 0x00, 0x00, 0x00, 0x00, 0x00, 0x00, 0x00, 0x00, 0x00,
  0x00, 0x00, 0x00, 0x00, 0x00, 0x00, 0x00, 0x00, 0x00, 0x00, 0x00, 0x00,
  0x00, 0x00, 0x00, 0x00, 0x00, 0x00, 0x00, 0xe9, 0x00, 0x00, 0x00, 0x00,
  0x00, 0x00, 0x00, 0x00, 0x00, 0x00, 0x00, 0xff, 0xff, 0xff, 0xff, 0xff,
  0xff, 0xff, 0xff, 0xff, 0xff, 0xff, 0xff, 0xff, 0xff, 0xff, 0xff, 0xff,
  0xff, 0xff, 0xfe, 0xec, 0x00, 0x00, 0x00, 0x00, 0x00, 0x00, 0x00, 0x00,
  0x00, 0x00, 0x00, 0x01, 0x01, 0x01, 0x01, 0x01, 0x01, 0x01, 0x01, 0x01,
  0x01, 0x01, 0x01, 0x01, 0x01, 0x01, 0x01, 0x01, 0x01, 0x00, 0x03, 0x7f,
  0x00, 0x00, 0x00, 0x00, 0x00, 0x00, 0x00, 0x00, 0x00, 0x00, 0x00, 0x00,
  0x00, 0x00, 0x00, 0x00, 0x00, 0x00, 0x00, 0x00, 0x00, 0x00, 0x00, 0x00,
  0x00, 0x00, 0x00, 0x00, 0x00, 0x00, 0x01, 0x97, 0x00, 0x00, 0x00, 0x00,
  0x00, 0x00, 0x00, 0x00, 0x00, 0x00, 0x00, 0x00, 0x00, 0x00, 0x00, 0x00,
  0x00, 0x00, 0x00, 0x00, 0x00, 0x00, 0x00, 0x00, 0x00, 0x00, 0x00, 0x00,
  0x00, 0x00, 0xff, 0xa5, 0x00, 0x00, 0x00, 0x00, 0x00, 0x00, 0x00, 0x00,
  0x00, 0x00, 0x00, 0x00, 0x00, 0x00, 0x00, 0x00, 0x00, 0x00, 0x00, 0x00,
  0x00, 0x00, 0x00, 0x00, 0x00, 0x00, 0x00, 0x00, 0x00, 0x00, 0x00, 0xc0,
  0x00, 0x00, 0x00, 0x00, 0x00, 0x00, 0x00, 0x00, 0x00, 0x00, 0x00, 0x00,
  0x00, 0x00, 0x00, 0x00, 0x00, 0x00, 0x00, 0x00, 0x00, 0x00, 0x00, 0x00,
  0x00, 0x00, 0x00, 0x00, 0x00, 0x00, 0x00, 0x50, 0x00, 0x00, 0x00, 0x00,
  0x00, 0x00, 0x00, 0x00, 0x00, 0x00, 0x00, 0x00, 0x00, 0x00, 0x00, 0x00,
  0x00, 0x00, 0x00, 0x00, 0x00, 0x00, 0x00, 0x00, 0x00, 0x00, 0x00, 0x00,
  0x00, 0x00, 0x00, 0x7f, 0x00, 0x00, 0x00, 0x00, 0x00, 0x00, 0x00, 0x00,
  0x00, 0x00, 0x00, 0x00, 0x00, 0x00, 0x00, 0x00, 0x00, 0x00, 0x00, 0x00,
  0x00, 0x00, 0x00, 0x00, 0x00, 0x00, 0x00, 0x00, 0x00, 0x00, 0x00, 0xbb,
  0x00, 0x00, 0x00, 0x00, 0x00, 0x00, 0x00, 0x00, 0x00, 0x00, 0x00, 0x00,
  0x00, 0x00, 0x00, 0x00, 0x00, 0x00, 0x00, 0x00, 0x00, 0x00, 0x00, 0x00,
  0x00, 0x00, 0x00, 0x00, 0x00, 0x00, 0x00, 0xcf, 0x00, 0x00, 0x00, 0x00,
  0x00, 0x00, 0x00, 0x00, 0x00, 0x00, 0x00, 0x00, 0x00, 0x00, 0x00, 0x00,
  0x00, 0x00, 0x00, 0x00, 0x00, 0x00, 0x00, 0x00, 0x00, 0x00, 0x00, 0x00,
  0x00, 0x00, 0x01, 0x13, 0x00, 0x00, 0x00, 0x00, 0x00, 0x00, 0x01, 0x01,
  0x01, 0x01, 0x01, 0x01, 0x01, 0x01, 0x01, 0x01, 0x01, 0x01, 0x01, 0x01,
  0x01, 0x01, 0x01, 0x01, 0x01, 0x01, 0x01, 0x00, 0x00, 0x00, 0x02, 0x7f,
  0x00, 0x00, 0x00, 0x00, 0x00, 0x00, 0x00, 0x00, 0x00, 0xff, 0xff, 0xff,
  0xff, 0xff, 0xff, 0xff, 0xff, 0xff, 0xff, 0xff, 0xff, 0xff, 0xff, 0xff,
  0xff, 0xff, 0x00, 0x00, 0x00, 0xff, 0xfd, 0x36, 0x00, 0x00, 0x00, 0x00,
  0x00, 0x00, 0x00, 0x00, 0x00, 0x00, 0x00, 0x00, 0x00, 0x00, 0x00, 0x00,
  0x00, 0x00, 0x00, 0x00, 0x00, 0x00, 0x00, 0x00, 0x00, 0x00, 0x00, 0x00,
  0x00, 0x00, 0x00, 0x2e, 0x00, 0x00, 0x00, 0x00, 0x00, 0x00, 0x00, 0x00,
  0x00, 0x00, 0x00, 0x00, 0x00, 0x00, 0x00, 0x00, 0x00, 0x00, 0x00, 0x00,
  0x00, 0x00, 0x00, 0x00, 0x00, 0x00, 0x00, 0x00, 0x00, 0x00, 0x01, 0x4b,
  0x00, 0x00, 0x00, 0x00, 0x00, 0x00, 0x00, 0x00, 0x00, 0x00, 0x00, 0x00,
  0x00, 0x00, 0x00, 0x00, 0x00, 0x00, 0x00, 0x00, 0x00, 0x00, 0x00, 0x00,
  0x00, 0x00, 0x00, 0x00, 0x00, 0x00, 0xff, 0x05, 0x00, 0x00, 0x00, 0x00,
  0x00, 0x00, 0x00, 0x00, 0x00, 0x00, 0x00, 0x00, 0x00, 0x00, 0x00, 0x00,
  0x00, 0x00, 0x00, 0x00, 0x00, 0x00, 0x00, 0x00, 0x00, 0x00, 0x00, 0x00,
  0x00, 0x00, 0xff, 0x4d, 0x00, 0x00, 0x00, 0x00, 0x00, 0x00, 0x00, 0x00,
  0x00, 0x00, 0x00, 0x00, 0x00, 0x00, 0x00, 0x00, 0x00, 0x00, 0x00, 0x00,
  0x00, 0x00, 0x00, 0x00, 0x00, 0x00, 0x00, 0x00, 0x00, 0x00, 0x01, 0x7f,
  0x00, 0x00, 0x00, 0x00, 0x00, 0x00, 0x00, 0x00, 0x00, 0x00, 0x01, 0x00,
  0x00, 0x00, 0x00, 0xff, 0x00, 0xff, 0x01, 0x00, 0x00, 0x00, 0x00, 0x00,
  0x01, 0xff, 0x02, 0xfd, 0x02, 0xff, 0x00, 0xf2, 0x00, 0x00, 0x00, 0x00,
  0x00, 0x00, 0x00, 0xff, 0x01, 0xff, 0x00, 0x00, 0x00, 0x00, 0x00, 0x01,
  0xff, 0x01, 0xff, 0x01, 0x00, 0x01, 0x00, 0xfe, 0x00, 0x00, 0xfe, 0x02,
  0xff, 0x01, 0x00, 0xfc, 0x00, 0x00, 0x00, 0x00, 0x00, 0x00, 0x00, 0x01,
  0xff, 0x01, 0x00, 0x00, 0x00, 0x01, 0xff, 0x00, 0x01, 0x00, 0x00, 0xff,
  0x00, 0x00, 0x00, 0x01, 0xfe, 0x01, 0x00, 0x00, 0x00, 0xff, 0xff, 0xd9,
  0x00, 0x00, 0x00, 0x00, 0x00, 0x00, 0x00, 0x00, 0x00, 0x00, 0x00, 0x00,
  0x00, 0x00, 0x01, 0x00, 0x00, 0x00, 0x00, 0x00, 0x00, 0x00, 0x00, 0x00,
  0x00, 0x00, 0x00, 0x00, 0xff, 0x00, 0xff, 0x5b, 0x00, 0x00, 0x00, 0x00,
  0x00, 0x00, 0x00, 0x00, 0x00, 0x00, 0x00, 0x00, 0x00, 0x00, 0x00, 0x00,
  0x00, 0x00, 0x00, 0x00, 0x01, 0x00, 0x00, 0x01, 0x00, 0x01, 0x00, 0x01,
  0x00, 0x01, 0x01, 0x7f, 0x00, 0x00, 0x00, 0x00, 0x00, 0x00, 0x00, 0x00,
  0x00, 0x00, 0x00, 0x00, 0x00, 0x00, 0x00, 0x00, 0x00, 0x00, 0x00, 0x00,
  0x00, 0x00, 0x00, 0x00, 0x00, 0x00, 0x00, 0x00, 0x00, 0x00, 0xfd, 0x99,
  0x00, 0x00, 0x00, 0x00, 0x00, 0x00, 0x00, 0x00, 0x00, 0x00, 0x00, 0x00,
  0x00, 0x00, 0x00, 0x00, 0x00, 0x00, 0x00, 0x00, 0xff, 0x00, 0x00, 0x00,
  0xff, 0xff, 0x00, 0x00, 0x00, 0xff, 0xfc, 0xbb, 0x00, 0x00, 0x00, 0x00,
  0x00, 0x00, 0x00, 0x00, 0x00, 0x00, 0x00, 0x00, 0x00, 0x00, 0x00, 0x00,
  0x00, 0x00, 0x00, 0xff, 0x00, 0x00, 0x00, 0x00, 0x00, 0x00, 0x00, 0x00,
  0x00, 0x00, 0xfd, 0xe3, 0x00, 0x00, 0x00, 0x00, 0x00, 0x00, 0x00, 0x00,
  0x00, 0x00, 0x00, 0x00, 0x00, 0x00, 0x00, 0x00, 0x00, 0x00, 0x00, 0x00,
  0x00, 0x00, 0x00, 0x00, 0x00, 0x00, 0x00, 0x00, 0x00, 0x00, 0x02, 0x4e,
  0x00, 0x00, 0x00, 0x00, 0x00, 0x00, 0x00, 0x00, 0x00, 0x00, 0x00, 0x00,
  0x00, 0x00, 0x00, 0x00, 0x00, 0x00, 0x00, 0x01, 0x00, 0x01, 0x01, 0x01,
  0x01, 0x00, 0x01, 0x00, 0x01, 0x00, 0x06, 0x7f, 0x00, 0x00, 0x00, 0x00,
  0x00, 0x00, 0x00, 0x00, 0x00, 0x00, 0x00, 0x00, 0x00, 0x00, 0x00, 0x00,
  0x00, 0x00, 0x00, 0x00, 0x00, 0x00, 0x00, 0x00, 0x00, 0x00, 0x00, 0x00,
  0x00, 0x00, 0xff, 0xfa, 0x00, 0x00, 0x00, 0x00, 0x00, 0x00, 0x00, 0x00,
  0x00, 0x00, 0x00, 0x00, 0x00, 0x00, 0x00, 0x00, 0x00, 0x00, 0x00, 0x00,
  0x00, 0x00, 0x00, 0x00, 0x00, 0x00, 0x00, 0x00, 0x00, 0x00, 0xff, 0xff,
  0x00, 0x00, 0x00, 0x00, 0x00, 0x00, 0x00, 0x00, 0x00, 0x00, 0x00, 0x00,
  0x00, 0x00, 0x00, 0x00, 0x00, 0x00, 0x00, 0x00, 0x00, 0x00, 0x00, 0x00,
  0x00, 0x00, 0x00, 0x00, 0x00, 0x00, 0x00, 0x1a, 0x00, 0x00, 0x00, 0x00,
  0x00, 0x00, 0x00, 0x00, 0x00, 0x00, 0x00, 0x00, 0x00, 0x00, 0x00, 0x00,
  0x00, 0x00, 0x00, 0x00, 0x00, 0x00, 0x00, 0x00, 0x00, 0x00, 0x00, 0x00,
  0x00, 0x00, 0x02, 0x62, 0x00, 0x00, 0x00, 0x00, 0x00, 0x00, 0x00, 0x00,
  0x00, 0x00, 0x00, 0x00, 0x00, 0x00, 0x00, 0x00, 0x00, 0x00, 0x00, 0x00,
  0x00, 0x00, 0x00, 0x00, 0x00, 0x00, 0x00, 0x00, 0x00, 0x00, 0x04, 0x7f,
  0x00, 0x00, 0x00, 0x00, 0x00, 0x00, 0x00, 0x00, 0x00, 0x00, 0x00, 0x00,
  0x00, 0x00, 0x00, 0x00, 0x00, 0x00, 0x00, 0x00, 0x00, 0x00, 0x00, 0x00,
  0x00, 0x00, 0x00, 0x00, 0x00, 0x00, 0x01, 0x9d, 0x00, 0x00, 0x00, 0x00,
  0x00, 0x00, 0x00, 0x00, 0x00, 0x00, 0x00, 0x00, 0x00, 0x00, 0x00, 0x00,
  0x00, 0x00, 0x00, 0x00, 0x00, 0x00, 0x00, 0x00, 0x00, 0x00, 0x00, 0x00,
  0x00, 0x00, 0x01, 0x85, 0x00, 0x00, 0x00, 0x00, 0x00, 0x00, 0x00, 0x00,
  0x00, 0x00, 0x00, 0x00, 0x00, 0x00, 0x00, 0x00, 0x00, 0x00, 0x00, 0x00,
  0x00, 0x00, 0x00, 0x00, 0x00, 0x00, 0x00, 0x00, 0x00, 0x00, 0xfe, 0xce,
  0x00, 0xff, 0x02, 0xff, 0x00, 0xff, 0x01, 0xff, 0x00, 0xff, 0x01, 0xff,
  0x00, 0x00, 0xff, 0x01, 0xff, 0xff, 0x00, 0x00, 0x01, 0xff, 0xff, 0x01,
  0xff, 0x02, 0x01, 0xfd, 0xfe, 0x01, 0x00, 0x5f, 0x00, 0x01, 0xfd, 0x01,
  0xff, 0x01, 0xff, 0x01, 0x00, 0x01, 0xff, 0x01, 0x00, 0x00, 0x01, 0xff,
  0x01, 0x00, 0x00, 0x00, 0xff, 0x00, 0x01, 0xfe, 0x00, 0xfe, 0xfe, 0x03,
  0x01, 0xff, 0x00, 0x7f, 0x00, 0x00, 0x01, 0x01, 0x01, 0x01, 0x01, 0x01,
  0x01, 0x01, 0x01, 0x01, 0x01, 0x00, 0x01, 0x01, 0x01, 0x01, 0x01, 0x01,
  0x01, 0x01, 0x01, 0x02, 0x01, 0x01, 0x01, 0x01, 0x02, 0x02, 0x00, 0x7f,
  0x00, 0x00, 0x00, 0x01, 0x00, 0x00, 0x01, 0x01, 0x00, 0x00, 0x01, 0x01,
  0x00, 0x00, 0x00, 0x01, 0x01, 0x01, 0x00, 0x00, 0x00, 0x00, 0x01, 0x01,
  0x00, 0x00, 0x01, 0x01, 0x01, 0x00, 0x01, 0x4e, 0x00, 0x00, 0x00, 0x00,
  0xff, 0x00, 0x00, 0xff, 0xff, 0xff, 0xff, 0x00, 0xff, 0x00, 0xff, 0x00,
  0xff, 0x00, 0xff, 0x00, 0xff, 0xff, 0x00, 0x00, 0xff, 0xff, 0x00, 0x00,
  0x00, 0xff, 0x00, 0xcb, 0x00, 0x00, 0xff, 0x00, 0xfe, 0x00, 0x00, 0x00,
  0x00, 0x00, 0xff, 0x00, 0xff, 0xff, 0x00, 0xff, 0x01, 0xff, 0xff, 0x00,
  0xff, 0x00, 0xff, 0x01, 0xff, 0x00, 0x00, 0xff, 0x01, 0xff, 0x00, 0x9b,
  0x00, 0x00, 0x00, 0xfe, 0x01, 0xff, 0xff, 0xff, 0xff, 0xff, 0x00, 0xff,
  0x00, 0x00, 0xff, 0xff, 0xfe, 0x00, 0x00, 0xfe, 0x00, 0xff, 0x00, 0xfd,
  0x02, 0x00, 0xfe, 0xff, 0xfc, 0x00, 0x01, 0xa2, 0x03, 0x03, 0x02, 0x02,
  0x02, 0x02, 0x02, 0x02, 0x02, 0x02, 0x01, 0x01, 0x01, 0x01, 0x01, 0x01,
  0x01, 0x01, 0x01, 0x01, 0x01, 0x01, 0x01, 0x01, 0x01, 0x01, 0x01, 0x01,
  0x02, 0x03, 0x02, 0x81, 0x02, 0x02, 0x02, 0x02, 0x01, 0x01, 0x01, 0x01,
  0x01, 0x01, 0x01, 0x01, 0x01, 0x01, 0x01, 0x01, 0x01, 0x01, 0x01, 0x01,
  0x01, 0x01, 0x01, 0x01, 0x01, 0x01, 0x01, 0x01, 0x01, 0x02, 0xfe, 0xb9,
  0x00, 0x01, 0x01, 0x01, 0x00, 0x00, 0x00, 0x00, 0x00, 0x00, 0x00, 0x00,
  0x00, 0x00, 0x00, 0x00, 0x00, 0x00, 0xff, 0xff, 0x00, 0xff, 0x00, 0x00,
  0x00, 0x00, 0x00, 0x00, 0x00, 0x01, 0xff, 0x37, 0xfe, 0xff, 0x00, 0x00,
  0x00, 0x00, 0xff, 0xff, 0x00, 0x00, 0x00, 0x00, 0x00, 0x00, 0x00, 0x00,
  0x00, 0x00, 0x00, 0x00, 0x01, 0x00, 0x01, 0x01, 0x01, 0x01, 0x01, 0x01,
  0x00, 0x01, 0x05, 0x52, 0xf8, 0xf9, 0xfa, 0xfa, 0xfa, 0xfb, 0xfc, 0xfc,
  0xfc, 0xfc, 0xfd, 0xfd, 0xfd, 0xfc, 0xfd, 0xfd, 0xfc, 0xfd, 0xfd, 0xfd,
  0xfd, 0xfd, 0xfc, 0xfc, 0xfc, 0xfc, 0xfc, 0xfb, 0xfa, 0xfa, 0xf5, 0xef,
  0x00, 0x00, 0x01, 0x01, 0x01, 0x01, 0x01, 0x01, 0x01, 0x01, 0x01, 0x01,
  0x01, 0x01, 0x01, 0x01, 0x01, 0x01, 0x01, 0x01, 0x01, 0x01, 0x01, 0x01,
  0x01, 0x01, 0x01, 0x01, 0x01, 0x01, 0x03, 0x7f, 0x00, 0x00, 0x00, 0x00,
  0x00, 0x00, 0x00, 0x00, 0x00, 0x00, 0x00, 0x00, 0x00, 0x00, 0x00, 0x00,
  0x00, 0x00, 0x00, 0x00, 0x00, 0x00, 0x00, 0x00, 0x00, 0x00, 0x00, 0x00,
  0x00, 0x00, 0xff, 0x24, 0x00, 0x00, 0x00, 0x00, 0x00, 0x00, 0x00, 0x00,
  0x00, 0x00, 0x00, 0x00, 0x00, 0x00, 0x00, 0x00, 0x00, 0x00, 0x00, 0xff,
  0x00, 0x00, 0x00, 0x00, 0x00, 0x00, 0x00, 0x00, 0x00, 0x00, 0xfe, 0xcf,
  0x00, 0x00, 0x00, 0x00, 0x00, 0x00, 0x00, 0x00, 0x00, 0x00, 0x00, 0x00,
  0x00, 0x00, 0x00, 0x00, 0xff, 0x00, 0x00, 0x00, 0x00, 0x00, 0xff, 0xff,
  0x00, 0x00, 0xff, 0x00, 0x00, 0x00, 0x00, 0xa3, 0x00, 0x00, 0xff, 0x00,
  0xff, 0x00, 0x00, 0x00, 0x00, 0x00, 0xff, 0x00, 0x00, 0xff, 0x00, 0x00,
  0x00, 0xff, 0x00, 0x00, 0x00, 0xff, 0x00, 0x01, 0xfe, 0x00, 0x00, 0x00,
  0x00, 0xfe, 0x00, 0x9f, 0x00, 0x00, 0x00, 0x00, 0x00, 0x00, 0x00, 0x00,
  0x00, 0x00, 0x00, 0x00, 0x00, 0x00, 0x00, 0x00, 0x00, 0x00, 0x00, 0x00,
  0x00, 0x00, 0x00, 0x00, 0x00, 0x00, 0x00, 0x00, 0x00, 0x00, 0xfe, 0xa2,
  0x00, 0x00, 0x00, 0x00, 0x00, 0x00, 0x00, 0x00, 0x00, 0x00, 0x00, 0x00,
  0x00, 0x00, 0x00, 0x00, 0x00, 0x00, 0x00, 0x00, 0x00, 0x00, 0x00, 0x00,
  0x00, 0x00, 0x00, 0x00, 0x00, 0x00, 0xff, 0x12, 0x00, 0x00, 0x00, 0x00,
  0x00, 0x00, 0x00, 0x00, 0x00, 0x00, 0x00, 0x00, 0x00, 0x00, 0x00, 0x00,
  0x00, 0x00, 0x00, 0x00, 0x00, 0x00, 0x00, 0x00, 0x00, 0x00, 0x00, 0x00,
  0x00, 0x00, 0xff, 0x36, 0x00, 0x00, 0x00, 0x00, 0x00, 0x00, 0x00, 0x00,
  0x00, 0x00, 0x00, 0x00, 0x00, 0x00, 0x00, 0x00, 0x00, 0x00, 0x00, 0x00,
  0x00, 0x00, 0x00, 0x00, 0x00, 0x00, 0x00, 0x00, 0x00, 0x00, 0x01, 0x64,
  0x00, 0x00, 0x00, 0x00, 0x00, 0x00, 0x00, 0x00, 0x00, 0x00, 0x00, 0x00,
  0x00, 0x00, 0x00, 0x00, 0x00, 0x00, 0x00, 0x00, 0x00, 0x00, 0x00, 0x00,
  0x00, 0x00, 0x00, 0x00, 0x00, 0x00, 0x03, 0x7f, 0x00, 0x00, 0x00, 0x00,
  0x00, 0x00, 0x00, 0x00, 0x00, 0x00, 0x00, 0x00, 0x00, 0x00, 0x00, 0x00,
  0x00, 0x00, 0x00, 0x00, 0x00, 0x00, 0x00, 0x00, 0x00, 0x00, 0x00, 0x00,
  0x00, 0x00, 0x00, 0xd6, 0x00, 0x00, 0x00, 0x00, 0x00, 0x00, 0x00, 0x00,
  0x00, 0x00, 0x00, 0x00, 0x00, 0x00, 0x00, 0x00, 0x00, 0x00, 0x00, 0x00,
  0x00, 0x00, 0x00, 0x00, 0x00, 0x00, 0x00, 0x00, 0x00, 0x00, 0x00, 0xca,
  0x00, 0x00, 0x00, 0x00, 0x00, 0x00, 0x00, 0x00, 0x00, 0x00, 0x00, 0x00,
  0x00, 0x00, 0x00, 0x00, 0x00, 0x00, 0x00, 0x00, 0x00, 0x00, 0x00, 0x00,
  0x00, 0x00, 0x00, 0x00, 0x00, 0x00, 0xff, 0xce, 0x00, 0x00, 0x00, 0x00,
  0x00, 0x00, 0x00, 0x00, 0x00, 0x00, 0x00, 0x00, 0x00, 0x00, 0x00, 0x00,
  0x00, 0x00, 0x00, 0x00, 0x00, 0x00, 0x00, 0x00, 0x00, 0x00, 0x00, 0x00,
  0x00, 0x00, 0x00, 0x56, 0x00, 0x00, 0x00, 0x00, 0x00, 0x00, 0x00, 0x00,
  0x00, 0x00, 0x00, 0x00, 0x00, 0x00, 0x00, 0x00, 0x00, 0x00, 0x00, 0x00,
  0x00, 0x00, 0x00, 0x00, 0x00, 0x00, 0x00, 0x00, 0x00, 0x00, 0x02, 0x7f,
  0x00, 0x00, 0x00, 0x00, 0x00, 0x00, 0x00, 0x00, 0x00, 0x00, 0x00, 0x00,
  0x00, 0x00, 0x00, 0x00, 0x00, 0x00, 0x00, 0x00, 0x00, 0x00, 0x00, 0x00,
  0x00, 0x00, 0x00, 0x00, 0x00, 0x01, 0x02, 0x08, 0x00, 0x00, 0x00, 0x00,
  0x00, 0x00, 0x00, 0x00, 0x00, 0x00, 0x00, 0x00, 0x00, 0x00, 0x00, 0x00,
  0x00, 0x00, 0x00, 0x00, 0x00, 0x00, 0x00, 0x00, 0x00, 0x00, 0x00, 0x00,
  0x00, 0x00, 0xff, 0xc0, 0x00, 0x00, 0x00, 0x00, 0x00, 0x00, 0xff, 0x00,
  0x00, 0x00, 0xff, 0x01, 0x00, 0x00, 0x00, 0x00, 0x00, 0x00, 0x00, 0x00,
  0x00, 0x00, 0x00, 0x00, 0x00, 0x00, 0x00, 0x00, 0x00, 0x00, 0x01, 0x81,
  0x00, 0x00, 0x00, 0x00, 0xff, 0x00, 0x01, 0x00, 0x00, 0x00, 0x00, 0xff,
  0x00, 0x00, 0x00, 0x00, 0x00, 0x00, 0x00, 0xff, 0x00, 0x00, 0x00, 0x00,
  0x00, 0x00, 0x00, 0x00, 0x00, 0x01, 0xff, 0x42, 0x00, 0x00, 0x00, 0x00,
  0x01, 0x00, 0x00, 0x00, 0x00, 0x00, 0x00, 0x00, 0x00, 0x00, 0x00, 0x00,
  0x00, 0x00, 0x00, 0x00, 0x00, 0x00, 0x00, 0xff, 0x00, 0x00, 0xff, 0x00,
  0x00, 0x02, 0x00, 0x45, 0x00, 0x00, 0x00, 0x00, 0x00, 0x00, 0x00, 0x00,
  0x00, 0x00, 0x00, 0x00, 0x00, 0x00, 0x00, 0x00, 0x00, 0x00, 0x00, 0x00,
  0x00, 0x00, 0x00, 0x00, 0x00, 0x00, 0x00, 0x00, 0x00, 0x00, 0x00, 0x56,
  0x00, 0x00, 0x00, 0x00, 0x00, 0x00, 0x00, 0x00, 0x00, 0x00, 0x00, 0x00,
  0x00, 0x00, 0x00, 0x00, 0x00, 0x00, 0x00, 0x00, 0x00, 0x00, 0x00, 0x00,
  0x00, 0x00, 0x00, 0x00, 0x00, 0x00, 0x00, 0x30, 0x00, 0x00, 0x00, 0x00,
  0x00, 0x00, 0x00, 0x00, 0x00, 0x00, 0x00, 0x00, 0x00, 0x00, 0x00, 0x00,
  0x00, 0x00, 0x00, 0x00, 0x00, 0x00, 0x00, 0x00, 0x00, 0x00, 0x00, 0x00,
  0x00, 0x00, 0x00, 0x13, 0x00, 0x00, 0x00, 0x00, 0x00, 0x00, 0x00, 0x00,
  0x00, 0x00, 0x00, 0x00, 0x00, 0x00, 0x01, 0x00, 0x01, 0xff, 0x00, 0xff,
  0x00, 0x00, 0x00, 0x00, 0xff, 0x01, 0x00, 0x01, 0xff, 0x01, 0xff, 0xa6,
  0x00, 0x00, 0x00, 0x01, 0xff, 0x00, 0x00, 0x00, 0x00, 0x00, 0x01, 0x00,
  0x00, 0x00, 0xff, 0x00, 0xff, 0x01, 0x00, 0x01, 0xff, 0x00, 0xff, 0x00,
  0x01, 0xfe, 0x00, 0xff, 0x02, 0xfe, 0x01, 0x81, 0xff, 0x00, 0x00, 0x00,
  0x00, 0x00, 0x00, 0x00, 0x00, 0x00, 0x00, 0x00, 0x00, 0x00, 0x00, 0x00,
  0x00, 0x00, 0x00, 0x00, 0x00, 0x00, 0x00, 0x00, 0x00, 0x00, 0x00, 0x00,
  0x00, 0x01, 0xff, 0xa1, 0xff, 0x00, 0x00, 0x00, 0x00, 0x00, 0x00, 0x00,
  0x00, 0x00, 0x00, 0x00, 0x00, 0x00, 0x00, 0x00, 0x00, 0x00, 0x00, 0x00,
  0x00, 0x00, 0x00, 0x00, 0x00, 0x00, 0x00, 0xff, 0xff, 0x01, 0xfd, 0x98,
  0xfe, 0xfe, 0xfe, 0xfe, 0xfe, 0xfe, 0xff, 0xff, 0xff, 0xff, 0xff, 0xff,
  0xff, 0xff, 0xff, 0xff, 0xff, 0xff, 0xff, 0xff, 0xff, 0xff, 0xff, 0xff,
  0xff, 0xff, 0xff, 0xff, 0xff, 0xff, 0x07, 0x81, 0x00, 0x00, 0x00, 0x01,
  0x00, 0x00, 0x00, 0x00, 0x00, 0x00, 0x00, 0x00, 0x00, 0x00, 0x00, 0x00,
  0x00, 0x00, 0x00, 0x00, 0x00, 0x00, 0x00, 0x00, 0x00, 0x00, 0x00, 0x00,
  0x00, 0x00, 0xfc, 0xaa, 0x02, 0x01, 0x01, 0x01, 0x01, 0x01, 0x01, 0x01,
  0x01, 0x01, 0x01, 0x01, 0x01, 0x01, 0x01, 0x01, 0x01, 0x01, 0x01, 0x01,
  0x01, 0x01, 0x01, 0x01, 0x01, 0x01, 0x00, 0x02, 0x01, 0x01, 0xff, 0x8c,
  0x5e, 0xea, 0xff, 0xff, 0x04, 0x00, 0x00, 0x00, 0x80, 0x00, 0x00, 0x00,
  0x11, 0x00, 0x00, 0x00, 0xd5, 0xff, 0xff, 0xff, 0x56, 0x00, 0x00, 0x00,
  0x02, 0x00, 0x00, 0x00, 0xce, 0x00, 0x00, 0x00, 0x57, 0x00, 0x00, 0x00,
  0xf6, 0xff, 0xff, 0xff, 0xef, 0xff, 0xff, 0xff, 0x26, 0x00, 0x00, 0x00,
  0xf5, 0xff, 0xff, 0xff, 0x78, 0x04, 0x00, 0x00, 0xcc, 0xff, 0xff, 0xff,
  0xf2, 0xff, 0xff, 0xff, 0x1a, 0xff, 0xff, 0xff, 0xff, 0x00, 0x00, 0x00,
  0x33, 0x00, 0x00, 0x00, 0x95, 0xff, 0xff, 0xff, 0x09, 0x00, 0x00, 0x00,
  0x6e, 0xff, 0xff, 0xff, 0xc6, 0xff, 0xff, 0xff, 0x59, 0xfd, 0xff, 0xff,
  0xe3, 0xff, 0xff, 0xff, 0x24, 0xfe, 0xff, 0xff, 0x5a, 0x04, 0x00, 0x00,
  0xda, 0x00, 0x00, 0x00, 0xd8, 0x0a, 0x00, 0x00, 0x9e, 0xff, 0xff, 0xff,
  0xcf, 0xff, 0xff, 0xff, 0xac, 0xff, 0xff, 0xff, 0x02, 0xff, 0xff, 0xff,
  0xd4, 0xff, 0xff, 0xff, 0x4d, 0xfd, 0xff, 0xff, 0xea, 0xea, 0xff, 0xff,
  0x04, 0x00, 0x00, 0x00, 0x00, 0x14, 0x00, 0x00, 0xf7, 0xf3, 0x00, 0x20,
  0xfc, 0xf5, 0x0a, 0x0b, 0x01, 0x10, 0xed, 0xd4, 0x05, 0x00, 0x01, 0xeb,
  0xf8, 0xf7, 0x01, 0x0d, 0x02, 0x11, 0x04, 0x06, 0x06, 0xd6, 0x09, 0xf6,
  0xd6, 0x01, 0x08, 0xee, 0xff, 0xe5, 0x04, 0xf1, 0xf5, 0xfe, 0xff, 0x25,
  0xf4, 0x00, 0xf5, 0xc3, 0xfa, 0x01, 0x03, 0xec, 0x01, 0x01, 0x08, 0xfa,
  0x01, 0xfe, 0x06, 0x0a, 0x03, 0xdf, 0x02, 0xf2, 0xe4, 0x03, 0x05, 0xd6,
  0x00, 0xfe, 0x03, 0xef, 0xf7, 0x01, 0x02, 0x07, 0xf6, 0x00, 0xfc, 0x81,
  0x09, 0x00, 0x01, 0xee, 0x08, 0x06, 0x11, 0xfe, 0x02, 0xfc, 0x00, 0x09,
  0xf9, 0xdc, 0xf4, 0xea, 0xf1, 0x05, 0x01, 0xfa, 0x04, 0x03, 0x00, 0xd6,
  0xfd, 0xf9, 0xe7, 0xf0, 0xfc, 0x04, 0x01, 0xb2, 0x0b, 0x01, 0xff, 0xfc,
  0x0d, 0x05, 0x0d, 0xca, 0x04, 0xff, 0x04, 0x07, 0x02, 0xf9, 0x05, 0xe2,
  0xe9, 0x07, 0x09, 0x00, 0xfd, 0x00, 0xfd, 0xc0, 0xf9, 0xfb, 0xcb, 0xc1,
  0xfc, 0xfb, 0xfe, 0x96, 0xfe, 0x00, 0xfd, 0xfc, 0xfb, 0x03, 0x0b, 0xb9,
  0x04, 0xfd, 0x0c, 0x04, 0x01, 0xd3, 0xff, 0xee, 0xe3, 0x02, 0x09, 0xfd,
  0x05, 0x00, 0x01, 0x12, 0x00, 0xfe, 0x0c, 0x0d, 0x07, 0x04, 0x01, 0x1a,
  0x02, 0x00, 0xfe, 0x01, 0x00, 0x00, 0xfe, 0x09, 0xe5, 0x01, 0x08, 0xff,
  0x02, 0xb6, 0x00, 0x0a, 0x01, 0xfb, 0xfa, 0x00, 0x0c, 0xff, 0x01, 0x02,
  0xff, 0xff, 0x0a, 0x0a, 0x04, 0x02, 0x00, 0x02, 0x02, 0xff, 0xff, 0x00,
  0xfe, 0xff, 0x03, 0x0e, 0xe6, 0xfe, 0xfd, 0xfd, 0x01, 0xb9, 0xfc, 0xfd,
  0xfc, 0xf9, 0xf9, 0x01, 0xfe, 0x02, 0xfe, 0x0a, 0x00, 0xfc, 0xfe, 0xfe,
  0x0a, 0x0a, 0xd0, 0x08, 0xfd, 0x03, 0xfe, 0x02, 0x0c, 0x00, 0xee, 0x08,
  0xe7, 0xfe, 0x00, 0xf9, 0xf9, 0xb8, 0xf3, 0xff, 0xed, 0xf9, 0xee, 0x00,
  0xf2, 0xff, 0xf8, 0x01, 0xfd, 0xfd, 0xf1, 0xee, 0x10, 0x0f, 0xd6, 0x0b,
  0xf2, 0x07, 0xfd, 0x0a, 0x0c, 0x03, 0x0b, 0xf2, 0xea, 0xfd, 0x04, 0xf8,
  0xf4, 0xef, 0xf2, 0xfa, 0xf1, 0xf3, 0xea, 0xe0, 0xe9, 0x16, 0xee, 0x06,
  0xfb, 0xff, 0xf0, 0xf4, 0x05, 0x01, 0xad, 0x14, 0xfa, 0x0a, 0xfc, 0x1b,
  0x00, 0x00, 0x19, 0x02, 0xf2, 0xfe, 0x0d, 0xf1, 0xe0, 0xc4, 0xdd, 0x02,
  0xf9, 0xe8, 0xea, 0x81, 0xfc, 0xf2, 0x03, 0x00, 0xff, 0x04, 0xf9, 0x06,
  0x1a, 0xf9, 0xe7, 0x06, 0xf7, 0xf2, 0xfc, 0x07, 0x03, 0xf3, 0x01, 0x0a,
  0xef, 0x00, 0x05, 0xf8, 0x06, 0xac, 0x0a, 0x05, 0xf2, 0xfb, 0xfb, 0xf7,
  0x00, 0xff, 0x05, 0xf3, 0xf8, 0xff, 0x05, 0x06, 0x05, 0xfc, 0xe7, 0xe5,
  0x01, 0xf3, 0xfc, 0xf2, 0xff, 0xf9, 0x00, 0x0f, 0xea, 0x03, 0x05, 0xf8,
  0x04, 0xa7, 0x08, 0xfa, 0xff, 0x00, 0xfa, 0xf9, 0xff, 0x01, 0x05, 0x05,
  0xf4, 0xfd, 0x01, 0x03, 0x01, 0xfe, 0xe2, 0xee, 0x07, 0xf3, 0xfc, 0xda,
  0xfd, 0x00, 0xf6, 0x06, 0xe8, 0x02, 0x03, 0xf9, 0x02, 0x81, 0x07, 0xff,
  0xfe, 0x00, 0xfc, 0xf9, 0x01, 0x02, 0x03, 0x0f, 0xec, 0xfe, 0x01, 0x05,
  0x0d, 0xfa, 0xdf, 0x05, 0x06, 0xed, 0xff, 0xd6, 0x03, 0x06, 0xf5, 0x05,
  0xeb, 0x01, 0x04, 0xfa, 0xfd, 0xa1, 0xfe, 0x02, 0x00, 0xfc, 0xfb, 0xf0,
  0x08, 0x03, 0x06, 0x10, 0xf5, 0xff, 0x08, 0x0c, 0x04, 0xf8, 0xd0, 0x0e,
  0x07, 0xf7, 0x00, 0xff, 0x03, 0x04, 0xf8, 0x12, 0xf2, 0xff, 0x02, 0xf9,
  0xfe, 0xff, 0x00, 0x03, 0x08, 0xfe, 0x01, 0xf1, 0x01, 0x02, 0x00, 0xcc,
  0x00, 0x00, 0xd6, 0xce, 0x0d, 0xef, 0x00, 0x8e, 0x02, 0x01, 0x02, 0xff,
  0x01, 0x0d, 0x02, 0xbd, 0x04, 0x06, 0xfa, 0x01, 0x01, 0x00, 0x00, 0x03,
  0x13, 0x02, 0x09, 0xff, 0x08, 0xff, 0x01, 0xc6, 0x01, 0x02, 0xc4, 0xc0,
  0xf3, 0xe6, 0x02, 0x81, 0xe1, 0x00, 0x02, 0x01, 0x01, 0x0a, 0x01, 0x9e,
  0xff, 0xfd, 0xf4, 0x04, 0x02, 0x00, 0x02, 0xd3, 0xe7, 0x03, 0x0e, 0x00,
  0x04, 0x01, 0x00, 0xba, 0x00, 0x05, 0x0a, 0x12, 0xe7, 0xdd, 0x00, 0xec,
  0x10, 0x01, 0xfa, 0x00, 0x00, 0x0b, 0xfd, 0xfe, 0x03, 0x02, 0x07, 0xfe,
  0x00, 0x00, 0x00, 0x24, 0xb3, 0x05, 0x09, 0x00, 0xe9, 0x00, 0xfd, 0x09,
  0x00, 0x01, 0x2a, 0xf9, 0x03, 0xe4, 0xff, 0x11, 0x0a, 0x00, 0xf3, 0x00,
  0x01, 0x0f, 0xfa, 0x45, 0x07, 0x06, 0x15, 0xfa, 0x00, 0x01, 0x00, 0x32,
  0xb2, 0x0b, 0xff, 0xff, 0xd3, 0x04, 0xf8, 0x52, 0xff, 0x04, 0x3f, 0x33,
  0x23, 0x0d, 0xfd, 0x4a, 0x20, 0xff, 0xf3, 0xff, 0x06, 0x18, 0x2b, 0x50,
  0x0a, 0x03, 0x0a, 0xf5, 0x01, 0xf7, 0x02, 0x23, 0xe2, 0x0e, 0xfb, 0xfb,
  0x09, 0xfd, 0xfb, 0xc4, 0xfe, 0x09, 0xc9, 0xd2, 0xfe, 0xeb, 0x02, 0xbe,
  0xe1, 0xfe, 0x03, 0xfe, 0xfa, 0x0c, 0xf3, 0xb7, 0x01, 0xfa, 0xf4, 0x03,
  0xf8, 0xdc, 0xf1, 0xe9, 0x09, 0x00, 0x03, 0x02, 0xff, 0x01, 0xfc, 0xe8,
  0x00, 0xfd, 0x0a, 0x03, 0xf8, 0xdc, 0xf8, 0xf2, 0x01, 0xff, 0x00, 0xfc,
  0x01, 0x05, 0xf8, 0x06, 0x01, 0x00, 0x03, 0xfe, 0xf8, 0xda, 0xf2, 0xfc,
  0xf8, 0x02, 0xfd, 0xff, 0xd3, 0x04, 0xf3, 0xf1, 0x02, 0xff, 0x0a, 0x0a,
  0xfd, 0xf4, 0xe6, 0xef, 0x04, 0x03, 0xfd, 0xfe, 0x06, 0x04, 0x13, 0x03,
  0x01, 0x03, 0x01, 0xf8, 0xea, 0xd6, 0xe0, 0x04, 0xe9, 0x03, 0xe4, 0xf7,
  0x81, 0x04, 0xf1, 0x08, 0x01, 0x02, 0x11, 0x0c, 0x01, 0x00, 0xf4, 0x01,
  0x03, 0x04, 0xfc, 0x01, 0x02, 0x02, 0x09, 0x0d, 0x02, 0x04, 0x03, 0xf8,
  0xeb, 0xf6, 0xe4, 0x08, 0xde, 0x00, 0xeb, 0xf1, 0xe9, 0x0d, 0xfb, 0xeb,
  0x01, 0x02, 0x09, 0xff, 0x0c, 0x10, 0xc6, 0xfa, 0xfa, 0x04, 0xf8, 0x14,
  0x07, 0xe4, 0x01, 0x07, 0xff, 0x03, 0x04, 0x0b, 0x06, 0x00, 0xfc, 0x02,
  0xd1, 0x01, 0xfd, 0xc2, 0x03, 0xef, 0x02, 0xe0, 0x00, 0x04, 0xfe, 0xf3,
  0x0d, 0xfc, 0xff, 0xfb, 0xe7, 0xf3, 0x01, 0x08, 0xf0, 0x02, 0x01, 0x02,
  0xfe, 0xfc, 0x04, 0x02, 0x00, 0xc0, 0xfe, 0xec, 0xf9, 0x02, 0xf7, 0x01,
  0x05, 0xe8, 0x01, 0xe7, 0xfa, 0x01, 0xfe, 0xef, 0x06, 0x00, 0xfd, 0x09,
  0xca, 0xf6, 0x01, 0xee, 0xec, 0xfe, 0xfa, 0xeb, 0xfe, 0xf7, 0xfc, 0x02,
  0x00, 0x06, 0xfe, 0xef, 0xf0, 0xff, 0xf8, 0xee, 0xf8, 0x02, 0xff, 0xc6,
  0x02, 0xff, 0x0d, 0x08, 0xe9, 0xf3, 0xcc, 0xe8, 0xfa, 0x00, 0xff, 0xf8,
  0x04, 0x03, 0xfa, 0x07, 0xfc, 0x00, 0x03, 0xfe, 0xf7, 0xec, 0xf2, 0xf4,
  0xda, 0x00, 0xe9, 0x92, 0xe1, 0x06, 0xf7, 0x00, 0x08, 0xfe, 0x0c, 0x14,
  0xf9, 0xf9, 0xdc, 0xfa, 0x0c, 0x04, 0xfd, 0xff, 0x14, 0x04, 0x22, 0x06,
  0xfe, 0x07, 0x04, 0xf3, 0xea, 0xdb, 0xd9, 0x06, 0xd2, 0x00, 0xd7, 0xb4,
  0xf7, 0x1d, 0xfe, 0xf1, 0xee, 0x06, 0xf9, 0x03, 0x0e, 0x16, 0xc3, 0xf7,
  0xee, 0x02, 0xff, 0xc5, 0xf1, 0xfa, 0x03, 0x0c, 0x00, 0x01, 0x07, 0xfc,
  0x00, 0x00, 0x01, 0x08, 0xe2, 0x00, 0xf6, 0x81, 0xfe, 0xff, 0x00, 0x0c,
  0x00, 0xff, 0x0c, 0x18, 0x00, 0x00, 0x00, 0xdb, 0x03, 0x00, 0x00, 0x00,
  0xff, 0x01, 0x01, 0xfb, 0x01, 0x01, 0x00, 0x02, 0x00, 0x00, 0x00, 0xfe,
  0xf2, 0x03, 0x03, 0x00, 0x00, 0x00, 0x00, 0xf4, 0x00, 0xff, 0x03, 0x0d,
  0xfe, 0xfd, 0x00, 0xda, 0x05, 0x00, 0x02, 0xff, 0xfe, 0x05, 0x06, 0xd4,
  0x01, 0x02, 0xfc, 0x03, 0x00, 0x00, 0xff, 0x03, 0xfa, 0x04, 0x03, 0xff,
  0x00, 0x01, 0x00, 0xe2, 0x00, 0xfb, 0xe8, 0xf0, 0xf2, 0x00, 0x00, 0xaa,
  0xff, 0x00, 0x03, 0x01, 0x01, 0x02, 0x07, 0xb2, 0x01, 0x02, 0x00, 0x07,
  0x01, 0xee, 0xff, 0xfd, 0xda, 0x03, 0x06, 0x00, 0xff, 0x01, 0xff, 0xe3,
  0x00, 0xf7, 0xbc, 0xd6, 0xd3, 0x00, 0x00, 0x9a, 0x05, 0x00, 0x02, 0x00,
  0xf7, 0xfc, 0xf9, 0x8b, 0x03, 0x04, 0x07, 0x09, 0x03, 0xd1, 0x01, 0x07,
  0xd5, 0x01, 0x08, 0x00, 0xff, 0xee, 0xff, 0xc9, 0x01, 0xf9, 0x99, 0xb1,
  0xd1, 0xff, 0xbe, 0xb8, 0xf7, 0x00, 0x05, 0xfe, 0xfb, 0x03, 0x03, 0x81,
  0x04, 0x0a, 0x0f, 0x08, 0x01, 0xf9, 0x00, 0x14, 0xfa, 0x03, 0x05, 0xe6,
  0x0b, 0xf1, 0xff, 0xa1, 0xfb, 0xf8, 0xf7, 0xe6, 0x0d, 0x12, 0xf3, 0xc0,
  0xbc, 0x04, 0x04, 0xe0, 0x05, 0x0d, 0xfb, 0xd6, 0x01, 0xec, 0xf3, 0x0e,
  0xf7, 0xcc, 0xf8, 0xa0, 0xc8, 0x05, 0x04, 0xfd, 0x02, 0x05, 0xfd, 0xa8,
  0xf9, 0x02, 0x0d, 0x0a, 0xef, 0xe8, 0xe4, 0xdf, 0x05, 0x05, 0x03, 0xd1,
  0xff, 0x0a, 0x0d, 0x1e, 0x03, 0x01, 0xf2, 0x0a, 0xf5, 0xd8, 0xf1, 0xee,
  0xb9, 0x05, 0x03, 0xe8, 0xec, 0x17, 0xfa, 0xc6, 0x07, 0xfe, 0x1b, 0x28,
  0xf6, 0xc1, 0xa9, 0xcc, 0x17, 0x04, 0xfd, 0xe5, 0x0e, 0xf9, 0xd9, 0x0d,
  0x02, 0x13, 0x0c, 0x06, 0xf8, 0xd3, 0xef, 0x18, 0xb9, 0xfe, 0xfe, 0x81,
  0xea, 0x27, 0xfc, 0x08, 0xfd, 0xfd, 0x1b, 0x01, 0x17, 0xd1, 0xea, 0xd6,
  0xfc, 0xfe, 0xfc, 0xc6, 0x0d, 0xfa, 0xfe, 0x18, 0x01, 0x08, 0x0a, 0x06,
  0x04, 0x00, 0x06, 0x03, 0xcd, 0x02, 0x05, 0xb6, 0xe9, 0x40, 0x00, 0x27,
  0x00, 0xfb, 0x07, 0x04, 0x16, 0x1a, 0xb7, 0xf3, 0x26, 0xfc, 0xfa, 0x02,
  0xfb, 0xf6, 0xff, 0xf0, 0x00, 0x03, 0x02, 0x05, 0x05, 0xff, 0x05, 0xf0,
  0xee, 0xfe, 0x09, 0x89, 0xfe, 0x01, 0x00, 0xc6, 0x00, 0x00, 0xc4, 0xc6,
  0x05, 0x00, 0x00, 0x81, 0xff, 0x00, 0x00, 0x00, 0x00, 0xfe, 0x01, 0xb1,
  0x01, 0x02, 0x00, 0x01, 0x00, 0x01, 0x01, 0xf6, 0x06, 0x01, 0x04, 0x00,
  0xfc, 0xff, 0xff, 0xc6, 0x00, 0xff, 0xc2, 0xb6, 0x05, 0x06, 0x00, 0xa9,
  0xe5, 0x00, 0x00, 0x00, 0xff, 0xff, 0x02, 0xaa, 0x00, 0xff, 0xfa, 0x01,
  0x00, 0xfd, 0x02, 0xd0, 0xe3, 0x02, 0x04, 0x00, 0xf7, 0x02, 0xfe, 0xd4,
  0x00, 0xff, 0x02, 0x04, 0xfc, 0x03, 0x01, 0xdb, 0x10, 0x00, 0xfd, 0xfd,
  0xff, 0x03, 0xfa, 0x15, 0x01, 0x04, 0x0b, 0xfe, 0xfc, 0x04, 0xfd, 0xfb,
  0xc5, 0x04, 0xff, 0x00, 0xf4, 0x05, 0xff, 0x0f, 0x01, 0x00, 0x0f, 0x0e,
  0x07, 0x07, 0xe8, 0x02, 0x03, 0x00, 0xfd, 0xf8, 0x04, 0x01, 0x09, 0x22,
  0x02, 0x0d, 0x0d, 0xfe, 0xff, 0x01, 0xfe, 0x08, 0xcc, 0x02, 0xfb, 0xf0,
  0xf5, 0x13, 0x01, 0x24, 0xff, 0xff, 0x1d, 0x0c, 0x05, 0x0b, 0xf1, 0x06,
  0xf7, 0x01, 0xfd, 0xf6, 0x02, 0xfd, 0x02, 0x26, 0x03, 0x0b, 0x0a, 0x00,
  0x01, 0x00, 0x01, 0x01, 0xe9, 0xfe, 0xff, 0xc3, 0x01, 0x00, 0x00, 0x01,
  0x00, 0x06, 0x81, 0xce, 0x07, 0xfc, 0x00, 0xb3, 0x08, 0x00, 0x00, 0x00,
  0xff, 0x05, 0x03, 0xaf, 0x01, 0x02, 0x00, 0xfe, 0xff, 0x00, 0x00, 0x0b,
  0x02, 0x00, 0x00, 0xff, 0x06, 0x00, 0x01, 0xff, 0x00, 0x00, 0x88, 0xc4,
  0x0c, 0x02, 0x01, 0xc4, 0x04, 0x00, 0x00, 0x00, 0x00, 0x00, 0x08, 0xb6,
  0x00, 0x01, 0xff, 0x01, 0x00, 0x00, 0x00, 0x09, 0x07, 0x01, 0x03, 0xff,
  0x0a, 0x00, 0x01, 0xd0, 0x00, 0xfb, 0xc8, 0xe5, 0xfe, 0xff, 0x01, 0xb2,
  0x04, 0x00, 0xff, 0x00, 0x00, 0xfe, 0xf8, 0xe2, 0x01, 0xff, 0x02, 0xfe,
  0xff, 0x00, 0x00, 0xf3, 0xe8, 0x00, 0x03, 0x00, 0x06, 0xff, 0xfe, 0x06,
  0x00, 0x02, 0x0a, 0x03, 0xfc, 0x01, 0x00, 0x07, 0x00, 0x00, 0xfd, 0x00,
  0x00, 0x03, 0xfb, 0x13, 0x01, 0x00, 0x09, 0xfc, 0xfd, 0x01, 0xfe, 0xf2,
  0xdc, 0xff, 0xfd, 0xff, 0xf8, 0x01, 0xfa, 0x0d, 0x00, 0x09, 0x29, 0x23,
  0xf5, 0x13, 0xff, 0x17, 0xfa, 0x00, 0xfd, 0x00, 0x02, 0x0a, 0x1a, 0x32,
  0x01, 0x03, 0x0d, 0xfa, 0xf3, 0xdf, 0xf6, 0x01, 0xe3, 0x02, 0xf4, 0xff,
  0xf2, 0x00, 0x01, 0x13, 0x01, 0x01, 0x13, 0x11, 0x08, 0x04, 0x00, 0x0a,
  0x16, 0xff, 0xfd, 0xfe, 0xe6, 0xfa, 0x07, 0x16, 0xfd, 0x04, 0x01, 0x04,
  0x06, 0xc8, 0x07, 0x0a, 0xf4, 0xfd, 0xff, 0x02, 0xfa, 0xf1, 0x03, 0x01,
  0xfe, 0xfd, 0x0b, 0x12, 0xf7, 0x01, 0x0d, 0xe8, 0x08, 0xf9, 0xff, 0xf8,
  0xf8, 0xfa, 0xe9, 0x0f, 0xfe, 0x02, 0x00, 0x04, 0x06, 0xe2, 0x08, 0xf8,
  0x09, 0xff, 0x02, 0xf7, 0xff, 0xf5, 0x05, 0xe4, 0xfa, 0xfa, 0xfd, 0xfe,
  0xf7, 0x05, 0x0e, 0xb7, 0x06, 0xfa, 0x01, 0xe8, 0x05, 0xfc, 0xfd, 0x09,
  0x00, 0xff, 0x01, 0x04, 0x03, 0xf2, 0x06, 0xef, 0xe8, 0x03, 0x01, 0x03,
  0x02, 0xf7, 0x04, 0xfe, 0xf9, 0x00, 0xfc, 0x05, 0xfc, 0x07, 0xf3, 0xdf,
  0xff, 0x01, 0x05, 0xde, 0xff, 0x08, 0xff, 0xf3, 0x02, 0xff, 0x03, 0x02,
  0xff, 0x99, 0x00, 0xeb, 0xe4, 0x04, 0xfd, 0xf2, 0x05, 0xf2, 0x02, 0xe9,
  0xf5, 0x02, 0xec, 0xf0, 0xf5, 0xef, 0xd0, 0xd8, 0xff, 0xfb, 0x01, 0xe6,
  0xf9, 0x03, 0xfa, 0xec, 0x00, 0xfc, 0x06, 0xff, 0xff, 0x81, 0x02, 0xf8,
  0xd9, 0x04, 0x02, 0xf3, 0x01, 0xff, 0xff, 0x08, 0x01, 0xf8, 0x0e, 0x0a,
  0xfe, 0x0f, 0x01, 0xfa, 0x01, 0x00, 0x01, 0x00, 0xf5, 0xfe, 0xf2, 0xff,
  0x00, 0x02, 0x05, 0x03, 0x02, 0xc4, 0x04, 0xf8, 0xea, 0x01, 0xfc, 0x01,
  0x09, 0xfa, 0x01, 0xe8, 0xfe, 0xfe, 0x08, 0x0c, 0xfb, 0x00, 0xe9, 0xf4,
  0x01, 0xf9, 0x01, 0xfb, 0x0a, 0x03, 0xf2, 0x0c, 0xfe, 0x00, 0x04, 0x05,
  0xf9, 0xce, 0xf4, 0xfd, 0xe4, 0x04, 0xf6, 0x0b, 0xfe, 0x0a, 0xfc, 0xff,
  0x00, 0xfd, 0x02, 0xf9, 0x10, 0xff, 0xc5, 0xfa, 0x04, 0xfe, 0xfc, 0x06,
  0x0e, 0x00, 0x02, 0x00, 0xfe, 0x05, 0x01, 0x03, 0xf2, 0xbe, 0xec, 0xfb,
  0xe3, 0x04, 0xf1, 0xb2, 0xef, 0x0d, 0xf5, 0x02, 0x04, 0xfa, 0xfd, 0xfd,
  0x17, 0x01, 0xe4, 0x07, 0x0c, 0x00, 0xf9, 0x07, 0x08, 0x02, 0x04, 0xf5,
  0xfe, 0x03, 0x01, 0xfe, 0xf2, 0xfe, 0xe8, 0x02, 0xe5, 0x00, 0xf2, 0xb7,
  0xeb, 0x14, 0xfb, 0x10, 0x04, 0xfe, 0x02, 0xf8, 0x17, 0xf3, 0xa9, 0x11,
  0x0f, 0xfe, 0xf6, 0x23, 0x05, 0xfe, 0x02, 0xf5, 0xfc, 0xff, 0xff, 0xfe,
  0xf9, 0x05, 0xf7, 0x02, 0xf9, 0xfb, 0xf3, 0x81, 0xff, 0x02, 0x01, 0xdd,
  0x00, 0x0d, 0x0a, 0xf6, 0xf6, 0xdf, 0x00, 0xf4, 0x07, 0x01, 0x07, 0x00,
  0xfe, 0x0b, 0xf0, 0xf0, 0x04, 0x03, 0xfa, 0x04, 0xfa, 0x04, 0xfb, 0x06,
  0xd7, 0x02, 0xf8, 0x00, 0xe7, 0xff, 0xf6, 0x2e, 0x01, 0x0c, 0x2b, 0xf1,
  0x06, 0x22, 0x02, 0x1b, 0xfc, 0x01, 0x0b, 0x00, 0x1d, 0x00, 0x18, 0x0b,
  0x01, 0x02, 0xf3, 0x0b, 0x00, 0xe3, 0x0a, 0x08, 0x22, 0xfe, 0x00, 0x00,
  0xf6, 0xfa, 0xff, 0xbf, 0xff, 0x07, 0x08, 0x05, 0xca, 0x0a, 0x03, 0xed,
  0xf1, 0xfd, 0x04, 0xfb, 0xdf, 0xed, 0x01, 0xea, 0xfe, 0xff, 0x00, 0x0f,
  0x09, 0xe8, 0x06, 0xfc, 0x22, 0xf7, 0x0a, 0xfd, 0x06, 0xc9, 0x04, 0xc1,
  0xfd, 0x05, 0x27, 0x12, 0xf1, 0x0b, 0xbc, 0xe6, 0xda, 0xf9, 0x0b, 0xf0,
  0xfa, 0xf8, 0xe9, 0x0b, 0x03, 0x05, 0x09, 0x10, 0x09, 0xe6, 0x0d, 0xf8,
  0x9e, 0xf7, 0x05, 0xd3, 0x02, 0xcd, 0x06, 0xd7, 0xf4, 0xfa, 0x03, 0xf1,
  0xe1, 0xec, 0x81, 0x9a, 0xd3, 0x00, 0x06, 0xcb, 0xfa, 0x07, 0xf9, 0xfd,
  0x0c, 0xfd, 0x15, 0x04, 0xfb, 0xce, 0x0b, 0xd9, 0x8e, 0x0e, 0x04, 0xff,
  0xfc, 0x00, 0xfe, 0xf3, 0x00, 0xf6, 0x12, 0xf9, 0x0e, 0x0f, 0x01, 0x00,
  0x05, 0x00, 0x00, 0x00, 0xfe, 0xfe, 0xfa, 0x09, 0xfd, 0x01, 0x02, 0xfc,
  0xff, 0xc9, 0x04, 0x0d, 0x11, 0x00, 0xff, 0x01, 0x00, 0xfd, 0x01, 0xee,
  0x00, 0xfc, 0x07, 0xff, 0xfe, 0x00, 0x05, 0xfc, 0xfa, 0x00, 0x01, 0xfe,
  0xf4, 0x04, 0x02, 0xfa, 0xfe, 0x01, 0x01, 0xfe, 0x02, 0xda, 0x03, 0xf3,
  0x13, 0xff, 0xfc, 0x00, 0x00, 0xe3, 0x00, 0xeb, 0xfe, 0xff, 0xf7, 0xf7,
  0xfe, 0x0e, 0xf4, 0xe7, 0xf8, 0xfd, 0x00, 0xf9, 0xe2, 0x09, 0xfe, 0xfb,
  0xfe, 0x04, 0x00, 0x04, 0xf6, 0xb2, 0xe7, 0xf6, 0xf0, 0xff, 0xf6, 0xf0,
  0xf9, 0xd9, 0xfc, 0xf1, 0xf7, 0xfe, 0xf8, 0xf4, 0x05, 0x02, 0xf0, 0xea,
  0xfc, 0xfc, 0xfc, 0x81, 0xdf, 0x05, 0xf1, 0xf0, 0x01, 0x04, 0x01, 0x04,
  0xf4, 0xa9, 0xe8, 0x03, 0xe7, 0xfe, 0xf1, 0x01, 0xd3, 0xc6, 0xf3, 0xf7,
  0xf3, 0x02, 0x1b, 0x0a, 0x0b, 0x00, 0xd5, 0x02, 0xe6, 0x09, 0xf0, 0x81,
  0xda, 0x0a, 0xfa, 0xfb, 0x05, 0x01, 0xfe, 0xe8, 0xd9, 0x0a, 0xf4, 0x10,
  0xe9, 0xfc, 0xe6, 0xdd, 0xf3, 0x02, 0xfd, 0xfa, 0x01, 0xfb, 0x31, 0x1a,
  0x02, 0x19, 0x00, 0x00, 0x12, 0x02, 0x05, 0x01, 0x1d, 0x00, 0x04, 0x1b,
  0x04, 0x03, 0xfa, 0x08, 0x01, 0xda, 0x01, 0x17, 0xdd, 0x00, 0x10, 0x01,
  0xf1, 0xf6, 0xfd, 0xfe, 0xfe, 0x03, 0x24, 0x0d, 0xca, 0x0c, 0xff, 0xf4,
  0xf8, 0xfe, 0x09, 0xf9, 0xdb, 0xfb, 0x0d, 0x21, 0x02, 0xfa, 0xfa, 0x10,
  0xfe, 0xee, 0xfe, 0xfb, 0x1a, 0xfe, 0x14, 0xfe, 0xf1, 0xd1, 0x01, 0xa8,
  0xff, 0x03, 0x0d, 0x06, 0xd0, 0x0f, 0xdb, 0xca, 0xe3, 0xfe, 0x09, 0xee,
  0x00, 0xf7, 0x0c, 0xf4, 0x04, 0xfc, 0xfb, 0x0b, 0x07, 0xe9, 0x10, 0xe0,
  0xaa, 0x01, 0x0f, 0xcb, 0xfa, 0xdc, 0x01, 0xce, 0xf8, 0xff, 0x05, 0xfa,
  0xeb, 0xf7, 0xbd, 0x81, 0xd4, 0x03, 0x06, 0xcf, 0xfd, 0xff, 0xfa, 0xe8,
  0x09, 0xfb, 0x02, 0x0e, 0x06, 0xdb, 0x02, 0xd7, 0x99, 0x09, 0x11, 0xfc,
  0xf1, 0xc0, 0xf5, 0xa7, 0xf2, 0x06, 0x0a, 0xdf, 0xdf, 0xef, 0x87, 0xb2,
  0xc4, 0x0f, 0x06, 0xd9, 0xf7, 0x06, 0x08, 0xd8, 0x0a, 0xed, 0x0a, 0x06,
  0x03, 0x02, 0xff, 0xd2, 0xe3, 0xfe, 0x0c, 0x8e, 0xd2, 0x16, 0xe1, 0x0f,
  0xff, 0x06, 0xfa, 0xfd, 0xff, 0xf9, 0xe1, 0x08, 0xfc, 0x08, 0xfa, 0xfe,
  0x07, 0xfb, 0x18, 0xfb, 0x01, 0x01, 0xff, 0xec, 0xc5, 0xa9, 0xd6, 0x00,
  0xe7, 0xfa, 0xe6, 0xf0, 0xe8, 0x18, 0xf9, 0x06, 0xfc, 0xfb, 0x02, 0x02,
  0x08, 0xff, 0xea, 0x18, 0xf2, 0x04, 0xf9, 0xe8, 0xf9, 0xf0, 0x02, 0x28,
  0x02, 0xfb, 0x05, 0xf3, 0xff, 0x01, 0x04, 0x03, 0xf9, 0xfa, 0xf7, 0x81,
  0xf6, 0x01, 0x02, 0xe9, 0xf9, 0xfa, 0x06, 0x04, 0x0a, 0x07, 0xbc, 0x01,
  0xfe, 0x0a, 0xf8, 0xdd, 0xf9, 0xeb, 0x00, 0x18, 0x04, 0x00, 0x08, 0xfa,
  0x02, 0x01, 0x06, 0xfd, 0xe9, 0x08, 0xf9, 0xe9, 0xf9, 0xff, 0x01, 0xee,
  0xfe, 0xfd, 0xf4, 0xfa, 0x0a, 0x04, 0x00, 0xe8, 0x06, 0xff, 0xfd, 0x00,
  0x02, 0xf6, 0x04, 0xfa, 0x02, 0x02, 0x09, 0xfe, 0x01, 0x00, 0x02, 0xfc,
  0x07, 0x04, 0xf7, 0xff, 0x03, 0x02, 0x00, 0x03, 0xff, 0x01, 0xef, 0xf9,
  0x07, 0x03, 0xff, 0x00, 0x06, 0x00, 0x00, 0x00, 0x01, 0xf9, 0x01, 0xfc,
  0xff, 0x01, 0x05, 0x00, 0x00, 0x00, 0x00, 0xf8, 0x15, 0x02, 0xfc, 0xfe,
  0x0c, 0x00, 0xff, 0x0d, 0x00, 0xfb, 0x07, 0x06, 0xfb, 0x04, 0x00, 0xf6,
  0x04, 0x02, 0x0a, 0xff, 0x02, 0x06, 0x03, 0x00, 0x03, 0x00, 0x04, 0x07,
  0xfa, 0xf7, 0xfa, 0x00, 0xe4, 0x05, 0x11, 0x00, 0x07, 0xe6, 0xfd, 0x06,
  0x01, 0x04, 0x01, 0x07, 0xe5, 0xfc, 0xfa, 0xf8, 0xee, 0x03, 0x07, 0x02,
  0x02, 0x08, 0x08, 0xe4, 0x04, 0xfe, 0x04, 0x07, 0x00, 0xe7, 0xfc, 0xf7,
  0x01, 0x01, 0x14, 0xed, 0xfe, 0xef, 0xff, 0xc0, 0xff, 0x09, 0x0a, 0x13,
  0xf2, 0x05, 0xe8, 0xe2, 0xdc, 0x05, 0x00, 0xe7, 0x09, 0x01, 0xfe, 0xee,
  0x03, 0xed, 0xff, 0x06, 0x01, 0xff, 0xfe, 0xe7, 0xdd, 0x00, 0x11, 0xea,
  0xfd, 0xfc, 0xfe, 0xc1, 0xfa, 0x01, 0x01, 0xfe, 0xff, 0xfc, 0xe8, 0x81,
  0xe7, 0x06, 0xfe, 0xf1, 0x11, 0xfa, 0x05, 0xf3, 0x06, 0xf2, 0x04, 0x07,
  0x01, 0x01, 0xfe, 0xd0, 0xf2, 0x04, 0x14, 0xf2, 0xf0, 0xe9, 0xfe, 0xa7,
  0xec, 0xff, 0xe8, 0xd0, 0xfe, 0x0a, 0xf3, 0x8e, 0xe0, 0x01, 0xf9, 0xf3,
  0x13, 0xfb, 0x09, 0xd5, 0x06, 0xe4, 0x0a, 0x05, 0x01, 0x00, 0x01, 0xbb,
  0x04, 0x05, 0x12, 0xd5, 0x05, 0x00, 0xff, 0xe0, 0x00, 0xf6, 0xcc, 0xd5,
  0xef, 0x13, 0xff, 0x81, 0x0d, 0x01, 0xff, 0x00, 0x02, 0x01, 0x02, 0xab,
  0x01, 0x03, 0xfa, 0x05, 0xfe, 0x00, 0xff, 0xf7, 0x03, 0x04, 0x09, 0x00,
  0x00, 0x00, 0xff, 0xd2, 0xff, 0xfc, 0xc7, 0xe7, 0xf8, 0x02, 0x00, 0x96,
  0x11, 0x00, 0xfe, 0xff, 0x01, 0x06, 0xfe, 0xdb, 0x01, 0x04, 0x06, 0x06,
  0xff, 0x00, 0x01, 0x01, 0xec, 0x03, 0x07, 0xff, 0xfb, 0xff, 0x00, 0xf8,
  0x00, 0xff, 0xf6, 0x01, 0xe2, 0x00, 0x00, 0xe8, 0x04, 0x00, 0xf5, 0xff,
  0x01, 0x0b, 0x01, 0xf6, 0x02, 0x05, 0x0a, 0x05, 0x00, 0x01, 0x01, 0xff,
  0xcd, 0x06, 0x04, 0xff, 0xf8, 0x01, 0x00, 0x1c, 0x00, 0x04, 0x0b, 0x04,
  0xfa, 0x00, 0x00, 0x08, 0x04, 0x00, 0xf0, 0x00, 0xfe, 0x0d, 0x01, 0x25,
  0x07, 0x05, 0x0b, 0x04, 0x00, 0x00, 0x01, 0xff, 0xd2, 0x03, 0x04, 0x02,
  0xfa, 0xfe, 0x01, 0x3b, 0xff, 0x09, 0x1e, 0x12, 0x0f, 0x0c, 0xfe, 0x2b,
  0x06, 0xfe, 0xf3, 0xfe, 0x00, 0x09, 0x04, 0x2c, 0x09, 0x03, 0x09, 0x05,
  0x03, 0xff, 0x01, 0xf9, 0xdc, 0x02, 0x08, 0x00, 0x01, 0x00, 0x00, 0xf2,
  0x00, 0x02, 0xff, 0xfb, 0xf6, 0xf4, 0x00, 0xed, 0xfa, 0x01, 0x02, 0x00,
  0x00, 0x01, 0x03, 0xfa, 0x01, 0xff, 0xfb, 0x02, 0x00, 0x01, 0x00, 0xf1,
  0xfc, 0x01, 0x04, 0x00, 0xfc, 0x00, 0x00, 0x00, 0x00, 0x04, 0x0b, 0xfb,
  0xf8, 0xee, 0x01, 0x03, 0xef, 0x00, 0x02, 0x00, 0x00, 0xff, 0xff, 0xf0,
  0x00, 0xfe, 0x00, 0x03, 0x00, 0x8d, 0x01, 0xe8, 0xeb, 0x00, 0x03, 0x00,
  0xf9, 0x01, 0xff, 0xd6, 0x00, 0x05, 0x09, 0x14, 0x02, 0xd7, 0x01, 0xc9,
  0x07, 0x00, 0x02, 0xff, 0xff, 0xfc, 0xf7, 0xff, 0x01, 0x00, 0x03, 0x01,
  0xff, 0xa2, 0xfe, 0x07, 0xdf, 0x00, 0x01, 0x00, 0xf6, 0x02, 0xfe, 0xfd,
  0xff, 0x02, 0x0d, 0x0f, 0x00, 0xc0, 0xec, 0xe2, 0x07, 0x01, 0x01, 0x03,
  0x04, 0xfa, 0xf5, 0x0f, 0x01, 0x01, 0x00, 0x00, 0xfe, 0xc8, 0xfd, 0x09,
  0xea, 0xfd, 0x00, 0xfb, 0xf0, 0x13, 0xfc, 0xf8, 0xfe, 0xff, 0x07, 0x03,
  0x04, 0xba, 0xe7, 0xe6, 0x03, 0x00, 0xfe, 0xf9, 0x07, 0xf9, 0xfb, 0x1c,
  0x01, 0x03, 0x01, 0xfb, 0xfb, 0xc8, 0xfc, 0x06, 0xf2, 0xff, 0xfe, 0x81,
  0xf7, 0x00, 0xfe, 0x07, 0xff, 0xfb, 0x06, 0x05, 0x03, 0x14, 0x00, 0x1b,
  0xfd, 0xff, 0xfd, 0x00, 0xfe, 0xf9, 0x07, 0x12, 0x04, 0x02, 0x01, 0x01,
  0x00, 0x01, 0x02, 0xfd, 0xea, 0xfe, 0xf9, 0x00, 0xfb, 0x02, 0x00, 0xf8,
  0x01, 0xfd, 0x01, 0xee, 0x0b, 0x0b, 0x02, 0x09, 0xf5, 0x00, 0xff, 0x02,
  0xfe, 0xf9, 0x06, 0xfa, 0x00, 0x00, 0xfb, 0x07, 0x00, 0xc7, 0x01, 0xf7,
  0x0e, 0x00, 0xf9, 0x00, 0x02, 0x04, 0x03, 0xcc, 0x01, 0xfa, 0xeb, 0xe9,
  0xe5, 0xfd, 0x00, 0xb6, 0x09, 0x01, 0xfe, 0xfe, 0xe0, 0xf1, 0xef, 0xd8,
  0x01, 0x02, 0x01, 0x01, 0x04, 0xe7, 0x05, 0xf1, 0xe9, 0x03, 0x04, 0x00,
  0xfb, 0xab, 0x03, 0xe2, 0x02, 0x01, 0x19, 0x05, 0x0b, 0x06, 0xd5, 0xef,
  0xe4, 0xf4, 0xfe, 0x06, 0xe8, 0x03, 0xee, 0x0a, 0x05, 0x06, 0x06, 0xfd,
  0x02, 0xf1, 0x01, 0xf0, 0xe7, 0xff, 0xf8, 0xea, 0xf0, 0x81, 0x04, 0xf1,
  0xfb, 0x00, 0xf9, 0x05, 0x0f, 0xfa, 0xc1, 0xd8, 0xb3, 0xf0, 0xff, 0xbc,
  0x03, 0x09, 0xe3, 0xe3, 0x04, 0xf4, 0x05, 0xfd, 0x02, 0xef, 0x06, 0xfa,
  0xc6, 0x04, 0xf7, 0xc5, 0xff, 0x01, 0xff, 0xf7, 0x00, 0x01, 0x11, 0x01,
  0xf9, 0xfa, 0x00, 0xfc, 0x00, 0x00, 0x00, 0x00, 0x00, 0x04, 0xfe, 0x0e,
  0xfc, 0x01, 0xfe, 0xfe, 0xff, 0x01, 0xff, 0x05, 0xff, 0xff, 0x00, 0x00,
  0x01, 0x00, 0x00, 0x04, 0x00, 0x03, 0x06, 0x00, 0x04, 0xf8, 0x00, 0xfd,
  0x03, 0x00, 0x00, 0x00, 0x00, 0x03, 0x01, 0xfd, 0xfc, 0x01, 0x02, 0x01,
  0x00, 0x01, 0xff, 0x07, 0x11, 0xff, 0x02, 0x00, 0x07, 0xff, 0x00, 0xfd,
  0x00, 0x05, 0xff, 0xfa, 0xf9, 0xeb, 0x01, 0x03, 0xef, 0x00, 0x02, 0x00,
  0x00, 0x01, 0xf8, 0xdb, 0xfb, 0xfd, 0xf8, 0x05, 0x00, 0x81, 0xfc, 0xe1,
  0xf5, 0xfe, 0x03, 0x00, 0x04, 0x02, 0x01, 0xde, 0x00, 0x03, 0x08, 0x0c,
  0x0d, 0xdb, 0x00, 0x0f, 0x05, 0x01, 0x00, 0x01, 0x02, 0x04, 0xe5, 0x0e,
  0x01, 0x01, 0x09, 0xfd, 0xfd, 0x9a, 0xf7, 0xf6, 0xee, 0xf6, 0xf8, 0x00,
  0xf0, 0xfc, 0xfe, 0xf6, 0x02, 0xfc, 0x00, 0x10, 0x04, 0xee, 0xcb, 0xfd,
  0x12, 0x08, 0xfc, 0xff, 0x0f, 0x05, 0x0c, 0x05, 0x02, 0x08, 0x07, 0xf3,
  0xef, 0xa6, 0xe7, 0x0e, 0xf1, 0xf6, 0xe5, 0xe3, 0xff, 0x00, 0x00, 0xb9,
  0x00, 0xf2, 0xce, 0xca, 0xfe, 0x13, 0xff, 0x81, 0xee, 0x00, 0x05, 0x00,
  0x00, 0x04, 0x03, 0xaf, 0x02, 0xfc, 0xf2, 0xff, 0x01, 0xff, 0x01, 0xd5,
  0x0a, 0x06, 0x07, 0x00, 0xf9, 0x00, 0x00, 0xb9, 0x00, 0xfd, 0xca, 0xe6,
  0xf3, 0xf5, 0x00, 0xad, 0x1a, 0xff, 0x04, 0x00, 0x01, 0x0d, 0x02, 0xe6,
  0x01, 0x02, 0x0c, 0x02, 0x01, 0x00, 0x01, 0x0d, 0xca, 0x04, 0x01, 0xff,
  0xf4, 0x02, 0x00, 0xda, 0x00, 0x00, 0xf7, 0x04, 0xf9, 0xf3, 0xfe, 0xea,
  0x03, 0x00, 0xfb, 0xff, 0x01, 0x0d, 0x05, 0xfa, 0x02, 0x07, 0x13, 0xfe,
  0x01, 0x00, 0x02, 0x10, 0xad, 0x08, 0x00, 0xfc, 0xed, 0x03, 0x00, 0x2a,
  0x00, 0xfd, 0x22, 0x0b, 0xff, 0xf6, 0xfd, 0x03, 0x08, 0x01, 0xf8, 0x00,
  0x01, 0x13, 0x02, 0x44, 0x0c, 0x05, 0x0f, 0xfd, 0x02, 0x01, 0x02, 0x04,
  0xbf, 0x07, 0xff, 0x00, 0xd9, 0x01, 0xfd, 0x4a, 0xff, 0xff, 0x38, 0x2c,
  0x1c, 0x07, 0xfe, 0x46, 0x15, 0xff, 0xf6, 0xff, 0x02, 0x12, 0xf8, 0x4d,
  0x0b, 0x01, 0x09, 0xfb, 0xfe, 0x07, 0xff, 0x02, 0xd5, 0x04, 0xf6, 0xfe,
  0x04, 0x00, 0xff, 0x07, 0x00, 0xfc, 0xfa, 0x03, 0x06, 0x01, 0x00, 0xf1,
  0x04, 0x00, 0xfe, 0x00, 0x00, 0x00, 0x04, 0xf7, 0xfd, 0x00, 0x08, 0x04,
  0x00, 0xbc, 0xff, 0x04, 0x0a, 0x03, 0x00, 0x00, 0x0d, 0xfe, 0x01, 0x01,
  0x00, 0xfd, 0xf9, 0x01, 0xf4, 0x02, 0x01, 0xfb, 0xf5, 0x00, 0xfe, 0xff,
  0xf6, 0x01, 0xf6, 0xf1, 0xff, 0xfe, 0x02, 0x04, 0x00, 0xd5, 0xff, 0xf6,
  0xf0, 0x04, 0xff, 0x01, 0x05, 0x04, 0x01, 0xfc, 0x00, 0xfc, 0x00, 0x06,
  0x0b, 0x09, 0xc9, 0x06, 0x01, 0x00, 0xfa, 0xff, 0x07, 0x03, 0xfc, 0x08,
  0x00, 0x03, 0x04, 0x00, 0xfb, 0xf5, 0xf7, 0xfe, 0xdb, 0x03, 0xf5, 0x03,
  0xee, 0x06, 0xfc, 0x02, 0x02, 0xfc, 0xfe, 0x08, 0x1e, 0x0f, 0xe0, 0x07,
  0x10, 0x04, 0xf6, 0x03, 0x0b, 0x01, 0x0c, 0xfd, 0xfe, 0x0a, 0x04, 0xfb,
  0xf5, 0xd7, 0xf3, 0x0c, 0xe3, 0x01, 0xe8, 0xa8, 0xe4, 0x09, 0xfa, 0x15,
  0x05, 0xfe, 0xf9, 0xf5, 0x09, 0x11, 0xbd, 0x0e, 0xf9, 0x03, 0xf7, 0x20,
  0xf8, 0x01, 0x04, 0xfa, 0xfc, 0xf9, 0x03, 0xf9, 0xf8, 0x04, 0xfb, 0x05,
  0xf8, 0xfb, 0xf2, 0x81, 0x00, 0x01, 0x01, 0x04, 0x00, 0xfe, 0x1f, 0xff,
  0x09, 0xff, 0x00, 0x05, 0xfa, 0x01, 0x02, 0x01, 0x01, 0x09, 0x01, 0x0c,
  0x00, 0xff, 0x05, 0x00, 0x01, 0xb9, 0x00, 0x03, 0x00, 0x03, 0xf5, 0x00,
  0x0b, 0x02, 0x03, 0xe7, 0x00, 0x02, 0xf2, 0xf9, 0x01, 0xfb, 0x00, 0xe6,
  0xfb, 0xff, 0x00, 0x02, 0xdd, 0x06, 0xf2, 0xed, 0xfe, 0xfe, 0x05, 0xff,
  0xfe, 0xa9, 0xfd, 0x05, 0x0c, 0x06, 0xf5, 0x01, 0x0b, 0xcc, 0x01, 0x96,
  0x00, 0xfe, 0xfb, 0xe8, 0x0b, 0x05, 0xf1, 0xc3, 0xfc, 0xef, 0xfb, 0x07,
  0xdb, 0x03, 0xea, 0xf4, 0xfb, 0xff, 0x07, 0xfb, 0x03, 0xec, 0x01, 0x0d,
  0xf8, 0x07, 0xfd, 0x00, 0xf4, 0xd1, 0x00, 0xa1, 0xff, 0xfc, 0xf6, 0xdd,
  0x0a, 0x04, 0xe7, 0xba, 0xfe, 0xef, 0xf6, 0xd0, 0xc0, 0x05, 0x00, 0xde,
  0xf8, 0x02, 0x06, 0xf8, 0x00, 0x01, 0x01, 0x11, 0xef, 0x09, 0xf9, 0xf0,
  0xea, 0x81, 0x00, 0xa8, 0xf0, 0x01, 0xde, 0xd0, 0x13, 0x13, 0xcb, 0xd0,
  0xf7, 0xe7, 0xf6, 0xbd, 0x8c, 0xff, 0x02, 0xc5, 0xf7, 0x03, 0x05, 0xfb,
  0x01, 0x01, 0x01, 0x1f, 0xfc, 0xfe, 0xf7, 0xd1, 0x00, 0x00, 0x00, 0x03,
  0x00, 0xfe, 0xfb, 0xfb, 0xfe, 0x03, 0x01, 0x03, 0xfd, 0xff, 0xfe, 0x03,
  0x05, 0xfd, 0x01, 0xfa, 0xff, 0x00, 0x00, 0xf9, 0xff, 0xcb, 0x02, 0x0a,
  0xf6, 0x01, 0xf9, 0x00, 0xfb, 0xf6, 0xff, 0x01, 0xff, 0xff, 0xf9, 0x03,
  0x02, 0x02, 0xfa, 0x03, 0x01, 0xf9, 0xfd, 0x02, 0xf6, 0xfb, 0x00, 0x02,
  0xff, 0x00, 0x00, 0xf5, 0xff, 0xbd, 0x05, 0x05, 0x0a, 0x00, 0xfa, 0xf8,
  0xf7, 0xd9, 0x00, 0x06, 0xf7, 0x00, 0x0a, 0x08, 0x05, 0xfd, 0xf2, 0x08,
  0xef, 0xf9, 0x00, 0x8e, 0xf0, 0xfd, 0xf3, 0x0f, 0xfd, 0xfb, 0xff, 0xf9,
  0xff, 0xf9, 0x06, 0x0b, 0xf3, 0xfe, 0xf5, 0xf3, 0xf8, 0xf4, 0x02, 0xff,
  0xf4, 0xfe, 0x04, 0x0b, 0x02, 0xff, 0xe7, 0xe8, 0xfc, 0xfb, 0x00, 0x81,
  0x03, 0xfc, 0xee, 0x01, 0xfb, 0xf6, 0xfc, 0xfa, 0x00, 0xf9, 0x07, 0x03,
  0xe0, 0x01, 0xf9, 0x08, 0x05, 0xfa, 0xff, 0x10, 0xf2, 0xfd, 0x0c, 0xfe,
  0x05, 0x03, 0xe4, 0xfe, 0xfc, 0xfa, 0x02, 0xa9, 0xea, 0xfe, 0xe8, 0x07,
  0xfb, 0xf4, 0xf7, 0x03, 0x02, 0xfc, 0x02, 0xf9, 0xd9, 0xff, 0xfc, 0xf3,
  0x01, 0x03, 0x00, 0x07, 0xff, 0x04, 0xea, 0x00, 0xfe, 0xfc, 0x00, 0x22,
  0xfd, 0x02, 0x02, 0xfe, 0x04, 0xfa, 0x00, 0xf7, 0x01, 0x04, 0x01, 0x00,
  0x00, 0x00, 0x00, 0xf7, 0x0b, 0x00, 0xfe, 0xfe, 0x00, 0x04, 0x01, 0xf5,
  0xfd, 0x01, 0x01, 0xf5, 0x0c, 0xfb, 0x01, 0xee, 0xfb, 0xfe, 0x00, 0xe0,
  0xfe, 0xf1, 0xff, 0xea, 0x00, 0xff, 0xe2, 0x01, 0x00, 0x00, 0x01, 0xf0,
  0xeb, 0x01, 0x01, 0xfc, 0xf6, 0x00, 0x00, 0x00, 0x00, 0x00, 0x06, 0x05,
  0xfd, 0x03, 0x00, 0x07, 0x01, 0x00, 0x01, 0x00, 0x00, 0xfa, 0xee, 0x08,
  0x01, 0x01, 0x0d, 0x00, 0x00, 0x00, 0x00, 0x02, 0xff, 0xfe, 0xfd, 0x00,
  0xeb, 0x02, 0x00, 0x0c, 0x01, 0xfd, 0xed, 0xea, 0xfd, 0x03, 0x00, 0x01,
  0x01, 0x01, 0x03, 0x01, 0x00, 0xfa, 0x04, 0xf6, 0xfd, 0x01, 0xff, 0x03,
  0x00, 0xf2, 0x02, 0x03, 0xf7, 0x01, 0x02, 0x00, 0x81, 0x01, 0xf9, 0x03,
  0x00, 0x00, 0xfc, 0x0c, 0xee, 0x03, 0x00, 0x0f, 0x05, 0x00, 0x02, 0x00,
  0xe1, 0xf7, 0xf2, 0xdf, 0x01, 0x01, 0xfd, 0x09, 0xfa, 0xfb, 0x0d, 0x02,
  0xd0, 0xff, 0xfb, 0x00, 0xfc, 0x01, 0x00, 0xba, 0x00, 0x04, 0xf4, 0xe5,
  0x03, 0xf8, 0x00, 0xd7, 0xe3, 0x00, 0xff, 0x00, 0x00, 0x02, 0x00, 0xf1,
  0xff, 0x00, 0x02, 0x00, 0x00, 0x00, 0x00, 0xfb, 0x05, 0xff, 0x01, 0x00,
  0xfc, 0x00, 0x00, 0xc5, 0x00, 0x02, 0xf2, 0xda, 0xfc, 0xfe, 0x00, 0xfd,
  0xd6, 0x00, 0x00, 0x00, 0x00, 0x03, 0x02, 0xdf, 0xff, 0x00, 0xfb, 0x00,
  0x00, 0x00, 0x01, 0xf8, 0xfe, 0xff, 0x02, 0x00, 0x01, 0x00, 0x01, 0x81,
  0x00, 0x02, 0xe7, 0xc6, 0xfe, 0xfa, 0x00, 0xb4, 0xb8, 0x00, 0x02, 0x00,
  0x00, 0x02, 0x05, 0x8c, 0xff, 0xfd, 0xf0, 0x01, 0x00, 0x00, 0x01, 0xed,
  0x17, 0xfe, 0x05, 0x00, 0x07, 0x01, 0x01, 0xc4, 0x00, 0x01, 0x27, 0x02,
  0xfc, 0xf0, 0x00, 0xe9, 0xfc, 0x00, 0x03, 0x00, 0x00, 0x01, 0xff, 0x0d,
  0x01, 0x00, 0x00, 0x00, 0x00, 0x01, 0x00, 0x0e, 0xe9, 0x00, 0x04, 0x00,
  0xfc, 0xff, 0xfd, 0xe5, 0x00, 0x00, 0x4e, 0x36, 0xfb, 0xe1, 0x00, 0x01,
  0x06, 0x00, 0x00, 0x00, 0x00, 0x06, 0xfc, 0x30, 0x03, 0x01, 0xff, 0xfb,
  0xfc, 0xdb, 0xfe, 0x12, 0xe8, 0x01, 0xfa, 0x00, 0xfd, 0xfa, 0x00, 0x20,
  0x00, 0xfe, 0x00, 0x17, 0x06, 0x01, 0x00, 0x17, 0x0d, 0xf5, 0xfe, 0xfd,
  0x00, 0xef, 0x02, 0xdf, 0xfe, 0xf8, 0x03, 0x02, 0x00, 0x00, 0x00, 0x04,
  0xf4, 0x04, 0x01, 0xfb, 0xfe, 0xf7, 0x00, 0x10, 0x07, 0xfc, 0x02, 0x1d,
  0x01, 0x00, 0x00, 0xd5, 0x0d, 0xfa, 0xfd, 0xfe, 0xf9, 0xe5, 0xfb, 0xf2,
  0xfd, 0x00, 0xfe, 0x02, 0x00, 0x00, 0x00, 0xfd, 0xee, 0x07, 0x00, 0xf7,
  0xfe, 0xff, 0x00, 0xe5, 0x00, 0xfb, 0xe5, 0xf2, 0x03, 0xfe, 0xff, 0xbd,
  0x09, 0xff, 0xfd, 0xff, 0xff, 0xea, 0xf5, 0xf3, 0xfe, 0x00, 0x05, 0x01,
  0x00, 0x00, 0x01, 0xfc, 0xf1, 0x07, 0xff, 0xff, 0xf1, 0x00, 0x00, 0xfc,
  0x00, 0xf8, 0xa0, 0xf6, 0x00, 0x00, 0x00, 0xcf, 0x02, 0x00, 0xff, 0x00,
  0x00, 0xf6, 0x07, 0xe3, 0x02, 0x01, 0x09, 0x00, 0x01, 0x01, 0x01, 0x03,
  0x00, 0x03, 0x00, 0x00, 0xe3, 0x01, 0xf0, 0x08, 0x00, 0xf5, 0x81, 0xf2,
  0x01, 0x96, 0xff, 0xe0, 0x04, 0x00, 0x00, 0x00, 0x01, 0xf2, 0x0b, 0xdb,
  0x00, 0x01, 0x03, 0xff, 0x00, 0xfe, 0xff, 0x1e, 0x0a, 0x02, 0x05, 0xff,
  0x1e, 0x02, 0x0b, 0xa4, 0x01, 0x2b, 0x81, 0xa6, 0x03, 0xe5, 0x03, 0xf3,
  0xed, 0x01, 0xff, 0x03, 0x02, 0x1b, 0xf9, 0xc6, 0xd6, 0xfc, 0x0b, 0xf8,
  0x08, 0xfa, 0xfb, 0xf3, 0xf3, 0xf2, 0xee, 0x02, 0x2f, 0xfd, 0x0e, 0xb6,
  0xff, 0x23, 0x8a, 0xb4, 0x15, 0xd5, 0x03, 0xaa, 0xee, 0xfd, 0xf8, 0x01,
  0x0b, 0x11, 0xf2, 0xec, 0xd3, 0xf7, 0x15, 0xf7, 0x0e, 0xeb, 0xf2, 0xea,
  0xef, 0xec, 0xec, 0x01, 0x16, 0x0f, 0x0e, 0xb6, 0x01, 0x03, 0x0f, 0x11,
  0xff, 0xae, 0xfe, 0xe3, 0x0b, 0x04, 0xf0, 0x05, 0x18, 0x17, 0xf4, 0x0d,
  0xf1, 0x06, 0x1d, 0xec, 0x06, 0xee, 0xec, 0x0c, 0xcc, 0xe9, 0xde, 0xfd,
  0x1e, 0x05, 0x18, 0xfe, 0xf7, 0xfd, 0x1d, 0x12, 0x0c, 0xd0, 0xc5, 0xe7,
  0x18, 0xf5, 0xf7, 0xd0, 0x07, 0x15, 0x03, 0x37, 0xf0, 0x0c, 0x15, 0xee,
  0x05, 0xd2, 0xda, 0x0e, 0xeb, 0xe5, 0xe9, 0xa7, 0x1d, 0x1a, 0x25, 0x47,
  0xca, 0x04, 0x50, 0x3d, 0x14, 0x04, 0xaa, 0x28, 0x2f, 0xc4, 0xfe, 0x97,
  0x02, 0x19, 0xfd, 0x68, 0xe6, 0x0d, 0x14, 0xf7, 0xf4, 0xf6, 0xce, 0x1f,
  0x33, 0xd8, 0xfc, 0xe3, 0x0f, 0xfc, 0xfa, 0xf8, 0xff, 0x1d, 0xb5, 0xdd,
  0x06, 0xd6, 0xfd, 0x28, 0x00, 0x04, 0x04, 0xfc, 0x04, 0x3c, 0x1b, 0xde,
  0xfe, 0x00, 0xf6, 0xfe, 0xe8, 0xb8, 0xce, 0xed, 0xe8, 0xfb, 0xec, 0xfd,
  0xe7, 0x07, 0xed, 0x04, 0x02, 0x0c, 0xf8, 0xfb, 0x00, 0xe7, 0xf2, 0x0c,
  0x0a, 0x08, 0xfd, 0x09, 0x07, 0x17, 0x16, 0xf6, 0xfd, 0x06, 0xfb, 0xf7,
  0xf5, 0x05, 0xf1, 0xff, 0xdc, 0xfa, 0xe9, 0xe5, 0xdd, 0x07, 0xf5, 0x06,
  0xfb, 0x12, 0x04, 0x00, 0x0a, 0xf9, 0xde, 0x1b, 0xfe, 0x06, 0x00, 0x08,
  0x00, 0x04, 0x0d, 0x0d, 0xfb, 0x05, 0x03, 0xfd, 0xfc, 0x00, 0xf5, 0x08,
  0xed, 0xf3, 0xf1, 0x81, 0xeb, 0x06, 0x01, 0xfa, 0xef, 0x04, 0x09, 0xfa,
  0x0b, 0x02, 0xe7, 0x0e, 0xf3, 0x04, 0x00, 0xdd, 0xeb, 0xec, 0xfd, 0x2d,
  0xfb, 0x04, 0x0f, 0x03, 0x07, 0x00, 0x05, 0x07, 0xdf, 0xf3, 0xfe, 0xc0,
  0xde, 0xf2, 0xff, 0xf4, 0xe5, 0xfe, 0x23, 0x15, 0x13, 0x16, 0xfc, 0x35,
  0xe9, 0xfe, 0xfe, 0xce, 0xfe, 0xf1, 0x05, 0x35, 0x01, 0x09, 0x1f, 0xf7,
  0x00, 0x01, 0x04, 0x07, 0x08, 0xf2, 0xf5, 0xf7, 0x02, 0x00, 0x00, 0xc4,
  0x00, 0xf5, 0xc0, 0xd4, 0x18, 0xf8, 0x00, 0x81, 0xf7, 0x00, 0x02, 0xff,
  0x00, 0x07, 0x07, 0xbe, 0xff, 0x02, 0x05, 0xff, 0x02, 0xff, 0x00, 0xf0,
  0x20, 0x07, 0x08, 0xff, 0x10, 0xff, 0x04, 0xd8, 0x01, 0x02, 0xb9, 0xdd,
  0xe7, 0xe3, 0x01, 0xb3, 0xe3, 0x00, 0x03, 0x01, 0x02, 0x0c, 0x02, 0xc7,
  0xfe, 0xff, 0x0b, 0x05, 0x02, 0x01, 0x00, 0xf4, 0xc6, 0x06, 0x0b, 0xfe,
  0xfc, 0x02, 0xff, 0xd6, 0x01, 0xfd, 0xff, 0x16, 0xf7, 0xe2, 0xfe, 0xfb,
  0x13, 0x02, 0xf5, 0x00, 0x02, 0x12, 0xf0, 0xfe, 0x01, 0x04, 0x10, 0xf9,
  0xff, 0x03, 0xfe, 0x28, 0xb3, 0x06, 0xfc, 0xff, 0xe0, 0x00, 0xfb, 0x2a,
  0x00, 0xfe, 0x2d, 0x0f, 0x09, 0xe1, 0xfa, 0x14, 0x17, 0x00, 0xf1, 0xff,
  0x07, 0x16, 0x1e, 0x42, 0x05, 0x04, 0x13, 0xf3, 0xfe, 0x02, 0xff, 0x19,
  0xb6, 0x0b, 0xee, 0xfd, 0xd1, 0x12, 0xf8, 0x68, 0xff, 0x04, 0x4d, 0x2f,
  0x2a, 0x15, 0xfb, 0x59, 0x1f, 0x01, 0xed, 0xfe, 0xfe, 0x18, 0x07, 0x59,
  0x09, 0xfe, 0x06, 0xeb, 0xfb, 0x05, 0xfd, 0x14, 0xdd, 0x0d, 0xfa, 0xfd,
  0x01, 0xfb, 0x00, 0xee, 0xff, 0x01, 0xff, 0xf6, 0x05, 0x01, 0xff, 0x01,
  0xff, 0xf5, 0xfe, 0x09, 0xf7, 0x07, 0xe9, 0x06, 0xfd, 0xfb, 0x01, 0x01,
  0xfa, 0x92, 0xf4, 0xf8, 0x11, 0x02, 0xf2, 0x04, 0xfa, 0x01, 0x01, 0xff,
  0xfb, 0x01, 0x04, 0xfb, 0x06, 0x02, 0xf4, 0x0b, 0xff, 0xf6, 0xfe, 0xfb,
  0xf6, 0x04, 0xf0, 0x08, 0xfe, 0x01, 0xff, 0x00, 0xf9, 0xd3, 0xf5, 0x02,
  0x19, 0xff, 0xef, 0x00, 0x03, 0x08, 0xfe, 0xef, 0xef, 0x02, 0xff, 0xfc,
  0x11, 0x04, 0xf3, 0xf8, 0xf9, 0xf3, 0x00, 0xd7, 0xf8, 0xfe, 0xfb, 0xfb,
  0xfd, 0xfe, 0xfb, 0x02, 0xfb, 0xdf, 0xf3, 0x04, 0xe9, 0xfc, 0xf7, 0xf0,
  0xfb, 0x04, 0x00, 0xf2, 0x06, 0xfe, 0xfc, 0x03, 0xfe, 0xfc, 0xd2, 0xfa,
  0xfc, 0x04, 0xff, 0x0b, 0x03, 0xfe, 0xdb, 0x0c, 0xfe, 0x00, 0x01, 0xfa,
  0xf5, 0xf7, 0xee, 0x04, 0xe3, 0x00, 0xe9, 0xbf, 0xe1, 0xe5, 0xf8, 0x00,
  0x06, 0xff, 0x04, 0xfc, 0xf9, 0x0c, 0xa6, 0x08, 0xfd, 0x06, 0xfd, 0xe3,
  0x31, 0x04, 0x20, 0x01, 0x02, 0x09, 0x07, 0xee, 0xe5, 0x97, 0xd0, 0x0b,
  0xe7, 0x01, 0xd6, 0x81, 0xf6, 0xfe, 0xff, 0xff, 0x04, 0x00, 0x00, 0x00,
  0x80, 0x00, 0x00, 0x00, 0xdb, 0x00, 0x00, 0x00, 0xe5, 0x00, 0x00, 0x00,
  0xca, 0xff, 0xff, 0xff, 0x58, 0x00, 0x00, 0x00, 0x88, 0xff, 0xff, 0xff,
  0x7c, 0x00, 0x00, 0x00, 0x7e, 0x00, 0x00, 0x00, 0xd4, 0x00, 0x00, 0x00,
  0x7c, 0x00, 0x00, 0x00, 0x40, 0x00, 0x00, 0x00, 0xc0, 0x00, 0x00, 0x00,
  0x2b, 0x01, 0x00, 0x00, 0x5c, 0x01, 0x00, 0x00, 0x55, 0x01, 0x00, 0x00,
  0x8f, 0x02, 0x00, 0x00, 0xdf, 0x00, 0x00, 0x00, 0x48, 0x01, 0x00, 0x00,
  0xe3, 0xff, 0xff, 0xff, 0x5a, 0x00, 0x00, 0x00, 0x64, 0x01, 0x00, 0x00,
  0x16, 0x00, 0x00, 0x00, 0xc3, 0x00, 0x00, 0x00, 0xaa, 0x00, 0x00, 0x00,
  0xfa, 0x00, 0x00, 0x00, 0xe4, 0x00, 0x00, 0x00, 0xe2, 0xff, 0xff, 0xff,
  0x3b, 0x00, 0x00, 0x00, 0x9d, 0x00, 0x00, 0x00, 0xa5, 0xf8, 0xff, 0xff,
  0x5e, 0xff, 0xff, 0xff, 0x0d, 0x01, 0x00, 0x00, 0x6b, 0x00, 0x00, 0x00,
  0x82, 0xff, 0xff, 0xff, 0x04, 0x00, 0x00, 0x00, 0x20, 0x00, 0x00, 0x00,
  0xd6, 0x38, 0xbb, 0x14, 0x81, 0x4b, 0xcb, 0x29, 0x20, 0x2d, 0xe6, 0x19,
  0xe4, 0xcc, 0xe8, 0xd1, 0xde, 0x1b, 0x3f, 0xde, 0x2c, 0x13, 0x1c, 0xc8,
  0xd4, 0xe3, 0x34, 0xc8, 0xad, 0xc4, 0x0f, 0x72, 0xae, 0xff, 0xff, 0xff,
  0x04, 0x00, 0x00, 0x00, 0x04, 0x00, 0x00, 0x00, 0x64, 0x12, 0x00, 0x00,
  0xbe, 0xff, 0xff, 0xff, 0x04, 0x00, 0x00, 0x00, 0x0c, 0x00, 0x00, 0x00,
  0xff, 0xff, 0xff, 0xff, 0x10, 0x00, 0x00, 0x00, 0x01, 0x00, 0x00, 0x00,
  0xd6, 0xff, 0xff, 0xff, 0x04, 0x00, 0x00, 0x00, 0x0c, 0x00, 0x00, 0x00,
  0xff, 0xff, 0xff, 0xff, 0x10, 0x00, 0x00, 0x00, 0x20, 0x00, 0x00, 0x00,
  0xee, 0xff, 0xff, 0xff, 0x04, 0x00, 0x00, 0x00, 0x04, 0x00, 0x00, 0x00,
  0xfd, 0xff, 0xff, 0xff, 0x00, 0x00, 0x06, 0x00, 0x08, 0x00, 0x04, 0x00,
  0x06, 0x00, 0x00, 0x00, 0x04, 0x00, 0x00, 0x00, 0x18, 0x00, 0x00, 0x00,
  0x00, 0x00, 0x00, 0x00, 0x00, 0x00, 0x00, 0x00, 0x04, 0x00, 0x00, 0x00,
  0x00, 0x00, 0x00, 0x00, 0x00, 0x00, 0x00, 0x00, 0x00, 0x00, 0x00, 0x00,
  0x30, 0xea, 0xff, 0xff, 0x34, 0xea, 0xff, 0xff, 0x0f, 0x00, 0x00, 0x00,
  0x4d, 0x4c, 0x49, 0x52, 0x20, 0x43, 0x6f, 0x6e, 0x76, 0x65, 0x72, 0x74,
  0x65, 0x64, 0x2e, 0x00, 0x01, 0x00, 0x00, 0x00, 0x14, 0x00, 0x00, 0x00,
  0x00, 0x00, 0x0e, 0x00, 0x18, 0x00, 0x14, 0x00, 0x10, 0x00, 0x0c, 0x00,
  0x08, 0x00, 0x04, 0x00, 0x0e, 0x00, 0x00, 0x00, 0x14, 0x00, 0x00, 0x00,
  0x1c, 0x00, 0x00, 0x00, 0xdc, 0x02, 0x00, 0x00, 0xe0, 0x02, 0x00, 0x00,
  0xe4, 0x02, 0x00, 0x00, 0x04, 0x00, 0x00, 0x00, 0x6d, 0x61, 0x69, 0x6e,
  0x00, 0x00, 0x00, 0x00, 0x0c, 0x00, 0x00, 0x00, 0x94, 0x02, 0x00, 0x00,
  0x50, 0x02, 0x00, 0x00, 0xec, 0x01, 0x00, 0x00, 0xc4, 0x01, 0x00, 0x00,
  0x88, 0x01, 0x00, 0x00, 0x54, 0x01, 0x00, 0x00, 0x0c, 0x01, 0x00, 0x00,
  0xe4, 0x00, 0x00, 0x00, 0xb0, 0x00, 0x00, 0x00, 0x60, 0x00, 0x00, 0x00,
  0x2c, 0x00, 0x00, 0x00, 0x04, 0x00, 0x00, 0x00, 0x6a, 0xfe, 0xff, 0xff,
  0x0c, 0x00, 0x00, 0x00, 0x10, 0x00, 0x00, 0x00, 0x03, 0x00, 0x00, 0x00,
  0x01, 0x00, 0x00, 0x00, 0x16, 0x00, 0x00, 0x00, 0x02, 0x00, 0x00, 0x00,
  0x15, 0x00, 0x00, 0x00, 0x04, 0x00, 0x00, 0x00, 0x8e, 0xfe, 0xff, 0xff,
  0x0c, 0x00, 0x00, 0x00, 0x10, 0x00, 0x00, 0x00, 0x04, 0x00, 0x00, 0x00,
  0x01, 0x00, 0x00, 0x00, 0x15, 0x00, 0x00, 0x00, 0x01, 0x00, 0x00, 0x00,
  0x14, 0x00, 0x00, 0x00, 0x00, 0x00, 0x0e, 0x00, 0x1a, 0x00, 0x14, 0x00,
  0x10, 0x00, 0x0c, 0x00, 0x0b, 0x00, 0x04, 0x00, 0x0e, 0x00, 0x00, 0x00,
  0x20, 0x00, 0x00, 0x00, 0x00, 0x00, 0x00, 0x01, 0x28, 0x00, 0x00, 0x00,
  0x2c, 0x00, 0x00, 0x00, 0x02, 0x00, 0x00, 0x00, 0x00, 0x00, 0x0a, 0x00,
  0x10, 0x00, 0x0f, 0x00, 0x08, 0x00, 0x04, 0x00, 0x0a, 0x00, 0x00, 0x00,
  0x01, 0x00, 0x00, 0x00, 0x01, 0x00, 0x00, 0x00, 0x00, 0x00, 0x00, 0x01,
  0x01, 0x00, 0x00, 0x00, 0x14, 0x00, 0x00, 0x00, 0x03, 0x00, 0x00, 0x00,
  0x13, 0x00, 0x00, 0x00, 0x06, 0x00, 0x00, 0x00, 0x05, 0x00, 0x00, 0x00,
  0x8a, 0xfe, 0xff, 0xff, 0x14, 0x00, 0x00, 0x00, 0x00, 0x00, 0x00, 0x34,
  0x10, 0x00, 0x00, 0x00, 0x14, 0x00, 0x00, 0x00, 0x01, 0x00, 0x00, 0x00,
  0x74, 0xeb, 0xff, 0xff, 0x01, 0x00, 0x00, 0x00, 0x13, 0x00, 0x00, 0x00,
  0x02, 0x00, 0x00, 0x00, 0x12, 0x00, 0x00, 0x00, 0x02, 0x00, 0x00, 0x00,
  0x3a, 0xff, 0xff, 0xff, 0x0c, 0x00, 0x00, 0x00, 0x10, 0x00, 0x00, 0x00,
  0x03, 0x00, 0x00, 0x00, 0x01, 0x00, 0x00, 0x00, 0x12, 0x00, 0x00, 0x00,
  0x02, 0x00, 0x00, 0x00, 0x11, 0x00, 0x00, 0x00, 0x03, 0x00, 0x00, 0x00,
  0xde, 0xfe, 0xff, 0xff, 0x14, 0x00, 0x00, 0x00, 0x00, 0x00, 0x00, 0x01,
  0x20, 0x00, 0x00, 0x00, 0x24, 0x00, 0x00, 0x00, 0x02, 0x00, 0x00, 0x00,
  0x30, 0xff, 0xff, 0xff, 0x00, 0x00, 0x00, 0x01, 0x01, 0x00, 0x00, 0x00,
  0x01, 0x00, 0x00, 0x00, 0x00, 0x00, 0x00, 0x01, 0x01, 0x00, 0x00, 0x00,
  0x11, 0x00, 0x00, 0x00, 0x03, 0x00, 0x00, 0x00, 0x10, 0x00, 0x00, 0x00,
  0x08, 0x00, 0x00, 0x00, 0x07, 0x00, 0x00, 0x00, 0x22, 0xff, 0xff, 0xff,
  0x14, 0x00, 0x00, 0x00, 0x00, 0x00, 0x00, 0x34, 0x10, 0x00, 0x00, 0x00,
  0x14, 0x00, 0x00, 0x00, 0x01, 0x00, 0x00, 0x00, 0x0c, 0xec, 0xff, 0xff,
  0x01, 0x00, 0x00, 0x00, 0x10, 0x00, 0x00, 0x00, 0x02, 0x00, 0x00, 0x00,
  0x0f, 0x00, 0x00, 0x00, 0x02, 0x00, 0x00, 0x00, 0x12, 0xff, 0xff, 0xff,
  0x10, 0x00, 0x00, 0x00, 0x00, 0x00, 0x00, 0x16, 0x0c, 0x00, 0x00, 0x00,
  0x10, 0x00, 0x00, 0x00, 0x38, 0xec, 0xff, 0xff, 0x01, 0x00, 0x00, 0x00,
  0x0f, 0x00, 0x00, 0x00, 0x02, 0x00, 0x00, 0x00, 0x0e, 0x00, 0x00, 0x00,
  0x01, 0x00, 0x00, 0x00, 0x00, 0x00, 0x0a, 0x00, 0x10, 0x00, 0x0c, 0x00,
  0x08, 0x00, 0x04, 0x00, 0x0a, 0x00, 0x00, 0x00, 0x0c, 0x00, 0x00, 0x00,
  0x10, 0x00, 0x00, 0x00, 0x03, 0x00, 0x00, 0x00, 0x01, 0x00, 0x00, 0x00,
  0x0e, 0x00, 0x00, 0x00, 0x02, 0x00, 0x00, 0x00, 0x0d, 0x00, 0x00, 0x00,
  0x03, 0x00, 0x00, 0x00, 0xae, 0xff, 0xff, 0xff, 0x20, 0x00, 0x00, 0x00,
  0x00, 0x00, 0x00, 0x01, 0x2c, 0x00, 0x00, 0x00, 0x30, 0x00, 0x00, 0x00,
  0x02, 0x00, 0x00, 0x00, 0x0c, 0x00, 0x14, 0x00, 0x13, 0x00, 0x0c, 0x00,
  0x08, 0x00, 0x07, 0x00, 0x0c, 0x00, 0x00, 0x00, 0x00, 0x00, 0x00, 0x01,
  0x01, 0x00, 0x00, 0x00, 0x01, 0x00, 0x00, 0x00, 0x00, 0x00, 0x00, 0x01,
  0x01, 0x00, 0x00, 0x00, 0x0d, 0x00, 0x00, 0x00, 0x03, 0x00, 0x00, 0x00,
  0x0c, 0x00, 0x00, 0x00, 0x0a, 0x00, 0x00, 0x00, 0x09, 0x00, 0x00, 0x00,
  0x00, 0x00, 0x0e, 0x00, 0x18, 0x00, 0x14, 0x00, 0x10, 0x00, 0x0c, 0x00,
  0x0b, 0x00, 0x04, 0x00, 0x0e, 0x00, 0x00, 0x00, 0x14, 0x00, 0x00, 0x00,
  0x00, 0x00, 0x00, 0x34, 0x10, 0x00, 0x00, 0x00, 0x14, 0x00, 0x00, 0x00,
  0x01, 0x00, 0x00, 0x00, 0xf8, 0xec, 0xff, 0xff, 0x01, 0x00, 0x00, 0x00,
  0x0c, 0x00, 0x00, 0x00, 0x02, 0x00, 0x00, 0x00, 0x0b, 0x00, 0x00, 0x00,
  0x02, 0x00, 0x00, 0x00, 0x00, 0x00, 0x0e, 0x00, 0x14, 0x00, 0x00, 0x00,
  0x10, 0x00, 0x0c, 0x00, 0x0b, 0x00, 0x04, 0x00, 0x0e, 0x00, 0x00, 0x00,
  0x10, 0x00, 0x00, 0x00, 0x00, 0x00, 0x00, 0x16, 0x0c, 0x00, 0x00, 0x00,
  0x10, 0x00, 0x00, 0x00, 0x34, 0xed, 0xff, 0xff, 0x01, 0x00, 0x00, 0x00,
  0x0b, 0x00, 0x00, 0x00, 0x02, 0x00, 0x00, 0x00, 0x00, 0x00, 0x00, 0x00,
  0x01, 0x00, 0x00, 0x00, 0x01, 0x00, 0x00, 0x00, 0x16, 0x00, 0x00, 0x00,
  0x01, 0x00, 0x00, 0x00, 0x00, 0x00, 0x00, 0x00, 0x17, 0x00, 0x00, 0x00,
  0xe0, 0x12, 0x00, 0x00, 0x80, 0x12, 0x00, 0x00, 0x2c, 0x12, 0x00, 0x00,
  0xec, 0x11, 0x00, 0x00, 0xac, 0x11, 0x00, 0x00, 0x4c, 0x11, 0x00, 0x00,
  0xe0, 0x10, 0x00, 0x00, 0x0c, 0x0f, 0x00, 0x00, 0x28, 0x0d, 0x00, 0x00,
  0x54, 0x0b, 0x00, 0x00, 0x70, 0x09, 0x00, 0x00, 0xe0, 0x08, 0x00, 0x00,
  0x40, 0x08, 0x00, 0x00, 0x14, 0x07, 0x00, 0x00, 0x14, 0x06, 0x00, 0x00,
  0x80, 0x05, 0x00, 0x00, 0xe0, 0x04, 0x00, 0x00, 0xe4, 0x03, 0x00, 0x00,
  0x14, 0x03, 0x00, 0x00, 0x6c, 0x02, 0x00, 0x00, 0x80, 0x01, 0x00, 0x00,
  0x8c, 0x00, 0x00, 0x00, 0x04, 0x00, 0x00, 0x00, 0x92, 0xed, 0xff, 0xff,
  0x00, 0x00, 0x00, 0x01, 0x18, 0x00, 0x00, 0x00, 0x24, 0x00, 0x00, 0x00,
  0x44, 0x00, 0x00, 0x00, 0x17, 0x00, 0x00, 0x00, 0x00, 0x00, 0x00, 0x09,
  0x58, 0x00, 0x00, 0x00, 0x03, 0x00, 0x00, 0x00, 0xff, 0xff, 0xff, 0xff,
  0x10, 0x00, 0x00, 0x00, 0x01, 0x00, 0x00, 0x00, 0x7c, 0xed, 0xff, 0xff,
  0x08, 0x00, 0x00, 0x00, 0x14, 0x00, 0x00, 0x00, 0x01, 0x00, 0x00, 0x00,
  0x80, 0xff, 0xff, 0xff, 0xff, 0xff, 0xff, 0xff, 0x00, 0x00, 0x00, 0x00,
  0x01, 0x00, 0x00, 0x00, 0x00, 0x00, 0x80, 0x3b, 0x19, 0x00, 0x00, 0x00,
  0x53, 0x74, 0x61, 0x74, 0x65, 0x66, 0x75, 0x6c, 0x50, 0x61, 0x72, 0x74,
  0x69, 0x74, 0x69, 0x6f, 0x6e, 0x65, 0x64, 0x43, 0x61, 0x6c, 0x6c, 0x3a,
  0x30, 0x00, 0x00, 0x00, 0x03, 0x00, 0x00, 0x00, 0x01, 0x00, 0x00, 0x00,
  0x10, 0x00, 0x00, 0x00, 0x01, 0x00, 0x00, 0x00, 0x16, 0xee, 0xff, 0xff,
  0x00, 0x00, 0x00, 0x01, 0x18, 0x00, 0x00, 0x00, 0x28, 0x00, 0x00, 0x00,
  0x48, 0x00, 0x00, 0x00, 0x16, 0x00, 0x00, 0x00, 0x00, 0x00, 0x00, 0x09,
  0xc0, 0x00, 0x00, 0x00, 0x04, 0x00, 0x00, 0x00, 0xff, 0xff, 0xff, 0xff,
  0x01, 0x00, 0x00, 0x00, 0x10, 0x00, 0x00, 0x00, 0x01, 0x00, 0x00, 0x00,
  0x04, 0xee, 0xff, 0xff, 0x08, 0x00, 0x00, 0x00, 0x14, 0x00, 0x00, 0x00,
  0x01, 0x00, 0x00, 0x00, 0x80, 0xff, 0xff, 0xff, 0xff, 0xff, 0xff, 0xff,
  0x00, 0x00, 0x00, 0x00, 0x01, 0x00, 0x00, 0x00, 0x00, 0x00, 0x80, 0x3b,
  0x7c, 0x00, 0x00, 0x00, 0x66, 0x72, 0x61, 0x6d, 0x65, 0x5f, 0x6f, 0x6e,
  0x73, 0x65, 0x74, 0x5f, 0x63, 0x6f, 0x6e, 0x76, 0x31, 0x64, 0x2f, 0x6f,
  0x75, 0x74, 0x70, 0x75, 0x74, 0x5f, 0x63, 0x6f, 0x6e, 0x76, 0x2f, 0x53,
  0x69, 0x67, 0x6d, 0x6f, 0x69, 0x64, 0x3b, 0x66, 0x72, 0x61, 0x6d, 0x65,
  0x5f, 0x6f, 0x6e, 0x73, 0x65, 0x74, 0x5f, 0x63, 0x6f, 0x6e, 0x76, 0x31,
  0x64, 0x2f, 0x6f, 0x75, 0x74, 0x70, 0x75, 0x74, 0x5f, 0x63, 0x6f, 0x6e,
  0x76, 0x2f, 0x42, 0x69, 0x61, 0x73, 0x41, 0x64, 0x64, 0x3b, 0x66, 0x72,
  0x61, 0x6d, 0x65, 0x5f, 0x6f, 0x6e, 0x73, 0x65, 0x74, 0x5f, 0x63, 0x6f,
  0x6e, 0x76, 0x31, 0x64, 0x2f, 0x6f, 0x75, 0x74, 0x70, 0x75, 0x74, 0x5f,
  0x63, 0x6f, 0x6e, 0x76, 0x2f, 0x43, 0x6f, 0x6e, 0x76, 0x31, 0x44, 0x2f,
  0x53, 0x71, 0x75, 0x65, 0x65, 0x7a, 0x65, 0x3b, 0x00, 0x00, 0x00, 0x00,
  0x04, 0x00, 0x00, 0x00, 0x01, 0x00, 0x00, 0x00, 0x01, 0x00, 0x00, 0x00,
  0x10, 0x00, 0x00, 0x00, 0x01, 0x00, 0x00, 0x00, 0x06, 0xef, 0xff, 0xff,
  0x00, 0x00, 0x00, 0x01, 0x18, 0x00, 0x00, 0x00, 0x28, 0x00, 0x00, 0x00,
  0x44, 0x00, 0x00, 0x00, 0x15, 0x00, 0x00, 0x00, 0x00, 0x00, 0x00, 0x09,
  0xb8, 0x00, 0x00, 0x00, 0x04, 0x00, 0x00, 0x00, 0xff, 0xff, 0xff, 0xff,
  0x01, 0x00, 0x00, 0x00, 0x10, 0x00, 0x00, 0x00, 0x01, 0x00, 0x00, 0x00,
  0xf4, 0xee, 0xff, 0xff, 0x08, 0x00, 0x00, 0x00, 0x10, 0x00, 0x00, 0x00,
  0x01, 0x00, 0x00, 0x00, 0xa1, 0xff, 0xff, 0xff, 0xff, 0xff, 0xff, 0xff,
  0x01, 0x00, 0x00, 0x00, 0x9a, 0xa8, 0x02, 0x3d, 0x7b, 0x00, 0x00, 0x00,
  0x66, 0x72, 0x61, 0x6d, 0x65, 0x5f, 0x6f, 0x6e, 0x73, 0x65, 0x74, 0x5f,
  0x63, 0x6f, 0x6e, 0x76, 0x31, 0x64, 0x2f, 0x6f, 0x75, 0x74, 0x70, 0x75,
  0x74, 0x5f, 0x63, 0x6f, 0x6e, 0x76, 0x2f, 0x42, 0x69, 0x61, 0x73, 0x41,
  0x64, 0x64, 0x3b, 0x66, 0x72, 0x61, 0x6d, 0x65, 0x5f, 0x6f, 0x6e, 0x73,
  0x65, 0x74, 0x5f, 0x63, 0x6f, 0x6e, 0x76, 0x31, 0x64, 0x2f, 0x6f, 0x75,
  0x74, 0x70, 0x75, 0x74, 0x5f, 0x63, 0x6f, 0x6e, 0x76, 0x2f, 0x43, 0x6f,
  0x6e, 0x76, 0x31, 0x44, 0x2f, 0x53, 0x71, 0x75, 0x65, 0x65, 0x7a, 0x65,
  0x3b, 0x3b, 0x66, 0x72, 0x61, 0x6d, 0x65, 0x5f, 0x6f, 0x6e, 0x73, 0x65,
  0x74, 0x5f, 0x63, 0x6f, 0x6e, 0x76, 0x31, 0x64, 0x2f, 0x6f, 0x75, 0x74,
  0x70, 0x75, 0x74, 0x5f, 0x63, 0x6f, 0x6e, 0x76, 0x2f, 0x43, 0x6f, 0x6e,
  0x76, 0x31, 0x44, 0x00, 0x04, 0x00, 0x00, 0x00, 0x01, 0x00, 0x00, 0x00,
  0x01, 0x00, 0x00, 0x00, 0x10, 0x00, 0x00, 0x00, 0x01, 0x00, 0x00, 0x00,
  0xee, 0xef, 0xff, 0xff, 0x00, 0x00, 0x00, 0x01, 0x18, 0x00, 0x00, 0x00,
  0x28, 0x00, 0x00, 0x00, 0x48, 0x00, 0x00, 0x00, 0x14, 0x00, 0x00, 0x00,
  0x00, 0x00, 0x00, 0x09, 0x74, 0x00, 0x00, 0x00, 0x04, 0x00, 0x00, 0x00,
  0xff, 0xff, 0xff, 0xff, 0x01, 0x00, 0x00, 0x00, 0x10, 0x00, 0x00, 0x00,
  0x20, 0x00, 0x00, 0x00, 0xdc, 0xef, 0xff, 0xff, 0x08, 0x00, 0x00, 0x00,
  0x14, 0x00, 0x00, 0x00, 0x01, 0x00, 0x00, 0x00, 0x80, 0xff, 0xff, 0xff,
  0xff, 0xff, 0xff, 0xff, 0x00, 0x00, 0x00, 0x00, 0x01, 0x00, 0x00, 0x00,
  0x5b, 0xd0, 0xa8, 0x3b, 0x30, 0x00, 0x00, 0x00, 0x66, 0x72, 0x61, 0x6d,
  0x65, 0x5f, 0x6f, 0x6e, 0x73, 0x65, 0x74, 0x5f, 0x63, 0x6f, 0x6e, 0x76,
  0x31, 0x64, 0x2f, 0x6f, 0x75, 0x74, 0x70, 0x75, 0x74, 0x5f, 0x63, 0x6f,
  0x6e, 0x76, 0x2f, 0x43, 0x6f, 0x6e, 0x76, 0x31, 0x44, 0x2f, 0x45, 0x78,
  0x70, 0x61, 0x6e, 0x64, 0x44, 0x69, 0x6d, 0x73, 0x00, 0x00, 0x00, 0x00,
  0x04, 0x00, 0x00, 0x00, 0x01, 0x00, 0x00, 0x00, 0x01, 0x00, 0x00, 0x00,
  0x10, 0x00, 0x00, 0x00, 0x20, 0x00, 0x00, 0x00, 0x92, 0xf0, 0xff, 0xff,
  0x00, 0x00, 0x00, 0x01, 0x18, 0x00, 0x00, 0x00, 0x24, 0x00, 0x00, 0x00,
  0x40, 0x00, 0x00, 0x00, 0x13, 0x00, 0x00, 0x00, 0x00, 0x00, 0x00, 0x09,
  0xa0, 0x00, 0x00, 0x00, 0x03, 0x00, 0x00, 0x00, 0xff, 0xff, 0xff, 0xff,
  0x10, 0x00, 0x00, 0x00, 0x20, 0x00, 0x00, 0x00, 0x7c, 0xf0, 0xff, 0xff,
  0x08, 0x00, 0x00, 0x00, 0x10, 0x00, 0x00, 0x00, 0x01, 0x00, 0x00, 0x00,
  0x80, 0xff, 0xff, 0xff, 0xff, 0xff, 0xff, 0xff, 0x01, 0x00, 0x00, 0x00,
  0x5b, 0xd0, 0xa8, 0x3b, 0x67, 0x00, 0x00, 0x00, 0x66, 0x72, 0x61, 0x6d,
  0x65, 0x5f, 0x6f, 0x6e, 0x73, 0x65, 0x74, 0x5f, 0x63, 0x6f, 0x6e, 0x76,
  0x31, 0x64, 0x2f, 0x63, 0x6f, 0x6e, 0x76, 0x32, 0x2f, 0x52, 0x65, 0x6c,
  0x75, 0x3b, 0x66, 0x72, 0x61, 0x6d, 0x65, 0x5f, 0x6f, 0x6e, 0x73, 0x65,
  0x74, 0x5f, 0x63, 0x6f, 0x6e, 0x76, 0x31, 0x64, 0x2f, 0x63, 0x6f, 0x6e,
  0x76, 0x32, 0x2f, 0x42, 0x69, 0x61, 0x73, 0x41, 0x64, 0x64, 0x3b, 0x66,
  0x72, 0x61, 0x6d, 0x65, 0x5f, 0x6f, 0x6e, 0x73, 0x65, 0x74, 0x5f, 0x63,
  0x6f, 0x6e, 0x76, 0x31, 0x64, 0x2f, 0x63, 0x6f, 0x6e, 0x76, 0x32, 0x2f,
  0x43, 0x6f, 0x6e, 0x76, 0x31, 0x44, 0x2f, 0x53, 0x71, 0x75, 0x65, 0x65,
  0x7a, 0x65, 0x3b, 0x00, 0x03, 0x00, 0x00, 0x00, 0x01, 0x00, 0x00, 0x00,
  0x10, 0x00, 0x00, 0x00, 0x20, 0x00, 0x00, 0x00, 0x5e, 0xf1, 0xff, 0xff,
  0x00, 0x00, 0x00, 0x01, 0x18, 0x00, 0x00, 0x00, 0x28, 0x00, 0x00, 0x00,
  0x48, 0x00, 0x00, 0x00, 0x12, 0x00, 0x00, 0x00, 0x00, 0x00, 0x00, 0x09,
  0xc8, 0x00, 0x00, 0x00, 0x04, 0x00, 0x00, 0x00, 0xff, 0xff, 0xff, 0xff,
  0x01, 0x00, 0x00, 0x00, 0x10, 0x00, 0x00, 0x00, 0x20, 0x00, 0x00, 0x00,
  0x4c, 0xf1, 0xff, 0xff, 0x08, 0x00, 0x00, 0x00, 0x14, 0x00, 0x00, 0x00,
  0x01, 0x00, 0x00, 0x00, 0x80, 0xff, 0xff, 0xff, 0xff, 0xff, 0xff, 0xff,
  0x00, 0x00, 0x00, 0x00, 0x01, 0x00, 0x00, 0x00, 0x5b, 0xd0, 0xa8, 0x3b,
  0x87, 0x00, 0x00, 0x00, 0x66, 0x72, 0x61, 0x6d, 0x65, 0x5f, 0x6f, 0x6e,
  0x73, 0x65, 0x74, 0x5f, 0x63, 0x6f, 0x6e, 0x76, 0x31, 0x64, 0x2f, 0x63,
  0x6f, 0x6e, 0x76, 0x32, 0x2f, 0x52, 0x65, 0x6c, 0x75, 0x3b, 0x66, 0x72,
  0x61, 0x6d, 0x65, 0x5f, 0x6f, 0x6e, 0x73, 0x65, 0x74, 0x5f, 0x63, 0x6f,
  0x6e, 0x76, 0x31, 0x64, 0x2f, 0x63, 0x6f, 0x6e, 0x76, 0x32, 0x2f, 0x42,
  0x69, 0x61, 0x73, 0x41, 0x64, 0x64, 0x3b, 0x66, 0x72, 0x61, 0x6d, 0x65,
  0x5f, 0x6f, 0x6e, 0x73, 0x65, 0x74, 0x5f, 0x63, 0x6f, 0x6e, 0x76, 0x31,
  0x64, 0x2f, 0x63, 0x6f, 0x6e, 0x76, 0x32, 0x2f, 0x43, 0x6f, 0x6e, 0x76,
  0x31, 0x44, 0x2f, 0x53, 0x71, 0x75, 0x65, 0x65, 0x7a, 0x65, 0x3b, 0x3b,
  0x66, 0x72, 0x61, 0x6d, 0x65, 0x5f, 0x6f, 0x6e, 0x73, 0x65, 0x74, 0x5f,
  0x63, 0x6f, 0x6e, 0x76, 0x31, 0x64, 0x2f, 0x63, 0x6f, 0x6e, 0x76, 0x32,
  0x2f, 0x43, 0x6f, 0x6e, 0x76, 0x31, 0x44, 0x00, 0x04, 0x00, 0x00, 0x00,
  0x01, 0x00, 0x00, 0x00, 0x01, 0x00, 0x00, 0x00, 0x10, 0x00, 0x00, 0x00,
  0x20, 0x00, 0x00, 0x00, 0x56, 0xf2, 0xff, 0xff, 0x00, 0x00, 0x00, 0x01,
  0x18, 0x00, 0x00, 0x00, 0x28, 0x00, 0x00, 0x00, 0x48, 0x00, 0x00, 0x00,
  0x11, 0x00, 0x00, 0x00, 0x00, 0x00, 0x00, 0x09, 0x6c, 0x00, 0x00, 0x00,
  0x04, 0x00, 0x00, 0x00, 0xff, 0xff, 0xff, 0xff, 0x01, 0x00, 0x00, 0x00,
  0x14, 0x00, 0x00, 0x00, 0x20, 0x00, 0x00, 0x00, 0x44, 0xf2, 0xff, 0xff,
  0x08, 0x00, 0x00, 0x00, 0x14, 0x00, 0x00, 0x00, 0x01, 0x00, 0x00, 0x00,
  0x80, 0xff, 0xff, 0xff, 0xff, 0xff, 0xff, 0xff, 0x00, 0x00, 0x00, 0x00,
  0x01, 0x00, 0x00, 0x00, 0x28, 0xa1, 0x75, 0x3c, 0x2a, 0x00, 0x00, 0x00,
  0x66, 0x72, 0x61, 0x6d, 0x65, 0x5f, 0x6f, 0x6e, 0x73, 0x65, 0x74, 0x5f,
  0x63, 0x6f, 0x6e, 0x76, 0x31, 0x64, 0x2f, 0x63, 0x6f, 0x6e, 0x76, 0x32,
  0x2f, 0x43, 0x6f, 0x6e, 0x76, 0x31, 0x44, 0x2f, 0x45, 0x78, 0x70, 0x61,
  0x6e, 0x64, 0x44, 0x69, 0x6d, 0x73, 0x00, 0x00, 0x04, 0x00, 0x00, 0x00,
  0x01, 0x00, 0x00, 0x00, 0x01, 0x00, 0x00, 0x00, 0x14, 0x00, 0x00, 0x00,
  0x20, 0x00, 0x00, 0x00, 0xf2, 0xf2, 0xff, 0xff, 0x00, 0x00, 0x00, 0x01,
  0x18, 0x00, 0x00, 0x00, 0x24, 0x00, 0x00, 0x00, 0x44, 0x00, 0x00, 0x00,
  0x10, 0x00, 0x00, 0x00, 0x00, 0x00, 0x00, 0x09, 0x64, 0x00, 0x00, 0x00,
  0x03, 0x00, 0x00, 0x00, 0xff, 0xff, 0xff, 0xff, 0x14, 0x00, 0x00, 0x00,
  0x20, 0x00, 0x00, 0x00, 0xdc, 0xf2, 0xff, 0xff, 0x08, 0x00, 0x00, 0x00,
  0x14, 0x00, 0x00, 0x00, 0x01, 0x00, 0x00, 0x00, 0x80, 0xff, 0xff, 0xff,
  0xff, 0xff, 0xff, 0xff, 0x00, 0x00, 0x00, 0x00, 0x01, 0x00, 0x00, 0x00,
  0x28, 0xa1, 0x75, 0x3c, 0x27, 0x00, 0x00, 0x00, 0x66, 0x72, 0x61, 0x6d,
  0x65, 0x5f, 0x6f, 0x6e, 0x73, 0x65, 0x74, 0x5f, 0x63, 0x6f, 0x6e, 0x76,
  0x31, 0x64, 0x2f, 0x7a, 0x65, 0x72, 0x6f, 0x5f, 0x70, 0x61, 0x64, 0x64,
  0x69, 0x6e, 0x67, 0x31, 0x64, 0x5f, 0x31, 0x2f, 0x50, 0x61, 0x64, 0x00,
  0x03, 0x00, 0x00, 0x00, 0x01, 0x00, 0x00, 0x00, 0x14, 0x00, 0x00, 0x00,
  0x20, 0x00, 0x00, 0x00, 0x82, 0xf3, 0xff, 0xff, 0x00, 0x00, 0x00, 0x01,
  0x18, 0x00, 0x00, 0x00, 0x24, 0x00, 0x00, 0x00, 0x40, 0x00, 0x00, 0x00,
  0x0f, 0x00, 0x00, 0x00, 0x00, 0x00, 0x00, 0x09, 0xd0, 0x00, 0x00, 0x00,
  0x03, 0x00, 0x00, 0x00, 0xff, 0xff, 0xff, 0xff, 0x10, 0x00, 0x00, 0x00,
  0x20, 0x00, 0x00, 0x00, 0x6c, 0xf3, 0xff, 0xff, 0x08, 0x00, 0x00, 0x00,
  0x10, 0x00, 0x00, 0x00, 0x01, 0x00, 0x00, 0x00, 0x80, 0xff, 0xff, 0xff,
  0xff, 0xff, 0xff, 0xff, 0x01, 0x00, 0x00, 0x00, 0x28, 0xa1, 0x75, 0x3c,
  0x96, 0x00, 0x00, 0x00, 0x66, 0x72, 0x61, 0x6d, 0x65, 0x5f, 0x6f, 0x6e,
  0x73, 0x65, 0x74, 0x5f, 0x63, 0x6f, 0x6e, 0x76, 0x31, 0x64, 0x2f, 0x63,
  0x6f, 0x6e, 0x76, 0x31, 0x2f, 0x52, 0x65, 0x6c, 0x75, 0x3b, 0x66, 0x72,
  0x61, 0x6d, 0x65, 0x5f, 0x6f, 0x6e, 0x73, 0x65, 0x74, 0x5f, 0x63, 0x6f,
  0x6e, 0x76, 0x31, 0x64, 0x2f, 0x63, 0x6f, 0x6e, 0x76, 0x31, 0x2f, 0x42,
  0x69, 0x61, 0x73, 0x41, 0x64, 0x64, 0x3b, 0x66, 0x72, 0x61, 0x6d, 0x65,
  0x5f, 0x6f, 0x6e, 0x73, 0x65, 0x74, 0x5f, 0x63, 0x6f, 0x6e, 0x76, 0x31,
  0x64, 0x2f, 0x63, 0x6f, 0x6e, 0x76, 0x31, 0x2f, 0x43, 0x6f, 0x6e, 0x76,
  0x31, 0x44, 0x2f, 0x53, 0x71, 0x75, 0x65, 0x65, 0x7a, 0x65, 0x3b, 0x66,
  0x72, 0x61, 0x6d, 0x65, 0x5f, 0x6f, 0x6e, 0x73, 0x65, 0x74, 0x5f, 0x63,
  0x6f, 0x6e, 0x76, 0x31, 0x64, 0x2f, 0x63, 0x6f, 0x6e, 0x76, 0x31, 0x2f,
  0x42, 0x69, 0x61, 0x73, 0x41, 0x64, 0x64, 0x2f, 0x52, 0x65, 0x61, 0x64,
  0x56, 0x61, 0x72, 0x69, 0x61, 0x62, 0x6c, 0x65, 0x4f, 0x70, 0x00, 0x00,
  0x03, 0x00, 0x00, 0x00, 0x01, 0x00, 0x00, 0x00, 0x10, 0x00, 0x00, 0x00,
  0x20, 0x00, 0x00, 0x00, 0x7e, 0xf4, 0xff, 0xff, 0x00, 0x00, 0x00, 0x01,
  0x18, 0x00, 0x00, 0x00, 0x28, 0x00, 0x00, 0x00, 0x48, 0x00, 0x00, 0x00,
  0x0e, 0x00, 0x00, 0x00, 0x00, 0x00, 0x00, 0x09, 0xf8, 0x00, 0x00, 0x00,
  0x04, 0x00, 0x00, 0x00, 0xff, 0xff, 0xff, 0xff, 0x01, 0x00, 0x00, 0x00,
  0x10, 0x00, 0x00, 0x00, 0x20, 0x00, 0x00, 0x00, 0x6c, 0xf4, 0xff, 0xff,
  0x08, 0x00, 0x00, 0x00, 0x14, 0x00, 0x00, 0x00, 0x01, 0x00, 0x00, 0x00,
  0x80, 0xff, 0xff, 0xff, 0xff, 0xff, 0xff, 0xff, 0x00, 0x00, 0x00, 0x00,
  0x01, 0x00, 0x00, 0x00, 0x28, 0xa1, 0x75, 0x3c, 0xb6, 0x00, 0x00, 0x00,
  0x66, 0x72, 0x61, 0x6d, 0x65, 0x5f, 0x6f, 0x6e, 0x73, 0x65, 0x74, 0x5f,
  0x63, 0x6f, 0x6e, 0x76, 0x31, 0x64, 0x2f, 0x63, 0x6f, 0x6e, 0x76, 0x31,
  0x2f, 0x52, 0x65, 0x6c, 0x75, 0x3b, 0x66, 0x72, 0x61, 0x6d, 0x65, 0x5f,
  0x6f, 0x6e, 0x73, 0x65, 0x74, 0x5f, 0x63, 0x6f, 0x6e, 0x76, 0x31, 0x64,
  0x2f, 0x63, 0x6f, 0x6e, 0x76, 0x31, 0x2f, 0x42, 0x69, 0x61, 0x73, 0x41,
  0x64, 0x64, 0x3b, 0x66, 0x72, 0x61, 0x6d, 0x65, 0x5f, 0x6f, 0x6e, 0x73,
  0x65, 0x74, 0x5f, 0x63, 0x6f, 0x6e, 0x76, 0x31, 0x64, 0x2f, 0x63, 0x6f,
  0x6e, 0x76, 0x31, 0x2f, 0x43, 0x6f, 0x6e, 0x76, 0x31, 0x44, 0x2f, 0x53,
  0x71, 0x75, 0x65, 0x65, 0x7a, 0x65, 0x3b, 0x66, 0x72, 0x61, 0x6d, 0x65,
  0x5f, 0x6f, 0x6e, 0x73, 0x65, 0x74, 0x5f, 0x63, 0x6f, 0x6e, 0x76, 0x31,
  0x64, 0x2f, 0x63, 0x6f, 0x6e, 0x76, 0x31, 0x2f, 0x42, 0x69, 0x61, 0x73,
  0x41, 0x64, 0x64, 0x2f, 0x52, 0x65, 0x61, 0x64, 0x56, 0x61, 0x72, 0x69,
  0x61, 0x62, 0x6c, 0x65, 0x4f, 0x70, 0x3b, 0x66, 0x72, 0x61, 0x6d, 0x65,
  0x5f, 0x6f, 0x6e, 0x73, 0x65, 0x74, 0x5f, 0x63, 0x6f, 0x6e, 0x76, 0x31,
  0x64, 0x2f, 0x63, 0x6f, 0x6e, 0x76, 0x31, 0x2f, 0x43, 0x6f, 0x6e, 0x76,
  0x31, 0x44, 0x00, 0x00, 0x04, 0x00, 0x00, 0x00, 0x01, 0x00, 0x00, 0x00,
  0x01, 0x00, 0x00, 0x00, 0x10, 0x00, 0x00, 0x00, 0x20, 0x00, 0x00, 0x00,
  0xa6, 0xf5, 0xff, 0xff, 0x00, 0x00, 0x00, 0x01, 0x18, 0x00, 0x00, 0x00,
  0x28, 0x00, 0x00, 0x00, 0x48, 0x00, 0x00, 0x00, 0x0d, 0x00, 0x00, 0x00,
  0x00, 0x00, 0x00, 0x09, 0x6c, 0x00, 0x00, 0x00, 0x04, 0x00, 0x00, 0x00,
  0xff, 0xff, 0xff, 0xff, 0x01, 0x00, 0x00, 0x00, 0x14, 0x00, 0x00, 0x00,
  0x20, 0x00, 0x00, 0x00, 0x94, 0xf5, 0xff, 0xff, 0x08, 0x00, 0x00, 0x00,
  0x14, 0x00, 0x00, 0x00, 0x01, 0x00, 0x00, 0x00, 0x80, 0xff, 0xff, 0xff,
  0xff, 0xff, 0xff, 0xff, 0x00, 0x00, 0x00, 0x00, 0x01, 0x00, 0x00, 0x00,
  0x81, 0x80, 0x80, 0x3b, 0x2a, 0x00, 0x00, 0x00, 0x66, 0x72, 0x61, 0x6d,
  0x65, 0x5f, 0x6f, 0x6e, 0x73, 0x65, 0x74, 0x5f, 0x63, 0x6f, 0x6e, 0x76,
  0x31, 0x64, 0x2f, 0x63, 0x6f, 0x6e, 0x76, 0x31, 0x2f, 0x43, 0x6f, 0x6e,
  0x76, 0x31, 0x44, 0x2f, 0x45, 0x78, 0x70, 0x61, 0x6e, 0x64, 0x44, 0x69,
  0x6d, 0x73, 0x00, 0x00, 0x04, 0x00, 0x00, 0x00, 0x01, 0x00, 0x00, 0x00,
  0x01, 0x00, 0x00, 0x00, 0x14, 0x00, 0x00, 0x00, 0x20, 0x00, 0x00, 0x00,
  0x42, 0xf6, 0xff, 0xff, 0x00, 0x00, 0x00, 0x01, 0x18, 0x00, 0x00, 0x00,
  0x24, 0x00, 0x00, 0x00, 0x40, 0x00, 0x00, 0x00, 0x0c, 0x00, 0x00, 0x00,
  0x00, 0x00, 0x00, 0x09, 0x60, 0x00, 0x00, 0x00, 0x03, 0x00, 0x00, 0x00,
  0xff, 0xff, 0xff, 0xff, 0x14, 0x00, 0x00, 0x00, 0x20, 0x00, 0x00, 0x00,
  0x2c, 0xf6, 0xff, 0xff, 0x08, 0x00, 0x00, 0x00, 0x10, 0x00, 0x00, 0x00,
  0x01, 0x00, 0x00, 0x00, 0x80, 0xff, 0xff, 0xff, 0xff, 0xff, 0xff, 0xff,
  0x01, 0x00, 0x00, 0x00, 0x81, 0x80, 0x80, 0x3b, 0x25, 0x00, 0x00, 0x00,
  0x66, 0x72, 0x61, 0x6d, 0x65, 0x5f, 0x6f, 0x6e, 0x73, 0x65, 0x74, 0x5f,
  0x63, 0x6f, 0x6e, 0x76, 0x31, 0x64, 0x2f, 0x7a, 0x65, 0x72, 0x6f, 0x5f,
  0x70, 0x61, 0x64, 0x64, 0x69, 0x6e, 0x67, 0x31, 0x64, 0x2f, 0x50, 0x61,
  0x64, 0x00, 0x00, 0x00, 0x03, 0x00, 0x00, 0x00, 0x01, 0x00, 0x00, 0x00,
  0x14, 0x00, 0x00, 0x00, 0x20, 0x00, 0x00, 0x00, 0x2a, 0xf7, 0xff, 0xff,
  0x00, 0x00, 0x00, 0x01, 0x14, 0x00, 0x00, 0x00, 0xa8, 0x01, 0x00, 0x00,
  0x0b, 0x00, 0x00, 0x00, 0x00, 0x00, 0x00, 0x09, 0xb4, 0x01, 0x00, 0x00,
  0xa4, 0xf6, 0xff, 0xff, 0x08, 0x00, 0x00, 0x00, 0x0c, 0x01, 0x00, 0x00,
  0x20, 0x00, 0x00, 0x00, 0x00, 0x00, 0x00, 0x00, 0x00, 0x00, 0x00, 0x00,
  0x00, 0x00, 0x00, 0x00, 0x00, 0x00, 0x00, 0x00, 0x00, 0x00, 0x00, 0x00,
  0x00, 0x00, 0x00, 0x00, 0x00, 0x00, 0x00, 0x00, 0x00, 0x00, 0x00, 0x00,
  0x00, 0x00, 0x00, 0x00, 0x00, 0x00, 0x00, 0x00, 0x00, 0x00, 0x00, 0x00,
  0x00, 0x00, 0x00, 0x00, 0x00, 0x00, 0x00, 0x00, 0x00, 0x00, 0x00, 0x00,
  0x00, 0x00, 0x00, 0x00, 0x00, 0x00, 0x00, 0x00, 0x00, 0x00, 0x00, 0x00,
  0x00, 0x00, 0x00, 0x00, 0x00, 0x00, 0x00, 0x00, 0x00, 0x00, 0x00, 0x00,
  0x00, 0x00, 0x00, 0x00, 0x00, 0x00, 0x00, 0x00, 0x00, 0x00, 0x00, 0x00,
  0x00, 0x00, 0x00, 0x00, 0x00, 0x00, 0x00, 0x00, 0x00, 0x00, 0x00, 0x00,
  0x00, 0x00, 0x00, 0x00, 0x00, 0x00, 0x00, 0x00, 0x00, 0x00, 0x00, 0x00,
  0x00, 0x00, 0x00, 0x00, 0x00, 0x00, 0x00, 0x00, 0x00, 0x00, 0x00, 0x00,
  0x00, 0x00, 0x00, 0x00, 0x00, 0x00, 0x00, 0x00, 0x00, 0x00, 0x00, 0x00,
  0x00, 0x00, 0x00, 0x00, 0x00, 0x00, 0x00, 0x00, 0x00, 0x00, 0x00, 0x00,
  0x00, 0x00, 0x00, 0x00, 0x00, 0x00, 0x00, 0x00, 0x00, 0x00, 0x00, 0x00,
  0x00, 0x00, 0x00, 0x00, 0x00, 0x00, 0x00, 0x00, 0x00, 0x00, 0x00, 0x00,
  0x00, 0x00, 0x00, 0x00, 0x00, 0x00, 0x00, 0x00, 0x00, 0x00, 0x00, 0x00,
  0x00, 0x00, 0x00, 0x00, 0x00, 0x00, 0x00, 0x00, 0x00, 0x00, 0x00, 0x00,
  0x00, 0x00, 0x00, 0x00, 0x00, 0x00, 0x00, 0x00, 0x00, 0x00, 0x00, 0x00,
  0x00, 0x00, 0x00, 0x00, 0x00, 0x00, 0x00, 0x00, 0x00, 0x00, 0x00, 0x00,
  0x00, 0x00, 0x00, 0x00, 0x00, 0x00, 0x00, 0x00, 0x00, 0x00, 0x00, 0x00,
  0x00, 0x00, 0x00, 0x00, 0x00, 0x00, 0x00, 0x00, 0x00, 0x00, 0x00, 0x00,
  0x00, 0x00, 0x00, 0x00, 0x00, 0x00, 0x00, 0x00, 0x00, 0x00, 0x00, 0x00,
  0x20, 0x00, 0x00, 0x00, 0xc1, 0xd0, 0x10, 0x3e, 0xc5, 0x0d, 0x1a, 0x3e,
  0xb8, 0x15, 0xb2, 0x3d, 0x94, 0xa0, 0x0e, 0x3e, 0x99, 0x57, 0x49, 0x3d,
  0xae, 0x69, 0xdf, 0x3d, 0x1a, 0xe7, 0xdc, 0x3d, 0x31, 0xc1, 0x16, 0x3e,
  0xda, 0xea, 0x1a, 0x3e, 0xe4, 0x53, 0x0a, 0x3e, 0x66, 0xd1, 0xaa, 0x3d,
  0x82, 0x3b, 0xe7, 0x3d, 0xf9, 0x59, 0x04, 0x3e, 0x5a, 0x05, 0x93, 0x3d,
  0x71, 0x2a, 0xa9, 0x3d, 0xd7, 0x2e, 0xd4, 0x3d, 0xb7, 0xbc, 0x1d, 0x3e,
  0xc9, 0x7d, 0xfb, 0x3d, 0x17, 0xf8, 0xcf, 0x3d, 0xee, 0x02, 0xf9, 0x3d,
  0x04, 0x6a, 0xaf, 0x3d, 0x44, 0x0a, 0xa1, 0x3d, 0x00, 0x21, 0xd4, 0x3d,
  0x82, 0xce, 0x8a, 0x3d, 0x47, 0x2e, 0x98, 0x3d, 0xcd, 0xaf, 0x72, 0x3d,
  0xda, 0xb5, 0xd7, 0x3d, 0x8b, 0xc4, 0xcd, 0x3d, 0xff, 0xca, 0xe9, 0x3d,
  0xd0, 0x56, 0xfd, 0x3d, 0xd4, 0xfe, 0xe4, 0x3d, 0x60, 0x10, 0xc4, 0x3d,
  0x12, 0x00, 0x00, 0x00, 0x74, 0x66, 0x6c, 0x2e, 0x70, 0x73, 0x65, 0x75,
  0x64, 0x6f, 0x5f, 0x71, 0x63, 0x6f, 0x6e, 0x73, 0x74, 0x35, 0x00, 0x00,
  0x04, 0x00, 0x00, 0x00, 0x20, 0x00, 0x00, 0x00, 0x01, 0x00, 0x00, 0x00,
  0x05, 0x00, 0x00, 0x00, 0x20, 0x00, 0x00, 0x00, 0x0a, 0xf9, 0xff, 0xff,
  0x00, 0x00, 0x00, 0x01, 0x14, 0x00, 0x00, 0x00, 0xa4, 0x01, 0x00, 0x00,
  0x0a, 0x00, 0x00, 0x00, 0x00, 0x00, 0x00, 0x02, 0xb0, 0x01, 0x00, 0x00,
  0x84, 0xf8, 0xff, 0xff, 0x08, 0x00, 0x00, 0x00, 0x08, 0x01, 0x00, 0x00,
  0x20, 0x00, 0x00, 0x00, 0x00, 0x00, 0x00, 0x00, 0x00, 0x00, 0x00, 0x00,
  0x00, 0x00, 0x00, 0x00, 0x00, 0x00, 0x00, 0x00, 0x00, 0x00, 0x00, 0x00,
  0x00, 0x00, 0x00, 0x00, 0x00, 0x00, 0x00, 0x00, 0x00, 0x00, 0x00, 0x00,
  0x00, 0x00, 0x00, 0x00, 0x00, 0x00, 0x00, 0x00, 0x00, 0x00, 0x00, 0x00,
  0x00, 0x00, 0x00, 0x00, 0x00, 0x00, 0x00, 0x00, 0x00, 0x00, 0x00, 0x00,
  0x00, 0x00, 0x00, 0x00, 0x00, 0x00, 0x00, 0x00, 0x00, 0x00, 0x00, 0x00,
  0x00, 0x00, 0x00, 0x00, 0x00, 0x00, 0x00, 0x00, 0x00, 0x00, 0x00, 0x00,
  0x00, 0x00, 0x00, 0x00, 0x00, 0x00, 0x00, 0x00, 0x00, 0x00, 0x00, 0x00,
  0x00, 0x00, 0x00, 0x00, 0x00, 0x00, 0x00, 0x00, 0x00, 0x00, 0x00, 0x00,
  0x00, 0x00, 0x00, 0x00, 0x00, 0x00, 0x00, 0x00, 0x00, 0x00, 0x00, 0x00,
  0x00, 0x00, 0x00, 0x00, 0x00, 0x00, 0x00, 0x00, 0x00, 0x00, 0x00, 0x00,
  0x00, 0x00, 0x00, 0x00, 0x00, 0x00, 0x00, 0x00, 0x00, 0x00, 0x00, 0x00,
  0x00, 0x00, 0x00, 0x00, 0x00, 0x00, 0x00, 0x00, 0x00, 0x00, 0x00, 0x00,
  0x00, 0x00, 0x00, 0x00, 0x00, 0x00, 0x00, 0x00, 0x00, 0x00, 0x00, 0x00,
  0x00, 0x00, 0x00, 0x00, 0x00, 0x00, 0x00, 0x00, 0x00, 0x00, 0x00, 0x00,
  0x00, 0x00, 0x00, 0x00, 0x00, 0x00, 0x00, 0x00, 0x00, 0x00, 0x00, 0x00,
  0x00, 0x00, 0x00, 0x00, 0x00, 0x00, 0x00, 0x00, 0x00, 0x00, 0x00, 0x00,
  0x00, 0x00, 0x00, 0x00, 0x00, 0x00, 0x00, 0x00, 0x00, 0x00, 0x00, 0x00,
  0x00, 0x00, 0x00, 0x00, 0x00, 0x00, 0x00, 0x00, 0x00, 0x00, 0x00, 0x00,
  0x00, 0x00, 0x00, 0x00, 0x00, 0x00, 0x00, 0x00, 0x00, 0x00, 0x00, 0x00,
  0x00, 0x00, 0x00, 0x00, 0x00, 0x00, 0x00, 0x00, 0x00, 0x00, 0x00, 0x00,
  0x00, 0x00, 0x00, 0x00, 0x00, 0x00, 0x00, 0x00, 0x20, 0x00, 0x00, 0x00,
  0x24, 0x62, 0x11, 0x3a, 0x6e, 0xa8, 0x1a, 0x3a, 0x81, 0xc8, 0xb2, 0x39,
  0xc4, 0x2f, 0x0f, 0x3a, 0xbc, 0x21, 0x4a, 0x39, 0xf9, 0x49, 0xe0, 0x39,
  0xe0, 0xc4, 0xdd, 0x39, 0x8a, 0x58, 0x17, 0x3a, 0x61, 0x86, 0x1b, 0x3a,
  0xc3, 0xde, 0x0a, 0x3a, 0xe4, 0x7c, 0xab, 0x39, 0xa7, 0x23, 0xe8, 0x39,
  0xd8, 0xde, 0x04, 0x3a, 0xf4, 0x98, 0x93, 0x39, 0x46, 0xd4, 0xa9, 0x39,
  0xdc, 0x03, 0xd5, 0x39, 0x13, 0x5b, 0x1e, 0x3a, 0x44, 0x7a, 0xfc, 0x39,
  0xe1, 0xc8, 0xd0, 0x39, 0xec, 0xfc, 0xf9, 0x39, 0x1f, 0x1a, 0xb0, 0x39,
  0xf1, 0xab, 0xa1, 0x39, 0xf7, 0xf5, 0xd4, 0x39, 0xdc, 0x59, 0x8b, 0x39,
  0x0f, 0xc7, 0x98, 0x39, 0x71, 0xa3, 0x73, 0x39, 0x69, 0x8e, 0xd8, 0x39,
  0x1f, 0x93, 0xce, 0x39, 0xb6, 0xb5, 0xea, 0x39, 0x26, 0x55, 0xfe, 0x39,
  0xba, 0xe4, 0xe5, 0x39, 0x36, 0xd5, 0xc4, 0x39, 0x12, 0x00, 0x00, 0x00,
  0x74, 0x66, 0x6c, 0x2e, 0x70, 0x73, 0x65, 0x75, 0x64, 0x6f, 0x5f, 0x71,
  0x63, 0x6f, 0x6e, 0x73, 0x74, 0x34, 0x00, 0x00, 0x01, 0x00, 0x00, 0x00,
  0x20, 0x00, 0x00, 0x00, 0xda, 0xfa, 0xff, 0xff, 0x00, 0x00, 0x00, 0x01,
  0x14, 0x00, 0x00, 0x00, 0xa8, 0x01, 0x00, 0x00, 0x09, 0x00, 0x00, 0x00,
  0x00, 0x00, 0x00, 0x09, 0xb4, 0x01, 0x00, 0x00, 0x54, 0xfa, 0xff, 0xff,
  0x08, 0x00, 0x00, 0x00, 0x0c, 0x01, 0x00, 0x00, 0x20, 0x00, 0x00, 0x00,
  0x00, 0x00, 0x00, 0x00, 0x00, 0x00, 0x00, 0x00, 0x00, 0x00, 0x00, 0x00,
  0x00, 0x00, 0x00, 0x00, 0x00, 0x00, 0x00, 0x00, 0x00, 0x00, 0x00, 0x00,
  0x00, 0x00, 0x00, 0x00, 0x00, 0x00, 0x00, 0x00, 0x00, 0x00, 0x00, 0x00,
  0x00, 0x00, 0x00, 0x00, 0x00, 0x00, 0x00, 0x00, 0x00, 0x00, 0x00, 0x00,
  0x00, 0x00, 0x00, 0x00, 0x00, 0x00, 0x00, 0x00, 0x00, 0x00, 0x00, 0x00,
  0x00, 0x00, 0x00, 0x00, 0x00, 0x00, 0x00, 0x00, 0x00, 0x00, 0x00, 0x00,
  0x00, 0x00, 0x00, 0x00, 0x00, 0x00, 0x00, 0x00, 0x00, 0x00, 0x00, 0x00,
  0x00, 0x00, 0x00, 0x00, 0x00, 0x00, 0x00, 0x00, 0x00, 0x00, 0x00, 0x00,
  0x00, 0x00, 0x00, 0x00, 0x00, 0x00, 0x00, 0x00, 0x00, 0x00, 0x00, 0x00,
  0x00, 0x00, 0x00, 0x00, 0x00, 0x00, 0x00, 0x00, 0x00, 0x00, 0x00, 0x00,
  0x00, 0x00, 0x00, 0x00, 0x00, 0x00, 0x00, 0x00, 0x00, 0x00, 0x00, 0x00,
  0x00, 0x00, 0x00, 0x00, 0x00, 0x00, 0x00, 0x00, 0x00, 0x00, 0x00, 0x00,
  0x00, 0x00, 0x00, 0x00, 0x00, 0x00, 0x00, 0x00, 0x00, 0x00, 0x00, 0x00,
  0x00, 0x00, 0x00, 0x00, 0x00, 0x00, 0x00, 0x00, 0x00, 0x00, 0x00, 0x00,
  0x00, 0x00, 0x00, 0x00, 0x00, 0x00, 0x00, 0x00, 0x00, 0x00, 0x00, 0x00,
  0x00, 0x00, 0x00, 0x00, 0x00, 0x00, 0x00, 0x00, 0x00, 0x00, 0x00, 0x00,
  0x00, 0x00, 0x00, 0x00, 0x00, 0x00, 0x00, 0x00, 0x00, 0x00, 0x00, 0x00,
  0x00, 0x00, 0x00, 0x00, 0x00, 0x00, 0x00, 0x00, 0x00, 0x00, 0x00, 0x00,
  0x00, 0x00, 0x00, 0x00, 0x00, 0x00, 0x00, 0x00, 0x00, 0x00, 0x00, 0x00,
  0x00, 0x00, 0x00, 0x00, 0x00, 0x00, 0x00, 0x00, 0x00, 0x00, 0x00, 0x00,
  0x00, 0x00, 0x00, 0x00, 0x00, 0x00, 0x00, 0x00, 0x00, 0x00, 0x00, 0x00,
  0x00, 0x00, 0x00, 0x00, 0x00, 0x00, 0x00, 0x00, 0x20, 0x00, 0x00, 0x00,
  0x9a, 0xb9, 0x9a, 0x3c, 0x6f, 0x44, 0xee, 0x3c, 0xaf, 0x86, 0x0c, 0x3d,
  0xb8, 0xf7, 0x3a, 0x3c, 0x9e, 0xa4, 0x14, 0x3d, 0x82, 0x11, 0xe7, 0x3c,
  0x71, 0x4d, 0xec, 0x3c, 0xad, 0x04, 0x6c, 0x3c, 0x88, 0xf5, 0xb4, 0x3c,
  0x9b, 0x02, 0xc2, 0x3c, 0x72, 0x4a, 0xd4, 0x3c, 0x0e, 0x05, 0xeb, 0x3c,
  0x7b, 0x87, 0x44, 0x3c, 0xe3, 0x8a, 0x9f, 0x3c, 0x27, 0xff, 0x32, 0x3c,
  0xf3, 0xf7, 0xe1, 0x3c, 0x0b, 0x89, 0x82, 0x3c, 0xd9, 0xf1, 0x9f, 0x3c,
  0xeb, 0x89, 0x13, 0x3d, 0x6c, 0x82, 0xa1, 0x3c, 0x61, 0xed, 0x07, 0x3d,
  0x29, 0x00, 0x54, 0x3c, 0x49, 0xa8, 0xeb, 0x3c, 0x6d, 0x63, 0x9e, 0x3c,
  0xc8, 0x6f, 0x0c, 0x3d, 0x99, 0x7a, 0x84, 0x3d, 0x5a, 0x13, 0xe5, 0x3c,
  0xe4, 0x4f, 0x41, 0x3d, 0xf7, 0x2b, 0x66, 0x3c, 0xe4, 0xa6, 0x6f, 0x3c,
  0x7e, 0x8e, 0x4d, 0x3c, 0xd7, 0x7a, 0xf2, 0x3c, 0x12, 0x00, 0x00, 0x00,
  0x74, 0x66, 0x6c, 0x2e, 0x70, 0x73, 0x65, 0x75, 0x64, 0x6f, 0x5f, 0x71,
  0x63, 0x6f, 0x6e, 0x73, 0x74, 0x33, 0x00, 0x00, 0x04, 0x00, 0x00, 0x00,
  0x20, 0x00, 0x00, 0x00, 0x01, 0x00, 0x00, 0x00, 0x05, 0x00, 0x00, 0x00,
  0x20, 0x00, 0x00, 0x00, 0xba, 0xfc, 0xff, 0xff, 0x00, 0x00, 0x00, 0x01,
  0x14, 0x00, 0x00, 0x00, 0xa4, 0x01, 0x00, 0x00, 0x08, 0x00, 0x00, 0x00,
  0x00, 0x00, 0x00, 0x02, 0xb0, 0x01, 0x00, 0x00, 0x34, 0xfc, 0xff, 0xff,
  0x08, 0x00, 0x00, 0x00, 0x08, 0x01, 0x00, 0x00, 0x20, 0x00, 0x00, 0x00,
  0x00, 0x00, 0x00, 0x00, 0x00, 0x00, 0x00, 0x00, 0x00, 0x00, 0x00, 0x00,
  0x00, 0x00, 0x00, 0x00, 0x00, 0x00, 0x00, 0x00, 0x00, 0x00, 0x00, 0x00,
  0x00, 0x00, 0x00, 0x00, 0x00, 0x00, 0x00, 0x00, 0x00, 0x00, 0x00, 0x00,
  0x00, 0x00, 0x00, 0x00, 0x00, 0x00, 0x00, 0x00, 0x00, 0x00, 0x00, 0x00,
  0x00, 0x00, 0x00, 0x00, 0x00, 0x00, 0x00, 0x00, 0x00, 0x00, 0x00, 0x00,
  0x00, 0x00, 0x00, 0x00, 0x00, 0x00, 0x00, 0x00, 0x00, 0x00, 0x00, 0x00,
  0x00, 0x00, 0x00, 0x00, 0x00, 0x00, 0x00, 0x00, 0x00, 0x00, 0x00, 0x00,
  0x00, 0x00, 0x00, 0x00, 0x00, 0x00, 0x00, 0x00, 0x00, 0x00, 0x00, 0x00,
  0x00, 0x00, 0x00, 0x00, 0x00, 0x00, 0x00, 0x00, 0x00, 0x00, 0x00, 0x00,
  0x00, 0x00, 0x00, 0x00, 0x00, 0x00, 0x00, 0x00, 0x00, 0x00, 0x00, 0x00,
  0x00, 0x00, 0x00, 0x00, 0x00, 0x00, 0x00, 0x00, 0x00, 0x00, 0x00, 0x00,
