// Auto-generated by export_tflite.py — do not edit
// Model size: 16856 bytes (16.5 KB)
// SHA256 prefix: c62f2a28e21731ed
// Exported: 2026-04-22T16:02:38Z

#ifndef FRAME_ONSET_MODEL_DATA_V28_MEL_ONLY_H
#define FRAME_ONSET_MODEL_DATA_V28_MEL_ONLY_H

#define FRAME_ONSET_MODEL_DATA_HASH "c62f2a28e21731ed"
#define FRAME_ONSET_MODEL_DATA_SIZE 16856

alignas(8) static const unsigned char frame_onset_model_data[] = {
  0x1c, 0x00, 0x00, 0x00, 0x54, 0x46, 0x4c, 0x33, 0x14, 0x00, 0x20, 0x00,
  0x1c, 0x00, 0x18, 0x00, 0x14, 0x00, 0x10, 0x00, 0x0c, 0x00, 0x00, 0x00,
  0x08, 0x00, 0x04, 0x00, 0x14, 0x00, 0x00, 0x00, 0x1c, 0x00, 0x00, 0x00,
  0x88, 0x00, 0x00, 0x00, 0xe0, 0x00, 0x00, 0x00, 0xa0, 0x2a, 0x00, 0x00,
  0xb0, 0x2a, 0x00, 0x00, 0x2c, 0x41, 0x00, 0x00, 0x03, 0x00, 0x00, 0x00,
  0x01, 0x00, 0x00, 0x00, 0x04, 0x00, 0x00, 0x00, 0x5e, 0xd3, 0xff, 0xff,
  0x0c, 0x00, 0x00, 0x00, 0x1c, 0x00, 0x00, 0x00, 0x3c, 0x00, 0x00, 0x00,
  0x0f, 0x00, 0x00, 0x00, 0x73, 0x65, 0x72, 0x76, 0x69, 0x6e, 0x67, 0x5f,
  0x64, 0x65, 0x66, 0x61, 0x75, 0x6c, 0x74, 0x00, 0x01, 0x00, 0x00, 0x00,
  0x04, 0x00, 0x00, 0x00, 0x94, 0xff, 0xff, 0xff, 0x16, 0x00, 0x00, 0x00,
  0x04, 0x00, 0x00, 0x00, 0x0b, 0x00, 0x00, 0x00, 0x6f, 0x75, 0x74, 0x70,
  0x75, 0x74, 0x5f, 0x63, 0x6f, 0x6e, 0x76, 0x00, 0x01, 0x00, 0x00, 0x00,
  0x04, 0x00, 0x00, 0x00, 0xfa, 0xd5, 0xff, 0xff, 0x04, 0x00, 0x00, 0x00,
  0x09, 0x00, 0x00, 0x00, 0x6d, 0x65, 0x6c, 0x5f, 0x69, 0x6e, 0x70, 0x75,
  0x74, 0x00, 0x00, 0x00, 0x02, 0x00, 0x00, 0x00, 0x34, 0x00, 0x00, 0x00,
  0x04, 0x00, 0x00, 0x00, 0xdc, 0xff, 0xff, 0xff, 0x19, 0x00, 0x00, 0x00,
  0x04, 0x00, 0x00, 0x00, 0x13, 0x00, 0x00, 0x00, 0x43, 0x4f, 0x4e, 0x56,
  0x45, 0x52, 0x53, 0x49, 0x4f, 0x4e, 0x5f, 0x4d, 0x45, 0x54, 0x41, 0x44,
  0x41, 0x54, 0x41, 0x00, 0x08, 0x00, 0x0c, 0x00, 0x08, 0x00, 0x04, 0x00,
  0x08, 0x00, 0x00, 0x00, 0x18, 0x00, 0x00, 0x00, 0x04, 0x00, 0x00, 0x00,
  0x13, 0x00, 0x00, 0x00, 0x6d, 0x69, 0x6e, 0x5f, 0x72, 0x75, 0x6e, 0x74,
  0x69, 0x6d, 0x65, 0x5f, 0x76, 0x65, 0x72, 0x73, 0x69, 0x6f, 0x6e, 0x00,
  0x1a, 0x00, 0x00, 0x00, 0xbc, 0x29, 0x00, 0x00, 0xb4, 0x29, 0x00, 0x00,
  0x8c, 0x29, 0x00, 0x00, 0x70, 0x29, 0x00, 0x00, 0x54, 0x29, 0x00, 0x00,
  0x38, 0x29, 0x00, 0x00, 0x24, 0x29, 0x00, 0x00, 0xf4, 0x28, 0x00, 0x00,
  0x64, 0x28, 0x00, 0x00, 0x54, 0x14, 0x00, 0x00, 0xc4, 0x13, 0x00, 0x00,
  0xf4, 0x00, 0x00, 0x00, 0xec, 0x00, 0x00, 0x00, 0xe4, 0x00, 0x00, 0x00,
  0xdc, 0x00, 0x00, 0x00, 0xd4, 0x00, 0x00, 0x00, 0xcc, 0x00, 0x00, 0x00,
  0xc4, 0x00, 0x00, 0x00, 0xbc, 0x00, 0x00, 0x00, 0xb4, 0x00, 0x00, 0x00,
  0xac, 0x00, 0x00, 0x00, 0xa4, 0x00, 0x00, 0x00, 0x9c, 0x00, 0x00, 0x00,
  0x94, 0x00, 0x00, 0x00, 0x74, 0x00, 0x00, 0x00, 0x04, 0x00, 0x00, 0x00,
  0xda, 0xd6, 0xff, 0xff, 0x04, 0x00, 0x00, 0x00, 0x60, 0x00, 0x00, 0x00,
  0x0c, 0x00, 0x00, 0x00, 0x08, 0x00, 0x0e, 0x00, 0x08, 0x00, 0x04, 0x00,
  0x08, 0x00, 0x00, 0x00, 0x10, 0x00, 0x00, 0x00, 0x28, 0x00, 0x00, 0x00,
  0x00, 0x00, 0x06, 0x00, 0x08, 0x00, 0x04, 0x00, 0x06, 0x00, 0x00, 0x00,
  0x04, 0x00, 0x00, 0x00, 0x01, 0x00, 0x00, 0x00, 0xeb, 0x03, 0x00, 0x00,
  0x0c, 0x00, 0x18, 0x00, 0x14, 0x00, 0x10, 0x00, 0x0c, 0x00, 0x04, 0x00,
  0x0c, 0x00, 0x00, 0x00, 0x47, 0xf5, 0x21, 0xc6, 0x4b, 0xa6, 0x0c, 0x33,
  0x02, 0x00, 0x00, 0x00, 0x02, 0x00, 0x00, 0x00, 0x04, 0x00, 0x00, 0x00,
  0x06, 0x00, 0x00, 0x00, 0x32, 0x2e, 0x32, 0x30, 0x2e, 0x30, 0x00, 0x00,
  0x46, 0xd7, 0xff, 0xff, 0x04, 0x00, 0x00, 0x00, 0x10, 0x00, 0x00, 0x00,
  0x31, 0x2e, 0x31, 0x34, 0x2e, 0x30, 0x00, 0x00, 0x00, 0x00, 0x00, 0x00,
  0x00, 0x00, 0x00, 0x00, 0x68, 0xc1, 0xff, 0xff, 0x6c, 0xc1, 0xff, 0xff,
  0x70, 0xc1, 0xff, 0xff, 0x74, 0xc1, 0xff, 0xff, 0x78, 0xc1, 0xff, 0xff,
  0x7c, 0xc1, 0xff, 0xff, 0x80, 0xc1, 0xff, 0xff, 0x84, 0xc1, 0xff, 0xff,
  0x88, 0xc1, 0xff, 0xff, 0x8c, 0xc1, 0xff, 0xff, 0x90, 0xc1, 0xff, 0xff,
  0x94, 0xc1, 0xff, 0xff, 0x92, 0xd7, 0xff, 0xff, 0x04, 0x00, 0x00, 0x00,
  0xc0, 0x12, 0x00, 0x00, 0x23, 0x63, 0x7f, 0x44, 0x31, 0x24, 0x2b, 0x1b,
  0x1f, 0x0b, 0x03, 0x0c, 0x0d, 0x00, 0x0d, 0x05, 0x0c, 0x06, 0x11, 0x09,
  0x04, 0x0d, 0x20, 0x0e, 0x18, 0x15, 0x31, 0x32, 0x41, 0x65, 0x10, 0xf9,
  0xf4, 0xff, 0xfa, 0xff, 0xf0, 0xfe, 0xf2, 0x0b, 0x02, 0x05, 0xf7, 0x0e,
  0xff, 0xf9, 0xf9, 0x08, 0xf4, 0x0c, 0xff, 0xf4, 0xf7, 0xfc, 0xf3, 0xf9,
  0xf9, 0xef, 0xe5, 0x08, 0xf2, 0xed, 0xe1, 0xf0, 0xf6, 0xf8, 0x05, 0x05,
  0xfa, 0xfd, 0xf9, 0xfe, 0x07, 0xf3, 0x0b, 0x03, 0x05, 0xf6, 0x03, 0xfa,
  0x00, 0x00, 0x04, 0xfb, 0x05, 0xf5, 0xe9, 0xef, 0xfb, 0xeb, 0xfd, 0xe9,
  0xdb, 0xe9, 0x00, 0xf6, 0xf0, 0xf3, 0xfd, 0xfc, 0x02, 0xff, 0xfc, 0x01,
  0xf6, 0x04, 0xf7, 0xfc, 0x07, 0xfe, 0xfe, 0x00, 0xf5, 0x02, 0xf8, 0x0d,
  0x03, 0x01, 0xed, 0xee, 0xe3, 0xcd, 0xce, 0xe2, 0xdf, 0xed, 0xef, 0xed,
  0xf8, 0xf0, 0x00, 0xf1, 0xf8, 0xfe, 0xf2, 0xfb, 0xfd, 0x00, 0xf1, 0xf2,
  0xff, 0xfe, 0xf0, 0xf9, 0xf7, 0xf1, 0xe9, 0xee, 0xf0, 0xba, 0x7f, 0xf9,
  0xf8, 0xeb, 0xec, 0xf3, 0xf6, 0xff, 0xf6, 0x04, 0xf3, 0x0a, 0x00, 0x09,
  0xec, 0x0d, 0xd6, 0x07, 0x13, 0xf8, 0x06, 0xef, 0x0b, 0x07, 0xff, 0xf9,
  0xfa, 0xe9, 0x00, 0xd9, 0x42, 0x17, 0xff, 0xfa, 0x0e, 0xf6, 0x16, 0x13,
  0x06, 0x17, 0x04, 0x07, 0x11, 0xf8, 0x19, 0x0b, 0x09, 0x05, 0xf6, 0xf7,
  0xf0, 0x17, 0xd4, 0xf4, 0xd2, 0xde, 0xea, 0xc6, 0xe8, 0xaf, 0x0b, 0x06,
  0x05, 0x1e, 0x1a, 0x1b, 0x0e, 0x04, 0x15, 0x02, 0x1c, 0xf3, 0xf5, 0xf8,
  0xf7, 0x05, 0xfd, 0xec, 0xfd, 0x0a, 0xf9, 0xe1, 0x08, 0xed, 0xf8, 0xee,
  0xec, 0xfa, 0xd7, 0xcc, 0x96, 0xe3, 0xec, 0x2d, 0x22, 0x46, 0x0b, 0x0f,
  0x24, 0x0c, 0x18, 0x0c, 0x03, 0x16, 0x0e, 0xf3, 0x1a, 0x05, 0xfd, 0xf5,
  0xfd, 0x09, 0xe3, 0xfd, 0xf6, 0x05, 0xe7, 0x0c, 0xd4, 0xeb, 0xa9, 0x0b,
  0x23, 0xd5, 0xc5, 0xb4, 0xd8, 0xd9, 0xc6, 0xd6, 0xd4, 0xee, 0xf4, 0xee,
  0xf2, 0xec, 0x05, 0xfc, 0xfb, 0x0c, 0x0e, 0x09, 0x2c, 0x10, 0x35, 0x29,
  0x39, 0x34, 0x57, 0x7e, 0x7f, 0x47, 0x48, 0x32, 0x1b, 0x17, 0x1f, 0x0b,
  0x21, 0x10, 0x19, 0x19, 0x18, 0x13, 0x18, 0x0b, 0x24, 0x35, 0x1d, 0x24,
  0x1e, 0x27, 0x26, 0x27, 0x2b, 0x35, 0x42, 0x4d, 0x40, 0x7b, 0x0f, 0xd4,
  0x00, 0x04, 0xf9, 0xfd, 0x03, 0xfd, 0xf7, 0x0d, 0xf8, 0x08, 0xf4, 0x01,
  0x09, 0x02, 0xf6, 0xf9, 0x01, 0xf9, 0x0f, 0x04, 0x04, 0x0d, 0x03, 0x0b,
  0x0c, 0x08, 0x10, 0xf7, 0xf2, 0x01, 0xef, 0x09, 0x11, 0xfe, 0xf4, 0x0c,
  0xfe, 0xf1, 0x09, 0xfc, 0xf5, 0xf9, 0xf6, 0x02, 0xfc, 0xf3, 0x00, 0xfd,
  0xf3, 0xf9, 0x03, 0x08, 0xf1, 0xf8, 0xfa, 0x02, 0xf5, 0xf9, 0xe3, 0x06,
  0xfd, 0xf1, 0x02, 0x01, 0xfc, 0xfd, 0xfe, 0xf6, 0x04, 0xe9, 0x06, 0xf5,
  0xf7, 0xfd, 0xf2, 0xf3, 0xed, 0xf7, 0xf2, 0xe5, 0xe4, 0xdd, 0xf1, 0xde,
  0xea, 0xd5, 0xdd, 0xdc, 0xa6, 0xd9, 0xce, 0xd3, 0xdb, 0xed, 0xef, 0xef,
  0xed, 0xfb, 0xe3, 0xf9, 0xf9, 0xfe, 0xf2, 0xf3, 0xf8, 0xec, 0xf6, 0xef,
  0xef, 0xf7, 0xee, 0xe8, 0xf1, 0xed, 0xd1, 0xd7, 0xdf, 0xb9, 0x00, 0x00,
  0x00, 0x00, 0x00, 0xff, 0x00, 0xff, 0x00, 0x00, 0xff, 0x00, 0x01, 0xfe,
  0x02, 0xff, 0x01, 0xff, 0x01, 0x01, 0x01, 0xff, 0x00, 0x00, 0x01, 0xff,
  0x01, 0x00, 0x02, 0xf6, 0x02, 0x00, 0x01, 0x01, 0x01, 0x00, 0x00, 0x00,
  0x00, 0x00, 0x02, 0x02, 0x00, 0x03, 0xff, 0x03, 0x00, 0x01, 0x01, 0x01,
  0x01, 0x01, 0xff, 0xff, 0xff, 0x01, 0xfd, 0xfa, 0xfe, 0xec, 0x08, 0x04,
  0x02, 0xff, 0x06, 0x02, 0x05, 0x03, 0x05, 0x04, 0x01, 0x02, 0x03, 0xff,
  0x00, 0xff, 0xfb, 0xfe, 0xfa, 0xfa, 0xf7, 0xf6, 0xf2, 0xf0, 0xe9, 0xeb,
  0xe2, 0xdf, 0xde, 0xbb, 0x01, 0x01, 0x00, 0x04, 0x04, 0x03, 0x06, 0x07,
  0x05, 0x04, 0x04, 0x04, 0x00, 0x04, 0xfe, 0xfd, 0xfe, 0xfb, 0xfc, 0xfa,
  0xf7, 0xf6, 0xf5, 0xf4, 0xf1, 0xee, 0xed, 0xe8, 0xe6, 0xde, 0xf5, 0xfb,
  0xfd, 0xfd, 0xf6, 0xfc, 0xf4, 0xf8, 0xf6, 0xf7, 0xfb, 0xf9, 0xfd, 0xfc,
  0x01, 0x02, 0x06, 0x07, 0x07, 0x0b, 0x10, 0x13, 0x1a, 0x1b, 0x25, 0x27,
  0x32, 0x3c, 0x39, 0x7f, 0x2b, 0x1a, 0x15, 0x12, 0x15, 0x14, 0x15, 0x14,
  0x13, 0x0f, 0x12, 0x11, 0x0d, 0x12, 0x0f, 0x0f, 0x11, 0x13, 0x0b, 0x0e,
  0x11, 0x0a, 0x0d, 0x13, 0x0b, 0x0f, 0x11, 0x12, 0x11, 0x0f, 0xe2, 0xfa,
  0x00, 0xff, 0xf6, 0xfc, 0xfd, 0xfe, 0xf7, 0xfd, 0xf9, 0xfc, 0x00, 0xfb,
  0xf9, 0xf7, 0xfc, 0xfa, 0xfa, 0xfd, 0xfc, 0x00, 0xf8, 0xfa, 0xf9, 0xfa,
  0xf8, 0xf7, 0xfa, 0xf9, 0x81, 0xc8, 0xd8, 0xe0, 0xd8, 0xe7, 0xe7, 0xe0,
  0xe5, 0xe3, 0xe8, 0xe4, 0xe7, 0xe5, 0xe8, 0xe7, 0xea, 0xe6, 0xe2, 0xed,
  0xe8, 0xe9, 0xe9, 0xe8, 0xe9, 0xe6, 0xe8, 0xe0, 0xde, 0xda, 0xfe, 0x09,
  0x07, 0xfc, 0xfb, 0xf9, 0xfb, 0xf7, 0xfb, 0xfa, 0xfc, 0xfd, 0xff, 0xfb,
  0xfe, 0xfd, 0xfe, 0xf8, 0x01, 0xfa, 0xfe, 0xfd, 0xfc, 0x00, 0x02, 0xfe,
  0x00, 0xfc, 0xff, 0x01, 0x46, 0x15, 0x09, 0x0d, 0x12, 0x0c, 0x08, 0x0f,
  0x0e, 0x10, 0x0b, 0x0c, 0x08, 0x0b, 0x0d, 0x0e, 0x08, 0x0d, 0x0d, 0x0b,
  0x09, 0x0c, 0x0e, 0x09, 0x0d, 0x10, 0x0e, 0x15, 0x15, 0x21, 0xda, 0xfc,
  0xfc, 0x02, 0xf1, 0xe4, 0xf1, 0xcf, 0xe2, 0xe8, 0xf4, 0xe0, 0xef, 0xe1,
  0xf9, 0xf0, 0x07, 0x02, 0xfa, 0xed, 0x14, 0xf9, 0x0e, 0x12, 0x00, 0x09,
  0x1e, 0x3a, 0x27, 0x7f, 0x0a, 0x0e, 0xfd, 0xf3, 0xef, 0xcd, 0xde, 0xf7,
  0xf1, 0xe2, 0x05, 0xfc, 0xfb, 0xf9, 0x0b, 0xfe, 0xfd, 0xea, 0xe9, 0x02,
  0xfe, 0x03, 0xee, 0x0a, 0x1a, 0x1d, 0x08, 0x1e, 0x0d, 0x3b, 0xf3, 0xfd,
  0xf2, 0xe0, 0xee, 0x01, 0xfb, 0xf9, 0xfa, 0xfa, 0xdf, 0x0b, 0xf4, 0x06,
  0xec, 0xe9, 0xe8, 0xfb, 0xf7, 0xeb, 0xdf, 0xe0, 0x0d, 0xea, 0xe9, 0xe2,
  0xd9, 0xd9, 0xd4, 0xe3, 0xe8, 0xc9, 0xe7, 0xce, 0xd9, 0xee, 0xfb, 0xe9,
  0xe5, 0xe4, 0xff, 0x03, 0xfa, 0xee, 0xfb, 0x12, 0xfa, 0x0d, 0xfd, 0x02,
  0x12, 0x0c, 0xfd, 0x07, 0x03, 0x11, 0x07, 0xea, 0x05, 0xf7, 0x34, 0x23,
  0x2b, 0x57, 0x4d, 0x54, 0x33, 0x50, 0x45, 0x4d, 0x20, 0x0d, 0x1e, 0x27,
  0x0b, 0x0b, 0x0f, 0xff, 0x1b, 0x17, 0xf5, 0x0b, 0xee, 0xe9, 0xee, 0xd6,
  0xee, 0xe3, 0xee, 0x9e, 0x63, 0xf4, 0xd3, 0xfa, 0xee, 0xf2, 0x0d, 0xf1,
  0xee, 0x0d, 0xf2, 0xff, 0xf2, 0x01, 0xfd, 0xf8, 0x06, 0x03, 0xfd, 0xfa,
  0x07, 0x01, 0x0e, 0x0e, 0xfd, 0xfd, 0x10, 0x0e, 0xf7, 0x10, 0x43, 0xd7,
  0x08, 0x03, 0x15, 0xfe, 0xfb, 0xfc, 0x0d, 0xfc, 0xfa, 0xfb, 0x08, 0xfb,
  0x04, 0xf5, 0xfa, 0xf6, 0x0d, 0x04, 0xf4, 0x08, 0xf6, 0xef, 0x0a, 0x0a,
  0xf7, 0x00, 0x10, 0xfa, 0x4b, 0xfb, 0xfd, 0xfd, 0xe5, 0x0d, 0xf0, 0x0b,
  0x03, 0xf4, 0x0c, 0xf5, 0xf4, 0xf8, 0xff, 0x02, 0x00, 0xfa, 0xf1, 0xff,
  0xea, 0xf5, 0xea, 0xf7, 0xe9, 0xe4, 0xf1, 0xdb, 0xec, 0xe3, 0x31, 0xf9,
  0xf5, 0xf8, 0xff, 0x02, 0x07, 0x10, 0x14, 0xfc, 0x0e, 0x1c, 0x0a, 0x0f,
  0xf2, 0x09, 0x15, 0x0b, 0xed, 0x0a, 0x0d, 0xf9, 0xfe, 0x00, 0xf1, 0x09,
  0xed, 0xfd, 0xfe, 0xee, 0x7f, 0x2e, 0x2a, 0x05, 0x0c, 0xf3, 0xf7, 0xec,
  0xe4, 0xfc, 0xef, 0xec, 0xfc, 0xf0, 0x02, 0xfd, 0xdf, 0xf8, 0x0d, 0xee,
  0x01, 0xfe, 0x08, 0xff, 0x13, 0x02, 0x11, 0x0f, 0x04, 0x07, 0x52, 0x25,
  0x12, 0x26, 0x16, 0x0e, 0xfd, 0x07, 0x01, 0x01, 0xfd, 0x0d, 0xfe, 0x07,
  0x0c, 0xf9, 0xf6, 0xfe, 0x0c, 0x05, 0xf8, 0x03, 0xfe, 0x17, 0x00, 0x06,
  0x0c, 0x01, 0x05, 0x0b, 0x3d, 0x2c, 0x3c, 0x18, 0x1d, 0x06, 0x0d, 0x10,
  0x0b, 0xf7, 0x0f, 0x06, 0xfc, 0xf8, 0xff, 0x09, 0x13, 0xfc, 0x07, 0x04,
  0x0d, 0x00, 0x01, 0xfb, 0x02, 0x08, 0x10, 0x0e, 0x17, 0x08, 0x11, 0x07,
  0x28, 0x24, 0x13, 0x14, 0x04, 0x0c, 0xf4, 0x11, 0xf0, 0x02, 0xfa, 0x05,
  0x00, 0x07, 0xf4, 0x0f, 0xfe, 0xf1, 0xfc, 0xfe, 0xfe, 0xf8, 0xf7, 0xf8,
  0xeb, 0xee, 0x06, 0xeb, 0xe6, 0xf2, 0xee, 0xf2, 0xfd, 0xf9, 0xfe, 0xf6,
  0x00, 0xfc, 0x09, 0xee, 0x0c, 0xfe, 0xf2, 0x03, 0xf2, 0x02, 0xf3, 0x09,
  0x07, 0xea, 0x0d, 0xf6, 0xfd, 0x01, 0xf4, 0x02, 0xf1, 0xfb, 0x81, 0xb7,
  0xa3, 0xb1, 0xc0, 0xe0, 0xf4, 0xe8, 0xfd, 0xfb, 0xfa, 0xfe, 0xfe, 0xfd,
  0x02, 0xf3, 0x0f, 0xf4, 0xfc, 0xfd, 0xf6, 0x15, 0xf6, 0xff, 0x09, 0xfa,
  0x04, 0x00, 0xef, 0xfd, 0xfa, 0xfd, 0x0e, 0x00, 0xfc, 0xfc, 0x09, 0x00,
  0xff, 0x03, 0x04, 0x03, 0xfa, 0x0a, 0xff, 0x03, 0xfe, 0x00, 0xff, 0x08,
  0xfb, 0xff, 0xfc, 0x01, 0xfd, 0xfa, 0xfa, 0x02, 0xfa, 0xf2, 0xeb, 0xfe,
  0xea, 0x00, 0xff, 0x05, 0xf7, 0xfc, 0x02, 0xfc, 0xfd, 0xfb, 0x08, 0xf4,
  0x02, 0x00, 0x01, 0x00, 0x00, 0xf2, 0x07, 0x03, 0x02, 0xfb, 0x00, 0x06,
  0xfe, 0xff, 0xfc, 0x02, 0x4f, 0x6c, 0x7f, 0x5e, 0x5b, 0x41, 0x25, 0x27,
  0x21, 0x1f, 0x1c, 0x29, 0x0e, 0x28, 0x14, 0x1f, 0x23, 0x0f, 0x25, 0x12,
  0x26, 0x18, 0x21, 0x2d, 0x26, 0x34, 0x38, 0x32, 0x3e, 0x7c, 0xfb, 0xcb,
  0xc8, 0xd2, 0xcb, 0xe3, 0xe9, 0xee, 0xea, 0xec, 0xf1, 0xf0, 0xeb, 0xef,
  0xfa, 0xeb, 0xed, 0xfb, 0xe3, 0xf6, 0xf2, 0xf6, 0xed, 0xe5, 0xf6, 0xd9,
  0xf1, 0xf1, 0xe9, 0xd4, 0xce, 0xce, 0xc2, 0xcf, 0xdd, 0xda, 0xf2, 0xef,
  0xf4, 0xf6, 0xf2, 0xe8, 0x04, 0xec, 0xf1, 0xf3, 0xf0, 0xf7, 0xf8, 0xff,
  0xe5, 0xf0, 0xf3, 0xf1, 0xe5, 0xf2, 0xdc, 0xdb, 0xe1, 0xb9, 0xf8, 0x10,
  0xf8, 0x06, 0xfb, 0xfe, 0x0b, 0xff, 0xf6, 0xfe, 0x04, 0xfd, 0xfe, 0x04,
  0xf8, 0xf8, 0x09, 0xfa, 0x00, 0xf0, 0x1f, 0xf4, 0xfa, 0xf3, 0x00, 0x0b,
  0x02, 0xf6, 0x1a, 0x09, 0x0b, 0xf0, 0x0d, 0xfb, 0xff, 0x0f, 0xf3, 0xfe,
  0x0a, 0xfc, 0xf9, 0x08, 0xf8, 0xf1, 0xff, 0x03, 0xf5, 0xfc, 0xf8, 0x01,
  0xe1, 0xfd, 0xf7, 0x05, 0xf4, 0xd1, 0xf5, 0xe9, 0xec, 0xac, 0xe7, 0x07,
  0xa9, 0xdf, 0x07, 0xed, 0x18, 0x0f, 0x04, 0x07, 0xf9, 0x07, 0x11, 0x15,
  0x0a, 0x05, 0x00, 0x15, 0x01, 0x20, 0x0c, 0x0c, 0x11, 0x06, 0x1a, 0x37,
  0x1f, 0x43, 0x40, 0x7f, 0x94, 0xbe, 0xfb, 0x06, 0xec, 0x08, 0xda, 0xfa,
  0xe5, 0xef, 0xf7, 0xe6, 0xf0, 0xe6, 0xe0, 0xed, 0xff, 0xd0, 0xf0, 0xe3,
  0xeb, 0xf1, 0xea, 0xdf, 0xeb, 0xd3, 0xcc, 0xbf, 0xb0, 0xa9, 0x3b, 0x27,
  0x3f, 0x0c, 0xf0, 0xea, 0xf7, 0xe6, 0xfe, 0xf8, 0xfa, 0xf3, 0xec, 0xf2,
  0xff, 0xf4, 0xe5, 0x05, 0xf2, 0xeb, 0xef, 0xf1, 0xf0, 0xfc, 0xe6, 0xe7,
  0xfc, 0x07, 0xf6, 0xd5, 0x0b, 0x03, 0x02, 0xfe, 0x05, 0x04, 0x02, 0x01,
  0x03, 0x04, 0x01, 0x02, 0x01, 0x00, 0x00, 0xff, 0xfe, 0xfe, 0xfd, 0xff,
  0xfc, 0xff, 0xfc, 0xfd, 0xfc, 0xfd, 0xfb, 0xfb, 0xfc, 0xf2, 0xd1, 0x03,
  0x11, 0x0e, 0x0c, 0x0c, 0x10, 0x0c, 0x0f, 0x07, 0x0d, 0x0a, 0x09, 0x0c,
  0x0f, 0x10, 0x15, 0x10, 0x15, 0x14, 0x1b, 0x14, 0x18, 0x18, 0x1a, 0x1f,
  0x24, 0x24, 0x22, 0x36, 0x01, 0x09, 0x1a, 0x00, 0xf3, 0xf8, 0xf4, 0xf7,
  0xf0, 0xf4, 0xf0, 0xec, 0xf3, 0xe9, 0xe5, 0xeb, 0xde, 0xe5, 0xe3, 0xda,
  0xd9, 0xda, 0xd4, 0xd4, 0xd2, 0xc9, 0xc2, 0xb8, 0xc1, 0x93, 0xba, 0xf8,
  0xfa, 0xd8, 0xdc, 0xf4, 0xfc, 0xfb, 0x01, 0x01, 0x07, 0x11, 0x09, 0x15,
  0x18, 0x17, 0x1e, 0x21, 0x22, 0x27, 0x28, 0x30, 0x31, 0x3b, 0x33, 0x41,
  0x44, 0x4d, 0x4b, 0x7f, 0x6c, 0xf8, 0xd7, 0x1c, 0x21, 0x05, 0xff, 0x02,
  0xfe, 0x01, 0xfb, 0xf8, 0xfa, 0xf6, 0xf4, 0xef, 0xf0, 0xec, 0xe8, 0xeb,
  0xe7, 0xe3, 0xe6, 0xdb, 0xe4, 0xda, 0xda, 0xda, 0xd6, 0xc4, 0xf5, 0xfb,
  0x07, 0x03, 0xfc, 0x0d, 0x00, 0x17, 0x06, 0x0a, 0x07, 0x0d, 0x02, 0x01,
  0x04, 0x08, 0xf4, 0xff, 0xfc, 0xfe, 0xfb, 0xf2, 0xf1, 0xeb, 0xf5, 0xe4,
  0xe9, 0xd8, 0xe1, 0xbc, 0xd3, 0x05, 0xfe, 0xf2, 0x08, 0x02, 0x0a, 0xff,
  0x08, 0x05, 0x06, 0x03, 0x07, 0x06, 0x06, 0x08, 0x0e, 0x06, 0x06, 0x00,
  0x08, 0x12, 0x08, 0x0d, 0x06, 0x0d, 0x09, 0x1b, 0x0f, 0x2a, 0x16, 0xf2,
  0x2b, 0x2f, 0x0c, 0x09, 0x1e, 0x15, 0x16, 0x0d, 0x0f, 0x01, 0xfd, 0xff,
  0xf3, 0xef, 0x03, 0xf0, 0xe8, 0xfb, 0xd9, 0xdf, 0xd9, 0xe1, 0xc8, 0xc9,
  0xb5, 0xca, 0xaa, 0x85, 0xfb, 0x14, 0x18, 0x1b, 0x2e, 0x41, 0x33, 0x07,
  0x21, 0x0d, 0xf7, 0x04, 0x08, 0x0d, 0xf6, 0x07, 0xf1, 0xf5, 0x09, 0xf2,
  0x07, 0xfe, 0x0a, 0x01, 0xfe, 0x06, 0x0c, 0xf9, 0x1a, 0x17, 0x2a, 0xfc,
  0xb7, 0xc2, 0xc6, 0xa7, 0xa5, 0xcf, 0xbc, 0xd9, 0xee, 0xeb, 0xf3, 0xee,
  0x0e, 0xfb, 0x0c, 0x17, 0x0d, 0x14, 0x1f, 0x1e, 0x24, 0x26, 0x3e, 0x3e,
  0x4d, 0x49, 0x4b, 0x7f, 0xd1, 0xd4, 0xcf, 0xf8, 0xd6, 0xf5, 0x05, 0xf6,
  0xf9, 0x03, 0xfc, 0x16, 0x07, 0x01, 0x00, 0x09, 0xfb, 0xfe, 0x11, 0xf0,
  0xfc, 0x04, 0xe4, 0xf7, 0xe9, 0xe4, 0xdd, 0xc3, 0xd3, 0xa4, 0xc6, 0xd3,
  0xb9, 0xcd, 0xe6, 0xf7, 0xe7, 0xe4, 0xfe, 0xf6, 0xda, 0xef, 0xe7, 0xee,
  0xff, 0xe0, 0xea, 0xf7, 0x01, 0xfd, 0xda, 0xdb, 0xe8, 0xe9, 0xd7, 0xe5,
  0xe0, 0xe8, 0xb8, 0x96, 0x05, 0xf2, 0xe9, 0xf3, 0x09, 0xed, 0xfd, 0x01,
  0x09, 0xfc, 0x0d, 0xf1, 0x12, 0xfa, 0x0a, 0x0a, 0x15, 0x02, 0xed, 0x09,
  0x01, 0x0d, 0x25, 0xff, 0x0c, 0xf3, 0xfe, 0xeb, 0x1b, 0xf4, 0x16, 0x30,
  0x39, 0x03, 0x13, 0xfc, 0xf2, 0x1e, 0xfb, 0x15, 0x14, 0xee, 0x1a, 0x0b,
  0x09, 0x0a, 0x02, 0x14, 0x03, 0x1f, 0x0d, 0x05, 0x05, 0x26, 0x09, 0x1b,
  0x29, 0x30, 0x1c, 0x64, 0x4a, 0x37, 0x53, 0x46, 0x2b, 0x2b, 0x25, 0x08,
  0x06, 0xf6, 0x0b, 0x1e, 0xe7, 0x0d, 0xf0, 0x04, 0x05, 0xf6, 0x01, 0xec,
  0x1f, 0x0f, 0x0b, 0xfd, 0x2c, 0x2a, 0x1e, 0x3d, 0x3f, 0x7f, 0x10, 0xfc,
  0xfa, 0xf5, 0xf9, 0xfd, 0xfc, 0x00, 0xfe, 0xfe, 0x00, 0xff, 0x02, 0xff,
  0x01, 0xff, 0x03, 0xfe, 0x00, 0x00, 0xff, 0x03, 0xff, 0xfe, 0xfe, 0x03,
  0xfe, 0x03, 0xfe, 0x08, 0x07, 0xfb, 0xf9, 0xee, 0xf5, 0xf3, 0xfd, 0xf9,
  0x02, 0x01, 0xfd, 0x00, 0xfe, 0x01, 0x01, 0xff, 0x02, 0x01, 0x03, 0xff,
  0x03, 0x01, 0x01, 0x06, 0x02, 0xff, 0x06, 0xff, 0x02, 0xfd, 0xef, 0xf0,
  0xeb, 0xda, 0xd4, 0xdd, 0xea, 0xea, 0xf0, 0xef, 0xf7, 0xf8, 0xfa, 0xf5,
  0xfa, 0xf7, 0x00, 0xfb, 0xff, 0x00, 0xfe, 0x00, 0xfe, 0xfe, 0xfb, 0xf9,
  0xf9, 0xf7, 0xf7, 0xd9, 0xf2, 0xf4, 0xdf, 0xc5, 0xb7, 0xc1, 0xc8, 0xcc,
  0xd2, 0xd8, 0xd9, 0xda, 0xe1, 0xe5, 0xdd, 0xea, 0xe4, 0xe9, 0xe9, 0xeb,
  0xec, 0xf3, 0xec, 0xf3, 0xf5, 0xf3, 0xe8, 0xec, 0xf3, 0xd8, 0x07, 0x24,
  0x40, 0x77, 0x7f, 0x6b, 0x50, 0x4d, 0x3c, 0x3a, 0x32, 0x2e, 0x24, 0x25,
  0x27, 0x20, 0x18, 0x1d, 0x16, 0x16, 0x15, 0x0a, 0x16, 0x0f, 0x13, 0x15,
  0x20, 0x1d, 0x19, 0x4a, 0x04, 0x00, 0xf9, 0xff, 0x03, 0xff, 0x02, 0xff,
  0x01, 0x01, 0xff, 0x01, 0x00, 0x01, 0x02, 0xfe, 0x00, 0x01, 0x00, 0xff,
  0x01, 0x00, 0xff, 0x00, 0xff, 0xff, 0x01, 0xfe, 0x01, 0x00, 0x04, 0x00,
  0xf9, 0xff, 0xff, 0x03, 0xfe, 0x03, 0xfd, 0x02, 0x00, 0x01, 0xff, 0x00,
  0xff, 0x01, 0x01, 0xfe, 0x01, 0x01, 0xff, 0x00, 0x01, 0xff, 0x01, 0x00,
  0xff, 0x03, 0x00, 0x03, 0x0a, 0x01, 0xf2, 0xfe, 0x05, 0xff, 0x03, 0xff,
  0x04, 0xfe, 0x01, 0x00, 0x01, 0xff, 0xff, 0x01, 0xfd, 0x01, 0xff, 0xfe,
  0xfe, 0x00, 0xfd, 0xfe, 0xfd, 0xfe, 0xfe, 0x00, 0xff, 0xfc, 0xf8, 0xf2,
  0xe5, 0xfe, 0x08, 0x06, 0x03, 0x01, 0xff, 0x02, 0x00, 0x03, 0x00, 0x04,
  0x01, 0x02, 0x02, 0x00, 0x01, 0x01, 0x03, 0x00, 0x04, 0x01, 0x02, 0x04,
  0xfe, 0x00, 0xff, 0xff, 0xf1, 0x0a, 0x7f, 0x01, 0xf0, 0xf7, 0xf9, 0xfd,
  0xfc, 0xfb, 0xfe, 0xfa, 0xfe, 0xfb, 0xff, 0xfc, 0xff, 0xfe, 0xfd, 0x00,
  0xfd, 0xff, 0xfd, 0x00, 0xff, 0xfc, 0x02, 0xff, 0x00, 0xff, 0x04, 0xfb,
  0x01, 0xfc, 0xfe, 0x01, 0x00, 0x01, 0x04, 0x00, 0x01, 0x00, 0x01, 0x01,
  0xfe, 0x00, 0x03, 0xfb, 0x01, 0x01, 0xfd, 0x01, 0xfd, 0x01, 0x00, 0xfe,
  0xff, 0x01, 0x03, 0xfd, 0x08, 0x02, 0x0a, 0x03, 0x06, 0x07, 0x05, 0x0a,
  0x0a, 0x08, 0x07, 0x07, 0x06, 0x08, 0x05, 0x0a, 0x05, 0x08, 0x09, 0x06,
  0x08, 0x08, 0x05, 0x08, 0x09, 0x09, 0x0b, 0x0a, 0x0e, 0x0d, 0x07, 0xfe,
  0x09, 0xfe, 0xfb, 0xff, 0xff, 0x01, 0xfd, 0x01, 0x03, 0x02, 0x04, 0x01,
  0x03, 0x06, 0x02, 0x06, 0x03, 0x04, 0x05, 0x05, 0x01, 0x06, 0x01, 0x04,
  0x05, 0x06, 0x02, 0xfb, 0xf6, 0x00, 0xf8, 0xed, 0xe5, 0xec, 0xeb, 0xef,
  0xee, 0xf2, 0xee, 0xe9, 0xed, 0xea, 0xe9, 0xe2, 0xe1, 0xe1, 0xe0, 0xd9,
  0xd7, 0xd4, 0xd1, 0xcc, 0xca, 0xc9, 0xbb, 0xb5, 0xb8, 0x81, 0xf6, 0x07,
  0xf5, 0x16, 0x1c, 0x0d, 0x12, 0x05, 0x08, 0x06, 0x08, 0x0f, 0x09, 0x0c,
  0x12, 0x10, 0x16, 0x17, 0x13, 0x1c, 0x20, 0x1d, 0x2b, 0x24, 0x2c, 0x2b,
  0x36, 0x39, 0x33, 0x79, 0x81, 0xf8, 0xe0, 0xf8, 0x03, 0xfd, 0xfd, 0xfa,
  0xfa, 0xfa, 0xf9, 0xf8, 0x00, 0xf7, 0x00, 0xf4, 0xf9, 0xf5, 0xf1, 0xf6,
  0xf7, 0xf2, 0xe5, 0xe3, 0xf1, 0xea, 0xe7, 0xe0, 0xe2, 0xdc, 0xda, 0x0e,
  0xfd, 0xf5, 0x07, 0x06, 0x01, 0x07, 0x0a, 0x03, 0x08, 0x08, 0xf7, 0x14,
  0xf7, 0x10, 0x00, 0xff, 0x11, 0x05, 0x02, 0x04, 0x1a, 0x09, 0x02, 0x09,
  0x02, 0x04, 0x07, 0xfa, 0x1d, 0x15, 0x1a, 0x15, 0x0d, 0x0b, 0x03, 0x08,
  0x0a, 0x08, 0x00, 0x02, 0x02, 0xf6, 0xfe, 0x03, 0x0a, 0x02, 0x00, 0xfd,
  0x01, 0x09, 0xf6, 0x09, 0x00, 0xf9, 0x08, 0x08, 0xf0, 0xfb, 0xe2, 0xe9,
  0xf3, 0xf4, 0x07, 0x03, 0x10, 0x0a, 0xef, 0xfd, 0x00, 0x02, 0xfe, 0x05,
  0x09, 0xf9, 0xf5, 0x01, 0xf6, 0x00, 0xff, 0xfb, 0xf9, 0x03, 0x06, 0x00,
  0xf1, 0xfd, 0x05, 0xec, 0xd4, 0x02, 0x08, 0x09, 0xfd, 0xea, 0xef, 0xec,
  0x02, 0xfd, 0xfc, 0xf7, 0x06, 0xfa, 0x01, 0xfe, 0x08, 0x07, 0x06, 0x05,
  0x06, 0x06, 0x12, 0x08, 0x07, 0x15, 0x20, 0x14, 0x24, 0x45, 0x03, 0xf1,
  0xfe, 0x02, 0xfc, 0xfe, 0x00, 0x02, 0xfe, 0x04, 0xfc, 0x02, 0x04, 0xfa,
  0xfc, 0x08, 0xfc, 0xf7, 0xfa, 0x05, 0xfc, 0xfa, 0x04, 0xf9, 0x04, 0xf7,
  0x04, 0xfe, 0xf7, 0x0e, 0x30, 0x38, 0x46, 0x2c, 0x31, 0x2e, 0x19, 0x1f,
  0x16, 0x26, 0x0d, 0x20, 0x1a, 0x28, 0x1c, 0x11, 0x18, 0x2f, 0x22, 0x16,
  0x22, 0x2a, 0x29, 0x14, 0x3d, 0x28, 0x20, 0x36, 0x44, 0x7f, 0x50, 0x2c,
  0x38, 0x39, 0x21, 0x0f, 0x21, 0x00, 0x16, 0x01, 0x08, 0xfc, 0x0b, 0x07,
  0xfd, 0x07, 0x07, 0xfe, 0x0b, 0xf9, 0x0a, 0xf9, 0xfa, 0x11, 0xf8, 0xfb,
  0xfc, 0x08, 0x00, 0x02, 0xe4, 0xef, 0xd9, 0xea, 0xf3, 0xef, 0xec, 0xfe,
  0xea, 0xf3, 0xfb, 0xf4, 0xe8, 0xf4, 0xfa, 0xf3, 0xf9, 0xe4, 0xf2, 0xf9,
  0xe9, 0xf1, 0xe5, 0xec, 0xe1, 0xfb, 0xed, 0xde, 0xd5, 0xd3, 0x9d, 0xc0,
  0xad, 0xb4, 0xc1, 0xd8, 0xdb, 0xe4, 0xed, 0xe2, 0xf3, 0xef, 0xf0, 0xe4,
  0xf1, 0xed, 0xeb, 0xf8, 0xe7, 0xf3, 0xef, 0xf2, 0xf5, 0xf5, 0xe7, 0xea,
  0xf2, 0xe5, 0xef, 0xae, 0x11, 0xf3, 0xfc, 0xfc, 0xfc, 0xfb, 0x05, 0xf4,
  0x04, 0x03, 0x02, 0xfb, 0x01, 0xfd, 0xfe, 0x03, 0xfe, 0x04, 0xff, 0xfb,
  0x02, 0xfc, 0x07, 0xfc, 0x08, 0x01, 0x0a, 0x00, 0x05, 0x00, 0x09, 0xff,
  0xf9, 0x04, 0x06, 0x06, 0x01, 0x0a, 0xff, 0xf7, 0xfd, 0x06, 0x03, 0xf9,
  0x06, 0xfc, 0xfa, 0xf7, 0x01, 0x04, 0x01, 0x03, 0xfc, 0x0a, 0xfb, 0x04,
  0xfd, 0x07, 0xee, 0xff, 0xfc, 0xfe, 0x05, 0x05, 0x05, 0xf8, 0xfa, 0x05,
  0xfa, 0x09, 0xff, 0xfd, 0xf4, 0x0a, 0xf7, 0x05, 0x04, 0x07, 0x00, 0xff,
  0x05, 0xfd, 0xff, 0xfd, 0x07, 0xff, 0xfe, 0xf9, 0xfa, 0xff, 0xf5, 0x01,
  0x03, 0xfa, 0xf6, 0x07, 0xff, 0x00, 0x03, 0xf9, 0x02, 0x04, 0x09, 0xfb,
  0xff, 0xfe, 0xfd, 0xfe, 0xfc, 0x06, 0xf6, 0x07, 0x03, 0xf8, 0x02, 0x03,
  0x05, 0xf2, 0xfa, 0x27, 0xee, 0x0a, 0x03, 0xfb, 0xfe, 0xfb, 0xfc, 0xf7,
  0xfa, 0xff, 0xfa, 0xf8, 0xf9, 0xff, 0x00, 0xf7, 0x00, 0xf9, 0xfd, 0xf5,
  0xfb, 0xf4, 0xf4, 0xfd, 0xec, 0xec, 0xed, 0x08, 0x11, 0x7f, 0xba, 0xfc,
  0xfe, 0xf9, 0xe4, 0xf2, 0xef, 0xf4, 0xf2, 0xf8, 0xf9, 0xfa, 0xfc, 0xf8,
  0xfd, 0xf9, 0xfa, 0xfb, 0xfd, 0xfe, 0xff, 0xfe, 0xfc, 0xfd, 0x00, 0xfb,
  0xff, 0xf9, 0xf8, 0xfc, 0xcb, 0x05, 0x00, 0x00, 0xef, 0xfc, 0xfb, 0xfa,
  0xfb, 0x01, 0xff, 0xfe, 0x05, 0xfa, 0x01, 0x00, 0xff, 0x05, 0x07, 0x01,
  0xff, 0x01, 0x00, 0x09, 0x02, 0x06, 0x06, 0x06, 0x0c, 0x08, 0x81, 0xdc,
  0xe8, 0xe3, 0xd3, 0xe0, 0xe2, 0xdc, 0xdb, 0xe0, 0xde, 0xe3, 0xe3, 0xe6,
  0xe8, 0xeb, 0xe7, 0xec, 0xe9, 0xef, 0xec, 0xe4, 0xef, 0xf2, 0xf1, 0xed,
  0xe9, 0xe4, 0xe7, 0xd6, 0x24, 0x1f, 0x0a, 0x01, 0xfd, 0x02, 0x03, 0x00,
  0x00, 0x02, 0x00, 0x00, 0x00, 0xff, 0xff, 0xfd, 0xff, 0xf9, 0xfd, 0xfc,
  0xfe, 0xfc, 0x00, 0xfa, 0xfa, 0xfe, 0xfe, 0xff, 0xfb, 0xfb, 0x18, 0x01,
  0x04, 0x0b, 0x0b, 0x0e, 0x0b, 0x0c, 0x0b, 0x09, 0x09, 0x0b, 0x08, 0x0a,
  0x09, 0x0a, 0x0b, 0x08, 0x06, 0x0a, 0x07, 0x0a, 0x06, 0x08, 0x07, 0x0c,
  0x09, 0x0a, 0x0b, 0x10, 0xfe, 0x01, 0x01, 0x00, 0x01, 0x00, 0xff, 0x00,
  0x01, 0x00, 0x00, 0x00, 0x00, 0xff, 0x00, 0x00, 0x00, 0x00, 0x00, 0xff,
  0x01, 0x01, 0x00, 0x01, 0x01, 0x00, 0x01, 0x00, 0x01, 0xff, 0x01, 0xfe,
  0x00, 0x03, 0x02, 0x01, 0x02, 0x02, 0x00, 0x01, 0x03, 0x00, 0x00, 0x02,
  0x00, 0x01, 0x00, 0x01, 0xff, 0xff, 0x00, 0xfd, 0x01, 0xff, 0xff, 0xff,
  0xfe, 0xfd, 0xfd, 0xfa, 0xae, 0xe2, 0xe5, 0xf7, 0xf9, 0xfe, 0x00, 0x03,
  0x05, 0x04, 0x03, 0x05, 0x05, 0x07, 0x06, 0x0b, 0x09, 0x0a, 0x0c, 0x11,
  0x0a, 0x12, 0x0d, 0x12, 0x0f, 0x11, 0x18, 0x17, 0x19, 0x2e, 0xd5, 0xf3,
  0x64, 0x44, 0x23, 0x0a, 0x07, 0x06, 0x09, 0x04, 0x02, 0x01, 0xff, 0xfe,
  0x00, 0xfb, 0xfc, 0xfa, 0xfd, 0xf6, 0xf9, 0xf2, 0xf6, 0xf5, 0xf6, 0xf7,
  0xf2, 0xf8, 0xf6, 0xf8, 0x7f, 0x2a, 0xb5, 0xc2, 0xe1, 0xf6, 0xf8, 0xf5,
  0xf1, 0xf7, 0xf8, 0xfb, 0xfb, 0xf9, 0xfb, 0xf8, 0xfa, 0xfb, 0xf7, 0xfa,
  0xfc, 0xfd, 0xfc, 0xf9, 0xfb, 0xf9, 0xf8, 0xf4, 0xf4, 0xe0, 0x31, 0x3e,
  0x2e, 0x20, 0x13, 0x06, 0x04, 0x0a, 0xfc, 0x08, 0xf9, 0x02, 0xf9, 0x00,
  0xff, 0xfa, 0xfe, 0x06, 0xf4, 0x09, 0x02, 0x02, 0xfe, 0xf6, 0xfd, 0xff,
  0xfc, 0xff, 0xf5, 0xfb, 0x37, 0x21, 0x32, 0x05, 0x0e, 0x0a, 0xf6, 0x00,
  0x07, 0x04, 0xfe, 0xfb, 0x01, 0xfb, 0x05, 0xef, 0xf6, 0xfc, 0xfa, 0xf5,
  0xf6, 0x01, 0xf3, 0xfd, 0x0a, 0xf5, 0xfb, 0xfa, 0xfc, 0xf3, 0x09, 0x09,
  0xf2, 0xf9, 0x07, 0xe7, 0xfb, 0xf0, 0xeb, 0xe4, 0xf7, 0xf8, 0xe8, 0xf9,
  0xec, 0xfd, 0xec, 0xfa, 0xf3, 0xea, 0xf6, 0xed, 0x07, 0xf6, 0xf1, 0xfb,
  0xf4, 0xf8, 0xfd, 0x03, 0x0d, 0x00, 0x00, 0x0a, 0xe4, 0x04, 0xf5, 0xfa,
  0x01, 0x01, 0x07, 0xfc, 0xfc, 0xf7, 0xf6, 0xf9, 0x0b, 0xf1, 0xff, 0x04,
  0x03, 0xfc, 0xf8, 0xfd, 0x03, 0xfa, 0x0d, 0x05, 0x0e, 0x03, 0x81, 0x98,
  0xb0, 0xd8, 0xf5, 0x06, 0x17, 0x0c, 0x11, 0x0f, 0x0b, 0x0f, 0x22, 0x15,
  0x1b, 0x21, 0x15, 0x14, 0x20, 0x14, 0x10, 0x13, 0x10, 0x1a, 0x05, 0x17,
  0x09, 0x0b, 0x04, 0x0d, 0xd1, 0x08, 0x1c, 0xed, 0x1b, 0xf8, 0x29, 0xee,
  0xf0, 0x0e, 0x08, 0xfe, 0x05, 0x01, 0x03, 0x0a, 0x18, 0xf3, 0xfb, 0x04,
  0x02, 0x13, 0xde, 0x04, 0x0e, 0xf0, 0x27, 0xe6, 0x09, 0x1f, 0x00, 0xfc,
  0xd8, 0x1c, 0x00, 0xfa, 0xdd, 0x1d, 0xf8, 0xf6, 0xf1, 0xfc, 0xe2, 0x0c,
  0x01, 0xe2, 0xe5, 0x0b, 0xf9, 0x08, 0xf4, 0xed, 0x3c, 0xfe, 0xfd, 0x2d,
  0xca, 0x47, 0xdd, 0x1d, 0x32, 0xea, 0xed, 0x01, 0xe3, 0xee, 0x0b, 0xe6,
  0x29, 0xef, 0x13, 0xeb, 0x2b, 0xdf, 0xf6, 0x1d, 0xf3, 0x13, 0x01, 0xf7,
  0x21, 0xf1, 0xed, 0xf8, 0x08, 0xf0, 0x22, 0xef, 0xf3, 0x0d, 0x07, 0x08,
  0x05, 0xfe, 0xfd, 0x36, 0xf3, 0xf2, 0xfa, 0xfe, 0xec, 0x0e, 0x00, 0x0a,
  0xe7, 0xfc, 0x17, 0xe6, 0xfb, 0x02, 0xd7, 0x17, 0xf3, 0x06, 0xdc, 0x20,
  0xe7, 0xf3, 0x19, 0x08, 0x84, 0xec, 0x05, 0xdb, 0xe1, 0xc6, 0xd8, 0xf9,
  0xd0, 0xeb, 0xe4, 0xe7, 0xcb, 0xe5, 0xfb, 0xd4, 0xd4, 0xe6, 0xe9, 0xda,
  0xed, 0xd2, 0xe3, 0xdd, 0xef, 0xab, 0xe4, 0xd4, 0xf5, 0x81, 0x26, 0xfb,
  0xea, 0xef, 0xfe, 0xfe, 0xfe, 0x02, 0xfe, 0xff, 0xfb, 0x02, 0xfc, 0x02,
  0xff, 0xf7, 0xfc, 0x05, 0xfd, 0xf5, 0x06, 0xfc, 0xfd, 0xf0, 0xf5, 0xff,
  0xf2, 0xed, 0xf0, 0xcc, 0xf5, 0xf8, 0xe7, 0xe2, 0xf0, 0xe7, 0xe7, 0xfa,
  0xe5, 0xfc, 0xf5, 0xf6, 0xf5, 0xef, 0xfa, 0xfc, 0xe9, 0xf1, 0xe8, 0xf2,
  0xf3, 0xe5, 0xed, 0xdc, 0xec, 0xdf, 0xd7, 0xd0, 0xce, 0xbc, 0x00, 0xf6,
  0xee, 0xeb, 0xd6, 0xf9, 0xf7, 0xec, 0xf7, 0xed, 0xf0, 0xe3, 0xf4, 0xf1,
  0xea, 0xf1, 0xf5, 0xe6, 0x00, 0xe5, 0xf0, 0xf4, 0xeb, 0xf1, 0x03, 0xde,
  0xf5, 0xe0, 0xe1, 0xf6, 0xec, 0xfe, 0x05, 0x01, 0xf6, 0xf0, 0xe4, 0xf9,
  0xf2, 0xe9, 0x0c, 0xfb, 0xfb, 0xff, 0xfb, 0xfe, 0xfb, 0x0e, 0xff, 0x00,
  0xfd, 0x05, 0x10, 0x09, 0xf7, 0x08, 0x18, 0x0e, 0x19, 0x10, 0xfd, 0x20,
  0x3f, 0x46, 0x4b, 0x36, 0x45, 0x22, 0x38, 0x33, 0x18, 0x2e, 0x24, 0x22,
  0x25, 0x22, 0x30, 0x1a, 0x1f, 0x38, 0x1e, 0x2a, 0x1f, 0x3e, 0x29, 0x42,
  0x2f, 0x58, 0x4b, 0x7f, 0x27, 0x16, 0x00, 0xec, 0xcd, 0xec, 0xf1, 0xea,
  0xfc, 0xf9, 0xfc, 0xfa, 0x0b, 0xfc, 0xfd, 0x01, 0xfc, 0xfd, 0x0b, 0x15,
  0xf7, 0x03, 0x06, 0x0b, 0x0b, 0x10, 0x15, 0x06, 0x0c, 0x23, 0x1a, 0x23,
  0xf7, 0xe6, 0xe9, 0xed, 0xe7, 0xf8, 0xfd, 0xf2, 0xf8, 0x04, 0x00, 0x00,
  0xfe, 0x09, 0xf8, 0x0c, 0x0d, 0xf7, 0x10, 0x0b, 0x0e, 0x06, 0xf5, 0x0e,
  0x03, 0x10, 0x0a, 0x10, 0x1e, 0xfc, 0xfd, 0xf2, 0xf1, 0xef, 0xf9, 0xfa,
  0xef, 0x01, 0x05, 0xf9, 0x00, 0xf8, 0x0c, 0xf6, 0x01, 0x01, 0xf3, 0xfb,
  0x06, 0xf2, 0xee, 0xf6, 0xfa, 0xf3, 0xe9, 0xee, 0xf7, 0xeb, 0xff, 0x06,
  0x0e, 0xd9, 0xd6, 0xd3, 0xd9, 0xe5, 0xe8, 0xf1, 0xe3, 0xfa, 0xf7, 0x02,
  0xf9, 0x02, 0x08, 0x00, 0xfc, 0x08, 0xfb, 0x0b, 0x0b, 0x0a, 0x15, 0xff,
  0x12, 0x14, 0x06, 0x03, 0xa6, 0xc7, 0xff, 0x61, 0x7f, 0x63, 0x56, 0x40,
  0x31, 0x24, 0x25, 0x11, 0x00, 0x0c, 0x01, 0x01, 0x07, 0xf7, 0xfb, 0xf2,
  0xfb, 0xf9, 0xf6, 0xf2, 0xf3, 0xf4, 0xee, 0xea, 0xef, 0xe8, 0x42, 0xdd,
  0xf1, 0xfc, 0xf3, 0x05, 0xfa, 0x00, 0x05, 0xe9, 0x09, 0xf5, 0x03, 0xfc,
  0xf7, 0x0a, 0xfa, 0x03, 0xf8, 0x10, 0xf6, 0x04, 0xfa, 0x01, 0x00, 0xfe,
  0x09, 0xf5, 0x09, 0x02, 0x2f, 0xfc, 0x01, 0x0c, 0x09, 0x01, 0x00, 0xf9,
  0xf7, 0x12, 0xf3, 0x05, 0xfe, 0x00, 0x0a, 0xf3, 0x05, 0xfa, 0x0a, 0xec,
  0x07, 0xfa, 0xfc, 0xfe, 0xfa, 0xfa, 0xe7, 0xf3, 0xfa, 0xbf, 0xf6, 0xde,
  0xe9, 0xd6, 0xe6, 0xf7, 0x06, 0x12, 0x14, 0xfe, 0x16, 0xfe, 0x02, 0x11,
  0x03, 0xff, 0x03, 0xfc, 0x08, 0x00, 0xfd, 0xf3, 0xf8, 0x06, 0xe6, 0x03,
  0xe9, 0xe6, 0xdf, 0xa7, 0xb9, 0xf2, 0x12, 0x59, 0x7d, 0x74, 0x4a, 0x64,
  0x67, 0x68, 0x4c, 0x72, 0x5e, 0x4e, 0x65, 0x63, 0x57, 0x6c, 0x50, 0x66,
  0x76, 0x63, 0x75, 0x52, 0x7b, 0x57, 0x63, 0x6c, 0x42, 0x7f, 0xe4, 0x5d,
  0x0f, 0xcb, 0xa2, 0x8e, 0xb5, 0x90, 0x87, 0x9d, 0xa2, 0x96, 0x9f, 0xa6,
  0x98, 0xa4, 0xa7, 0x9c, 0xa7, 0x9e, 0x92, 0xad, 0x9e, 0xad, 0xa8, 0xb4,
  0xc5, 0xc7, 0xdc, 0x14, 0xdb, 0x02, 0x7f, 0x4b, 0x2c, 0x20, 0x0f, 0x1f,
  0x0a, 0x12, 0x1b, 0x0e, 0x15, 0x17, 0x0d, 0x12, 0x1a, 0x10, 0xf3, 0x00,
  0x18, 0x01, 0x04, 0x0c, 0x0b, 0x14, 0x02, 0x13, 0x0c, 0x2a, 0xf0, 0x1c,
  0x17, 0x1e, 0x00, 0xfa, 0x0b, 0xfc, 0x07, 0xf5, 0xf3, 0xf6, 0xee, 0xf9,
  0x03, 0xfd, 0xfc, 0x04, 0x06, 0x01, 0xf9, 0x07, 0x0b, 0x02, 0x0a, 0xfb,
  0xfd, 0x00, 0x03, 0x02, 0x2c, 0x0b, 0xdf, 0xdb, 0x01, 0x02, 0xec, 0xf4,
  0x08, 0x0b, 0xfc, 0x01, 0x01, 0x02, 0xf8, 0xf8, 0xfd, 0xf1, 0x09, 0xfd,
  0xf4, 0x01, 0xef, 0xe9, 0xea, 0xfa, 0x0c, 0xf2, 0xe4, 0x00, 0x10, 0xf9,
  0xc5, 0xdf, 0xf0, 0xf8, 0x01, 0x05, 0xec, 0x01, 0xf7, 0x08, 0x08, 0xf5,
  0x08, 0x02, 0x06, 0x07, 0x00, 0x05, 0x12, 0x10, 0xfd, 0x17, 0x16, 0x00,
  0x01, 0x17, 0x14, 0xf8, 0xfe, 0xe2, 0xc8, 0xdd, 0xe6, 0xed, 0xfc, 0xef,
  0xff, 0xef, 0x03, 0xf6, 0xf7, 0xfc, 0xf4, 0xfb, 0xeb, 0xf7, 0x03, 0x00,
  0xed, 0xec, 0x08, 0xf6, 0xee, 0xfd, 0xf9, 0xe9, 0xfc, 0xf1, 0x17, 0x39,
  0x3a, 0x19, 0x2a, 0x1b, 0x18, 0x0d, 0x10, 0x0f, 0x09, 0x04, 0x02, 0x09,
  0x0f, 0x08, 0x07, 0x0a, 0x19, 0x09, 0x23, 0x10, 0x21, 0x1f, 0x25, 0x27,
  0x2c, 0x43, 0x44, 0x7f, 0x2e, 0x30, 0x32, 0x24, 0x25, 0x20, 0x00, 0x1b,
  0x23, 0xfd, 0x1c, 0x08, 0x20, 0x0b, 0x0c, 0x1a, 0x0f, 0x0c, 0x02, 0x1f,
  0x11, 0x0c, 0x14, 0x1c, 0x1c, 0x15, 0x2b, 0x39, 0x2a, 0x42, 0xfb, 0xf0,
  0x03, 0xff, 0xf6, 0xf1, 0x04, 0xff, 0xf9, 0x06, 0xf5, 0xfa, 0xf7, 0x03,
  0xf3, 0xfa, 0xf8, 0x01, 0xfe, 0x04, 0xeb, 0xf3, 0x01, 0xf0, 0xee, 0xf8,
  0xfc, 0xda, 0xea, 0xec, 0x00, 0xea, 0xde, 0xf8, 0xed, 0xf1, 0xf9, 0xf1,
  0xf8, 0xfd, 0xfa, 0x01, 0xfe, 0xfb, 0xff, 0xf1, 0x06, 0xfc, 0xf6, 0xe8,
  0xf5, 0xfd, 0xe3, 0xfd, 0xf1, 0xe8, 0xe0, 0xe5, 0xe7, 0xcd, 0xbc, 0xbf,
  0xb1, 0xcc, 0xcf, 0xe4, 0xeb, 0xe8, 0xdc, 0xf1, 0xec, 0xf8, 0xe8, 0xef,
  0xf4, 0xf2, 0xed, 0xed, 0xf2, 0xec, 0xeb, 0xf3, 0xe7, 0xd5, 0xdf, 0xe2,
  0xce, 0xc4, 0xc1, 0x89, 0x00, 0xe4, 0xfa, 0x05, 0x03, 0x00, 0x02, 0x00,
  0x03, 0xff, 0x02, 0x01, 0x00, 0x02, 0x03, 0xff, 0x02, 0x01, 0x02, 0x02,
  0x01, 0x02, 0x02, 0x03, 0x01, 0x03, 0x01, 0x04, 0x00, 0x09, 0x07, 0xe2,
  0xfb, 0x06, 0xff, 0x04, 0xff, 0x02, 0xfe, 0x01, 0x01, 0x01, 0x01, 0x00,
  0xfe, 0x04, 0xfe, 0x02, 0x01, 0x00, 0x00, 0x02, 0x00, 0x00, 0x01, 0x01,
  0x00, 0xff, 0x03, 0xff, 0xdf, 0xd7, 0xe6, 0xfb, 0xfd, 0xf5, 0xf5, 0xf3,
  0xf5, 0xf9, 0xf8, 0xfb, 0xfa, 0xfd, 0xfd, 0xfa, 0x00, 0xfe, 0xfe, 0xff,
  0x00, 0xfc, 0xfe, 0xfe, 0x00, 0xfd, 0xfe, 0xfb, 0xfe, 0xf5, 0xbe, 0xdf,
  0xf0, 0x1c, 0x1b, 0x15, 0x10, 0x19, 0x14, 0x13, 0x10, 0x0a, 0x0d, 0x08,
  0x09, 0x0a, 0x05, 0x04, 0x05, 0x03, 0x02, 0x03, 0x01, 0x00, 0x02, 0xfd,
  0x03, 0xfd, 0xfd, 0xfa, 0x7f, 0x7e, 0x2f, 0xdd, 0xe5, 0xf1, 0xfa, 0xf2,
  0xf6, 0xf3, 0xf4, 0xf8, 0xf8, 0xf8, 0xf8, 0xf9, 0xfa, 0xfb, 0xfa, 0xfb,
  0xfd, 0xfd, 0xfe, 0xff, 0xfc, 0x02, 0xff, 0x05, 0x02, 0x09, 0xfe, 0x02,
  0x00, 0x04, 0xff, 0x07, 0xff, 0xff, 0x00, 0xfd, 0xfe, 0x00, 0xfb, 0xfe,
  0xf9, 0xff, 0xfa, 0xff, 0xfa, 0xfe, 0xfc, 0xfc, 0xff, 0xff, 0x01, 0xfb,
  0xfd, 0xfd, 0xfe, 0xfc, 0xed, 0x01, 0xfe, 0x0a, 0xfd, 0x07, 0xfb, 0xfe,
  0xf9, 0xfd, 0xfa, 0xfd, 0xf8, 0x00, 0xf3, 0xf9, 0xfd, 0xf6, 0xfe, 0xf8,
  0x01, 0xf3, 0xfc, 0xf8, 0xfb, 0xff, 0xf1, 0xfe, 0xf9, 0xe5, 0xe5, 0xfa,
  0xfb, 0x00, 0xf5, 0xf8, 0xef, 0xeb, 0xe9, 0xeb, 0xea, 0xec, 0xe9, 0xe8,
  0xe3, 0xe6, 0xe7, 0xe0, 0xe5, 0xe8, 0xe2, 0xe8, 0xe0, 0xe1, 0xe6, 0xdc,
  0xe5, 0xd8, 0xe0, 0xbd, 0xff, 0xf6, 0xfe, 0xf9, 0x04, 0xf0, 0xf3, 0xe9,
  0xea, 0xeb, 0xf4, 0xe2, 0xf0, 0xe4, 0xf6, 0xe8, 0xeb, 0xed, 0xeb, 0xe8,
  0xed, 0xef, 0xef, 0xf4, 0xe7, 0xef, 0xf2, 0xe4, 0xec, 0xe1, 0x31, 0x0c,
  0x0a, 0xf9, 0x0b, 0x0b, 0x22, 0x2f, 0x33, 0x30, 0x29, 0x34, 0x32, 0x35,
  0x39, 0x39, 0x36, 0x3d, 0x37, 0x39, 0x34, 0x3a, 0x35, 0x35, 0x36, 0x3c,
  0x3a, 0x48, 0x3e, 0x7f, 0xa5, 0xdf, 0xf9, 0x03, 0x02, 0xf5, 0xfa, 0x0a,
  0xfc, 0xfd, 0x0c, 0x17, 0xfc, 0x11, 0x1b, 0x15, 0x0e, 0x15, 0x2d, 0x11,
  0x29, 0x34, 0x32, 0x3a, 0x45, 0x49, 0x47, 0x4d, 0x57, 0x7f, 0xfa, 0x07,
  0x0c, 0xfd, 0xfb, 0xfc, 0x09, 0x04, 0x01, 0x0c, 0xea, 0xfa, 0x08, 0x02,
  0xe8, 0x04, 0xfc, 0xfb, 0x01, 0x01, 0xf5, 0xf9, 0xea, 0xf7, 0xe4, 0xff,
  0x07, 0xfe, 0xff, 0xe0, 0x29, 0x19, 0x04, 0xf8, 0xf6, 0x09, 0xf1, 0xf4,
  0xf5, 0xf2, 0xf6, 0xf5, 0xfb, 0xed, 0xfe, 0xf6, 0xfd, 0xf8, 0xe1, 0xff,
  0xed, 0xf0, 0xe5, 0xea, 0xfa, 0xec, 0xe5, 0xef, 0xeb, 0xe9, 0x14, 0xef,
  0x0a, 0xfd, 0x06, 0xfd, 0x09, 0xfa, 0x05, 0x02, 0x10, 0xfc, 0xf4, 0x11,
  0xf8, 0xfb, 0xf0, 0xf9, 0xf7, 0xfc, 0x06, 0xf9, 0x00, 0xf7, 0xf6, 0xe5,
  0xee, 0xd8, 0xd5, 0xdd, 0x22, 0x11, 0xec, 0x0a, 0x07, 0x09, 0x02, 0x04,
  0x08, 0x02, 0x03, 0xfd, 0x0d, 0xee, 0x07, 0xf6, 0x08, 0xfe, 0xf8, 0xf3,
  0xee, 0xe8, 0xfe, 0xec, 0xe6, 0xe5, 0xdd, 0xec, 0xe6, 0xd8, 0xfd, 0x0a,
  0xf2, 0xfe, 0x01, 0x02, 0x01, 0x01, 0x01, 0x01, 0x00, 0x01, 0x00, 0x00,
  0x01, 0x02, 0x00, 0x00, 0x02, 0xff, 0x00, 0xff, 0x02, 0x00, 0x00, 0x01,
  0x00, 0x02, 0xfe, 0xff, 0x14, 0x06, 0xf0, 0xfc, 0x01, 0x03, 0x00, 0xff,
  0x00, 0xff, 0x02, 0x00, 0x00, 0x00, 0xff, 0xfe, 0x02, 0x01, 0xfe, 0xfe,
  0x02, 0xff, 0xff, 0x01, 0xff, 0xfe, 0xff, 0xfc, 0x01, 0x00, 0x3a, 0x02,
  0xe1, 0xed, 0xf8, 0x01, 0xfb, 0xfd, 0xfb, 0xfe, 0xfb, 0xfd, 0xfc, 0xff,
  0xfd, 0xff, 0xff, 0xfd, 0x01, 0x01, 0xff, 0x02, 0x00, 0x01, 0x01, 0x01,
  0x02, 0x01, 0x05, 0x03, 0x0e, 0xf8, 0xbd, 0xd8, 0xfb, 0x09, 0x13, 0x0c,
  0x0f, 0x0a, 0x0e, 0x0d, 0x0c, 0x0a, 0x0b, 0x09, 0x09, 0x05, 0x05, 0x07,
  0x02, 0x01, 0x00, 0x00, 0x00, 0xfc, 0xfd, 0x01, 0xfd, 0xf9, 0xa4, 0xf6,
  0x7f, 0x40, 0x0c, 0xf0, 0xf0, 0xf7, 0xf5, 0xf8, 0xf6, 0xf5, 0xf7, 0xf7,
  0xf8, 0xf8, 0xf6, 0xfd, 0xfa, 0xfb, 0xfe, 0xfe, 0xff, 0xff, 0x00, 0x05,
  0x02, 0x02, 0x00, 0x06, 0x5e, 0xea, 0xff, 0xff, 0x04, 0x00, 0x00, 0x00,
  0x80, 0x00, 0x00, 0x00, 0xf1, 0x01, 0x00, 0x00, 0x19, 0x6a, 0x00, 0x00,
  0x77, 0x0f, 0x00, 0x00, 0x29, 0xfc, 0xff, 0xff, 0xa0, 0xdb, 0xff, 0xff,
  0x12, 0x82, 0x00, 0x00, 0x2a, 0xb1, 0xff, 0xff, 0x23, 0x14, 0x00, 0x00,
  0x3f, 0x04, 0x00, 0x00, 0x89, 0x4f, 0x01, 0x00, 0x38, 0xfb, 0xff, 0xff,
  0x4f, 0xf5, 0xff, 0xff, 0x74, 0x06, 0x00, 0x00, 0x10, 0xee, 0xff, 0xff,
  0xa2, 0xe8, 0xff, 0xff, 0xbb, 0xf7, 0xff, 0xff, 0xa2, 0x4c, 0x00, 0x00,
  0xe7, 0x0f, 0x00, 0x00, 0x36, 0x16, 0x00, 0x00, 0x0e, 0x51, 0x00, 0x00,
  0xf4, 0xff, 0xff, 0xff, 0x8f, 0xfd, 0xff, 0xff, 0x88, 0x1f, 0x02, 0x00,
  0x27, 0xc3, 0xff, 0xff, 0xd5, 0xe1, 0xff, 0xff, 0x41, 0xde, 0xff, 0xff,
  0x36, 0xbf, 0xff, 0xff, 0xf3, 0x20, 0x00, 0x00, 0x0e, 0xe9, 0xff, 0xff,
  0x94, 0xf8, 0xff, 0xff, 0x2e, 0x09, 0x00, 0x00, 0xab, 0xfb, 0xff, 0xff,
  0xea, 0xea, 0xff, 0xff, 0x04, 0x00, 0x00, 0x00, 0x00, 0x14, 0x00, 0x00,
  0x00, 0x01, 0x00, 0xda, 0x00, 0x00, 0xff, 0x00, 0x00, 0x02, 0x02, 0xfc,
  0x00, 0xd6, 0x01, 0x01, 0x00, 0x00, 0x00, 0xff, 0xfc, 0xff, 0x00, 0xfc,
  0x02, 0xf7, 0x00, 0x00, 0xfb, 0xeb, 0x00, 0xfc, 0x00, 0x00, 0x00, 0xd2,
  0x00, 0xff, 0xff, 0x00, 0xc8, 0x03, 0x01, 0xfa, 0x0a, 0xd2, 0x01, 0x03,
  0x00, 0x00, 0x01, 0x00, 0x99, 0xff, 0x00, 0xff, 0x01, 0xf1, 0x00, 0x00,
  0xfe, 0xa9, 0xff, 0xde, 0xff, 0x00, 0x00, 0xac, 0x00, 0xff, 0x00, 0x00,
  0xca, 0x03, 0xa5, 0xf4, 0xfd, 0xdd, 0x01, 0xcd, 0x00, 0xfc, 0x02, 0xff,
  0x81, 0xfa, 0x00, 0xfd, 0xfe, 0xf1, 0xff, 0x00, 0xf7, 0xa6, 0xfe, 0xae,
  0xf0, 0xfe, 0x03, 0x00, 0xff, 0x00, 0x01, 0xfd, 0xe5, 0xff, 0xf7, 0x00,
  0x00, 0x01, 0x03, 0xfd, 0xff, 0x02, 0x01, 0xff, 0xf6, 0x00, 0xff, 0x00,
  0x00, 0xf5, 0xfc, 0x06, 0x03, 0x00, 0xf5, 0xff, 0x03, 0xfe, 0xf9, 0x03,
  0xf8, 0x01, 0x00, 0xf0, 0xf1, 0xfd, 0x04, 0x04, 0x01, 0x03, 0x08, 0x02,
  0xff, 0xe4, 0xfe, 0xf7, 0x02, 0x03, 0x06, 0x01, 0x03, 0x08, 0xf3, 0xfc,
  0x06, 0x01, 0x09, 0x09, 0xfe, 0x00, 0x00, 0x01, 0x00, 0x00, 0x00, 0xff,
  0x03, 0x01, 0x03, 0x00, 0x00, 0x00, 0x06, 0x00, 0x01, 0x01, 0x00, 0x00,
  0xfd, 0xff, 0x01, 0x00, 0x02, 0x03, 0x01, 0x01, 0x00, 0x00, 0x00, 0xfe,
  0xfc, 0x00, 0x01, 0x01, 0x00, 0x00, 0x00, 0x00, 0xfb, 0x00, 0x00, 0x01,
  0x00, 0x00, 0x01, 0x00, 0x00, 0x04, 0x01, 0x00, 0xf7, 0xfd, 0x00, 0x00,
  0xff, 0xfe, 0xff, 0xff, 0x01, 0x00, 0xfb, 0xff, 0xef, 0x00, 0xff, 0x00,
  0x00, 0x00, 0x00, 0x01, 0xe9, 0xfc, 0xfd, 0x00, 0x00, 0x06, 0x00, 0xfa,
  0x00, 0x01, 0x01, 0x00, 0xee, 0xfd, 0xfd, 0x00, 0x04, 0xf7, 0x02, 0xfe,
  0x00, 0x00, 0xf1, 0x03, 0xeb, 0x02, 0x00, 0x0e, 0xbe, 0xff, 0x01, 0x03,
  0xf5, 0x02, 0x06, 0x01, 0xff, 0xe7, 0xfa, 0x07, 0x01, 0xfc, 0x01, 0xc4,
  0xf7, 0xfd, 0xff, 0xfe, 0xfd, 0x08, 0x04, 0xff, 0x11, 0x04, 0xed, 0x0c,
  0xf0, 0xff, 0xfc, 0x15, 0x81, 0x00, 0x02, 0xff, 0x03, 0xfe, 0x0a, 0xf3,
  0x00, 0x14, 0xf6, 0xf9, 0x01, 0xfd, 0x00, 0xcf, 0x08, 0xfc, 0xff, 0xfc,
  0xff, 0x04, 0x03, 0xfc, 0x05, 0x05, 0xeb, 0x08, 0x03, 0xfd, 0x06, 0x0b,
  0xef, 0x10, 0x04, 0xff, 0xf9, 0xfe, 0xde, 0xec, 0xfe, 0x01, 0xe9, 0xee,
  0x01, 0x01, 0xff, 0xff, 0xf7, 0xfe, 0x08, 0xfb, 0x0c, 0xe9, 0x06, 0x03,
  0xdf, 0xff, 0xfa, 0xf1, 0xff, 0xfc, 0x02, 0xf5, 0xf9, 0x0f, 0x02, 0xff,
  0x06, 0x02, 0xe3, 0xf5, 0xfb, 0xf8, 0xce, 0xee, 0xf7, 0x03, 0xfc, 0xf1,
  0xff, 0x08, 0x07, 0x01, 0x0d, 0xe7, 0xf6, 0x01, 0xcc, 0xff, 0xf8, 0xf9,
  0xea, 0x04, 0xf8, 0x01, 0xe3, 0x0d, 0x00, 0x04, 0xfc, 0x02, 0xc5, 0xfe,
  0xfc, 0xf5, 0xa8, 0xfc, 0xfc, 0x02, 0xf6, 0xf2, 0xea, 0x0f, 0x08, 0xfb,
  0x0f, 0xbf, 0xeb, 0xf7, 0xf9, 0xfd, 0xf6, 0x08, 0xdb, 0x08, 0xe0, 0x0a,
  0xee, 0x09, 0xfe, 0x05, 0xd8, 0xe2, 0xc2, 0x06, 0x02, 0xfe, 0xd8, 0xfe,
  0xfd, 0xf9, 0xf4, 0xf2, 0xfb, 0x0e, 0xfd, 0xff, 0x09, 0x81, 0x0a, 0xec,
  0x04, 0xff, 0x18, 0x1b, 0xe2, 0x04, 0xec, 0x0d, 0xd4, 0x0d, 0x01, 0x05,
  0xdc, 0xd9, 0xc0, 0x04, 0x04, 0x06, 0x10, 0x02, 0x07, 0x19, 0xf2, 0xb4,
  0x0d, 0x0c, 0xf1, 0x02, 0x12, 0xe1, 0xd7, 0xf3, 0x1e, 0x02, 0x5f, 0x29,
  0xa4, 0xff, 0xd8, 0xfe, 0xef, 0xf6, 0x03, 0xf2, 0x25, 0x04, 0x38, 0x01,
  0xfe, 0x0f, 0x2f, 0x0b, 0xfa, 0xf5, 0x06, 0xce, 0x14, 0x07, 0xe4, 0xfe,
  0x0a, 0x13, 0xd5, 0xe4, 0xfe, 0xff, 0xde, 0x0d, 0x1b, 0x00, 0xf3, 0x05,
  0xe7, 0xf5, 0x06, 0xfc, 0x03, 0xf5, 0x15, 0x09, 0xfb, 0xeb, 0x08, 0xf9,
  0xfa, 0x02, 0x05, 0x81, 0xfa, 0xff, 0xe6, 0xfb, 0xf6, 0x00, 0x00, 0xf8,
  0x1b, 0xfc, 0x13, 0x11, 0x04, 0xfe, 0xff, 0x01, 0xb8, 0x02, 0x07, 0x01,
  0x00, 0xfe, 0x05, 0x03, 0xfc, 0xe4, 0xde, 0xf1, 0x01, 0xff, 0x05, 0xb9,
  0xfc, 0x04, 0xf7, 0xff, 0xfa, 0x02, 0x09, 0x00, 0x05, 0xfa, 0xfb, 0x03,
  0x01, 0xfb, 0xff, 0x00, 0xe7, 0xf9, 0x06, 0x01, 0x00, 0x10, 0x05, 0x07,
  0xfe, 0x03, 0xe1, 0x02, 0x12, 0x00, 0x05, 0xa0, 0xfe, 0x00, 0xfa, 0xfb,
  0xf9, 0x07, 0x02, 0x00, 0xfd, 0x00, 0xfa, 0xfe, 0xff, 0xf7, 0xff, 0xfb,
  0x01, 0xfc, 0x08, 0xff, 0x01, 0x0a, 0x01, 0xfb, 0xf6, 0x05, 0xf2, 0xfd,
  0x0f, 0x00, 0x04, 0xfd, 0xfc, 0xfd, 0xfb, 0xf7, 0xf9, 0x08, 0xfe, 0xff,
  0xfb, 0x00, 0x00, 0xf4, 0xcb, 0x08, 0x05, 0xfc, 0x01, 0x01, 0x03, 0x00,
  0xde, 0x08, 0xfb, 0xff, 0xfe, 0xfe, 0x03, 0xfe, 0x02, 0xfe, 0x03, 0x03,
  0xd2, 0xeb, 0xf9, 0x00, 0x01, 0xeb, 0xf2, 0x00, 0xf7, 0xfe, 0xe3, 0xe0,
  0xe0, 0xfc, 0x0b, 0xfa, 0x00, 0x04, 0x01, 0x06, 0xde, 0x09, 0xf9, 0xfc,
  0x00, 0x00, 0xff, 0xf9, 0x05, 0x02, 0xfc, 0x01, 0xdb, 0xf7, 0xf9, 0x00,
  0x08, 0xf4, 0xf8, 0x03, 0xff, 0xff, 0xda, 0xe9, 0xe5, 0x0c, 0x12, 0x45,
  0xff, 0xfb, 0x04, 0x0a, 0xe2, 0x02, 0xee, 0x00, 0x00, 0xe1, 0xaf, 0xd5,
  0x04, 0x0a, 0x04, 0x01, 0xd9, 0xf3, 0xfc, 0xff, 0xda, 0xdd, 0xf3, 0x08,
  0xf6, 0x02, 0xed, 0xb7, 0xe8, 0xf8, 0x09, 0xf5, 0xbe, 0x0b, 0xfe, 0x07,
  0xe3, 0x03, 0x26, 0x09, 0xfe, 0x20, 0x16, 0x0d, 0x02, 0x02, 0x00, 0xc1,
  0x01, 0x0a, 0x00, 0xfe, 0x1f, 0x01, 0xfb, 0x00, 0xbc, 0xfd, 0xfd, 0xf5,
  0xc5, 0xf5, 0xf9, 0x2b, 0xa2, 0x19, 0xff, 0xf6, 0xe6, 0xef, 0x15, 0xff,
  0xff, 0x1a, 0x46, 0x10, 0xfb, 0xe7, 0x01, 0x81, 0x2c, 0x32, 0xf0, 0x0b,
  0x2c, 0x1d, 0x05, 0xf0, 0x4b, 0x13, 0x04, 0x4d, 0x00, 0xff, 0x01, 0xff,
  0x00, 0x01, 0x01, 0x00, 0xfc, 0x00, 0x07, 0xff, 0x00, 0x02, 0x05, 0x07,
  0x01, 0xff, 0x00, 0x00, 0xfe, 0xfd, 0xfe, 0x01, 0x00, 0x03, 0x01, 0x01,
  0x00, 0x00, 0xff, 0xff, 0x02, 0x01, 0x02, 0xf1, 0x9a, 0x01, 0x00, 0x00,
  0x01, 0x03, 0x11, 0xfd, 0x00, 0xe2, 0xff, 0xe6, 0x02, 0x00, 0x01, 0xe8,
  0xfa, 0xfd, 0xfc, 0x00, 0xfd, 0xff, 0xfd, 0x00, 0x03, 0xf8, 0xf8, 0xfc,
  0x05, 0x02, 0x02, 0xd4, 0x81, 0x03, 0x01, 0x00, 0xff, 0xfd, 0x0a, 0xff,
  0xfe, 0xcb, 0xfb, 0xf2, 0x01, 0x01, 0x01, 0xd5, 0xf8, 0xfb, 0xfa, 0xf6,
  0xfe, 0xff, 0xff, 0x00, 0xf2, 0xdf, 0x01, 0xf9, 0x01, 0x03, 0x00, 0xcd,
  0x8f, 0x00, 0x00, 0x00, 0x00, 0x02, 0x01, 0xfd, 0xfa, 0xb2, 0xf5, 0xfa,
  0x00, 0xfe, 0x01, 0xdc, 0xff, 0x00, 0xfe, 0xee, 0xfe, 0x01, 0x00, 0x00,
  0xe7, 0xcf, 0x01, 0xfc, 0xff, 0x02, 0x00, 0xcc, 0xdc, 0x01, 0xff, 0x01,
  0x01, 0x01, 0xfd, 0xff, 0xfb, 0xbc, 0x06, 0xf3, 0xff, 0x01, 0x01, 0xc0,
  0x02, 0xff, 0x01, 0xd1, 0x01, 0x01, 0x02, 0x00, 0xf9, 0xa3, 0xfd, 0x04,
  0x00, 0x07, 0x07, 0xfb, 0x00, 0x05, 0x03, 0x04, 0x03, 0x00, 0x02, 0xfb,
  0xfb, 0x00, 0xe6, 0xfe, 0x08, 0x01, 0xf9, 0x00, 0xff, 0x05, 0x03, 0xfd,
  0xff, 0xfb, 0xeb, 0x01, 0x04, 0xff, 0xf7, 0xfe, 0x07, 0x04, 0x01, 0xf3,
  0xff, 0x05, 0x02, 0x03, 0xfd, 0xf9, 0xff, 0xfe, 0x00, 0xfa, 0xd8, 0xef,
  0x0b, 0x00, 0xf8, 0xff, 0x00, 0x05, 0xfe, 0xfe, 0xf4, 0xf3, 0xf5, 0xff,
  0x05, 0xfe, 0xf0, 0xf5, 0x06, 0x07, 0xfb, 0xf9, 0xdf, 0xfe, 0x00, 0x06,
  0xfd, 0x00, 0xec, 0x0a, 0x08, 0x0a, 0xeb, 0x09, 0x05, 0xfd, 0x01, 0x81,
  0x06, 0x14, 0xff, 0x04, 0xfa, 0xf3, 0xfb, 0xfc, 0x15, 0x07, 0xe8, 0x09,
  0x06, 0x09, 0xfa, 0x09, 0xf6, 0xef, 0xfe, 0x00, 0xfe, 0x0d, 0x12, 0xfa,
  0x0b, 0xff, 0xaa, 0x30, 0x02, 0xf8, 0x0c, 0xcc, 0xfd, 0x0d, 0xff, 0x05,
  0x01, 0x00, 0xfc, 0xfc, 0x16, 0xf9, 0xea, 0x01, 0x03, 0x07, 0xf8, 0x18,
  0xf7, 0xeb, 0xf7, 0x04, 0x10, 0xfb, 0xfa, 0xf5, 0x02, 0x07, 0x4f, 0x03,
  0xe2, 0x01, 0x16, 0xd9, 0x03, 0x1d, 0xf9, 0x10, 0xf9, 0x07, 0xfc, 0xfc,
  0xd3, 0x0e, 0xe5, 0x0f, 0x00, 0xf6, 0xff, 0x02, 0x01, 0xff, 0xff, 0xff,
  0x01, 0x04, 0x00, 0xfe, 0x01, 0xff, 0xf0, 0x01, 0xff, 0x00, 0xfb, 0xff,
  0xf7, 0xfa, 0x00, 0xff, 0xf5, 0x09, 0xfe, 0xff, 0xf8, 0x00, 0x01, 0xee,
  0x01, 0xf6, 0x00, 0x01, 0x00, 0xff, 0xfe, 0xfe, 0x03, 0x0a, 0xff, 0x00,
  0xff, 0x01, 0xf8, 0x01, 0xfd, 0x01, 0xfc, 0x00, 0xfb, 0xff, 0x01, 0xff,
  0xfe, 0x0d, 0xfa, 0x00, 0xfa, 0x00, 0x04, 0xf1, 0xfe, 0xff, 0xff, 0x01,
  0x01, 0x01, 0xff, 0xf3, 0xfe, 0x02, 0xfd, 0x00, 0x00, 0x00, 0xe9, 0x00,
  0x04, 0xff, 0x01, 0x00, 0xe7, 0xfd, 0xfc, 0x00, 0xfd, 0xf5, 0xdd, 0xff,
  0xfe, 0x00, 0x08, 0xd2, 0xfe, 0xf9, 0xfd, 0x00, 0x01, 0x03, 0x00, 0xf5,
  0xdb, 0xdc, 0xfd, 0x01, 0x00, 0x04, 0x2d, 0xda, 0x08, 0x0a, 0xfc, 0x00,
  0xe1, 0xff, 0xf4, 0x00, 0x00, 0xe2, 0xc5, 0x08, 0xfc, 0x00, 0x06, 0xd4,
  0xd1, 0xf9, 0xfa, 0x25, 0xc6, 0x04, 0x0c, 0x9c, 0xaa, 0xe3, 0x57, 0x0c,
  0x00, 0x2c, 0x76, 0xf2, 0x06, 0xb4, 0xfd, 0xab, 0x5a, 0xce, 0xe8, 0x00,
  0x04, 0x06, 0x81, 0x00, 0xfc, 0xf9, 0x2e, 0x4d, 0xfa, 0x01, 0xff, 0x00,
  0x01, 0x01, 0x00, 0xff, 0xfa, 0x03, 0xff, 0xfe, 0x00, 0x00, 0xf1, 0xfb,
  0xff, 0x01, 0x00, 0x00, 0xfb, 0xfc, 0x00, 0x01, 0xfe, 0xfb, 0xfa, 0x00,
  0x01, 0x00, 0xff, 0xfe, 0xf9, 0x00, 0x01, 0xf5, 0x05, 0xff, 0x00, 0x00,
  0xf8, 0x03, 0xf2, 0xfc, 0x01, 0xf9, 0xe2, 0xff, 0xff, 0x01, 0xff, 0x01,
  0xfb, 0xff, 0xff, 0x01, 0xfa, 0xf9, 0xfc, 0x01, 0xf5, 0x00, 0xfb, 0xf7,
  0xfa, 0xff, 0x03, 0xbd, 0xf0, 0xff, 0x00, 0x01, 0xfd, 0x03, 0xf3, 0xf5,
  0xfe, 0xa3, 0xd7, 0xdb, 0x01, 0x02, 0xfe, 0xfd, 0xfa, 0xf4, 0x00, 0xf7,
  0xf5, 0x00, 0xfb, 0x03, 0xdf, 0xdf, 0xf9, 0xef, 0xf5, 0x02, 0xff, 0x0b,
  0x81, 0xfe, 0x00, 0x01, 0xf2, 0x01, 0xe4, 0x06, 0x01, 0x00, 0x10, 0xfa,
  0x00, 0xff, 0x01, 0xe0, 0xf5, 0x00, 0x00, 0x0b, 0x06, 0xf5, 0xfc, 0xff,
  0xf3, 0x03, 0xfa, 0xf2, 0xe8, 0xff, 0xfc, 0xea, 0xc8, 0x03, 0x01, 0xfd,
  0xe5, 0xfa, 0xfb, 0x0c, 0x02, 0xee, 0x2a, 0x36, 0xff, 0xf9, 0x01, 0xa4,
  0x0a, 0x06, 0x03, 0xfe, 0x0d, 0x09, 0xfa, 0xfb, 0x12, 0xf4, 0x09, 0x1c,
  0x01, 0xfd, 0x05, 0x02, 0x01, 0x00, 0x00, 0xff, 0x02, 0x04, 0x05, 0xfe,
  0x00, 0x01, 0xe2, 0x02, 0x01, 0x03, 0x04, 0x01, 0xf7, 0xf5, 0xfc, 0x00,
  0xfd, 0xfc, 0x00, 0x04, 0x00, 0x00, 0x03, 0xfd, 0xed, 0x04, 0x06, 0x00,
  0x02, 0xff, 0x00, 0x02, 0xfe, 0xfd, 0x01, 0x00, 0xfe, 0xfa, 0xc8, 0x01,
  0xff, 0x01, 0x03, 0x01, 0xf5, 0xfc, 0xf5, 0xff, 0xfa, 0xea, 0xf7, 0xfe,
  0xfa, 0xff, 0xfa, 0xf4, 0xe7, 0xff, 0xf8, 0xfd, 0xf2, 0x09, 0x01, 0x00,
  0xee, 0xfb, 0x0d, 0x05, 0xfd, 0xfc, 0xfc, 0x0b, 0xff, 0xf7, 0x04, 0xf2,
  0x07, 0xfc, 0xf8, 0xff, 0x09, 0x00, 0xfe, 0xf8, 0xfc, 0xfc, 0x04, 0x11,
  0xd4, 0x00, 0xef, 0x3b, 0x81, 0xff, 0x00, 0xf9, 0x03, 0x08, 0x1a, 0x15,
  0xf9, 0xe8, 0x1a, 0x3d, 0x00, 0xec, 0x0a, 0xa2, 0x15, 0x1f, 0xfd, 0x00,
  0x06, 0x0c, 0xff, 0xef, 0x31, 0x0e, 0x10, 0x2a, 0xfb, 0xff, 0xfe, 0x9e,
  0xd4, 0x02, 0xfe, 0xfd, 0x04, 0xf0, 0xf6, 0x01, 0xec, 0x41, 0x1d, 0xde,
  0x05, 0x02, 0x01, 0x87, 0x11, 0x0c, 0x09, 0xf3, 0x01, 0xfe, 0xfd, 0x00,
  0xf9, 0xf5, 0x06, 0x07, 0xfd, 0x05, 0x00, 0xbf, 0x81, 0xfe, 0x02, 0x00,
  0xfb, 0x02, 0xed, 0x02, 0xfc, 0xfd, 0xf8, 0xf8, 0x06, 0xff, 0x03, 0xea,
  0x06, 0x03, 0xfb, 0xf6, 0x01, 0xf5, 0xfc, 0xff, 0xf8, 0xe6, 0xf6, 0x01,
  0x02, 0x03, 0xfc, 0x96, 0xd7, 0xfb, 0x02, 0xff, 0x02, 0x01, 0xf7, 0xf3,
  0xf5, 0xff, 0xfe, 0xe0, 0xfe, 0xfe, 0xff, 0xf0, 0x0d, 0x00, 0xfd, 0xed,
  0xff, 0x06, 0x04, 0x01, 0xf7, 0xc6, 0xf7, 0x00, 0xfd, 0x04, 0xf9, 0x04,
  0x83, 0xfc, 0x01, 0x00, 0x09, 0x02, 0xf3, 0x02, 0xfa, 0x01, 0xfb, 0x04,
  0x01, 0xfc, 0x01, 0xfd, 0x0c, 0x0b, 0xfc, 0xff, 0x03, 0xf4, 0x03, 0xf9,
  0xff, 0x01, 0xe1, 0x0a, 0xfe, 0x05, 0xf4, 0xf6, 0xc9, 0x03, 0x01, 0x04,
  0xfe, 0x01, 0xfe, 0x0d, 0x00, 0xf0, 0x02, 0x0c, 0x01, 0xfa, 0x03, 0xe8,
  0xfc, 0x0a, 0xfe, 0x05, 0x04, 0xf8, 0x03, 0xf7, 0x10, 0xfd, 0xcf, 0x0d,
  0xff, 0x03, 0xf9, 0xfd, 0xc5, 0xf9, 0xfe, 0x06, 0xfe, 0x02, 0x2e, 0x0d,
  0x03, 0xf9, 0xfa, 0x1d, 0xff, 0xfc, 0x03, 0x89, 0xf7, 0x0c, 0x02, 0xfd,
  0x06, 0x02, 0xfe, 0xfb, 0xfe, 0x06, 0xd8, 0xfe, 0x00, 0xf6, 0x00, 0x03,
  0xff, 0x01, 0xfb, 0xfe, 0x05, 0x02, 0x04, 0xfd, 0xff, 0x02, 0xff, 0x00,
  0x02, 0x02, 0x02, 0x00, 0x0a, 0xfc, 0xfe, 0xff, 0xfc, 0xfe, 0x00, 0x00,
  0xff, 0x01, 0x02, 0x01, 0xfc, 0x03, 0x02, 0x01, 0x00, 0x01, 0xfd, 0x02,
  0x12, 0x08, 0xfd, 0x01, 0xfe, 0x00, 0xe7, 0x00, 0xfe, 0x03, 0x0c, 0x00,
  0xf8, 0x01, 0x01, 0xff, 0xfb, 0xf1, 0xf1, 0xff, 0xfd, 0x00, 0x04, 0xee,
  0xef, 0xfc, 0xec, 0xfb, 0x00, 0x03, 0x00, 0xef, 0xfd, 0xf9, 0xfa, 0xfb,
  0xff, 0xff, 0xed, 0xfe, 0x01, 0xef, 0x05, 0xff, 0xe9, 0x00, 0xf1, 0xff,
  0xff, 0xed, 0xdb, 0xf4, 0xf8, 0xff, 0x0e, 0x04, 0xdd, 0x01, 0xee, 0xfb,
  0xfb, 0x04, 0x03, 0xe2, 0xed, 0xe6, 0xf9, 0xff, 0x00, 0xf9, 0x3a, 0x0f,
  0x02, 0xda, 0xfe, 0xfa, 0x39, 0xec, 0xf3, 0x02, 0xf1, 0x1d, 0xb9, 0xf6,
  0x0c, 0x01, 0x25, 0x2a, 0xbd, 0xf9, 0xed, 0x33, 0x89, 0x09, 0x01, 0xf3,
  0x0f, 0xe8, 0x02, 0xfb, 0x04, 0x3f, 0x45, 0xef, 0x02, 0xec, 0x01, 0x81,
  0x3c, 0x0f, 0xf7, 0x0d, 0x12, 0x0d, 0xac, 0xf6, 0x78, 0x17, 0x5e, 0x32,
  0x02, 0xfe, 0x02, 0xfc, 0x01, 0xff, 0x00, 0x02, 0x01, 0x01, 0xff, 0xfd,
  0x00, 0xff, 0xfb, 0x01, 0x01, 0x02, 0x00, 0x02, 0xfc, 0xfa, 0x00, 0x01,
  0xfd, 0x00, 0x04, 0x02, 0xfe, 0xff, 0xfe, 0xfd, 0xf5, 0xff, 0x01, 0xff,
  0x00, 0x00, 0x01, 0x02, 0xf6, 0xff, 0xff, 0x00, 0xff, 0x00, 0xf7, 0x00,
  0x01, 0x01, 0x01, 0x01, 0xfd, 0xfc, 0xff, 0xff, 0xff, 0xfb, 0xff, 0xff,
  0xfd, 0x00, 0xf5, 0xfe, 0xf2, 0x01, 0xfd, 0x00, 0xd6, 0x01, 0x01, 0x01,
  0xf5, 0xff, 0x01, 0x02, 0xfe, 0xfa, 0x00, 0x08, 0xff, 0xfd, 0x03, 0xf3,
  0xfc, 0x00, 0xfe, 0x00, 0x05, 0xfe, 0x01, 0xfc, 0x01, 0x00, 0xf3, 0x05,
  0xfc, 0x00, 0xfc, 0x04, 0xe4, 0xfe, 0x00, 0x00, 0xfe, 0xfd, 0x0d, 0x06,
  0xff, 0x28, 0x15, 0xfe, 0xff, 0xfd, 0x03, 0xe8, 0x00, 0x0d, 0xff, 0xfe,
  0x05, 0x05, 0x06, 0xfe, 0x0f, 0x03, 0xf1, 0x07, 0xfe, 0x01, 0x01, 0x33,
  0x81, 0xf6, 0x00, 0x01, 0xff, 0x06, 0x01, 0xfb, 0xf8, 0xcd, 0xe9, 0xf5,
  0x02, 0x01, 0x01, 0xbb, 0xfe, 0xfa, 0x04, 0xf4, 0xf5, 0xff, 0x00, 0x00,
  0x05, 0xf4, 0xfb, 0xff, 0x01, 0xfe, 0xfe, 0x03, 0x00, 0x02, 0x00, 0x01,
  0xfc, 0x09, 0x03, 0xfd, 0xff, 0x01, 0x02, 0x03, 0x03, 0xff, 0xff, 0x00,
  0x0d, 0x01, 0x03, 0x00, 0x01, 0x08, 0x01, 0xff, 0x03, 0x01, 0x01, 0x07,
  0x00, 0xfe, 0x00, 0xfc, 0x00, 0x02, 0x02, 0xff, 0x02, 0x08, 0x07, 0x03,
  0xff, 0xfb, 0xfd, 0xe4, 0x02, 0xff, 0xfe, 0x00, 0x0e, 0x02, 0x04, 0xff,
  0x00, 0x0a, 0xf3, 0xfe, 0x05, 0xfe, 0x00, 0x11, 0x0a, 0x02, 0x03, 0xd7,
  0xba, 0x02, 0x01, 0x00, 0x00, 0x0e, 0x10, 0xfb, 0xff, 0xd1, 0x02, 0xec,
  0x01, 0xfd, 0x00, 0xec, 0x0d, 0x0a, 0x00, 0xfe, 0x0a, 0xed, 0xff, 0x00,
  0xec, 0xef, 0x04, 0x04, 0x09, 0x00, 0x01, 0xd4, 0x81, 0x04, 0x00, 0xff,
  0xfa, 0xfd, 0x02, 0x07, 0xfb, 0xd9, 0xfe, 0x00, 0x02, 0xff, 0x02, 0x93,
  0xfc, 0x09, 0xfa, 0xf7, 0x06, 0xee, 0xfc, 0xfa, 0xf1, 0xdd, 0xf7, 0xfe,
  0x07, 0xff, 0xfe, 0xcf, 0x94, 0xf4, 0xff, 0x00, 0xff, 0xfb, 0xf6, 0xf1,
  0xfe, 0xcc, 0x08, 0xe9, 0xf9, 0xf8, 0x02, 0xd0, 0xfd, 0x06, 0xf7, 0x01,
  0x01, 0xe7, 0x05, 0xff, 0xf1, 0xd3, 0x05, 0xf7, 0x04, 0xfe, 0x01, 0x0d,
  0xc6, 0x02, 0xff, 0x02, 0xfd, 0xff, 0xef, 0xf9, 0x00, 0x06, 0xec, 0xfa,
  0x00, 0x04, 0x04, 0xff, 0x00, 0xfc, 0xfe, 0xff, 0xf4, 0xdc, 0xfd, 0x02,
  0x00, 0x04, 0x04, 0xfe, 0xf3, 0xff, 0x01, 0x00, 0x81, 0x01, 0x00, 0xff,
  0xf1, 0x00, 0xe3, 0xfe, 0xfd, 0xfd, 0xef, 0xfd, 0x01, 0x00, 0x04, 0xd2,
  0xfc, 0xfd, 0xfe, 0xfc, 0xfe, 0xe9, 0xeb, 0x00, 0xff, 0xff, 0x00, 0xff,
  0xeb, 0x01, 0xf4, 0x04, 0xd8, 0x06, 0x00, 0xfd, 0xfc, 0x00, 0x03, 0x08,
  0xfa, 0x10, 0x20, 0x29, 0xfe, 0xf5, 0x03, 0xe0, 0x0d, 0x17, 0xfe, 0xff,
  0x17, 0x0a, 0xe6, 0xf7, 0x0e, 0x08, 0xff, 0x1a, 0xfe, 0x01, 0x01, 0xe1,
  0xcf, 0xf6, 0x00, 0xff, 0x03, 0xff, 0xf0, 0xf6, 0xf8, 0xb1, 0xbf, 0xab,
  0x01, 0x01, 0xff, 0xb6, 0x02, 0xf4, 0x03, 0xef, 0xd2, 0x00, 0xfb, 0x01,
  0xdf, 0xd9, 0x0a, 0x02, 0xfe, 0xff, 0x00, 0x12, 0xb8, 0xfd, 0x01, 0x00,
  0x06, 0xfe, 0xf5, 0xfb, 0xfc, 0xfa, 0x25, 0xec, 0xfc, 0x02, 0x01, 0x8d,
  0xfe, 0xfe, 0xff, 0x18, 0x0b, 0xfc, 0xfd, 0x00, 0x00, 0x23, 0x09, 0xf1,
  0xfc, 0x07, 0x01, 0xfc, 0x00, 0xfd, 0xfe, 0xfe, 0xfc, 0x03, 0x03, 0x01,
  0x00, 0x01, 0x0b, 0x01, 0xfe, 0x03, 0xfa, 0x00, 0x01, 0xfa, 0xff, 0x00,
  0x02, 0xf9, 0x03, 0x01, 0x02, 0xff, 0xfa, 0xef, 0xf0, 0x07, 0x03, 0xfe,
  0x02, 0xfb, 0xfd, 0x02, 0xff, 0x07, 0xf8, 0xfc, 0xfe, 0x01, 0xf0, 0xfd,
  0x00, 0x05, 0xfd, 0x00, 0xfc, 0xf7, 0x00, 0xfd, 0xf9, 0xf7, 0xfb, 0x01,
  0xfe, 0xff, 0xf4, 0xe6, 0xe6, 0x04, 0x01, 0x05, 0xf7, 0x01, 0xfd, 0xf9,
  0x02, 0xff, 0xfe, 0x00, 0x03, 0x01, 0x0a, 0x03, 0xfe, 0x0a, 0x07, 0xfc,
  0x02, 0xfe, 0xf3, 0x03, 0x07, 0x00, 0x06, 0xff, 0xfd, 0x02, 0xee, 0xfd,
  0xe0, 0x04, 0xfe, 0x0a, 0xb3, 0xfa, 0xff, 0xf6, 0xf4, 0x0c, 0x07, 0x0d,
  0x00, 0x01, 0x1f, 0x04, 0xfe, 0xff, 0xff, 0xa9, 0x05, 0x05, 0xfd, 0x00,
  0x00, 0x11, 0xf3, 0xfc, 0x0e, 0x04, 0xf3, 0x0f, 0xdc, 0x01, 0xf6, 0x16,
  0x81, 0x06, 0xf9, 0xfb, 0x06, 0xf1, 0x10, 0x06, 0xfe, 0x0d, 0x38, 0x07,
  0xfe, 0xf5, 0xfc, 0xb4, 0x13, 0x09, 0x07, 0xff, 0x0d, 0x11, 0xee, 0xf7,
  0x1f, 0x05, 0x10, 0x1b, 0x00, 0x01, 0x01, 0xcc, 0x81, 0xff, 0x05, 0x02,
  0xf6, 0xfa, 0xf8, 0xec, 0xe7, 0xf1, 0xeb, 0xe6, 0x00, 0xff, 0x01, 0xdb,
  0xfa, 0xf4, 0x00, 0xef, 0xfd, 0x01, 0xf9, 0xff, 0xe7, 0xd6, 0xff, 0xf8,
  0x00, 0x01, 0xff, 0xfd, 0xed, 0xfe, 0x01, 0x00, 0x00, 0xfc, 0xff, 0xf7,
  0xfa, 0x01, 0xe9, 0x00, 0x00, 0xfe, 0x01, 0xe3, 0x01, 0x03, 0xff, 0xfb,
  0xfe, 0x04, 0xfe, 0xff, 0xf5, 0x02, 0xff, 0x03, 0x01, 0x01, 0xff, 0xfe,
  0xe3, 0xfe, 0xff, 0x00, 0x01, 0x07, 0x05, 0xfd, 0x08, 0xfa, 0xf7, 0x01,
  0x03, 0xff, 0x03, 0xe5, 0xff, 0x08, 0xfe, 0x02, 0x04, 0x01, 0x01, 0xff,
  0xff, 0x02, 0xfc, 0x08, 0x01, 0x01, 0x00, 0xff, 0xfc, 0xf9, 0xff, 0x00,
  0x00, 0x06, 0x09, 0x05, 0x09, 0x01, 0x0f, 0x05, 0x00, 0x00, 0x05, 0xd7,
  0xff, 0x04, 0xfe, 0x02, 0x06, 0x01, 0x02, 0x00, 0x00, 0x05, 0xfe, 0xff,
  0x01, 0x00, 0x00, 0x14, 0xfe, 0xf7, 0xfe, 0x00, 0xff, 0x05, 0x05, 0x02,
  0x07, 0xff, 0x03, 0xff, 0xfe, 0xff, 0x03, 0xe9, 0x02, 0x02, 0x00, 0x02,
  0xfe, 0x01, 0x02, 0x00, 0xfc, 0xfa, 0x01, 0x02, 0xdb, 0x07, 0xf7, 0x86,
  0x23, 0xf0, 0xfe, 0x02, 0x02, 0x0f, 0xd6, 0xfa, 0xf4, 0xe4, 0xd8, 0xc8,
  0xf8, 0x07, 0xee, 0xdb, 0xdc, 0xe2, 0x06, 0xcb, 0xc3, 0xfd, 0xc2, 0xfe,
  0x91, 0x81, 0xca, 0xde, 0xd4, 0x0c, 0xee, 0xfd, 0xea, 0xfa, 0xfa, 0x03,
  0x07, 0x03, 0xb6, 0xf3, 0x07, 0x01, 0xbe, 0x00, 0xf8, 0x03, 0xf7, 0xe1,
  0xe6, 0x04, 0xf9, 0xf9, 0xee, 0x07, 0xe5, 0xf5, 0xe5, 0x01, 0xbb, 0xdd,
  0xed, 0x08, 0xc1, 0x04, 0xd2, 0x04, 0x00, 0xe0, 0xa5, 0xf1, 0xfb, 0x09,
  0x08, 0xfe, 0x30, 0x08, 0xfe, 0xcf, 0x02, 0xc1, 0x0e, 0x12, 0xf0, 0x04,
  0x10, 0x18, 0xfc, 0xe0, 0x1e, 0x04, 0xa7, 0x22, 0xdc, 0x0b, 0xf5, 0x04,
  0xf2, 0xf3, 0xfd, 0xe6, 0x2e, 0xfa, 0x1e, 0x14, 0x06, 0x0f, 0x56, 0x19,
  0x07, 0x00, 0x12, 0xc9, 0x2a, 0x12, 0x06, 0x03, 0x0d, 0x1e, 0x09, 0xf8,
  0x12, 0x04, 0xee, 0x35, 0xfd, 0x07, 0xee, 0x1e, 0xf7, 0xdc, 0xfc, 0xf3,
  0x09, 0xfb, 0x0c, 0x13, 0xfd, 0x17, 0x32, 0x93, 0xfd, 0xfc, 0x23, 0xcd,
  0x15, 0xfe, 0xe2, 0xf2, 0xe4, 0xfa, 0xe9, 0xf7, 0x39, 0xf2, 0xe7, 0x20,
  0xd6, 0xfd, 0xfb, 0x05, 0x00, 0xfb, 0x00, 0x06, 0xde, 0xfa, 0xf1, 0xf2,
  0xfd, 0xfe, 0xce, 0xf4, 0x00, 0x05, 0xfd, 0x01, 0xe1, 0xe9, 0xf9, 0xff,
  0xe0, 0xe0, 0xac, 0xff, 0xf4, 0x03, 0xd6, 0xbf, 0xe7, 0xff, 0xec, 0xfe,
  0xc6, 0x03, 0x01, 0xfa, 0xec, 0x0d, 0x13, 0xfc, 0xfd, 0x02, 0x34, 0x03,
  0x04, 0xfe, 0xff, 0xd2, 0x06, 0xfb, 0xf3, 0x01, 0x0e, 0xfe, 0xb4, 0xfd,
  0x04, 0x01, 0xce, 0x0a, 0xe1, 0x04, 0xdb, 0x04, 0x81, 0xfd, 0x02, 0xe7,
  0xf4, 0x16, 0x15, 0x11, 0xfc, 0x0d, 0x29, 0x16, 0x01, 0xdb, 0x05, 0xa5,
  0x25, 0x0b, 0xf1, 0x00, 0x08, 0x10, 0xce, 0x0b, 0x06, 0x04, 0xe5, 0x22,
  0x00, 0x03, 0xf7, 0x02, 0xa1, 0xec, 0x01, 0xee, 0x06, 0x13, 0x16, 0x0b,
  0xfd, 0xa9, 0x1a, 0xdd, 0x00, 0xf6, 0x07, 0xd7, 0x06, 0xff, 0xed, 0xf9,
  0xe1, 0xfb, 0xce, 0xf6, 0x13, 0xef, 0x03, 0x1d, 0xfe, 0x01, 0xf7, 0x07,
  0xe5, 0xfa, 0x05, 0x05, 0x02, 0x01, 0x11, 0x0a, 0xfd, 0x10, 0xfc, 0xfa,
  0x04, 0x02, 0x0b, 0xe1, 0x05, 0xf8, 0xfe, 0x09, 0xfa, 0xfd, 0x00, 0xff,
  0x09, 0x0c, 0x04, 0xe2, 0x00, 0x00, 0x00, 0xff, 0x00, 0x01, 0xfc, 0x00,
  0xe3, 0x01, 0x00, 0x02, 0xfe, 0xc4, 0x02, 0x01, 0x02, 0x00, 0x02, 0x00,
  0xd2, 0x00, 0x01, 0xf8, 0xff, 0xe8, 0x01, 0x00, 0x01, 0xcc, 0x01, 0xe5,
  0x00, 0xff, 0x00, 0xaa, 0x00, 0xff, 0xfe, 0xff, 0xe5, 0x01, 0xb4, 0xeb,
  0xfb, 0xb2, 0x06, 0xc1, 0xfe, 0xf9, 0x00, 0x00, 0xb4, 0xff, 0x00, 0xef,
  0x00, 0xf5, 0x00, 0x00, 0xf7, 0x81, 0x00, 0xac, 0xf4, 0x02, 0xf9, 0x00,
  0x00, 0x00, 0x02, 0xf9, 0x00, 0x01, 0xf5, 0x00, 0x00, 0x00, 0xfc, 0x00,
  0x00, 0x00, 0x01, 0x00, 0xf9, 0x01, 0xff, 0x00, 0xff, 0xe4, 0x0e, 0x02,
  0x01, 0x00, 0xfe, 0x03, 0xe7, 0x00, 0xf6, 0x00, 0x00, 0x00, 0xff, 0xeb,
  0xc6, 0xfe, 0xff, 0x00, 0x00, 0x00, 0xf9, 0x11, 0xff, 0xfb, 0xfc, 0x00,
  0x00, 0xff, 0x00, 0x00, 0xff, 0x00, 0xf5, 0xf9, 0x01, 0x00, 0x03, 0x05,
  0xe4, 0x03, 0xa1, 0xf6, 0xf1, 0x00, 0x05, 0xde, 0xf7, 0x04, 0x0b, 0xf6,
  0x00, 0xf7, 0xf9, 0x1e, 0x00, 0xac, 0xff, 0xe0, 0xee, 0xfe, 0x03, 0x01,
  0x04, 0xf0, 0xde, 0xc5, 0xfe, 0xff, 0x10, 0xf5, 0xff, 0x0d, 0xff, 0xf0,
  0xfc, 0xf9, 0x0b, 0x00, 0xfe, 0x09, 0x00, 0xe9, 0xd9, 0x37, 0xc3, 0xf4,
  0x0d, 0xfe, 0x01, 0xef, 0x05, 0xfe, 0x05, 0xbc, 0xe4, 0xfe, 0xf7, 0xff,
  0xd8, 0x0b, 0xfb, 0xf9, 0x01, 0x13, 0xff, 0x00, 0xfd, 0xfe, 0x03, 0x00,
  0x00, 0x0c, 0xfd, 0xed, 0xf1, 0x02, 0xcc, 0x03, 0xee, 0xfd, 0x04, 0xfb,
  0x12, 0x0b, 0x0a, 0xee, 0xf6, 0x04, 0xfc, 0xff, 0xe1, 0xfb, 0x02, 0x03,
  0x01, 0x06, 0xfe, 0x03, 0x00, 0xfe, 0x02, 0xfe, 0x0b, 0x0b, 0x06, 0xf5,
  0xfe, 0x00, 0xeb, 0x00, 0xe9, 0x01, 0xfa, 0x00, 0x12, 0x00, 0x07, 0x01,
  0xf8, 0x07, 0xf9, 0xfe, 0xfe, 0x01, 0xfe, 0x01, 0x00, 0x04, 0xfb, 0x00,
  0xff, 0x01, 0xfc, 0x0b, 0x24, 0x07, 0xff, 0xf5, 0x05, 0x00, 0xfe, 0x00,
  0xe8, 0x21, 0x02, 0x01, 0x09, 0x03, 0xfb, 0x03, 0xf8, 0x03, 0xfb, 0x00,
  0xfd, 0x01, 0xfa, 0xff, 0xdb, 0x02, 0xbd, 0x02, 0x01, 0x00, 0x03, 0xd9,
  0xde, 0xf8, 0xe6, 0x07, 0x01, 0x05, 0x4c, 0xff, 0xef, 0xd7, 0x1b, 0xff,
  0x0d, 0x05, 0x9e, 0x01, 0x01, 0x1d, 0x81, 0xbb, 0xfd, 0x02, 0xf6, 0x1d,
  0xf0, 0x0b, 0xfe, 0x10, 0xf9, 0x06, 0xa5, 0x02, 0x2e, 0x05, 0x29, 0x03,
  0x00, 0x07, 0x37, 0x11, 0xf8, 0xf4, 0x0b, 0xfb, 0x28, 0xe0, 0x05, 0xff,
  0xf9, 0x27, 0xf4, 0xfb, 0x11, 0x04, 0xd6, 0x1a, 0xe8, 0x11, 0x0a, 0xdd,
  0xd5, 0xf9, 0xa3, 0x09, 0xf4, 0xf0, 0x06, 0xf0, 0x07, 0x02, 0xf0, 0xe4,
  0xf4, 0x03, 0x0a, 0xed, 0x15, 0xe1, 0xfd, 0xf5, 0xec, 0x01, 0xf9, 0xfb,
  0xc1, 0xe9, 0xe8, 0x1b, 0xc8, 0x15, 0xff, 0xcf, 0xb1, 0x0d, 0xaa, 0x07,
  0xea, 0x07, 0xde, 0x0d, 0xfb, 0xdf, 0x99, 0xcf, 0xe5, 0xff, 0x14, 0x17,
  0xea, 0xe8, 0x01, 0xd1, 0xf4, 0xeb, 0x04, 0xf0, 0x9d, 0xe4, 0xf1, 0x12,
  0xdf, 0x20, 0xf9, 0x0c, 0xfa, 0x03, 0x9e, 0x10, 0xef, 0x0a, 0xf5, 0x00,
  0x18, 0x01, 0xd0, 0x00, 0xd0, 0xf5, 0x12, 0xff, 0x16, 0x09, 0x0d, 0x09,
  0xf6, 0xfa, 0x3d, 0xf7, 0x21, 0x02, 0x10, 0x2f, 0xee, 0x15, 0x03, 0x01,
  0xfa, 0xff, 0x81, 0x06, 0xf4, 0x1c, 0xf0, 0xf8, 0x09, 0xfd, 0xed, 0x06,
  0xd6, 0xfe, 0x07, 0xf6, 0x25, 0x1f, 0x29, 0xfe, 0x10, 0xfd, 0xe1, 0xfd,
  0x27, 0xfb, 0x1a, 0x29, 0x03, 0xfe, 0x01, 0xec, 0x81, 0xfe, 0x00, 0x02,
  0xfd, 0x02, 0xfc, 0x0c, 0xf5, 0x1b, 0xfd, 0x02, 0x05, 0x05, 0x01, 0x0f,
  0xfc, 0xff, 0xfe, 0xec, 0x01, 0xf7, 0x01, 0x00, 0xef, 0xfa, 0x06, 0xfb,
  0xff, 0xff, 0x02, 0xe0, 0x88, 0xfd, 0x01, 0x01, 0xfd, 0xff, 0xdc, 0xfa,
  0xec, 0xed, 0xe7, 0x09, 0x03, 0xfd, 0x02, 0x05, 0x04, 0x04, 0xff, 0xec,
  0x00, 0x03, 0x0b, 0x02, 0xfe, 0xf7, 0x09, 0x00, 0xfc, 0x01, 0xfd, 0xe1,
  0xcd, 0xfa, 0x00, 0x01, 0x07, 0xfc, 0xf0, 0xfa, 0xfc, 0xe7, 0xda, 0xf7,
  0xfe, 0xfd, 0x04, 0xfb, 0x08, 0x05, 0x03, 0x00, 0xff, 0xfe, 0x02, 0xff,
  0xe9, 0xf0, 0xfb, 0x01, 0x01, 0x02, 0xfe, 0xcb, 0xd4, 0xfb, 0x00, 0x02,
  0x02, 0xff, 0xfa, 0xfa, 0xff, 0xea, 0xe1, 0xf5, 0xff, 0xff, 0x07, 0xfb,
  0x03, 0xfe, 0x01, 0x04, 0xff, 0xf8, 0xfc, 0x00, 0xf5, 0xe3, 0x06, 0x06,
  0x03, 0x01, 0xfe, 0xca, 0xb6, 0xfe, 0x00, 0x02, 0x00, 0xfb, 0xfe, 0xfa,
  0xfa, 0xf6, 0xe3, 0xf3, 0xff, 0xfe, 0x08, 0xfd, 0x01, 0x01, 0x01, 0xf7,
  0xff, 0x00, 0xfd, 0xfe, 0xf4, 0xe3, 0x04, 0x02, 0x00, 0x01, 0x00, 0x00,
  0x00, 0x00, 0x00, 0x00, 0x01, 0x02, 0x00, 0x00, 0x00, 0x00, 0x03, 0x00,
  0x00, 0x00, 0x00, 0x00, 0x02, 0x01, 0xfe, 0x00, 0x00, 0x01, 0xfd, 0x00,
  0x00, 0x00, 0x00, 0x00, 0x01, 0x00, 0xff, 0xff, 0x00, 0x01, 0x00, 0x00,
  0x01, 0x00, 0x00, 0x00, 0x00, 0x00, 0xff, 0x00, 0x00, 0x00, 0xff, 0x00,
  0x01, 0x01, 0xfb, 0x00, 0x00, 0x00, 0xfb, 0xff, 0x00, 0x00, 0x00, 0xff,
  0x01, 0x02, 0x00, 0xfd, 0x00, 0x01, 0x00, 0x01, 0xff, 0xf4, 0x01, 0xfe,
  0x00, 0xfe, 0xed, 0xfd, 0x00, 0x00, 0xff, 0x00, 0xff, 0xff, 0xfc, 0xff,
  0xf9, 0x00, 0xf9, 0x00, 0xfe, 0xff, 0xfe, 0xfd, 0xfc, 0x03, 0xff, 0xfe,
  0xf5, 0x01, 0x01, 0x01, 0xf9, 0xfb, 0x07, 0xff, 0x00, 0x05, 0x08, 0xff,
  0x01, 0x02, 0x01, 0xf4, 0x00, 0xfd, 0xf7, 0xff, 0xfc, 0xf7, 0xe6, 0xff,
  0xfe, 0xff, 0xfa, 0xfd, 0xa8, 0x04, 0xef, 0xfc, 0xd6, 0x01, 0x02, 0xf7,
  0xcd, 0xb9, 0x09, 0x04, 0x01, 0xfe, 0x1a, 0x07, 0x04, 0xe8, 0x03, 0xea,
  0x04, 0xfd, 0xef, 0x02, 0x00, 0x04, 0x81, 0xeb, 0xfe, 0x02, 0xfa, 0x02,
  0x00, 0x02, 0xff, 0x00, 0x00, 0x00, 0xff, 0x01, 0x01, 0x00, 0x05, 0x00,
  0x02, 0x00, 0x03, 0x00, 0xfe, 0xff, 0x01, 0xff, 0x00, 0x02, 0x01, 0x00,
  0x01, 0x01, 0xff, 0xff, 0x00, 0x00, 0xfe, 0xff, 0x00, 0x02, 0xff, 0xff,
  0x01, 0x01, 0xff, 0x01, 0x03, 0x03, 0x05, 0xff, 0x00, 0x00, 0x02, 0x00,
  0x00, 0x02, 0x00, 0x00, 0x01, 0x03, 0x01, 0x00, 0x00, 0x03, 0xfe, 0x00,
  0x01, 0x00, 0xfd, 0xfd, 0xfd, 0x00, 0x02, 0xfd, 0x00, 0x01, 0xff, 0xff,
  0x06, 0x08, 0xfe, 0xfa, 0xff, 0x00, 0xff, 0xff, 0x00, 0x04, 0xfc, 0x00,
  0xfe, 0x02, 0x00, 0xff, 0xfe, 0xfc, 0xf8, 0x02, 0x03, 0xff, 0xf6, 0x01,
  0xf4, 0x05, 0xfe, 0x05, 0x01, 0xfe, 0xff, 0x00, 0xfb, 0xf9, 0xfb, 0x00,
  0xff, 0x04, 0xec, 0xf2, 0x01, 0x08, 0x00, 0x00, 0xf8, 0x01, 0xfd, 0x01,
  0xfd, 0xd7, 0xf7, 0x00, 0x04, 0x01, 0xe7, 0x01, 0xed, 0x07, 0xf8, 0xfa,
  0xe2, 0x01, 0xfd, 0x06, 0x81, 0xf6, 0x04, 0x12, 0x02, 0xfe, 0x12, 0x22,
  0x03, 0xf1, 0x06, 0xdd, 0xcf, 0x0c, 0xf8, 0x04, 0x0e, 0x1e, 0x02, 0xf5,
  0x24, 0x02, 0xc1, 0x06, 0xf7, 0xfc, 0x02, 0xf7, 0x01, 0xfd, 0x00, 0x01,
  0xf8, 0x09, 0xf0, 0xfc, 0x00, 0xea, 0xf1, 0xf3, 0x00, 0x01, 0x02, 0xf4,
  0xf6, 0xf0, 0xff, 0x00, 0xfc, 0x03, 0x02, 0x01, 0xe0, 0x01, 0xfd, 0xe8,
  0xfb, 0xfe, 0x02, 0xef, 0xc5, 0xfe, 0x00, 0x02, 0xfc, 0x08, 0xf1, 0xf8,
  0xff, 0xe3, 0xf4, 0xf1, 0x01, 0x01, 0x02, 0xea, 0xf5, 0xee, 0xff, 0xff,
  0xfb, 0xfe, 0x03, 0x02, 0xda, 0xf0, 0x00, 0xe7, 0xf6, 0x00, 0x01, 0xfa,
  0xeb, 0xfe, 0x00, 0x00, 0xee, 0x01, 0xec, 0x02, 0xfa, 0xfc, 0xe8, 0xfd,
  0xfe, 0xff, 0x00, 0xdd, 0xf0, 0xf6, 0xff, 0xfa, 0xff, 0x01, 0xff, 0xff,
  0xe5, 0xfe, 0x02, 0xe1, 0xe7, 0xf9, 0xfc, 0xfa, 0xd9, 0x07, 0x01, 0xf8,
  0xdb, 0xfd, 0x1c, 0xfc, 0xff, 0xfa, 0x23, 0x2e, 0xfe, 0xf9, 0xff, 0xd1,
  0x11, 0x05, 0xfe, 0x00, 0x15, 0xfe, 0x00, 0xfd, 0x18, 0x00, 0x0a, 0x2b,
  0x00, 0x00, 0x02, 0x0d, 0xb8, 0xf4, 0x02, 0xff, 0xff, 0xf9, 0xf6, 0x01,
  0xf9, 0x81, 0xff, 0xdc, 0x03, 0x00, 0x00, 0xab, 0x00, 0xf0, 0x05, 0xfa,
  0xe6, 0x00, 0x00, 0x01, 0x0c, 0xfa, 0x04, 0xfe, 0xff, 0xfa, 0x00, 0x08,
  0xfc, 0x02, 0x03, 0xfe, 0x05, 0x11, 0x14, 0x04, 0x00, 0x05, 0xef, 0xfa,
  0xff, 0xfe, 0x01, 0xfe, 0xfe, 0xf8, 0xfc, 0x03, 0xf0, 0x09, 0xe5, 0x00,
  0xfb, 0x02, 0x0d, 0xed, 0x06, 0xf6, 0x06, 0x83, 0xde, 0x05, 0x01, 0xff,
  0x03, 0x05, 0x02, 0xf9, 0x02, 0x81, 0xc0, 0xa5, 0x04, 0x00, 0xfd, 0xfa,
  0xff, 0xe1, 0xff, 0xfd, 0xe3, 0xfb, 0xe8, 0x04, 0xa3, 0xe6, 0x0b, 0xe0,
  0xff, 0xfb, 0x05, 0xff, 0xee, 0x04, 0xff, 0x03, 0x1c, 0x03, 0xfc, 0xfe,
  0xfb, 0x03, 0xf1, 0xfd, 0x06, 0x00, 0x01, 0xed, 0x15, 0xed, 0x03, 0x06,
  0x10, 0x07, 0xee, 0x01, 0xb4, 0xfe, 0x12, 0xf9, 0xdb, 0x05, 0xec, 0x00,
  0xfe, 0xfd, 0x02, 0xf0, 0xf4, 0x02, 0xee, 0x07, 0xf9, 0xfe, 0x03, 0x00,
  0x01, 0xe9, 0x09, 0xfd, 0x25, 0x10, 0xf4, 0xfe, 0x02, 0x31, 0xc3, 0xe9,
  0xf4, 0xff, 0x18, 0x13, 0xbc, 0xf1, 0xe9, 0xec, 0xfd, 0xff, 0x08, 0xde,
  0x07, 0xed, 0x2e, 0xfd, 0x01, 0xfa, 0x5c, 0x05, 0xfd, 0xf3, 0x03, 0xfd,
  0x35, 0xe4, 0xef, 0xff, 0x08, 0x14, 0xaf, 0xf2, 0x2f, 0xfd, 0x24, 0x39,
  0x04, 0x0d, 0x05, 0x02, 0xfb, 0xff, 0x06, 0x03, 0x00, 0xf7, 0xed, 0xe9,
  0x01, 0x05, 0xe8, 0x00, 0x07, 0x03, 0xec, 0x01, 0xef, 0x13, 0x00, 0x03,
  0xfc, 0x03, 0x02, 0x03, 0x12, 0x05, 0x09, 0x2e, 0x02, 0x0b, 0x03, 0xf7,
  0xfd, 0x00, 0x01, 0x01, 0x01, 0xfc, 0xeb, 0xf7, 0x01, 0x00, 0xe1, 0xff,
  0x06, 0xff, 0xee, 0x01, 0xe8, 0x02, 0x02, 0x00, 0xfd, 0x0e, 0xfd, 0x01,
  0x12, 0x00, 0x03, 0x05, 0x01, 0x0a, 0x03, 0x04, 0xfd, 0x00, 0xf8, 0x0f,
  0x30, 0x02, 0xf9, 0x00, 0x05, 0x03, 0xcc, 0xfe, 0x00, 0x01, 0xfd, 0x00,
  0xf2, 0x06, 0x04, 0x05, 0xfb, 0x1b, 0x04, 0x03, 0x05, 0x03, 0xf7, 0xd2,
  0xfe, 0x0f, 0xf8, 0xff, 0xfc, 0x00, 0xf3, 0x1d, 0xe5, 0x10, 0xe5, 0x0f,
  0x03, 0x01, 0xf5, 0x01, 0xf6, 0xf1, 0x16, 0xfd, 0xa7, 0x0a, 0xfd, 0x01,
  0xfe, 0x3c, 0xfe, 0xff, 0xf9, 0xff, 0xed, 0xdd, 0x9a, 0x24, 0x88, 0x24,
  0xfa, 0x01, 0xf9, 0xeb, 0xd9, 0x12, 0x06, 0x03, 0x00, 0xf5, 0x7d, 0xf7,
  0xfb, 0xa8, 0x4c, 0xfb, 0x3c, 0x27, 0xf3, 0xfc, 0x0b, 0x3e, 0xf0, 0xb1,
  0x0a, 0xfb, 0x81, 0x35, 0x00, 0xff, 0xff, 0x01, 0x00, 0xff, 0x00, 0x00,
  0x00, 0x02, 0xfd, 0x01, 0x00, 0xff, 0x01, 0xff, 0x01, 0xff, 0x02, 0x00,
  0x03, 0x03, 0x00, 0x00, 0xff, 0xff, 0xff, 0x00, 0x00, 0x00, 0x01, 0x01,
  0x02, 0xfc, 0x01, 0x01, 0x00, 0x01, 0x00, 0xff, 0x0d, 0x04, 0x02, 0xfc,
  0x00, 0x01, 0x04, 0x01, 0x01, 0x03, 0xff, 0x00, 0x03, 0x00, 0x01, 0x00,
  0x01, 0x0b, 0xfc, 0x02, 0x00, 0x00, 0x02, 0xff, 0xfa, 0x00, 0xfb, 0xff,
  0x00, 0xfe, 0x01, 0x01, 0xf8, 0xfb, 0xfc, 0x01, 0x00, 0xff, 0xfa, 0xfc,
  0x01, 0x03, 0x05, 0x00, 0xfd, 0x01, 0xfe, 0x00, 0xfe, 0xdf, 0xed, 0xfc,
  0xff, 0x00, 0x00, 0xf6, 0xc5, 0xff, 0xe3, 0xfd, 0xfc, 0x02, 0x05, 0xef,
  0xab, 0xfb, 0x09, 0xfe, 0x00, 0x0b, 0x3f, 0x18, 0x01, 0xc7, 0x06, 0xf8,
  0x07, 0xf7, 0xfa, 0x02, 0x12, 0xf7, 0x81, 0xe7, 0xfb, 0x00, 0x03, 0x1c,
  0x9a, 0x02, 0x0a, 0xf6, 0xef, 0xee, 0x04, 0x06, 0x0a, 0x06, 0xf9, 0x07,
  0x02, 0xc8, 0xa3, 0xc9, 0x01, 0xf9, 0x03, 0xd1, 0xf2, 0xf3, 0x06, 0xfb,
  0x98, 0x02, 0xb7, 0xf5, 0x1a, 0xfb, 0x00, 0xf2, 0x01, 0x00, 0x00, 0x04,
  0xb3, 0x01, 0x01, 0xfe, 0x05, 0x03, 0x0c, 0x02, 0x00, 0xf2, 0x05, 0xfc,
  0xff, 0xff, 0x01, 0xe3, 0x03, 0x03, 0x00, 0x00, 0x01, 0xfd, 0x03, 0x00,
  0x0a, 0xfe, 0x05, 0x0a, 0x00, 0x00, 0x00, 0xfe, 0x81, 0x01, 0x01, 0x00,
  0x01, 0x02, 0x0d, 0x02, 0x00, 0xf7, 0x02, 0x05, 0xff, 0x02, 0x00, 0xef,
  0x00, 0x00, 0xff, 0xfd, 0xff, 0xfa, 0x05, 0x00, 0xf9, 0xfb, 0x01, 0xfe,
  0xff, 0xff, 0xff, 0xff, 0x81, 0x02, 0x01, 0x00, 0xfe, 0x02, 0xfe, 0x00,
  0xf9, 0xfb, 0xfe, 0x07, 0x01, 0x01, 0xff, 0xe1, 0xff, 0xff, 0xff, 0xfa,
  0x00, 0x00, 0x00, 0x00, 0xfa, 0xff, 0x00, 0xfd, 0xff, 0xff, 0x00, 0x01,
  0x9e, 0x00, 0x01, 0xff, 0x01, 0x02, 0x01, 0xfb, 0xfc, 0xfe, 0x04, 0x05,
  0x01, 0x00, 0xfd, 0xc1, 0x00, 0xff, 0xff, 0xff, 0x00, 0xfe, 0x01, 0x01,
  0xf4, 0x00, 0xff, 0xfd, 0xff, 0xfe, 0x00, 0xfd, 0xcc, 0xff, 0x01, 0xff,
  0x00, 0x00, 0x04, 0xfd, 0xfb, 0xf7, 0x04, 0xff, 0x01, 0x00, 0xfc, 0xa3,
  0xff, 0xfd, 0xfe, 0xfb, 0xfe, 0xff, 0xfe, 0x01, 0xf2, 0xfc, 0xff, 0xfa,
  0xe2, 0xfe, 0x02, 0xea, 0xee, 0x00, 0x00, 0x01, 0xee, 0xec, 0xf9, 0x01,
  0x01, 0xf0, 0xfe, 0x03, 0x00, 0x00, 0x01, 0xf6, 0xee, 0xf0, 0xfd, 0x00,
  0xff, 0xfc, 0x05, 0x03, 0xda, 0x01, 0xec, 0xe5, 0xed, 0x01, 0x01, 0xfa,
  0xf9, 0x00, 0x01, 0x00, 0xee, 0x02, 0xfb, 0xfd, 0xfe, 0xfa, 0xf9, 0xfc,
  0x03, 0xff, 0x01, 0x0c, 0xf5, 0xf2, 0x00, 0xfc, 0xfc, 0x06, 0x02, 0x02,
  0xdb, 0xfc, 0xf4, 0xe4, 0xf4, 0x00, 0x02, 0x01, 0x02, 0x00, 0x00, 0x01,
  0xf9, 0x02, 0xed, 0xf4, 0xfe, 0x02, 0xfc, 0xfe, 0x01, 0x02, 0x00, 0x04,
  0xf4, 0xf3, 0xfe, 0xfd, 0xfe, 0xff, 0x02, 0x02, 0xf7, 0x02, 0xf9, 0xf7,
  0xf6, 0xff, 0x03, 0x0c, 0xfd, 0xff, 0x01, 0x01, 0xfa, 0xa8, 0xf9, 0xf8,
  0xfd, 0xfa, 0xe5, 0xed, 0x00, 0x04, 0xff, 0x00, 0xf2, 0xf3, 0x00, 0xfc,
  0xfa, 0x08, 0xff, 0x03, 0xf9, 0x02, 0xfe, 0xe5, 0xe9, 0xfd, 0xff, 0x10,
  0x81, 0x03, 0x01, 0xfc, 0xed, 0xb6, 0x25, 0xfd, 0xff, 0x0a, 0x25, 0x00,
  0xfe, 0xfc, 0xff, 0xa1, 0xf4, 0x0c, 0xf8, 0xfe, 0x0d, 0x02, 0xff, 0xfd,
  0x21, 0xfe, 0xf9, 0x0c, 0x01, 0xfd, 0xfe, 0xff, 0x00, 0xfd, 0x02, 0x00,
  0x00, 0x07, 0xfd, 0x01, 0x01, 0xff, 0xfa, 0xfd, 0xfe, 0xff, 0x06, 0x00,
  0xf2, 0x04, 0xfc, 0x01, 0xfc, 0x01, 0x01, 0xff, 0xfd, 0xff, 0x02, 0xf9,
  0x04, 0xfd, 0xfc, 0xff, 0x01, 0x02, 0x01, 0x03, 0x0f, 0x12, 0xff, 0xf8,
  0x01, 0x01, 0xfc, 0x01, 0x01, 0x03, 0xfd, 0x02, 0xf2, 0x02, 0xf9, 0x00,
  0xfd, 0x19, 0xfc, 0xfd, 0x00, 0x00, 0x0b, 0x00, 0x00, 0xfc, 0xf8, 0xf9,
  0x01, 0x01, 0xff, 0x05, 0xff, 0xf4, 0xfb, 0xfc, 0x00, 0xf9, 0xcf, 0xde,
  0x02, 0x00, 0xfd, 0x01, 0xdc, 0x01, 0xf7, 0xff, 0xfc, 0xff, 0xfd, 0xf4,
  0xfe, 0xff, 0x1a, 0xf9, 0xff, 0x01, 0xea, 0xd4, 0xcb, 0xff, 0x06, 0x07,
  0x09, 0x1d, 0xd2, 0xfe, 0x00, 0xc3, 0x03, 0xe2, 0x06, 0xf3, 0x06, 0xce,
  0xdc, 0x0f, 0xfc, 0xfe, 0x0a, 0xbb, 0x0d, 0xe7, 0xb6, 0xf1, 0x2a, 0xe1,
  0x0e, 0x05, 0xe0, 0xd4, 0xd0, 0xf9, 0x06, 0xee, 0xbf, 0xe4, 0xc8, 0x0d,
  0x00, 0x8a, 0x0a, 0xbb, 0x05, 0xd9, 0x0b, 0x81, 0xeb, 0x18, 0xf2, 0x00,
  0xf5, 0xbf, 0x01, 0xcf, 0xb4, 0xdd, 0x21, 0xd8, 0xf6, 0xfe, 0xff, 0xff,
  0x04, 0x00, 0x00, 0x00, 0x80, 0x00, 0x00, 0x00, 0x94, 0xff, 0xff, 0xff,
  0x7a, 0x00, 0x00, 0x00, 0x39, 0xff, 0xff, 0xff, 0x0d, 0x01, 0x00, 0x00,
  0x2f, 0x01, 0x00, 0x00, 0xe8, 0x00, 0x00, 0x00, 0x16, 0x00, 0x00, 0x00,
  0xbc, 0x01, 0x00, 0x00, 0x46, 0x00, 0x00, 0x00, 0x39, 0x01, 0x00, 0x00,
  0xf5, 0x00, 0x00, 0x00, 0x69, 0x03, 0x00, 0x00, 0x61, 0x00, 0x00, 0x00,
  0xba, 0x01, 0x00, 0x00, 0xe3, 0x00, 0x00, 0x00, 0xe7, 0xfd, 0xff, 0xff,
  0xa0, 0x00, 0x00, 0x00, 0x04, 0x00, 0x00, 0x00, 0x85, 0x00, 0x00, 0x00,
  0x57, 0x00, 0x00, 0x00, 0x6f, 0x02, 0x00, 0x00, 0x24, 0x04, 0x00, 0x00,
  0xff, 0x00, 0x00, 0x00, 0x31, 0x00, 0x00, 0x00, 0x1e, 0x00, 0x00, 0x00,
  0x9a, 0x00, 0x00, 0x00, 0xec, 0x01, 0x00, 0x00, 0xf0, 0x01, 0x00, 0x00,
  0x81, 0x00, 0x00, 0x00, 0x56, 0x00, 0x00, 0x00, 0x69, 0x00, 0x00, 0x00,
  0x69, 0x03, 0x00, 0x00, 0x82, 0xff, 0xff, 0xff, 0x04, 0x00, 0x00, 0x00,
  0x20, 0x00, 0x00, 0x00, 0x81, 0x24, 0xb3, 0xcd, 0x1a, 0xce, 0x18, 0x3a,
  0x4e, 0x26, 0x37, 0x18, 0x33, 0xd7, 0x2f, 0xb1, 0x1b, 0xb8, 0xbd, 0xa5,
  0x1f, 0xf0, 0xc6, 0x5e, 0x25, 0x58, 0x22, 0x12, 0x4a, 0xc3, 0x58, 0xba,
  0xae, 0xff, 0xff, 0xff, 0x04, 0x00, 0x00, 0x00, 0x04, 0x00, 0x00, 0x00,
  0xd6, 0x0d, 0x00, 0x00, 0xbe, 0xff, 0xff, 0xff, 0x04, 0x00, 0x00, 0x00,
  0x0c, 0x00, 0x00, 0x00, 0xff, 0xff, 0xff, 0xff, 0x10, 0x00, 0x00, 0x00,
  0x01, 0x00, 0x00, 0x00, 0xd6, 0xff, 0xff, 0xff, 0x04, 0x00, 0x00, 0x00,
  0x0c, 0x00, 0x00, 0x00, 0xff, 0xff, 0xff, 0xff, 0x10, 0x00, 0x00, 0x00,
  0x20, 0x00, 0x00, 0x00, 0xee, 0xff, 0xff, 0xff, 0x04, 0x00, 0x00, 0x00,
  0x04, 0x00, 0x00, 0x00, 0xfd, 0xff, 0xff, 0xff, 0x00, 0x00, 0x06, 0x00,
  0x08, 0x00, 0x04, 0x00, 0x06, 0x00, 0x00, 0x00, 0x04, 0x00, 0x00, 0x00,
  0x18, 0x00, 0x00, 0x00, 0x00, 0x00, 0x00, 0x00, 0x00, 0x00, 0x00, 0x00,
  0x04, 0x00, 0x00, 0x00, 0x00, 0x00, 0x00, 0x00, 0x00, 0x00, 0x00, 0x00,
  0x00, 0x00, 0x00, 0x00, 0x30, 0xea, 0xff, 0xff, 0x34, 0xea, 0xff, 0xff,
  0x0f, 0x00, 0x00, 0x00, 0x4d, 0x4c, 0x49, 0x52, 0x20, 0x43, 0x6f, 0x6e,
  0x76, 0x65, 0x72, 0x74, 0x65, 0x64, 0x2e, 0x00, 0x01, 0x00, 0x00, 0x00,
  0x14, 0x00, 0x00, 0x00, 0x00, 0x00, 0x0e, 0x00, 0x18, 0x00, 0x14, 0x00,
  0x10, 0x00, 0x0c, 0x00, 0x08, 0x00, 0x04, 0x00, 0x0e, 0x00, 0x00, 0x00,
  0x14, 0x00, 0x00, 0x00, 0x1c, 0x00, 0x00, 0x00, 0xdc, 0x02, 0x00, 0x00,
  0xe0, 0x02, 0x00, 0x00, 0xe4, 0x02, 0x00, 0x00, 0x04, 0x00, 0x00, 0x00,
  0x6d, 0x61, 0x69, 0x6e, 0x00, 0x00, 0x00, 0x00, 0x0c, 0x00, 0x00, 0x00,
  0x94, 0x02, 0x00, 0x00, 0x50, 0x02, 0x00, 0x00, 0xec, 0x01, 0x00, 0x00,
  0xc4, 0x01, 0x00, 0x00, 0x88, 0x01, 0x00, 0x00, 0x54, 0x01, 0x00, 0x00,
  0x0c, 0x01, 0x00, 0x00, 0xe4, 0x00, 0x00, 0x00, 0xb0, 0x00, 0x00, 0x00,
  0x60, 0x00, 0x00, 0x00, 0x2c, 0x00, 0x00, 0x00, 0x04, 0x00, 0x00, 0x00,
  0x6a, 0xfe, 0xff, 0xff, 0x0c, 0x00, 0x00, 0x00, 0x10, 0x00, 0x00, 0x00,
  0x03, 0x00, 0x00, 0x00, 0x01, 0x00, 0x00, 0x00, 0x16, 0x00, 0x00, 0x00,
  0x02, 0x00, 0x00, 0x00, 0x15, 0x00, 0x00, 0x00, 0x04, 0x00, 0x00, 0x00,
  0x8e, 0xfe, 0xff, 0xff, 0x0c, 0x00, 0x00, 0x00, 0x10, 0x00, 0x00, 0x00,
  0x04, 0x00, 0x00, 0x00, 0x01, 0x00, 0x00, 0x00, 0x15, 0x00, 0x00, 0x00,
  0x01, 0x00, 0x00, 0x00, 0x14, 0x00, 0x00, 0x00, 0x00, 0x00, 0x0e, 0x00,
  0x1a, 0x00, 0x14, 0x00, 0x10, 0x00, 0x0c, 0x00, 0x0b, 0x00, 0x04, 0x00,
  0x0e, 0x00, 0x00, 0x00, 0x20, 0x00, 0x00, 0x00, 0x00, 0x00, 0x00, 0x01,
  0x28, 0x00, 0x00, 0x00, 0x2c, 0x00, 0x00, 0x00, 0x02, 0x00, 0x00, 0x00,
  0x00, 0x00, 0x0a, 0x00, 0x10, 0x00, 0x0f, 0x00, 0x08, 0x00, 0x04, 0x00,
  0x0a, 0x00, 0x00, 0x00, 0x01, 0x00, 0x00, 0x00, 0x01, 0x00, 0x00, 0x00,
  0x00, 0x00, 0x00, 0x01, 0x01, 0x00, 0x00, 0x00, 0x14, 0x00, 0x00, 0x00,
  0x03, 0x00, 0x00, 0x00, 0x13, 0x00, 0x00, 0x00, 0x06, 0x00, 0x00, 0x00,
  0x05, 0x00, 0x00, 0x00, 0x8a, 0xfe, 0xff, 0xff, 0x14, 0x00, 0x00, 0x00,
  0x00, 0x00, 0x00, 0x34, 0x10, 0x00, 0x00, 0x00, 0x14, 0x00, 0x00, 0x00,
  0x01, 0x00, 0x00, 0x00, 0x74, 0xeb, 0xff, 0xff, 0x01, 0x00, 0x00, 0x00,
  0x13, 0x00, 0x00, 0x00, 0x02, 0x00, 0x00, 0x00, 0x12, 0x00, 0x00, 0x00,
  0x02, 0x00, 0x00, 0x00, 0x3a, 0xff, 0xff, 0xff, 0x0c, 0x00, 0x00, 0x00,
  0x10, 0x00, 0x00, 0x00, 0x03, 0x00, 0x00, 0x00, 0x01, 0x00, 0x00, 0x00,
  0x12, 0x00, 0x00, 0x00, 0x02, 0x00, 0x00, 0x00, 0x11, 0x00, 0x00, 0x00,
  0x03, 0x00, 0x00, 0x00, 0xde, 0xfe, 0xff, 0xff, 0x14, 0x00, 0x00, 0x00,
  0x00, 0x00, 0x00, 0x01, 0x20, 0x00, 0x00, 0x00, 0x24, 0x00, 0x00, 0x00,
  0x02, 0x00, 0x00, 0x00, 0x30, 0xff, 0xff, 0xff, 0x00, 0x00, 0x00, 0x01,
  0x01, 0x00, 0x00, 0x00, 0x01, 0x00, 0x00, 0x00, 0x00, 0x00, 0x00, 0x01,
  0x01, 0x00, 0x00, 0x00, 0x11, 0x00, 0x00, 0x00, 0x03, 0x00, 0x00, 0x00,
  0x10, 0x00, 0x00, 0x00, 0x08, 0x00, 0x00, 0x00, 0x07, 0x00, 0x00, 0x00,
  0x22, 0xff, 0xff, 0xff, 0x14, 0x00, 0x00, 0x00, 0x00, 0x00, 0x00, 0x34,
  0x10, 0x00, 0x00, 0x00, 0x14, 0x00, 0x00, 0x00, 0x01, 0x00, 0x00, 0x00,
  0x0c, 0xec, 0xff, 0xff, 0x01, 0x00, 0x00, 0x00, 0x10, 0x00, 0x00, 0x00,
  0x02, 0x00, 0x00, 0x00, 0x0f, 0x00, 0x00, 0x00, 0x02, 0x00, 0x00, 0x00,
  0x12, 0xff, 0xff, 0xff, 0x10, 0x00, 0x00, 0x00, 0x00, 0x00, 0x00, 0x16,
  0x0c, 0x00, 0x00, 0x00, 0x10, 0x00, 0x00, 0x00, 0x38, 0xec, 0xff, 0xff,
  0x01, 0x00, 0x00, 0x00, 0x0f, 0x00, 0x00, 0x00, 0x02, 0x00, 0x00, 0x00,
  0x0e, 0x00, 0x00, 0x00, 0x01, 0x00, 0x00, 0x00, 0x00, 0x00, 0x0a, 0x00,
  0x10, 0x00, 0x0c, 0x00, 0x08, 0x00, 0x04, 0x00, 0x0a, 0x00, 0x00, 0x00,
  0x0c, 0x00, 0x00, 0x00, 0x10, 0x00, 0x00, 0x00, 0x03, 0x00, 0x00, 0x00,
  0x01, 0x00, 0x00, 0x00, 0x0e, 0x00, 0x00, 0x00, 0x02, 0x00, 0x00, 0x00,
  0x0d, 0x00, 0x00, 0x00, 0x03, 0x00, 0x00, 0x00, 0xae, 0xff, 0xff, 0xff,
  0x20, 0x00, 0x00, 0x00, 0x00, 0x00, 0x00, 0x01, 0x2c, 0x00, 0x00, 0x00,
  0x30, 0x00, 0x00, 0x00, 0x02, 0x00, 0x00, 0x00, 0x0c, 0x00, 0x14, 0x00,
  0x13, 0x00, 0x0c, 0x00, 0x08, 0x00, 0x07, 0x00, 0x0c, 0x00, 0x00, 0x00,
  0x00, 0x00, 0x00, 0x01, 0x01, 0x00, 0x00, 0x00, 0x01, 0x00, 0x00, 0x00,
  0x00, 0x00, 0x00, 0x01, 0x01, 0x00, 0x00, 0x00, 0x0d, 0x00, 0x00, 0x00,
  0x03, 0x00, 0x00, 0x00, 0x0c, 0x00, 0x00, 0x00, 0x0a, 0x00, 0x00, 0x00,
  0x09, 0x00, 0x00, 0x00, 0x00, 0x00, 0x0e, 0x00, 0x18, 0x00, 0x14, 0x00,
  0x10, 0x00, 0x0c, 0x00, 0x0b, 0x00, 0x04, 0x00, 0x0e, 0x00, 0x00, 0x00,
  0x14, 0x00, 0x00, 0x00, 0x00, 0x00, 0x00, 0x34, 0x10, 0x00, 0x00, 0x00,
  0x14, 0x00, 0x00, 0x00, 0x01, 0x00, 0x00, 0x00, 0xf8, 0xec, 0xff, 0xff,
  0x01, 0x00, 0x00, 0x00, 0x0c, 0x00, 0x00, 0x00, 0x02, 0x00, 0x00, 0x00,
  0x0b, 0x00, 0x00, 0x00, 0x02, 0x00, 0x00, 0x00, 0x00, 0x00, 0x0e, 0x00,
  0x14, 0x00, 0x00, 0x00, 0x10, 0x00, 0x0c, 0x00, 0x0b, 0x00, 0x04, 0x00,
  0x0e, 0x00, 0x00, 0x00, 0x10, 0x00, 0x00, 0x00, 0x00, 0x00, 0x00, 0x16,
  0x0c, 0x00, 0x00, 0x00, 0x10, 0x00, 0x00, 0x00, 0x34, 0xed, 0xff, 0xff,
  0x01, 0x00, 0x00, 0x00, 0x0b, 0x00, 0x00, 0x00, 0x02, 0x00, 0x00, 0x00,
  0x00, 0x00, 0x00, 0x00, 0x01, 0x00, 0x00, 0x00, 0x01, 0x00, 0x00, 0x00,
  0x16, 0x00, 0x00, 0x00, 0x01, 0x00, 0x00, 0x00, 0x00, 0x00, 0x00, 0x00,
  0x17, 0x00, 0x00, 0x00, 0xe0, 0x12, 0x00, 0x00, 0x80, 0x12, 0x00, 0x00,
  0x2c, 0x12, 0x00, 0x00, 0xec, 0x11, 0x00, 0x00, 0xac, 0x11, 0x00, 0x00,
  0x4c, 0x11, 0x00, 0x00, 0xe0, 0x10, 0x00, 0x00, 0x0c, 0x0f, 0x00, 0x00,
  0x28, 0x0d, 0x00, 0x00, 0x54, 0x0b, 0x00, 0x00, 0x70, 0x09, 0x00, 0x00,
  0xe0, 0x08, 0x00, 0x00, 0x40, 0x08, 0x00, 0x00, 0x14, 0x07, 0x00, 0x00,
  0x14, 0x06, 0x00, 0x00, 0x80, 0x05, 0x00, 0x00, 0xe0, 0x04, 0x00, 0x00,
  0xe4, 0x03, 0x00, 0x00, 0x14, 0x03, 0x00, 0x00, 0x6c, 0x02, 0x00, 0x00,
  0x80, 0x01, 0x00, 0x00, 0x8c, 0x00, 0x00, 0x00, 0x04, 0x00, 0x00, 0x00,
  0x92, 0xed, 0xff, 0xff, 0x00, 0x00, 0x00, 0x01, 0x18, 0x00, 0x00, 0x00,
  0x24, 0x00, 0x00, 0x00, 0x44, 0x00, 0x00, 0x00, 0x17, 0x00, 0x00, 0x00,
  0x00, 0x00, 0x00, 0x09, 0x58, 0x00, 0x00, 0x00, 0x03, 0x00, 0x00, 0x00,
  0xff, 0xff, 0xff, 0xff, 0x10, 0x00, 0x00, 0x00, 0x01, 0x00, 0x00, 0x00,
  0x7c, 0xed, 0xff, 0xff, 0x08, 0x00, 0x00, 0x00, 0x14, 0x00, 0x00, 0x00,
  0x01, 0x00, 0x00, 0x00, 0x80, 0xff, 0xff, 0xff, 0xff, 0xff, 0xff, 0xff,
  0x00, 0x00, 0x00, 0x00, 0x01, 0x00, 0x00, 0x00, 0x00, 0x00, 0x80, 0x3b,
  0x19, 0x00, 0x00, 0x00, 0x53, 0x74, 0x61, 0x74, 0x65, 0x66, 0x75, 0x6c,
  0x50, 0x61, 0x72, 0x74, 0x69, 0x74, 0x69, 0x6f, 0x6e, 0x65, 0x64, 0x43,
  0x61, 0x6c, 0x6c, 0x3a, 0x30, 0x00, 0x00, 0x00, 0x03, 0x00, 0x00, 0x00,
  0x01, 0x00, 0x00, 0x00, 0x10, 0x00, 0x00, 0x00, 0x01, 0x00, 0x00, 0x00,
  0x16, 0xee, 0xff, 0xff, 0x00, 0x00, 0x00, 0x01, 0x18, 0x00, 0x00, 0x00,
  0x28, 0x00, 0x00, 0x00, 0x48, 0x00, 0x00, 0x00, 0x16, 0x00, 0x00, 0x00,
  0x00, 0x00, 0x00, 0x09, 0xc0, 0x00, 0x00, 0x00, 0x04, 0x00, 0x00, 0x00,
  0xff, 0xff, 0xff, 0xff, 0x01, 0x00, 0x00, 0x00, 0x10, 0x00, 0x00, 0x00,
  0x01, 0x00, 0x00, 0x00, 0x04, 0xee, 0xff, 0xff, 0x08, 0x00, 0x00, 0x00,
  0x14, 0x00, 0x00, 0x00, 0x01, 0x00, 0x00, 0x00, 0x80, 0xff, 0xff, 0xff,
  0xff, 0xff, 0xff, 0xff, 0x00, 0x00, 0x00, 0x00, 0x01, 0x00, 0x00, 0x00,
  0x00, 0x00, 0x80, 0x3b, 0x7c, 0x00, 0x00, 0x00, 0x66, 0x72, 0x61, 0x6d,
  0x65, 0x5f, 0x6f, 0x6e, 0x73, 0x65, 0x74, 0x5f, 0x63, 0x6f, 0x6e, 0x76,
  0x31, 0x64, 0x2f, 0x6f, 0x75, 0x74, 0x70, 0x75, 0x74, 0x5f, 0x63, 0x6f,
  0x6e, 0x76, 0x2f, 0x53, 0x69, 0x67, 0x6d, 0x6f, 0x69, 0x64, 0x3b, 0x66,
  0x72, 0x61, 0x6d, 0x65, 0x5f, 0x6f, 0x6e, 0x73, 0x65, 0x74, 0x5f, 0x63,
  0x6f, 0x6e, 0x76, 0x31, 0x64, 0x2f, 0x6f, 0x75, 0x74, 0x70, 0x75, 0x74,
  0x5f, 0x63, 0x6f, 0x6e, 0x76, 0x2f, 0x42, 0x69, 0x61, 0x73, 0x41, 0x64,
  0x64, 0x3b, 0x66, 0x72, 0x61, 0x6d, 0x65, 0x5f, 0x6f, 0x6e, 0x73, 0x65,
  0x74, 0x5f, 0x63, 0x6f, 0x6e, 0x76, 0x31, 0x64, 0x2f, 0x6f, 0x75, 0x74,
  0x70, 0x75, 0x74, 0x5f, 0x63, 0x6f, 0x6e, 0x76, 0x2f, 0x43, 0x6f, 0x6e,
  0x76, 0x31, 0x44, 0x2f, 0x53, 0x71, 0x75, 0x65, 0x65, 0x7a, 0x65, 0x3b,
  0x00, 0x00, 0x00, 0x00, 0x04, 0x00, 0x00, 0x00, 0x01, 0x00, 0x00, 0x00,
  0x01, 0x00, 0x00, 0x00, 0x10, 0x00, 0x00, 0x00, 0x01, 0x00, 0x00, 0x00,
  0x06, 0xef, 0xff, 0xff, 0x00, 0x00, 0x00, 0x01, 0x18, 0x00, 0x00, 0x00,
  0x28, 0x00, 0x00, 0x00, 0x44, 0x00, 0x00, 0x00, 0x15, 0x00, 0x00, 0x00,
  0x00, 0x00, 0x00, 0x09, 0xb8, 0x00, 0x00, 0x00, 0x04, 0x00, 0x00, 0x00,
  0xff, 0xff, 0xff, 0xff, 0x01, 0x00, 0x00, 0x00, 0x10, 0x00, 0x00, 0x00,
  0x01, 0x00, 0x00, 0x00, 0xf4, 0xee, 0xff, 0xff, 0x08, 0x00, 0x00, 0x00,
  0x10, 0x00, 0x00, 0x00, 0x01, 0x00, 0x00, 0x00, 0xb9, 0xff, 0xff, 0xff,
  0xff, 0xff, 0xff, 0xff, 0x01, 0x00, 0x00, 0x00, 0x37, 0x2b, 0xf0, 0x3c,
  0x7b, 0x00, 0x00, 0x00, 0x66, 0x72, 0x61, 0x6d, 0x65, 0x5f, 0x6f, 0x6e,
  0x73, 0x65, 0x74, 0x5f, 0x63, 0x6f, 0x6e, 0x76, 0x31, 0x64, 0x2f, 0x6f,
  0x75, 0x74, 0x70, 0x75, 0x74, 0x5f, 0x63, 0x6f, 0x6e, 0x76, 0x2f, 0x42,
  0x69, 0x61, 0x73, 0x41, 0x64, 0x64, 0x3b, 0x66, 0x72, 0x61, 0x6d, 0x65,
  0x5f, 0x6f, 0x6e, 0x73, 0x65, 0x74, 0x5f, 0x63, 0x6f, 0x6e, 0x76, 0x31,
  0x64, 0x2f, 0x6f, 0x75, 0x74, 0x70, 0x75, 0x74, 0x5f, 0x63, 0x6f, 0x6e,
  0x76, 0x2f, 0x43, 0x6f, 0x6e, 0x76, 0x31, 0x44, 0x2f, 0x53, 0x71, 0x75,
  0x65, 0x65, 0x7a, 0x65, 0x3b, 0x3b, 0x66, 0x72, 0x61, 0x6d, 0x65, 0x5f,
  0x6f, 0x6e, 0x73, 0x65, 0x74, 0x5f, 0x63, 0x6f, 0x6e, 0x76, 0x31, 0x64,
  0x2f, 0x6f, 0x75, 0x74, 0x70, 0x75, 0x74, 0x5f, 0x63, 0x6f, 0x6e, 0x76,
  0x2f, 0x43, 0x6f, 0x6e, 0x76, 0x31, 0x44, 0x00, 0x04, 0x00, 0x00, 0x00,
  0x01, 0x00, 0x00, 0x00, 0x01, 0x00, 0x00, 0x00, 0x10, 0x00, 0x00, 0x00,
  0x01, 0x00, 0x00, 0x00, 0xee, 0xef, 0xff, 0xff, 0x00, 0x00, 0x00, 0x01,
  0x18, 0x00, 0x00, 0x00, 0x28, 0x00, 0x00, 0x00, 0x48, 0x00, 0x00, 0x00,
  0x14, 0x00, 0x00, 0x00, 0x00, 0x00, 0x00, 0x09, 0x74, 0x00, 0x00, 0x00,
  0x04, 0x00, 0x00, 0x00, 0xff, 0xff, 0xff, 0xff, 0x01, 0x00, 0x00, 0x00,
  0x10, 0x00, 0x00, 0x00, 0x20, 0x00, 0x00, 0x00, 0xdc, 0xef, 0xff, 0xff,
  0x08, 0x00, 0x00, 0x00, 0x14, 0x00, 0x00, 0x00, 0x01, 0x00, 0x00, 0x00,
  0x80, 0xff, 0xff, 0xff, 0xff, 0xff, 0xff, 0xff, 0x00, 0x00, 0x00, 0x00,
  0x01, 0x00, 0x00, 0x00, 0xa8, 0x6a, 0xd8, 0x3b, 0x30, 0x00, 0x00, 0x00,
  0x66, 0x72, 0x61, 0x6d, 0x65, 0x5f, 0x6f, 0x6e, 0x73, 0x65, 0x74, 0x5f,
  0x63, 0x6f, 0x6e, 0x76, 0x31, 0x64, 0x2f, 0x6f, 0x75, 0x74, 0x70, 0x75,
  0x74, 0x5f, 0x63, 0x6f, 0x6e, 0x76, 0x2f, 0x43, 0x6f, 0x6e, 0x76, 0x31,
  0x44, 0x2f, 0x45, 0x78, 0x70, 0x61, 0x6e, 0x64, 0x44, 0x69, 0x6d, 0x73,
  0x00, 0x00, 0x00, 0x00, 0x04, 0x00, 0x00, 0x00, 0x01, 0x00, 0x00, 0x00,
  0x01, 0x00, 0x00, 0x00, 0x10, 0x00, 0x00, 0x00, 0x20, 0x00, 0x00, 0x00,
  0x92, 0xf0, 0xff, 0xff, 0x00, 0x00, 0x00, 0x01, 0x18, 0x00, 0x00, 0x00,
  0x24, 0x00, 0x00, 0x00, 0x40, 0x00, 0x00, 0x00, 0x13, 0x00, 0x00, 0x00,
  0x00, 0x00, 0x00, 0x09, 0xa0, 0x00, 0x00, 0x00, 0x03, 0x00, 0x00, 0x00,
  0xff, 0xff, 0xff, 0xff, 0x10, 0x00, 0x00, 0x00, 0x20, 0x00, 0x00, 0x00,
  0x7c, 0xf0, 0xff, 0xff, 0x08, 0x00, 0x00, 0x00, 0x10, 0x00, 0x00, 0x00,
  0x01, 0x00, 0x00, 0x00, 0x80, 0xff, 0xff, 0xff, 0xff, 0xff, 0xff, 0xff,
  0x01, 0x00, 0x00, 0x00, 0xa8, 0x6a, 0xd8, 0x3b, 0x67, 0x00, 0x00, 0x00,
  0x66, 0x72, 0x61, 0x6d, 0x65, 0x5f, 0x6f, 0x6e, 0x73, 0x65, 0x74, 0x5f,
  0x63, 0x6f, 0x6e, 0x76, 0x31, 0x64, 0x2f, 0x63, 0x6f, 0x6e, 0x76, 0x32,
  0x2f, 0x52, 0x65, 0x6c, 0x75, 0x3b, 0x66, 0x72, 0x61, 0x6d, 0x65, 0x5f,
  0x6f, 0x6e, 0x73, 0x65, 0x74, 0x5f, 0x63, 0x6f, 0x6e, 0x76, 0x31, 0x64,
  0x2f, 0x63, 0x6f, 0x6e, 0x76, 0x32, 0x2f, 0x42, 0x69, 0x61, 0x73, 0x41,
  0x64, 0x64, 0x3b, 0x66, 0x72, 0x61, 0x6d, 0x65, 0x5f, 0x6f, 0x6e, 0x73,
  0x65, 0x74, 0x5f, 0x63, 0x6f, 0x6e, 0x76, 0x31, 0x64, 0x2f, 0x63, 0x6f,
  0x6e, 0x76, 0x32, 0x2f, 0x43, 0x6f, 0x6e, 0x76, 0x31, 0x44, 0x2f, 0x53,
  0x71, 0x75, 0x65, 0x65, 0x7a, 0x65, 0x3b, 0x00, 0x03, 0x00, 0x00, 0x00,
  0x01, 0x00, 0x00, 0x00, 0x10, 0x00, 0x00, 0x00, 0x20, 0x00, 0x00, 0x00,
  0x5e, 0xf1, 0xff, 0xff, 0x00, 0x00, 0x00, 0x01, 0x18, 0x00, 0x00, 0x00,
  0x28, 0x00, 0x00, 0x00, 0x48, 0x00, 0x00, 0x00, 0x12, 0x00, 0x00, 0x00,
  0x00, 0x00, 0x00, 0x09, 0xc8, 0x00, 0x00, 0x00, 0x04, 0x00, 0x00, 0x00,
  0xff, 0xff, 0xff, 0xff, 0x01, 0x00, 0x00, 0x00, 0x10, 0x00, 0x00, 0x00,
  0x20, 0x00, 0x00, 0x00, 0x4c, 0xf1, 0xff, 0xff, 0x08, 0x00, 0x00, 0x00,
  0x14, 0x00, 0x00, 0x00, 0x01, 0x00, 0x00, 0x00, 0x80, 0xff, 0xff, 0xff,
  0xff, 0xff, 0xff, 0xff, 0x00, 0x00, 0x00, 0x00, 0x01, 0x00, 0x00, 0x00,
  0xa8, 0x6a, 0xd8, 0x3b, 0x87, 0x00, 0x00, 0x00, 0x66, 0x72, 0x61, 0x6d,
  0x65, 0x5f, 0x6f, 0x6e, 0x73, 0x65, 0x74, 0x5f, 0x63, 0x6f, 0x6e, 0x76,
  0x31, 0x64, 0x2f, 0x63, 0x6f, 0x6e, 0x76, 0x32, 0x2f, 0x52, 0x65, 0x6c,
  0x75, 0x3b, 0x66, 0x72, 0x61, 0x6d, 0x65, 0x5f, 0x6f, 0x6e, 0x73, 0x65,
  0x74, 0x5f, 0x63, 0x6f, 0x6e, 0x76, 0x31, 0x64, 0x2f, 0x63, 0x6f, 0x6e,
  0x76, 0x32, 0x2f, 0x42, 0x69, 0x61, 0x73, 0x41, 0x64, 0x64, 0x3b, 0x66,
  0x72, 0x61, 0x6d, 0x65, 0x5f, 0x6f, 0x6e, 0x73, 0x65, 0x74, 0x5f, 0x63,
  0x6f, 0x6e, 0x76, 0x31, 0x64, 0x2f, 0x63, 0x6f, 0x6e, 0x76, 0x32, 0x2f,
  0x43, 0x6f, 0x6e, 0x76, 0x31, 0x44, 0x2f, 0x53, 0x71, 0x75, 0x65, 0x65,
  0x7a, 0x65, 0x3b, 0x3b, 0x66, 0x72, 0x61, 0x6d, 0x65, 0x5f, 0x6f, 0x6e,
  0x73, 0x65, 0x74, 0x5f, 0x63, 0x6f, 0x6e, 0x76, 0x31, 0x64, 0x2f, 0x63,
  0x6f, 0x6e, 0x76, 0x32, 0x2f, 0x43, 0x6f, 0x6e, 0x76, 0x31, 0x44, 0x00,
  0x04, 0x00, 0x00, 0x00, 0x01, 0x00, 0x00, 0x00, 0x01, 0x00, 0x00, 0x00,
  0x10, 0x00, 0x00, 0x00, 0x20, 0x00, 0x00, 0x00, 0x56, 0xf2, 0xff, 0xff,
  0x00, 0x00, 0x00, 0x01, 0x18, 0x00, 0x00, 0x00, 0x28, 0x00, 0x00, 0x00,
  0x48, 0x00, 0x00, 0x00, 0x11, 0x00, 0x00, 0x00, 0x00, 0x00, 0x00, 0x09,
  0x6c, 0x00, 0x00, 0x00, 0x04, 0x00, 0x00, 0x00, 0xff, 0xff, 0xff, 0xff,
  0x01, 0x00, 0x00, 0x00, 0x14, 0x00, 0x00, 0x00, 0x20, 0x00, 0x00, 0x00,
  0x44, 0xf2, 0xff, 0xff, 0x08, 0x00, 0x00, 0x00, 0x14, 0x00, 0x00, 0x00,
  0x01, 0x00, 0x00, 0x00, 0x80, 0xff, 0xff, 0xff, 0xff, 0xff, 0xff, 0xff,
  0x00, 0x00, 0x00, 0x00, 0x01, 0x00, 0x00, 0x00, 0x19, 0x41, 0xb1, 0x3c,
  0x2a, 0x00, 0x00, 0x00, 0x66, 0x72, 0x61, 0x6d, 0x65, 0x5f, 0x6f, 0x6e,
  0x73, 0x65, 0x74, 0x5f, 0x63, 0x6f, 0x6e, 0x76, 0x31, 0x64, 0x2f, 0x63,
  0x6f, 0x6e, 0x76, 0x32, 0x2f, 0x43, 0x6f, 0x6e, 0x76, 0x31, 0x44, 0x2f,
  0x45, 0x78, 0x70, 0x61, 0x6e, 0x64, 0x44, 0x69, 0x6d, 0x73, 0x00, 0x00,
  0x04, 0x00, 0x00, 0x00, 0x01, 0x00, 0x00, 0x00, 0x01, 0x00, 0x00, 0x00,
  0x14, 0x00, 0x00, 0x00, 0x20, 0x00, 0x00, 0x00, 0xf2, 0xf2, 0xff, 0xff,
  0x00, 0x00, 0x00, 0x01, 0x18, 0x00, 0x00, 0x00, 0x24, 0x00, 0x00, 0x00,
  0x44, 0x00, 0x00, 0x00, 0x10, 0x00, 0x00, 0x00, 0x00, 0x00, 0x00, 0x09,
  0x64, 0x00, 0x00, 0x00, 0x03, 0x00, 0x00, 0x00, 0xff, 0xff, 0xff, 0xff,
  0x14, 0x00, 0x00, 0x00, 0x20, 0x00, 0x00, 0x00, 0xdc, 0xf2, 0xff, 0xff,
  0x08, 0x00, 0x00, 0x00, 0x14, 0x00, 0x00, 0x00, 0x01, 0x00, 0x00, 0x00,
  0x80, 0xff, 0xff, 0xff, 0xff, 0xff, 0xff, 0xff, 0x00, 0x00, 0x00, 0x00,
  0x01, 0x00, 0x00, 0x00, 0x19, 0x41, 0xb1, 0x3c, 0x27, 0x00, 0x00, 0x00,
  0x66, 0x72, 0x61, 0x6d, 0x65, 0x5f, 0x6f, 0x6e, 0x73, 0x65, 0x74, 0x5f,
  0x63, 0x6f, 0x6e, 0x76, 0x31, 0x64, 0x2f, 0x7a, 0x65, 0x72, 0x6f, 0x5f,
  0x70, 0x61, 0x64, 0x64, 0x69, 0x6e, 0x67, 0x31, 0x64, 0x5f, 0x31, 0x2f,
  0x50, 0x61, 0x64, 0x00, 0x03, 0x00, 0x00, 0x00, 0x01, 0x00, 0x00, 0x00,
  0x14, 0x00, 0x00, 0x00, 0x20, 0x00, 0x00, 0x00, 0x82, 0xf3, 0xff, 0xff,
  0x00, 0x00, 0x00, 0x01, 0x18, 0x00, 0x00, 0x00, 0x24, 0x00, 0x00, 0x00,
  0x40, 0x00, 0x00, 0x00, 0x0f, 0x00, 0x00, 0x00, 0x00, 0x00, 0x00, 0x09,
  0xd0, 0x00, 0x00, 0x00, 0x03, 0x00, 0x00, 0x00, 0xff, 0xff, 0xff, 0xff,
  0x10, 0x00, 0x00, 0x00, 0x20, 0x00, 0x00, 0x00, 0x6c, 0xf3, 0xff, 0xff,
  0x08, 0x00, 0x00, 0x00, 0x10, 0x00, 0x00, 0x00, 0x01, 0x00, 0x00, 0x00,
  0x80, 0xff, 0xff, 0xff, 0xff, 0xff, 0xff, 0xff, 0x01, 0x00, 0x00, 0x00,
  0x19, 0x41, 0xb1, 0x3c, 0x96, 0x00, 0x00, 0x00, 0x66, 0x72, 0x61, 0x6d,
  0x65, 0x5f, 0x6f, 0x6e, 0x73, 0x65, 0x74, 0x5f, 0x63, 0x6f, 0x6e, 0x76,
  0x31, 0x64, 0x2f, 0x63, 0x6f, 0x6e, 0x76, 0x31, 0x2f, 0x52, 0x65, 0x6c,
  0x75, 0x3b, 0x66, 0x72, 0x61, 0x6d, 0x65, 0x5f, 0x6f, 0x6e, 0x73, 0x65,
  0x74, 0x5f, 0x63, 0x6f, 0x6e, 0x76, 0x31, 0x64, 0x2f, 0x63, 0x6f, 0x6e,
  0x76, 0x31, 0x2f, 0x42, 0x69, 0x61, 0x73, 0x41, 0x64, 0x64, 0x3b, 0x66,
  0x72, 0x61, 0x6d, 0x65, 0x5f, 0x6f, 0x6e, 0x73, 0x65, 0x74, 0x5f, 0x63,
  0x6f, 0x6e, 0x76, 0x31, 0x64, 0x2f, 0x63, 0x6f, 0x6e, 0x76, 0x31, 0x2f,
  0x43, 0x6f, 0x6e, 0x76, 0x31, 0x44, 0x2f, 0x53, 0x71, 0x75, 0x65, 0x65,
  0x7a, 0x65, 0x3b, 0x66, 0x72, 0x61, 0x6d, 0x65, 0x5f, 0x6f, 0x6e, 0x73,
  0x65, 0x74, 0x5f, 0x63, 0x6f, 0x6e, 0x76, 0x31, 0x64, 0x2f, 0x63, 0x6f,
  0x6e, 0x76, 0x31, 0x2f, 0x42, 0x69, 0x61, 0x73, 0x41, 0x64, 0x64, 0x2f,
  0x52, 0x65, 0x61, 0x64, 0x56, 0x61, 0x72, 0x69, 0x61, 0x62, 0x6c, 0x65,
  0x4f, 0x70, 0x00, 0x00, 0x03, 0x00, 0x00, 0x00, 0x01, 0x00, 0x00, 0x00,
  0x10, 0x00, 0x00, 0x00, 0x20, 0x00, 0x00, 0x00, 0x7e, 0xf4, 0xff, 0xff,
  0x00, 0x00, 0x00, 0x01, 0x18, 0x00, 0x00, 0x00, 0x28, 0x00, 0x00, 0x00,
  0x48, 0x00, 0x00, 0x00, 0x0e, 0x00, 0x00, 0x00, 0x00, 0x00, 0x00, 0x09,
  0xf8, 0x00, 0x00, 0x00, 0x04, 0x00, 0x00, 0x00, 0xff, 0xff, 0xff, 0xff,
  0x01, 0x00, 0x00, 0x00, 0x10, 0x00, 0x00, 0x00, 0x20, 0x00, 0x00, 0x00,
  0x6c, 0xf4, 0xff, 0xff, 0x08, 0x00, 0x00, 0x00, 0x14, 0x00, 0x00, 0x00,
  0x01, 0x00, 0x00, 0x00, 0x80, 0xff, 0xff, 0xff, 0xff, 0xff, 0xff, 0xff,
  0x00, 0x00, 0x00, 0x00, 0x01, 0x00, 0x00, 0x00, 0x19, 0x41, 0xb1, 0x3c,
  0xb6, 0x00, 0x00, 0x00, 0x66, 0x72, 0x61, 0x6d, 0x65, 0x5f, 0x6f, 0x6e,
  0x73, 0x65, 0x74, 0x5f, 0x63, 0x6f, 0x6e, 0x76, 0x31, 0x64, 0x2f, 0x63,
  0x6f, 0x6e, 0x76, 0x31, 0x2f, 0x52, 0x65, 0x6c, 0x75, 0x3b, 0x66, 0x72,
  0x61, 0x6d, 0x65, 0x5f, 0x6f, 0x6e, 0x73, 0x65, 0x74, 0x5f, 0x63, 0x6f,
  0x6e, 0x76, 0x31, 0x64, 0x2f, 0x63, 0x6f, 0x6e, 0x76, 0x31, 0x2f, 0x42,
  0x69, 0x61, 0x73, 0x41, 0x64, 0x64, 0x3b, 0x66, 0x72, 0x61, 0x6d, 0x65,
  0x5f, 0x6f, 0x6e, 0x73, 0x65, 0x74, 0x5f, 0x63, 0x6f, 0x6e, 0x76, 0x31,
  0x64, 0x2f, 0x63, 0x6f, 0x6e, 0x76, 0x31, 0x2f, 0x43, 0x6f, 0x6e, 0x76,
  0x31, 0x44, 0x2f, 0x53, 0x71, 0x75, 0x65, 0x65, 0x7a, 0x65, 0x3b, 0x66,
  0x72, 0x61, 0x6d, 0x65, 0x5f, 0x6f, 0x6e, 0x73, 0x65, 0x74, 0x5f, 0x63,
  0x6f, 0x6e, 0x76, 0x31, 0x64, 0x2f, 0x63, 0x6f, 0x6e, 0x76, 0x31, 0x2f,
  0x42, 0x69, 0x61, 0x73, 0x41, 0x64, 0x64, 0x2f, 0x52, 0x65, 0x61, 0x64,
  0x56, 0x61, 0x72, 0x69, 0x61, 0x62, 0x6c, 0x65, 0x4f, 0x70, 0x3b, 0x66,
  0x72, 0x61, 0x6d, 0x65, 0x5f, 0x6f, 0x6e, 0x73, 0x65, 0x74, 0x5f, 0x63,
  0x6f, 0x6e, 0x76, 0x31, 0x64, 0x2f, 0x63, 0x6f, 0x6e, 0x76, 0x31, 0x2f,
  0x43, 0x6f, 0x6e, 0x76, 0x31, 0x44, 0x00, 0x00, 0x04, 0x00, 0x00, 0x00,
  0x01, 0x00, 0x00, 0x00, 0x01, 0x00, 0x00, 0x00, 0x10, 0x00, 0x00, 0x00,
  0x20, 0x00, 0x00, 0x00, 0xa6, 0xf5, 0xff, 0xff, 0x00, 0x00, 0x00, 0x01,
  0x18, 0x00, 0x00, 0x00, 0x28, 0x00, 0x00, 0x00, 0x48, 0x00, 0x00, 0x00,
  0x0d, 0x00, 0x00, 0x00, 0x00, 0x00, 0x00, 0x09, 0x6c, 0x00, 0x00, 0x00,
  0x04, 0x00, 0x00, 0x00, 0xff, 0xff, 0xff, 0xff, 0x01, 0x00, 0x00, 0x00,
  0x14, 0x00, 0x00, 0x00, 0x1e, 0x00, 0x00, 0x00, 0x94, 0xf5, 0xff, 0xff,
  0x08, 0x00, 0x00, 0x00, 0x14, 0x00, 0x00, 0x00, 0x01, 0x00, 0x00, 0x00,
  0x80, 0xff, 0xff, 0xff, 0xff, 0xff, 0xff, 0xff, 0x00, 0x00, 0x00, 0x00,
  0x01, 0x00, 0x00, 0x00, 0x81, 0x80, 0x80, 0x3b, 0x2a, 0x00, 0x00, 0x00,
  0x66, 0x72, 0x61, 0x6d, 0x65, 0x5f, 0x6f, 0x6e, 0x73, 0x65, 0x74, 0x5f,
  0x63, 0x6f, 0x6e, 0x76, 0x31, 0x64, 0x2f, 0x63, 0x6f, 0x6e, 0x76, 0x31,
  0x2f, 0x43, 0x6f, 0x6e, 0x76, 0x31, 0x44, 0x2f, 0x45, 0x78, 0x70, 0x61,
  0x6e, 0x64, 0x44, 0x69, 0x6d, 0x73, 0x00, 0x00, 0x04, 0x00, 0x00, 0x00,
  0x01, 0x00, 0x00, 0x00, 0x01, 0x00, 0x00, 0x00, 0x14, 0x00, 0x00, 0x00,
  0x1e, 0x00, 0x00, 0x00, 0x42, 0xf6, 0xff, 0xff, 0x00, 0x00, 0x00, 0x01,
  0x18, 0x00, 0x00, 0x00, 0x24, 0x00, 0x00, 0x00, 0x40, 0x00, 0x00, 0x00,
  0x0c, 0x00, 0x00, 0x00, 0x00, 0x00, 0x00, 0x09, 0x60, 0x00, 0x00, 0x00,
  0x03, 0x00, 0x00, 0x00, 0xff, 0xff, 0xff, 0xff, 0x14, 0x00, 0x00, 0x00,
  0x1e, 0x00, 0x00, 0x00, 0x2c, 0xf6, 0xff, 0xff, 0x08, 0x00, 0x00, 0x00,
  0x10, 0x00, 0x00, 0x00, 0x01, 0x00, 0x00, 0x00, 0x80, 0xff, 0xff, 0xff,
  0xff, 0xff, 0xff, 0xff, 0x01, 0x00, 0x00, 0x00, 0x81, 0x80, 0x80, 0x3b,
  0x25, 0x00, 0x00, 0x00, 0x66, 0x72, 0x61, 0x6d, 0x65, 0x5f, 0x6f, 0x6e,
  0x73, 0x65, 0x74, 0x5f, 0x63, 0x6f, 0x6e, 0x76, 0x31, 0x64, 0x2f, 0x7a,
  0x65, 0x72, 0x6f, 0x5f, 0x70, 0x61, 0x64, 0x64, 0x69, 0x6e, 0x67, 0x31,
  0x64, 0x2f, 0x50, 0x61, 0x64, 0x00, 0x00, 0x00, 0x03, 0x00, 0x00, 0x00,
  0x01, 0x00, 0x00, 0x00, 0x14, 0x00, 0x00, 0x00, 0x1e, 0x00, 0x00, 0x00,
  0x2a, 0xf7, 0xff, 0xff, 0x00, 0x00, 0x00, 0x01, 0x14, 0x00, 0x00, 0x00,
  0xa8, 0x01, 0x00, 0x00, 0x0b, 0x00, 0x00, 0x00, 0x00, 0x00, 0x00, 0x09,
  0xb4, 0x01, 0x00, 0x00, 0xa4, 0xf6, 0xff, 0xff, 0x08, 0x00, 0x00, 0x00,
  0x0c, 0x01, 0x00, 0x00, 0x20, 0x00, 0x00, 0x00, 0x00, 0x00, 0x00, 0x00,
  0x00, 0x00, 0x00, 0x00, 0x00, 0x00, 0x00, 0x00, 0x00, 0x00, 0x00, 0x00,
  0x00, 0x00, 0x00, 0x00, 0x00, 0x00, 0x00, 0x00, 0x00, 0x00, 0x00, 0x00,
  0x00, 0x00, 0x00, 0x00, 0x00, 0x00, 0x00, 0x00, 0x00, 0x00, 0x00, 0x00,
  0x00, 0x00, 0x00, 0x00, 0x00, 0x00, 0x00, 0x00, 0x00, 0x00, 0x00, 0x00,
  0x00, 0x00, 0x00, 0x00, 0x00, 0x00, 0x00, 0x00, 0x00, 0x00, 0x00, 0x00,
  0x00, 0x00, 0x00, 0x00, 0x00, 0x00, 0x00, 0x00, 0x00, 0x00, 0x00, 0x00,
  0x00, 0x00, 0x00, 0x00, 0x00, 0x00, 0x00, 0x00, 0x00, 0x00, 0x00, 0x00,
  0x00, 0x00, 0x00, 0x00, 0x00, 0x00, 0x00, 0x00, 0x00, 0x00, 0x00, 0x00,
  0x00, 0x00, 0x00, 0x00, 0x00, 0x00, 0x00, 0x00, 0x00, 0x00, 0x00, 0x00,
  0x00, 0x00, 0x00, 0x00, 0x00, 0x00, 0x00, 0x00, 0x00, 0x00, 0x00, 0x00,
  0x00, 0x00, 0x00, 0x00, 0x00, 0x00, 0x00, 0x00, 0x00, 0x00, 0x00, 0x00,
  0x00, 0x00, 0x00, 0x00, 0x00, 0x00, 0x00, 0x00, 0x00, 0x00, 0x00, 0x00,
  0x00, 0x00, 0x00, 0x00, 0x00, 0x00, 0x00, 0x00, 0x00, 0x00, 0x00, 0x00,
  0x00, 0x00, 0x00, 0x00, 0x00, 0x00, 0x00, 0x00, 0x00, 0x00, 0x00, 0x00,
  0x00, 0x00, 0x00, 0x00, 0x00, 0x00, 0x00, 0x00, 0x00, 0x00, 0x00, 0x00,
  0x00, 0x00, 0x00, 0x00, 0x00, 0x00, 0x00, 0x00, 0x00, 0x00, 0x00, 0x00,
  0x00, 0x00, 0x00, 0x00, 0x00, 0x00, 0x00, 0x00, 0x00, 0x00, 0x00, 0x00,
  0x00, 0x00, 0x00, 0x00, 0x00, 0x00, 0x00, 0x00, 0x00, 0x00, 0x00, 0x00,
  0x00, 0x00, 0x00, 0x00, 0x00, 0x00, 0x00, 0x00, 0x00, 0x00, 0x00, 0x00,
  0x00, 0x00, 0x00, 0x00, 0x00, 0x00, 0x00, 0x00, 0x00, 0x00, 0x00, 0x00,
  0x00, 0x00, 0x00, 0x00, 0x00, 0x00, 0x00, 0x00, 0x00, 0x00, 0x00, 0x00,
  0x00, 0x00, 0x00, 0x00, 0x20, 0x00, 0x00, 0x00, 0x8a, 0xb1, 0x89, 0x3b,
  0xd6, 0x96, 0xf8, 0x3a, 0x06, 0xf9, 0x33, 0x3b, 0xbc, 0x09, 0xbd, 0x3b,
  0x7b, 0x9e, 0x45, 0x3c, 0xaa, 0x51, 0x07, 0x3b, 0x73, 0xd7, 0x26, 0x3b,
  0x76, 0xd9, 0x54, 0x3b, 0x23, 0x50, 0x59, 0x3b, 0x18, 0xcc, 0x01, 0x3b,
  0xd6, 0xcc, 0x48, 0x3b, 0xb6, 0x00, 0x18, 0x3b, 0xa7, 0xd9, 0x10, 0x3b,
  0xe7, 0xad, 0x54, 0x3b, 0xde, 0xcf, 0xd5, 0x3b, 0x22, 0xc9, 0x7e, 0x3b,
  0x93, 0x02, 0x79, 0x3b, 0x96, 0xca, 0x29, 0x3b, 0xb3, 0xe3, 0xa2, 0x3b,
  0x7c, 0x84, 0x5b, 0x3c, 0xcc, 0x5e, 0xc2, 0x3b, 0xfd, 0x7c, 0x7c, 0x3b,
  0x78, 0x33, 0x8a, 0x3a, 0x89, 0x62, 0x32, 0x3b, 0x4d, 0x45, 0x70, 0x3b,
  0x56, 0x23, 0xc0, 0x3a, 0x17, 0x88, 0x73, 0x3b, 0xeb, 0xfa, 0x66, 0x3b,
  0x1c, 0x9f, 0x99, 0x3b, 0x58, 0xaa, 0x72, 0x3b, 0xc2, 0x0f, 0x50, 0x3b,
  0xc5, 0x01, 0xb0, 0x3b, 0x12, 0x00, 0x00, 0x00, 0x74, 0x66, 0x6c, 0x2e,
  0x70, 0x73, 0x65, 0x75, 0x64, 0x6f, 0x5f, 0x71, 0x63, 0x6f, 0x6e, 0x73,
  0x74, 0x35, 0x00, 0x00, 0x04, 0x00, 0x00, 0x00, 0x20, 0x00, 0x00, 0x00,
  0x01, 0x00, 0x00, 0x00, 0x05, 0x00, 0x00, 0x00, 0x1e, 0x00, 0x00, 0x00,
  0x0a, 0xf9, 0xff, 0xff, 0x00, 0x00, 0x00, 0x01, 0x14, 0x00, 0x00, 0x00,
  0xa4, 0x01, 0x00, 0x00, 0x0a, 0x00, 0x00, 0x00, 0x00, 0x00, 0x00, 0x02,
  0xb0, 0x01, 0x00, 0x00, 0x84, 0xf8, 0xff, 0xff, 0x08, 0x00, 0x00, 0x00,
  0x08, 0x01, 0x00, 0x00, 0x20, 0x00, 0x00, 0x00, 0x00, 0x00, 0x00, 0x00,
  0x00, 0x00, 0x00, 0x00, 0x00, 0x00, 0x00, 0x00, 0x00, 0x00, 0x00, 0x00,
  0x00, 0x00, 0x00, 0x00, 0x00, 0x00, 0x00, 0x00, 0x00, 0x00, 0x00, 0x00,
  0x00, 0x00, 0x00, 0x00, 0x00, 0x00, 0x00, 0x00, 0x00, 0x00, 0x00, 0x00,
  0x00, 0x00, 0x00, 0x00, 0x00, 0x00, 0x00, 0x00, 0x00, 0x00, 0x00, 0x00,
  0x00, 0x00, 0x00, 0x00, 0x00, 0x00, 0x00, 0x00, 0x00, 0x00, 0x00, 0x00,
  0x00, 0x00, 0x00, 0x00, 0x00, 0x00, 0x00, 0x00, 0x00, 0x00, 0x00, 0x00,
  0x00, 0x00, 0x00, 0x00, 0x00, 0x00, 0x00, 0x00, 0x00, 0x00, 0x00, 0x00,
  0x00, 0x00, 0x00, 0x00, 0x00, 0x00, 0x00, 0x00, 0x00, 0x00, 0x00, 0x00,
  0x00, 0x00, 0x00, 0x00, 0x00, 0x00, 0x00, 0x00, 0x00, 0x00, 0x00, 0x00,
  0x00, 0x00, 0x00, 0x00, 0x00, 0x00, 0x00, 0x00, 0x00, 0x00, 0x00, 0x00,
  0x00, 0x00, 0x00, 0x00, 0x00, 0x00, 0x00, 0x00, 0x00, 0x00, 0x00, 0x00,
  0x00, 0x00, 0x00, 0x00, 0x00, 0x00, 0x00, 0x00, 0x00, 0x00, 0x00, 0x00,
  0x00, 0x00, 0x00, 0x00, 0x00, 0x00, 0x00, 0x00, 0x00, 0x00, 0x00, 0x00,
  0x00, 0x00, 0x00, 0x00, 0x00, 0x00, 0x00, 0x00, 0x00, 0x00, 0x00, 0x00,
  0x00, 0x00, 0x00, 0x00, 0x00, 0x00, 0x00, 0x00, 0x00, 0x00, 0x00, 0x00,
  0x00, 0x00, 0x00, 0x00, 0x00, 0x00, 0x00, 0x00, 0x00, 0x00, 0x00, 0x00,
  0x00, 0x00, 0x00, 0x00, 0x00, 0x00, 0x00, 0x00, 0x00, 0x00, 0x00, 0x00,
  0x00, 0x00, 0x00, 0x00, 0x00, 0x00, 0x00, 0x00, 0x00, 0x00, 0x00, 0x00,
  0x00, 0x00, 0x00, 0x00, 0x00, 0x00, 0x00, 0x00, 0x00, 0x00, 0x00, 0x00,
  0x00, 0x00, 0x00, 0x00, 0x00, 0x00, 0x00, 0x00, 0x00, 0x00, 0x00, 0x00,
  0x00, 0x00, 0x00, 0x00, 0x00, 0x00, 0x00, 0x00, 0x00, 0x00, 0x00, 0x00,
  0x20, 0x00, 0x00, 0x00, 0xc6, 0x3b, 0x8a, 0x37, 0x67, 0x90, 0xf9, 0x36,
  0xb4, 0xad, 0x34, 0x37, 0x84, 0xc7, 0xbd, 0x37, 0xe1, 0x64, 0x46, 0x38,
  0x84, 0xd9, 0x07, 0x37, 0xf3, 0x7e, 0x27, 0x37, 0x26, 0xaf, 0x55, 0x37,
  0x4e, 0x2a, 0x5a, 0x37, 0x67, 0x4e, 0x02, 0x37, 0x6d, 0x96, 0x49, 0x37,
  0x50, 0x99, 0x18, 0x37, 0x13, 0x6b, 0x11, 0x37, 0x6b, 0x83, 0x55, 0x37,
  0x85, 0xa6, 0xd6, 0x37, 0xec, 0xc8, 0x7f, 0x37, 0x91, 0xfc, 0x79, 0x37,
  0x0c, 0x75, 0x2a, 0x37, 0x3b, 0x87, 0xa3, 0x37, 0xde, 0x60, 0x5c, 0x38,
  0xef, 0x21, 0xc3, 0x37, 0x78, 0x7a, 0x7d, 0x37, 0x37, 0xbe, 0x8a, 0x36,
  0x9f, 0x15, 0x33, 0x37, 0x84, 0x36, 0x71, 0x37, 0x3b, 0xe4, 0xc0, 0x36,
  0x95, 0x7c, 0x74, 0x37, 0xcf, 0xe2, 0x67, 0x37, 0x56, 0x39, 0x9a, 0x37,
  0xf7, 0x9d, 0x73, 0x37, 0xa3, 0xe0, 0x50, 0x37, 0x78, 0xb2, 0xb0, 0x37,
  0x12, 0x00, 0x00, 0x00, 0x74, 0x66, 0x6c, 0x2e, 0x70, 0x73, 0x65, 0x75,
  0x64, 0x6f, 0x5f, 0x71, 0x63, 0x6f, 0x6e, 0x73, 0x74, 0x34, 0x00, 0x00,
  0x01, 0x00, 0x00, 0x00, 0x20, 0x00, 0x00, 0x00, 0xda, 0xfa, 0xff, 0xff,
  0x00, 0x00, 0x00, 0x01, 0x14, 0x00, 0x00, 0x00, 0xa8, 0x01, 0x00, 0x00,
  0x09, 0x00, 0x00, 0x00, 0x00, 0x00, 0x00, 0x09, 0xb4, 0x01, 0x00, 0x00,
  0x54, 0xfa, 0xff, 0xff, 0x08, 0x00, 0x00, 0x00, 0x0c, 0x01, 0x00, 0x00,
  0x20, 0x00, 0x00, 0x00, 0x00, 0x00, 0x00, 0x00, 0x00, 0x00, 0x00, 0x00,
  0x00, 0x00, 0x00, 0x00, 0x00, 0x00, 0x00, 0x00, 0x00, 0x00, 0x00, 0x00,
  0x00, 0x00, 0x00, 0x00, 0x00, 0x00, 0x00, 0x00, 0x00, 0x00, 0x00, 0x00,
  0x00, 0x00, 0x00, 0x00, 0x00, 0x00, 0x00, 0x00, 0x00, 0x00, 0x00, 0x00,
  0x00, 0x00, 0x00, 0x00, 0x00, 0x00, 0x00, 0x00, 0x00, 0x00, 0x00, 0x00,
  0x00, 0x00, 0x00, 0x00, 0x00, 0x00, 0x00, 0x00, 0x00, 0x00, 0x00, 0x00,
  0x00, 0x00, 0x00, 0x00, 0x00, 0x00, 0x00, 0x00, 0x00, 0x00, 0x00, 0x00,
  0x00, 0x00, 0x00, 0x00, 0x00, 0x00, 0x00, 0x00, 0x00, 0x00, 0x00, 0x00,
  0x00, 0x00, 0x00, 0x00, 0x00, 0x00, 0x00, 0x00, 0x00, 0x00, 0x00, 0x00,
  0x00, 0x00, 0x00, 0x00, 0x00, 0x00, 0x00, 0x00, 0x00, 0x00, 0x00, 0x00,
  0x00, 0x00, 0x00, 0x00, 0x00, 0x00, 0x00, 0x00, 0x00, 0x00, 0x00, 0x00,
  0x00, 0x00, 0x00, 0x00, 0x00, 0x00, 0x00, 0x00, 0x00, 0x00, 0x00, 0x00,
  0x00, 0x00, 0x00, 0x00, 0x00, 0x00, 0x00, 0x00, 0x00, 0x00, 0x00, 0x00,
  0x00, 0x00, 0x00, 0x00, 0x00, 0x00, 0x00, 0x00, 0x00, 0x00, 0x00, 0x00,
  0x00, 0x00, 0x00, 0x00, 0x00, 0x00, 0x00, 0x00, 0x00, 0x00, 0x00, 0x00,
  0x00, 0x00, 0x00, 0x00, 0x00, 0x00, 0x00, 0x00, 0x00, 0x00, 0x00, 0x00,
  0x00, 0x00, 0x00, 0x00, 0x00, 0x00, 0x00, 0x00, 0x00, 0x00, 0x00, 0x00,
  0x00, 0x00, 0x00, 0x00, 0x00, 0x00, 0x00, 0x00, 0x00, 0x00, 0x00, 0x00,
  0x00, 0x00, 0x00, 0x00, 0x00, 0x00, 0x00, 0x00, 0x00, 0x00, 0x00, 0x00,
  0x00, 0x00, 0x00, 0x00, 0x00, 0x00, 0x00, 0x00, 0x00, 0x00, 0x00, 0x00,
  0x00, 0x00, 0x00, 0x00, 0x00, 0x00, 0x00, 0x00, 0x00, 0x00, 0x00, 0x00,
  0x00, 0x00, 0x00, 0x00, 0x00, 0x00, 0x00, 0x00, 0x00, 0x00, 0x00, 0x00,
  0x20, 0x00, 0x00, 0x00, 0x6b, 0x83, 0x9f, 0x3d, 0xa5, 0x44, 0xff, 0x3c,
  0x9e, 0x0c, 0x80, 0x3c, 0x91, 0x67, 0x97, 0x3c, 0xe6, 0x6f, 0x2b, 0x3c,
  0x67, 0x07, 0xee, 0x3c, 0xfc, 0x9f, 0x48, 0x3c, 0x88, 0x58, 0x2e, 0x3c,
  0x2e, 0x77, 0x09, 0x3d, 0xf5, 0x2f, 0x4a, 0x3c, 0xc5, 0x09, 0xaf, 0x3c,
  0x12, 0xcb, 0x14, 0x3c, 0x6f, 0x89, 0xd8, 0x3c, 0xb2, 0x26, 0x93, 0x3c,
  0x31, 0x1f, 0x86, 0x3c, 0xaa, 0xc3, 0xac, 0x3c, 0x30, 0x5d, 0xe0, 0x3c,
  0x11, 0x95, 0x1d, 0x3c, 0xc1, 0xc7, 0x86, 0x3c, 0x64, 0x24, 0x26, 0x3d,
  0x23, 0x16, 0x19, 0x3c, 0xf7, 0xb5, 0x30, 0x3c, 0x4e, 0x0d, 0xb6, 0x3c,
  0x22, 0x1a, 0x4d, 0x3d, 0x53, 0xa2, 0xc8, 0x3c, 0x0e, 0x08, 0xd4, 0x3c,
  0x82, 0x43, 0x4c, 0x3c, 0xb8, 0x2a, 0xdf, 0x3b, 0x68, 0xda, 0x97, 0x3c,
  0x4e, 0xae, 0x3d, 0x3d, 0x64, 0x63, 0xf1, 0x3c, 0xf6, 0x1e, 0x28, 0x3c,
  0x12, 0x00, 0x00, 0x00, 0x74, 0x66, 0x6c, 0x2e, 0x70, 0x73, 0x65, 0x75,
  0x64, 0x6f, 0x5f, 0x71, 0x63, 0x6f, 0x6e, 0x73, 0x74, 0x33, 0x00, 0x00,
  0x04, 0x00, 0x00, 0x00, 0x20, 0x00, 0x00, 0x00, 0x01, 0x00, 0x00, 0x00,
  0x05, 0x00, 0x00, 0x00, 0x20, 0x00, 0x00, 0x00, 0xba, 0xfc, 0xff, 0xff,
  0x00, 0x00, 0x00, 0x01, 0x14, 0x00, 0x00, 0x00, 0xa4, 0x01, 0x00, 0x00,
  0x08, 0x00, 0x00, 0x00, 0x00, 0x00, 0x00, 0x02, 0xb0, 0x01, 0x00, 0x00,
  0x34, 0xfc, 0xff, 0xff, 0x08, 0x00, 0x00, 0x00, 0x08, 0x01, 0x00, 0x00,
  0x20, 0x00, 0x00, 0x00, 0x00, 0x00, 0x00, 0x00, 0x00, 0x00, 0x00, 0x00,
  0x00, 0x00, 0x00, 0x00, 0x00, 0x00, 0x00, 0x00, 0x00, 0x00, 0x00, 0x00,
  0x00, 0x00, 0x00, 0x00, 0x00, 0x00, 0x00, 0x00, 0x00, 0x00, 0x00, 0x00,
  0x00, 0x00, 0x00, 0x00, 0x00, 0x00, 0x00, 0x00, 0x00, 0x00, 0x00, 0x00,
  0x00, 0x00, 0x00, 0x00, 0x00, 0x00, 0x00, 0x00, 0x00, 0x00, 0x00, 0x00,
  0x00, 0x00, 0x00, 0x00, 0x00, 0x00, 0x00, 0x00, 0x00, 0x00, 0x00, 0x00,
  0x00, 0x00, 0x00, 0x00, 0x00, 0x00, 0x00, 0x00, 0x00, 0x00, 0x00, 0x00,
  0x00, 0x00, 0x00, 0x00, 0x00, 0x00, 0x00, 0x00, 0x00, 0x00, 0x00, 0x00,
  0x00, 0x00, 0x00, 0x00, 0x00, 0x00, 0x00, 0x00, 0x00, 0x00, 0x00, 0x00,
  0x00, 0x00, 0x00, 0x00, 0x00, 0x00, 0x00, 0x00, 0x00, 0x00, 0x00, 0x00,
  0x00, 0x00, 0x00, 0x00, 0x00, 0x00, 0x00, 0x00, 0x00, 0x00, 0x00, 0x00,
  0x00, 0x00, 0x00, 0x00, 0x00, 0x00, 0x00, 0x00, 0x00, 0x00, 0x00, 0x00,
  0x00, 0x00, 0x00, 0x00, 0x00, 0x00, 0x00, 0x00, 0x00, 0x00, 0x00, 0x00,
  0x00, 0x00, 0x00, 0x00, 0x00, 0x00, 0x00, 0x00, 0x00, 0x00, 0x00, 0x00,
  0x00, 0x00, 0x00, 0x00, 0x00, 0x00, 0x00, 0x00, 0x00, 0x00, 0x00, 0x00,
  0x00, 0x00, 0x00, 0x00, 0x00, 0x00, 0x00, 0x00, 0x00, 0x00, 0x00, 0x00,
  0x00, 0x00, 0x00, 0x00, 0x00, 0x00, 0x00, 0x00, 0x00, 0x00, 0x00, 0x00,
  0x00, 0x00, 0x00, 0x00, 0x00, 0x00, 0x00, 0x00, 0x00, 0x00, 0x00, 0x00,
  0x00, 0x00, 0x00, 0x00, 0x00, 0x00, 0x00, 0x00, 0x00, 0x00, 0x00, 0x00,
  0x00, 0x00, 0x00, 0x00, 0x00, 0x00, 0x00, 0x00, 0x00, 0x00, 0x00, 0x00,
  0x00, 0x00, 0x00, 0x00, 0x00, 0x00, 0x00, 0x00, 0x00, 0x00, 0x00, 0x00,
  0x00, 0x00, 0x00, 0x00, 0x00, 0x00, 0x00, 0x00, 0x20, 0x00, 0x00, 0x00,
  0xda, 0xe4, 0xdc, 0x3a, 0x5f, 0xbf, 0x30, 0x3a, 0x92, 0x52, 0xb1, 0x39,
  0x37, 0xaa, 0xd1, 0x39, 0xec, 0x67, 0x6d, 0x39, 0xa5, 0xcf, 0x24, 0x3a,
  0xa1, 0xe9, 0x8a, 0x39, 0x17, 0x6f, 0x71, 0x39, 0xb7, 0x5c, 0x3e, 0x3a,
  0x92, 0xfe, 0x8b, 0x39, 0x88, 0x64, 0xf2, 0x39, 0x7b, 0x0c, 0x4e, 0x39,
  0x16, 0xee, 0x15, 0x3a, 0x59, 0xc6, 0xcb, 0x39, 0x58, 0xbb, 0xb9, 0x39,
  0x6e, 0x3e, 0xef, 0x39, 0x7c, 0x59, 0x1b, 0x3a, 0x46, 0x38, 0x5a, 0x39,
  0xc5, 0xa4, 0xba, 0x39, 0xd1, 0x12, 0x66, 0x3a, 0x78, 0xfe, 0x53, 0x39,
  0x7e, 0xb5, 0x74, 0x39, 0xfc, 0x1a, 0xfc, 0x39, 0x39, 0x03, 0x8e, 0x3a,
  0x40, 0xeb, 0x0a, 0x3a, 0x7c, 0xcf, 0x12, 0x3a, 0x9e, 0x6e, 0x8d, 0x39,
  0x49, 0x85, 0x1a, 0x39, 0x3e, 0x49, 0xd2, 0x39, 0xc0, 0x55, 0x83, 0x3a,
  0x1a, 0x23, 0x27, 0x3a, 0x51, 0xd0, 0x68, 0x39, 0x12, 0x00, 0x00, 0x00,
  0x74, 0x66, 0x6c, 0x2e, 0x70, 0x73, 0x65, 0x75, 0x64, 0x6f, 0x5f, 0x71,
  0x63, 0x6f, 0x6e, 0x73, 0x74, 0x32, 0x00, 0x00, 0x01, 0x00, 0x00, 0x00,
  0x20, 0x00, 0x00, 0x00, 0x8a, 0xfe, 0xff, 0xff, 0x00, 0x00, 0x00, 0x01,
  0x14, 0x00, 0x00, 0x00, 0x30, 0x00, 0x00, 0x00, 0x07, 0x00, 0x00, 0x00,
  0x00, 0x00, 0x00, 0x09, 0x3c, 0x00, 0x00, 0x00, 0x04, 0xfe, 0xff, 0xff,
