// Auto-generated by export_tflite.py — do not edit
// Model size: 24856 bytes (24.3 KB)
// SHA256 prefix: f91a1d011a6a2934
// Exported: 2026-05-02T14:54:00Z

#ifndef FRAME_ONSET_MODEL_DATA_H
#define FRAME_ONSET_MODEL_DATA_H

#define FRAME_ONSET_MODEL_DATA_HASH "f91a1d011a6a2934"
#define FRAME_ONSET_MODEL_DATA_SIZE 24856

alignas(8) static const unsigned char frame_onset_model_data[] = {
  0x1c, 0x00, 0x00, 0x00, 0x54, 0x46, 0x4c, 0x33, 0x14, 0x00, 0x20, 0x00,
  0x1c, 0x00, 0x18, 0x00, 0x14, 0x00, 0x10, 0x00, 0x0c, 0x00, 0x00, 0x00,
  0x08, 0x00, 0x04, 0x00, 0x14, 0x00, 0x00, 0x00, 0x1c, 0x00, 0x00, 0x00,
  0x88, 0x00, 0x00, 0x00, 0xe0, 0x00, 0x00, 0x00, 0xe0, 0x49, 0x00, 0x00,
  0xf0, 0x49, 0x00, 0x00, 0x6c, 0x60, 0x00, 0x00, 0x03, 0x00, 0x00, 0x00,
  0x01, 0x00, 0x00, 0x00, 0x04, 0x00, 0x00, 0x00, 0x1e, 0xb4, 0xff, 0xff,
  0x0c, 0x00, 0x00, 0x00, 0x1c, 0x00, 0x00, 0x00, 0x3c, 0x00, 0x00, 0x00,
  0x0f, 0x00, 0x00, 0x00, 0x73, 0x65, 0x72, 0x76, 0x69, 0x6e, 0x67, 0x5f,
  0x64, 0x65, 0x66, 0x61, 0x75, 0x6c, 0x74, 0x00, 0x01, 0x00, 0x00, 0x00,
  0x04, 0x00, 0x00, 0x00, 0x94, 0xff, 0xff, 0xff, 0x16, 0x00, 0x00, 0x00,
  0x04, 0x00, 0x00, 0x00, 0x0b, 0x00, 0x00, 0x00, 0x6f, 0x75, 0x74, 0x70,
  0x75, 0x74, 0x5f, 0x63, 0x6f, 0x6e, 0x76, 0x00, 0x01, 0x00, 0x00, 0x00,
  0x04, 0x00, 0x00, 0x00, 0xba, 0xb6, 0xff, 0xff, 0x04, 0x00, 0x00, 0x00,
  0x09, 0x00, 0x00, 0x00, 0x6d, 0x65, 0x6c, 0x5f, 0x69, 0x6e, 0x70, 0x75,
  0x74, 0x00, 0x00, 0x00, 0x02, 0x00, 0x00, 0x00, 0x34, 0x00, 0x00, 0x00,
  0x04, 0x00, 0x00, 0x00, 0xdc, 0xff, 0xff, 0xff, 0x19, 0x00, 0x00, 0x00,
  0x04, 0x00, 0x00, 0x00, 0x13, 0x00, 0x00, 0x00, 0x43, 0x4f, 0x4e, 0x56,
  0x45, 0x52, 0x53, 0x49, 0x4f, 0x4e, 0x5f, 0x4d, 0x45, 0x54, 0x41, 0x44,
  0x41, 0x54, 0x41, 0x00, 0x08, 0x00, 0x0c, 0x00, 0x08, 0x00, 0x04, 0x00,
  0x08, 0x00, 0x00, 0x00, 0x18, 0x00, 0x00, 0x00, 0x04, 0x00, 0x00, 0x00,
  0x13, 0x00, 0x00, 0x00, 0x6d, 0x69, 0x6e, 0x5f, 0x72, 0x75, 0x6e, 0x74,
  0x69, 0x6d, 0x65, 0x5f, 0x76, 0x65, 0x72, 0x73, 0x69, 0x6f, 0x6e, 0x00,
  0x1a, 0x00, 0x00, 0x00, 0xfc, 0x48, 0x00, 0x00, 0xf4, 0x48, 0x00, 0x00,
  0xcc, 0x48, 0x00, 0x00, 0xb0, 0x48, 0x00, 0x00, 0x94, 0x48, 0x00, 0x00,
  0x78, 0x48, 0x00, 0x00, 0x64, 0x48, 0x00, 0x00, 0x34, 0x48, 0x00, 0x00,
  0xa4, 0x47, 0x00, 0x00, 0x94, 0x33, 0x00, 0x00, 0x04, 0x33, 0x00, 0x00,
  0xf4, 0x00, 0x00, 0x00, 0xec, 0x00, 0x00, 0x00, 0xe4, 0x00, 0x00, 0x00,
  0xdc, 0x00, 0x00, 0x00, 0xd4, 0x00, 0x00, 0x00, 0xcc, 0x00, 0x00, 0x00,
  0xc4, 0x00, 0x00, 0x00, 0xbc, 0x00, 0x00, 0x00, 0xb4, 0x00, 0x00, 0x00,
  0xac, 0x00, 0x00, 0x00, 0xa4, 0x00, 0x00, 0x00, 0x9c, 0x00, 0x00, 0x00,
  0x94, 0x00, 0x00, 0x00, 0x74, 0x00, 0x00, 0x00, 0x04, 0x00, 0x00, 0x00,
  0x9a, 0xb7, 0xff, 0xff, 0x04, 0x00, 0x00, 0x00, 0x60, 0x00, 0x00, 0x00,
  0x0c, 0x00, 0x00, 0x00, 0x08, 0x00, 0x0e, 0x00, 0x08, 0x00, 0x04, 0x00,
  0x08, 0x00, 0x00, 0x00, 0x10, 0x00, 0x00, 0x00, 0x28, 0x00, 0x00, 0x00,
  0x00, 0x00, 0x06, 0x00, 0x08, 0x00, 0x04, 0x00, 0x06, 0x00, 0x00, 0x00,
  0x04, 0x00, 0x00, 0x00, 0x01, 0x00, 0x00, 0x00, 0xeb, 0x03, 0x00, 0x00,
  0x0c, 0x00, 0x18, 0x00, 0x14, 0x00, 0x10, 0x00, 0x0c, 0x00, 0x04, 0x00,
  0x0c, 0x00, 0x00, 0x00, 0x6b, 0xa8, 0x2a, 0x12, 0x32, 0x5a, 0x4b, 0x35,
  0x02, 0x00, 0x00, 0x00, 0x02, 0x00, 0x00, 0x00, 0x04, 0x00, 0x00, 0x00,
  0x06, 0x00, 0x00, 0x00, 0x32, 0x2e, 0x32, 0x30, 0x2e, 0x30, 0x00, 0x00,
  0x06, 0xb8, 0xff, 0xff, 0x04, 0x00, 0x00, 0x00, 0x10, 0x00, 0x00, 0x00,
  0x31, 0x2e, 0x31, 0x34, 0x2e, 0x30, 0x00, 0x00, 0x00, 0x00, 0x00, 0x00,
  0x00, 0x00, 0x00, 0x00, 0x28, 0xa2, 0xff, 0xff, 0x2c, 0xa2, 0xff, 0xff,
  0x30, 0xa2, 0xff, 0xff, 0x34, 0xa2, 0xff, 0xff, 0x38, 0xa2, 0xff, 0xff,
  0x3c, 0xa2, 0xff, 0xff, 0x40, 0xa2, 0xff, 0xff, 0x44, 0xa2, 0xff, 0xff,
  0x48, 0xa2, 0xff, 0xff, 0x4c, 0xa2, 0xff, 0xff, 0x50, 0xa2, 0xff, 0xff,
  0x54, 0xa2, 0xff, 0xff, 0x52, 0xb8, 0xff, 0xff, 0x04, 0x00, 0x00, 0x00,
  0x00, 0x32, 0x00, 0x00, 0x6b, 0x4f, 0x2d, 0x04, 0xf2, 0xf6, 0x27, 0x0c,
  0x01, 0xf2, 0xdd, 0x14, 0x05, 0xf5, 0x1f, 0xdf, 0xe8, 0xf2, 0x03, 0xe9,
  0xe5, 0xf8, 0x30, 0xfc, 0x09, 0xea, 0x18, 0xf7, 0x0c, 0xee, 0x02, 0xd8,
  0x17, 0xea, 0xe3, 0xf5, 0xea, 0x06, 0xdd, 0xe1, 0xd1, 0xe6, 0x0f, 0x07,
  0xde, 0x02, 0xc1, 0x02, 0x09, 0xd9, 0xea, 0xc7, 0x11, 0x0b, 0xf8, 0xe2,
  0xe8, 0xda, 0xec, 0xe4, 0xf8, 0x05, 0x07, 0xdf, 0xd8, 0xe5, 0x12, 0xd3,
  0xf2, 0xda, 0xeb, 0xe3, 0xe1, 0xf7, 0x08, 0xc7, 0xf5, 0x0f, 0xe5, 0xd8,
  0x61, 0x1d, 0x02, 0x14, 0xf0, 0xf2, 0xd0, 0xfa, 0xe8, 0x1a, 0xfc, 0x08,
  0xe2, 0x2b, 0x08, 0xe6, 0xe8, 0x16, 0xee, 0x2f, 0x18, 0xf5, 0x10, 0x0e,
  0xfd, 0xf5, 0x06, 0xeb, 0xd7, 0x01, 0xe7, 0x0b, 0xf3, 0xdf, 0xf8, 0xe1,
  0xfb, 0xfd, 0xd5, 0xe3, 0xe8, 0xdc, 0x06, 0xed, 0x1a, 0xfe, 0x02, 0xe9,
  0xd3, 0xd0, 0xcf, 0x03, 0xb9, 0xdd, 0xa6, 0xc2, 0xcf, 0xb2, 0xd7, 0xcd,
  0xe1, 0xc6, 0xe5, 0xe4, 0xd9, 0xdc, 0xe7, 0xe3, 0xe3, 0x11, 0xe6, 0xeb,
  0xd1, 0xf5, 0x01, 0xee, 0xbf, 0xc4, 0xd0, 0xca, 0x49, 0x5f, 0x37, 0x22,
  0x03, 0x08, 0x44, 0x31, 0x24, 0x1c, 0x0f, 0x12, 0x31, 0x04, 0x40, 0x30,
  0x37, 0xf7, 0x31, 0x18, 0x1b, 0x1b, 0x20, 0x01, 0x20, 0xfa, 0xed, 0xf7,
  0x3a, 0x32, 0x0d, 0x17, 0x0b, 0x2e, 0x29, 0x29, 0x0b, 0xf8, 0x1c, 0x02,
  0x33, 0xeb, 0xe6, 0xf1, 0xf5, 0x08, 0x0b, 0xec, 0xf8, 0x12, 0x00, 0xe6,
  0x0f, 0xf4, 0x05, 0x09, 0xfb, 0x1f, 0xde, 0xff, 0xf2, 0xfc, 0xc3, 0x0b,
  0x12, 0xdb, 0xd7, 0x10, 0xed, 0xe5, 0x08, 0xeb, 0xc8, 0xe2, 0xe3, 0x02,
  0x04, 0xf2, 0x0d, 0x01, 0x7f, 0x73, 0x17, 0x0c, 0x35, 0x1e, 0x18, 0xf2,
  0x1b, 0x06, 0x30, 0x1b, 0xf5, 0xe5, 0xd4, 0x0e, 0xe9, 0xe8, 0x1d, 0xf7,
  0xe3, 0xf1, 0xcf, 0xf6, 0xe5, 0x27, 0x13, 0x0c, 0xdb, 0x16, 0xd4, 0xfc,
  0xcd, 0xfd, 0xf7, 0x24, 0xe4, 0xeb, 0x18, 0x04, 0x0a, 0xf5, 0xe9, 0x03,
  0xfc, 0xde, 0x16, 0xec, 0xf1, 0xf7, 0xf5, 0x10, 0xea, 0xed, 0x13, 0x23,
  0xf6, 0x2d, 0xe5, 0x02, 0xfa, 0xeb, 0xfd, 0xea, 0x0f, 0xec, 0xe2, 0xf4,
  0xea, 0xe5, 0x09, 0xee, 0xff, 0xe9, 0xf5, 0x1c, 0x14, 0x0b, 0x05, 0xfd,
  0x32, 0x04, 0x04, 0xfb, 0xcd, 0xbe, 0xde, 0xc4, 0xe7, 0xae, 0xed, 0xb0,
  0xf3, 0xd3, 0xba, 0x09, 0xfa, 0xf2, 0xc7, 0xc3, 0xf0, 0xe5, 0xd2, 0xdb,
  0xd2, 0xea, 0xe0, 0xee, 0xf0, 0xcb, 0x19, 0xd8, 0x0e, 0xef, 0xec, 0xdb,
  0x19, 0x01, 0xfb, 0x16, 0x10, 0x28, 0x15, 0xfa, 0xf1, 0xf1, 0x28, 0xfb,
  0x23, 0x48, 0x23, 0x2f, 0x33, 0x04, 0x4d, 0x10, 0x29, 0x31, 0x46, 0x29,
  0x22, 0x2d, 0x45, 0x26, 0x11, 0x30, 0x40, 0x38, 0x15, 0x26, 0xec, 0x44,
  0x3f, 0x1e, 0xf3, 0xee, 0x02, 0xf9, 0x09, 0xe3, 0x6e, 0x1c, 0xed, 0xf5,
  0xfc, 0x09, 0x06, 0x06, 0xe9, 0xf6, 0xff, 0xfd, 0xf3, 0xe4, 0x05, 0x0c,
  0x0c, 0xdd, 0xfb, 0xf3, 0xe5, 0x13, 0xff, 0xe3, 0xef, 0xe2, 0xf6, 0xfd,
  0xe9, 0xeb, 0xf0, 0xe6, 0x11, 0xf6, 0xf2, 0xf9, 0x00, 0xfe, 0x03, 0xea,
  0xf3, 0xe5, 0x0b, 0xed, 0x03, 0xee, 0xe9, 0xf8, 0x03, 0xef, 0x07, 0x0f,
  0xe8, 0xf3, 0xee, 0x0c, 0x09, 0x0a, 0xed, 0xf7, 0x08, 0xd3, 0xec, 0xff,
  0xec, 0x03, 0x05, 0xff, 0xf3, 0xe2, 0xee, 0xd2, 0xe3, 0xf7, 0xf1, 0xda,
  0xeb, 0xd6, 0xea, 0xdc, 0x7f, 0x0e, 0xdf, 0xde, 0xe6, 0xee, 0xeb, 0xe4,
  0x02, 0xe5, 0xe1, 0xe5, 0xf8, 0xd7, 0xfa, 0xea, 0xf3, 0xf9, 0xf5, 0xf9,
  0xe0, 0xf1, 0xe0, 0x10, 0x05, 0xff, 0xdd, 0xe2, 0xf2, 0xf5, 0x02, 0xfa,
  0x10, 0xea, 0xde, 0xef, 0xcd, 0xdd, 0x07, 0xf0, 0x0a, 0xdb, 0xd9, 0xea,
  0xff, 0xed, 0xe1, 0xd7, 0xcf, 0xf6, 0xd2, 0xe3, 0xea, 0xf2, 0xed, 0xdf,
  0xea, 0xc7, 0xf3, 0xec, 0xdc, 0xec, 0xef, 0xe3, 0xf5, 0xf8, 0xc4, 0xc8,
  0xe1, 0xfe, 0xe6, 0xd9, 0xed, 0xef, 0xfa, 0xda, 0xdf, 0xfc, 0xff, 0xe8,
  0x67, 0x0d, 0x03, 0xf9, 0xe5, 0xe6, 0xf7, 0xfe, 0xfc, 0x1f, 0xff, 0x19,
  0x15, 0xf8, 0x14, 0xf9, 0xfe, 0xfd, 0x05, 0x23, 0x06, 0x08, 0x0f, 0xf1,
  0x00, 0x0c, 0x00, 0x0f, 0x00, 0x15, 0xfc, 0x00, 0x08, 0x03, 0xf7, 0x17,
  0x04, 0xfe, 0xea, 0xec, 0xed, 0xfd, 0xec, 0xe2, 0xf4, 0x10, 0x07, 0xfa,
  0x16, 0xf8, 0x0a, 0xea, 0xd2, 0xf5, 0x0d, 0xf5, 0xe8, 0xed, 0xf3, 0xff,
  0xea, 0xff, 0x0a, 0xd3, 0xfd, 0xe5, 0xd8, 0xda, 0xfb, 0xe7, 0xe6, 0x00,
  0xf3, 0xdf, 0xf0, 0xfa, 0x08, 0x08, 0x05, 0x00, 0x73, 0x1c, 0x07, 0xfe,
  0x2c, 0x1b, 0x32, 0x05, 0x22, 0x27, 0x28, 0x0e, 0x03, 0x2f, 0x05, 0x09,
  0x1a, 0x27, 0x0a, 0x09, 0x1d, 0x17, 0xf5, 0x29, 0x16, 0x12, 0x22, 0xf6,
  0x14, 0x19, 0x15, 0x10, 0xf9, 0xfc, 0x1f, 0x01, 0x28, 0x0d, 0x0e, 0x26,
  0x02, 0x23, 0x25, 0xfa, 0x05, 0xfa, 0x1e, 0x08, 0x24, 0x09, 0x04, 0x00,
  0x18, 0x15, 0x12, 0xf9, 0x1a, 0xf6, 0x21, 0xf2, 0xf9, 0xf5, 0xf2, 0x04,
  0x21, 0xf9, 0x1f, 0x18, 0x28, 0x01, 0x0d, 0x0a, 0x05, 0x0b, 0x0c, 0x15,
  0x24, 0x00, 0xf8, 0x03, 0x5f, 0x27, 0x04, 0xe9, 0x1f, 0x10, 0xe8, 0xf2,
  0x03, 0xce, 0xfd, 0xd1, 0x01, 0x10, 0xdf, 0xf8, 0xe1, 0x07, 0xeb, 0xe3,
  0x00, 0xfa, 0xe1, 0xf1, 0xf7, 0xef, 0xfe, 0x03, 0x0e, 0xe0, 0xe4, 0x09,
  0xe8, 0xf0, 0x12, 0xe5, 0xfc, 0xfb, 0xe6, 0xff, 0xf6, 0x12, 0x03, 0x0e,
  0x01, 0x0f, 0xf2, 0x04, 0xe7, 0xf5, 0xfd, 0x0d, 0x09, 0xea, 0xeb, 0x0c,
  0x04, 0x04, 0x04, 0x18, 0x1f, 0x17, 0x2a, 0x07, 0x02, 0x07, 0x20, 0x2d,
  0xfc, 0x23, 0x2c, 0x3b, 0x0e, 0x38, 0x14, 0x14, 0x07, 0x25, 0x1f, 0x27,
  0x19, 0xfd, 0x01, 0x00, 0x29, 0x1a, 0x3b, 0x2b, 0x37, 0xff, 0x25, 0x06,
  0x0d, 0x20, 0xea, 0xe6, 0x06, 0x26, 0xfc, 0x17, 0x16, 0x17, 0xc0, 0xed,
  0xd8, 0xf6, 0x34, 0xed, 0xe8, 0x11, 0xdc, 0xe0, 0xe0, 0x1c, 0xfe, 0xe8,
  0xfd, 0xf5, 0xf4, 0xe8, 0x28, 0xf4, 0x0b, 0x0b, 0xe0, 0xf7, 0x17, 0x1b,
  0xce, 0xe5, 0x25, 0x0b, 0xce, 0x00, 0x0b, 0x11, 0xeb, 0x08, 0xf7, 0xea,
  0xc6, 0x03, 0xe5, 0xf4, 0xe1, 0xc6, 0xc3, 0xdf, 0xf7, 0xe9, 0xc0, 0xde,
  0xe1, 0x16, 0xe8, 0xf8, 0xfb, 0xef, 0xfa, 0xeb, 0x29, 0x25, 0x24, 0x2b,
  0x3d, 0x33, 0x14, 0xee, 0xea, 0x12, 0x04, 0x0b, 0xdb, 0x1f, 0x26, 0x19,
  0x0c, 0x20, 0xf2, 0xfa, 0x09, 0xd8, 0x1d, 0x01, 0x18, 0xf7, 0xf3, 0xf2,
  0x08, 0xe8, 0xe8, 0xe6, 0x0f, 0x02, 0x02, 0xde, 0xe3, 0xdc, 0x13, 0xfe,
  0xee, 0xfa, 0xd7, 0xc8, 0xf8, 0x12, 0xe3, 0x05, 0x1a, 0xfb, 0xe7, 0xfa,
  0x05, 0xbb, 0xff, 0xe1, 0xf1, 0x15, 0x00, 0xc1, 0x05, 0xed, 0xc5, 0xcd,
  0xc5, 0x02, 0x25, 0xee, 0xe7, 0xe8, 0x12, 0x06, 0xf4, 0xd1, 0xe9, 0x01,
  0x0a, 0xfe, 0x2b, 0xf6, 0xd0, 0x23, 0x15, 0x26, 0xe6, 0xe5, 0xe1, 0x0d,
  0xfa, 0xf8, 0xe9, 0x00, 0x3f, 0x14, 0x0b, 0x08, 0x06, 0xf6, 0x04, 0x01,
  0x29, 0x1a, 0x1e, 0x28, 0xef, 0x2f, 0xed, 0x23, 0x08, 0xf0, 0x2f, 0xf9,
  0xf0, 0xef, 0x01, 0x14, 0x16, 0x11, 0xf6, 0x10, 0xed, 0xfe, 0xe9, 0x07,
  0xe1, 0xe6, 0xf2, 0xd9, 0xf5, 0x0a, 0xd6, 0xec, 0x18, 0xfd, 0xe1, 0xfa,
  0xe9, 0x09, 0xbf, 0x0e, 0xc9, 0xf7, 0xe4, 0x0e, 0xf4, 0x19, 0xed, 0x2b,
  0x03, 0xd4, 0x03, 0x08, 0x07, 0x05, 0xe9, 0xfc, 0xd7, 0xea, 0x21, 0xf4,
  0xf5, 0x08, 0xf5, 0xcf, 0xda, 0x0d, 0xf0, 0x16, 0xe5, 0x0b, 0x1d, 0x0f,
  0xf0, 0x04, 0x03, 0x1d, 0x10, 0xd1, 0x08, 0x01, 0xef, 0x06, 0x05, 0x00,
  0x06, 0xf1, 0xf0, 0x11, 0x10, 0xed, 0x19, 0x31, 0x0f, 0x08, 0xdf, 0x17,
  0x2e, 0x1e, 0xd8, 0x0c, 0x1a, 0xfc, 0x0f, 0x19, 0xee, 0x1c, 0xdd, 0x00,
  0x0f, 0x11, 0xed, 0xfc, 0x2c, 0x15, 0x0f, 0xe5, 0xf0, 0xe8, 0x0e, 0x0f,
  0x37, 0xf7, 0x32, 0x1d, 0xeb, 0x0e, 0xdb, 0xf2, 0xe7, 0x2a, 0x0a, 0xd8,
  0x22, 0xe5, 0x00, 0x19, 0xe2, 0xf9, 0xd9, 0x03, 0x9b, 0x81, 0xd5, 0xdb,
  0xcb, 0xbb, 0xc7, 0xcc, 0xdc, 0xf3, 0xbf, 0xe3, 0xca, 0xad, 0xcf, 0xc7,
  0xe2, 0xdb, 0xff, 0xce, 0xd4, 0xc9, 0xfe, 0xdc, 0x15, 0xe3, 0xe5, 0xe9,
  0xdd, 0x17, 0x06, 0xf8, 0xfb, 0xea, 0x16, 0x0f, 0xc9, 0xf9, 0x2d, 0xdf,
  0xf1, 0xfd, 0x18, 0x19, 0x2f, 0x01, 0x1a, 0x0a, 0x09, 0x03, 0x4c, 0xf5,
  0xee, 0x2e, 0x04, 0x24, 0x40, 0xf8, 0x3f, 0x36, 0x16, 0x37, 0x1d, 0x2b,
  0x4f, 0x1c, 0x4c, 0x09, 0x27, 0x29, 0xfa, 0x39, 0xf0, 0x08, 0x34, 0x02,
  0x16, 0x14, 0xd5, 0xed, 0xfe, 0x00, 0x39, 0x33, 0xa0, 0x90, 0xef, 0xc3,
  0xbd, 0x08, 0xe7, 0x2b, 0xe5, 0x21, 0xf6, 0x1b, 0xc6, 0x0d, 0x1f, 0x24,
  0xbf, 0x12, 0xf4, 0xcc, 0xbd, 0xad, 0xab, 0x15, 0xdd, 0xb7, 0xf9, 0xe2,
  0xc0, 0xa7, 0xe2, 0xff, 0x08, 0xe4, 0xce, 0xfa, 0xed, 0xd6, 0xe0, 0xdc,
  0x01, 0xbd, 0x1d, 0xed, 0xca, 0xc7, 0xe8, 0xa9, 0xae, 0xc2, 0xf1, 0x0f,
  0xdb, 0xc3, 0xce, 0xa0, 0x1b, 0x8a, 0xb7, 0xf3, 0x07, 0xd2, 0x26, 0xba,
  0xbd, 0xf3, 0xcf, 0xf5, 0x05, 0xc5, 0xf7, 0xe2, 0xd6, 0x25, 0xea, 0xde,
  0xd5, 0x20, 0xb6, 0x08, 0xf0, 0x15, 0xe0, 0xd6, 0xeb, 0xb4, 0xb3, 0xd4,
  0x1f, 0xbe, 0x08, 0x29, 0xee, 0x10, 0x0b, 0xaa, 0xf8, 0x28, 0x26, 0xe4,
  0xfc, 0x1a, 0xf3, 0x16, 0xcd, 0xd1, 0xe4, 0xb9, 0x09, 0xc2, 0x2b, 0x3c,
  0x9e, 0xaa, 0xf9, 0x02, 0xc9, 0xf0, 0x0b, 0xc0, 0x2b, 0xe2, 0x04, 0x0e,
  0xef, 0x13, 0xa9, 0xf5, 0x01, 0x2b, 0xf1, 0xdd, 0x0f, 0xfe, 0xc7, 0xa1,
  0xd8, 0xf7, 0x18, 0xfa, 0xdd, 0xdf, 0x11, 0xf3, 0x1b, 0xf8, 0xdc, 0xc9,
  0x0e, 0xe4, 0x02, 0xcb, 0xe7, 0xee, 0x1e, 0xe4, 0xc5, 0xe0, 0x12, 0xdc,
  0x00, 0x32, 0xf3, 0xfa, 0x07, 0xe9, 0xfa, 0x17, 0xbf, 0x21, 0xe3, 0x16,
  0xfa, 0xaf, 0x34, 0xc5, 0xfe, 0xd1, 0xfb, 0x16, 0x04, 0x46, 0x44, 0xf1,
  0x0b, 0x20, 0x25, 0x2b, 0xc4, 0xc8, 0xe0, 0x01, 0x3b, 0x12, 0x37, 0x1e,
  0xf6, 0x05, 0x11, 0x0b, 0xff, 0xe8, 0x01, 0x26, 0xf5, 0x23, 0x20, 0x13,
  0x00, 0xf2, 0xe9, 0x1c, 0xcf, 0x25, 0xee, 0x0c, 0xfa, 0xf8, 0x11, 0x03,
  0x0a, 0x03, 0xce, 0xe2, 0x0c, 0xfc, 0x0c, 0xc3, 0x2d, 0x19, 0xe1, 0x15,
  0xc5, 0xf4, 0x04, 0xd7, 0x39, 0x29, 0x30, 0x1e, 0xd9, 0x0c, 0x13, 0x08,
  0x03, 0xe3, 0x11, 0x16, 0xde, 0x04, 0x33, 0x0d, 0xe8, 0x20, 0xf3, 0x1f,
  0x20, 0x13, 0xee, 0xe8, 0x19, 0xd8, 0x48, 0x44, 0x2c, 0xda, 0x1a, 0x1b,
  0x32, 0x50, 0xcb, 0x49, 0xd6, 0x07, 0x01, 0xf1, 0x2a, 0xfc, 0x07, 0x19,
  0xe4, 0x09, 0x4b, 0xe2, 0xe7, 0xd9, 0x56, 0x4c, 0x03, 0x4c, 0x46, 0x1c,
  0xfa, 0x10, 0xf9, 0x53, 0xeb, 0x2b, 0x40, 0x40, 0x51, 0x1f, 0x21, 0xfb,
  0x5d, 0xdd, 0x33, 0xf3, 0x06, 0x27, 0xf1, 0x16, 0x2b, 0x1d, 0xe6, 0xe1,
  0xca, 0x11, 0xc6, 0xcb, 0x2e, 0xd0, 0x36, 0x42, 0x4d, 0x07, 0xf8, 0xbf,
  0x55, 0xcb, 0xd8, 0x13, 0xd2, 0x1c, 0x31, 0x29, 0xdc, 0x0c, 0x40, 0x18,
  0xcc, 0x30, 0xdc, 0xed, 0x22, 0x12, 0x48, 0x03, 0x45, 0x5e, 0x32, 0x39,
  0x5c, 0xd8, 0x47, 0xe4, 0x07, 0x2a, 0x1a, 0x42, 0x46, 0x1e, 0xdd, 0x3f,
  0xee, 0x11, 0x31, 0xfd, 0x0a, 0x6f, 0xec, 0x19, 0x2d, 0x74, 0x09, 0x7f,
  0x4a, 0x42, 0x29, 0x0d, 0x30, 0x10, 0x27, 0x1a, 0x39, 0xfb, 0x5a, 0x09,
  0x32, 0x2f, 0x3a, 0x20, 0x1d, 0x47, 0x32, 0x4b, 0xab, 0xc4, 0xc5, 0xc3,
  0xbf, 0xd1, 0xdf, 0xdc, 0xe8, 0xe9, 0xf7, 0xe8, 0xf3, 0xf9, 0xf6, 0xf9,
  0xeb, 0xf4, 0xf3, 0xf7, 0xf2, 0xfa, 0xfa, 0xea, 0xf6, 0xf8, 0xf0, 0xf7,
  0xf0, 0xf9, 0xf7, 0xee, 0xed, 0xec, 0xf6, 0xee, 0xf6, 0xf2, 0xf0, 0xe7,
  0xee, 0xed, 0xef, 0xfc, 0xe2, 0xe6, 0xf1, 0xec, 0xe7, 0xe4, 0xe7, 0xea,
  0xe9, 0xea, 0xec, 0xe8, 0xdc, 0xdd, 0xe7, 0xdd, 0xe5, 0xe7, 0xdb, 0xe4,
  0xd9, 0xdf, 0xd5, 0xd5, 0xe2, 0xd9, 0xc8, 0xd8, 0xd2, 0xcb, 0xd7, 0xcc,
  0xc7, 0xc2, 0xbc, 0xb5, 0xa4, 0xaa, 0xb2, 0xa9, 0xa2, 0xaa, 0xab, 0xab,
  0xb5, 0xc4, 0xb4, 0xc3, 0xbd, 0xba, 0xc5, 0xc4, 0xbe, 0xb8, 0xb8, 0xc1,
  0xc4, 0xc2, 0xc9, 0xc0, 0xc9, 0xc6, 0xc8, 0xc5, 0xc1, 0xbe, 0xc6, 0xc2,
  0xba, 0xbd, 0xb7, 0xbb, 0xbb, 0xc2, 0xb3, 0xb3, 0xae, 0xb0, 0xae, 0xb7,
  0xb6, 0xb7, 0xbb, 0xb6, 0xbf, 0xbc, 0xae, 0xb0, 0xab, 0xb1, 0xb9, 0xa9,
  0xa6, 0xae, 0xb9, 0xb3, 0xa9, 0xaa, 0xb2, 0xb2, 0xa8, 0xb1, 0xb5, 0xbe,
  0xab, 0xaf, 0xb3, 0xab, 0xb5, 0xaf, 0xb5, 0xae, 0xb1, 0xaa, 0xb6, 0xb0,
  0xad, 0xc2, 0xc6, 0xc3, 0xd1, 0xc7, 0xd4, 0xcf, 0xcf, 0xd4, 0xdd, 0xd4,
  0xdf, 0xe0, 0xd0, 0xd2, 0xe1, 0xdc, 0xde, 0xdc, 0xe4, 0xd7, 0xd9, 0xde,
  0xe1, 0xdd, 0xe8, 0xe1, 0xde, 0xea, 0xde, 0xdb, 0xe6, 0xed, 0xe3, 0xe9,
  0xe6, 0xf5, 0xeb, 0xe4, 0xee, 0xed, 0xe5, 0xeb, 0xeb, 0xe2, 0xf0, 0xf0,
  0xf7, 0xf4, 0xf7, 0xef, 0xf4, 0xee, 0xf2, 0xf3, 0xf2, 0xef, 0xe9, 0xec,
  0xf0, 0xf6, 0xf9, 0xee, 0xe9, 0xe2, 0xe2, 0xde, 0xeb, 0xe6, 0xea, 0xe6,
  0xe6, 0xec, 0xdf, 0xe0, 0xe3, 0xdd, 0xe2, 0xe1, 0x00, 0x0f, 0x16, 0x24,
  0x1e, 0x26, 0x20, 0x18, 0x15, 0x18, 0x0a, 0x1a, 0x14, 0x0c, 0x10, 0x16,
  0x15, 0x09, 0x18, 0x0d, 0x06, 0x0c, 0x11, 0x18, 0x10, 0x17, 0x0f, 0x0c,
  0x15, 0x10, 0x1b, 0x1a, 0x1c, 0x1c, 0x1a, 0x18, 0x20, 0x19, 0x29, 0x27,
  0x1b, 0x26, 0x29, 0x1c, 0x20, 0x1a, 0x1e, 0x2a, 0x20, 0x2a, 0x2c, 0x1d,
  0x2f, 0x2e, 0x26, 0x29, 0x29, 0x30, 0x27, 0x2f, 0x29, 0x24, 0x21, 0x2f,
  0x21, 0x28, 0x28, 0x28, 0x23, 0x2f, 0x26, 0x29, 0x22, 0x1e, 0x19, 0x22,
  0x20, 0x23, 0x1e, 0x22, 0x6e, 0x7c, 0x7f, 0x76, 0x6d, 0x6a, 0x5a, 0x59,
  0x55, 0x4e, 0x59, 0x4c, 0x49, 0x48, 0x50, 0x48, 0x4c, 0x52, 0x45, 0x45,
  0x4b, 0x4d, 0x4c, 0x44, 0x47, 0x42, 0x48, 0x4c, 0x48, 0x44, 0x47, 0x4c,
  0x47, 0x4a, 0x53, 0x44, 0x4a, 0x44, 0x4e, 0x47, 0x45, 0x42, 0x47, 0x52,
  0x4b, 0x4d, 0x50, 0x42, 0x3f, 0x3e, 0x4b, 0x4d, 0x3a, 0x4f, 0x3d, 0x49,
  0x4d, 0x46, 0x4a, 0x42, 0x52, 0x4f, 0x42, 0x42, 0x4c, 0x4d, 0x46, 0x49,
  0x4b, 0x49, 0x4a, 0x50, 0x53, 0x53, 0x4f, 0x59, 0x54, 0x5a, 0x51, 0x63,
  0xf8, 0xeb, 0xf8, 0xbf, 0xd2, 0xcd, 0xe5, 0xca, 0xe1, 0xd4, 0xd6, 0xe4,
  0xd7, 0xdc, 0xcd, 0xe4, 0xc6, 0x07, 0xf5, 0xdb, 0x0b, 0xf3, 0xf3, 0xe3,
  0xe3, 0xd8, 0xfa, 0xef, 0xfa, 0x03, 0xe9, 0xf7, 0xd7, 0xe9, 0xf6, 0xe1,
  0xe0, 0x01, 0xd6, 0xc9, 0x04, 0xf3, 0xe3, 0x00, 0xfa, 0xdd, 0xea, 0xcb,
  0xef, 0xd0, 0xd7, 0xf5, 0xd0, 0xd5, 0xde, 0xcd, 0xd9, 0xd7, 0x13, 0xff,
  0xea, 0xd6, 0x00, 0xdb, 0xd6, 0xf0, 0xf2, 0xdc, 0x08, 0xfd, 0xdc, 0xee,
  0xf2, 0x0e, 0x10, 0xff, 0xf3, 0x13, 0xeb, 0xed, 0xd9, 0xeb, 0xd8, 0xf3,
  0xc5, 0xa7, 0xe0, 0xd8, 0xc2, 0xd8, 0xea, 0xea, 0xd1, 0xf2, 0xf2, 0xec,
  0xfa, 0xc8, 0xda, 0xf6, 0xe4, 0xd7, 0xdb, 0xec, 0xd4, 0xf6, 0xd5, 0xf6,
  0xb9, 0xd9, 0xba, 0xf2, 0xcc, 0xc1, 0xd4, 0xf8, 0xde, 0xd3, 0xd6, 0xe2,
  0xcc, 0xd8, 0xdd, 0xcb, 0xe1, 0xd5, 0xc9, 0xf9, 0xd1, 0xd0, 0xd9, 0xd2,
  0xdb, 0xd2, 0xe8, 0xbf, 0xd6, 0xf7, 0xdc, 0xec, 0xe6, 0xc9, 0xd8, 0xd3,
  0xc6, 0xd0, 0xdb, 0xf0, 0xe4, 0xe7, 0xea, 0xf3, 0xc8, 0xe9, 0xe5, 0xd4,
  0xed, 0x09, 0xfb, 0x16, 0x04, 0xf2, 0xd7, 0xd8, 0xfc, 0xd7, 0xd4, 0xdd,
  0xdd, 0x11, 0x04, 0x06, 0x01, 0xd3, 0xd0, 0xf0, 0xec, 0xdb, 0xfd, 0xfd,
  0xf1, 0x0e, 0xe5, 0x06, 0x08, 0xcc, 0xd6, 0xd8, 0x08, 0xcd, 0xef, 0x09,
  0x10, 0xef, 0xd0, 0x02, 0xea, 0x17, 0xfb, 0xf0, 0xd6, 0x0f, 0xe9, 0xda,
  0xe9, 0x13, 0xf5, 0x0c, 0xff, 0xe8, 0xef, 0xe8, 0x0f, 0xca, 0x04, 0xda,
  0xda, 0xe6, 0xdb, 0xe1, 0xe5, 0xdf, 0x00, 0xe1, 0x14, 0xfa, 0xd0, 0xef,
  0xd7, 0xf1, 0xfb, 0xf6, 0xf2, 0x08, 0xda, 0xfe, 0xdb, 0xde, 0xf0, 0x16,
  0xff, 0x0c, 0x02, 0x14, 0x07, 0x34, 0x13, 0x2b, 0x16, 0x29, 0xfe, 0x08,
  0x0f, 0x21, 0x35, 0x1c, 0x0b, 0x2d, 0x2c, 0x12, 0x04, 0x08, 0x11, 0x0b,
  0x27, 0x27, 0x2f, 0x1c, 0x27, 0x25, 0x00, 0xf4, 0x14, 0x28, 0xfd, 0x07,
  0xf2, 0xfa, 0x16, 0x13, 0x09, 0x1b, 0x2b, 0x13, 0x0f, 0x2f, 0xfc, 0xff,
  0x00, 0x2f, 0xfd, 0x1c, 0x06, 0x2e, 0x18, 0x2b, 0x22, 0x0e, 0x06, 0xf2,
  0xf6, 0x13, 0x21, 0x17, 0x29, 0xf5, 0x18, 0x03, 0xf9, 0x01, 0x23, 0x0b,
  0xfe, 0xeb, 0x04, 0xff, 0xfd, 0x18, 0xf3, 0x03, 0x3a, 0x31, 0x5d, 0x74,
  0x70, 0x7f, 0x56, 0x54, 0x53, 0x3f, 0x28, 0x12, 0x51, 0x33, 0x31, 0x3a,
  0x38, 0x1d, 0x13, 0x10, 0x25, 0x17, 0x3c, 0x20, 0x25, 0x39, 0x1f, 0x1b,
  0x40, 0x28, 0x58, 0x22, 0x45, 0x49, 0x43, 0x53, 0x45, 0x1b, 0x55, 0x56,
  0x2f, 0x34, 0x15, 0x5b, 0x2c, 0x29, 0x53, 0x26, 0x5a, 0x51, 0x56, 0x2e,
  0x59, 0x6d, 0x55, 0x3b, 0x5b, 0x6d, 0x52, 0x2e, 0x52, 0x73, 0x4d, 0x30,
  0x55, 0x3c, 0x5b, 0x40, 0x48, 0x27, 0x2c, 0x44, 0x53, 0x40, 0x2e, 0x24,
  0x38, 0x21, 0x18, 0x1e, 0xf6, 0x00, 0xfd, 0x36, 0xfd, 0x7a, 0x40, 0x47,
  0x1f, 0xf8, 0x2c, 0xeb, 0x60, 0xf2, 0x17, 0xea, 0x16, 0xd7, 0xfd, 0x04,
  0x5d, 0xf4, 0xd9, 0xef, 0x4c, 0x51, 0x08, 0x01, 0x40, 0xf6, 0x52, 0xd3,
  0xd8, 0xfa, 0xf5, 0xcf, 0x07, 0xf4, 0xc6, 0xf0, 0xb3, 0x35, 0x38, 0xde,
  0xfc, 0x27, 0xfa, 0xbd, 0xd8, 0x04, 0xb6, 0xa7, 0xcc, 0xab, 0xef, 0xd3,
  0x1c, 0x12, 0x17, 0xfb, 0x14, 0xd9, 0xef, 0xec, 0xfa, 0xdb, 0x0d, 0x9f,
  0x02, 0x03, 0x1a, 0xca, 0x1f, 0xcc, 0xe5, 0x04, 0xf2, 0x31, 0xd7, 0xfb,
  0xc9, 0x2d, 0x2c, 0xaf, 0xeb, 0x1b, 0xde, 0x02, 0x2f, 0x1a, 0x64, 0x3e,
  0x09, 0x5e, 0xe0, 0x5c, 0x08, 0xea, 0x6a, 0x31, 0xfc, 0xe5, 0x5a, 0x13,
  0xcd, 0x07, 0xd4, 0x0f, 0x2f, 0xd6, 0xfa, 0x10, 0x3b, 0xef, 0x26, 0x12,
  0xfd, 0x08, 0xf8, 0x20, 0xd9, 0x09, 0xff, 0x25, 0xd1, 0xbf, 0xd4, 0x1f,
  0xf5, 0xaf, 0xe9, 0x12, 0xdd, 0xad, 0x28, 0xd6, 0xa6, 0x95, 0x26, 0x2b,
  0xdf, 0xef, 0x90, 0x04, 0x28, 0x12, 0x00, 0x2f, 0xb7, 0x91, 0xe6, 0x24,
  0x27, 0xca, 0x1d, 0xd5, 0xc9, 0xb5, 0xd1, 0x35, 0xb5, 0xa6, 0x3f, 0x36,
  0x1a, 0xfd, 0xd5, 0x0d, 0x3b, 0x3e, 0x4d, 0x35, 0x4a, 0xf7, 0x08, 0x53,
  0x56, 0x46, 0x2e, 0x39, 0xfd, 0x29, 0xed, 0x4f, 0xd6, 0xe7, 0x15, 0x36,
  0xda, 0x11, 0x55, 0x33, 0x43, 0x3d, 0x03, 0xce, 0x55, 0xff, 0x2b, 0x10,
  0x1c, 0xfe, 0x3a, 0x11, 0xbf, 0x08, 0x0a, 0xe8, 0x29, 0xbe, 0xfc, 0xc9,
  0xb1, 0x27, 0xa8, 0x9b, 0xcd, 0xc4, 0xe1, 0xc5, 0x96, 0xac, 0xdf, 0x08,
  0x1a, 0x8c, 0xb0, 0x16, 0xb9, 0x15, 0x0e, 0xe5, 0x95, 0x13, 0xb0, 0x00,
  0x1c, 0x27, 0xc3, 0x0a, 0xf8, 0x93, 0xd5, 0xd5, 0x1e, 0x04, 0x41, 0x3c,
  0xcc, 0xea, 0x1c, 0x22, 0x49, 0x43, 0x45, 0x19, 0xf6, 0x3c, 0xf5, 0x48,
  0xf6, 0x23, 0x18, 0x52, 0x3c, 0x41, 0xde, 0x13, 0x44, 0xc0, 0xe2, 0x1e,
  0x10, 0xfa, 0x48, 0xcc, 0xdc, 0x4a, 0x03, 0x1b, 0x31, 0xf7, 0xd2, 0xfa,
  0x0b, 0x28, 0x2f, 0xea, 0x1e, 0x23, 0xc7, 0x03, 0xd5, 0xfe, 0xd1, 0x2b,
  0xf7, 0xa9, 0xba, 0xd6, 0xe7, 0xee, 0x20, 0xdc, 0xb3, 0xee, 0xfe, 0x07,
  0xf5, 0xae, 0xe9, 0x07, 0x0d, 0xbd, 0xc6, 0xb1, 0xb4, 0xb2, 0x8d, 0x01,
  0xe3, 0xe7, 0xd9, 0x2f, 0x3e, 0xe9, 0xd1, 0x9e, 0x0b, 0xc2, 0xa9, 0x81,
  0xdd, 0x96, 0xbd, 0xb2, 0xcb, 0xe2, 0xcb, 0xe2, 0xa1, 0xe5, 0x05, 0xce,
  0xcf, 0x1f, 0x24, 0xae, 0x12, 0x2a, 0x01, 0xf3, 0xdf, 0x07, 0x2e, 0x1c,
  0xfb, 0xec, 0x2f, 0xf5, 0xfc, 0x09, 0x14, 0xcc, 0xf9, 0xfa, 0xfd, 0x63,
  0x11, 0x23, 0x0a, 0x29, 0x49, 0x2f, 0x20, 0x1f, 0x1a, 0x58, 0x7e, 0x07,
  0x1f, 0xff, 0x67, 0x35, 0x1f, 0x0a, 0x39, 0x1d, 0x2e, 0x3a, 0x18, 0xfa,
  0xd2, 0xeb, 0x06, 0xbf, 0xf4, 0xdf, 0xf3, 0xcd, 0x0a, 0x04, 0x01, 0x00,
  0xfc, 0xfe, 0x08, 0xfe, 0xfe, 0xf9, 0x05, 0x08, 0x02, 0xf7, 0xf3, 0x07,
  0x09, 0x08, 0x01, 0xf4, 0x03, 0xfe, 0x03, 0x08, 0x02, 0xf5, 0x01, 0xfb,
  0xfc, 0x01, 0x17, 0x06, 0x0b, 0x0d, 0x0f, 0x12, 0x0e, 0x12, 0x01, 0x1b,
  0x05, 0x0c, 0xf4, 0xf7, 0xfc, 0x00, 0x0d, 0x06, 0x09, 0x02, 0xff, 0xff,
  0xfc, 0x03, 0xfb, 0xf3, 0xf7, 0xf6, 0xfe, 0xfb, 0xf3, 0xf7, 0xe7, 0xf6,
  0xde, 0xe3, 0xf4, 0xde, 0xec, 0xe8, 0xf3, 0xf2, 0xec, 0xf3, 0xf0, 0xfa,
  0xf9, 0xf4, 0xf9, 0xfd, 0xe6, 0xe7, 0xd1, 0xc8, 0xc9, 0xb3, 0xb2, 0xcc,
  0xb6, 0xbf, 0xbc, 0xbd, 0xbe, 0xc0, 0xd1, 0xbd, 0xb9, 0xc0, 0xc7, 0xbd,
  0xc2, 0xbe, 0xd5, 0xc4, 0xc8, 0xc2, 0xc1, 0xcd, 0xc1, 0xcb, 0xb7, 0xc1,
  0xc4, 0xda, 0xcb, 0xb6, 0xcc, 0xce, 0xd2, 0xc3, 0xca, 0xc8, 0xd8, 0xd2,
  0xca, 0xd4, 0xc8, 0xc3, 0xcf, 0xcf, 0xd0, 0xc8, 0xc8, 0xc7, 0xcb, 0xbd,
  0xcb, 0xc3, 0xbd, 0xc2, 0xca, 0xba, 0xcb, 0xbe, 0xc6, 0xcb, 0xcb, 0xce,
  0xc9, 0xce, 0xd3, 0xce, 0xd4, 0xcf, 0xd0, 0xd4, 0xcf, 0xda, 0xdd, 0xde,
  0xd9, 0xd2, 0xca, 0xbf, 0xe0, 0xe1, 0xf6, 0x08, 0x14, 0x1b, 0x1e, 0x15,
  0x35, 0x31, 0x33, 0x33, 0x31, 0x33, 0x33, 0x45, 0x3a, 0x41, 0x4b, 0x58,
  0x4d, 0x55, 0x58, 0x58, 0x51, 0x65, 0x58, 0x5e, 0x60, 0x53, 0x61, 0x63,
  0x69, 0x69, 0x6f, 0x69, 0x71, 0x7e, 0x6d, 0x74, 0x7c, 0x72, 0x72, 0x72,
  0x6a, 0x79, 0x6f, 0x6b, 0x69, 0x64, 0x62, 0x6c, 0x64, 0x61, 0x5e, 0x62,
  0x53, 0x5d, 0x54, 0x53, 0x5a, 0x4d, 0x49, 0x43, 0x43, 0x41, 0x38, 0x3a,
  0x33, 0x2b, 0x32, 0x27, 0x2c, 0x1f, 0x21, 0x1d, 0xfe, 0x02, 0x17, 0x26,
  0x34, 0x48, 0x52, 0x47, 0x54, 0x4d, 0x57, 0x55, 0x4b, 0x51, 0x4b, 0x49,
  0x49, 0x47, 0x4b, 0x50, 0x48, 0x47, 0x40, 0x41, 0x41, 0x47, 0x48, 0x41,
  0x4c, 0x38, 0x45, 0x42, 0x40, 0x36, 0x3c, 0x3f, 0x3e, 0x37, 0x34, 0x31,
  0x30, 0x2f, 0x38, 0x34, 0x2e, 0x30, 0x2e, 0x39, 0x36, 0x2e, 0x2b, 0x2f,
  0x31, 0x2b, 0x32, 0x2d, 0x2c, 0x30, 0x2e, 0x2b, 0x33, 0x33, 0x33, 0x31,
  0x2f, 0x2e, 0x2b, 0x31, 0x29, 0x28, 0x29, 0x26, 0x2b, 0x2c, 0x22, 0x20,
  0x25, 0x19, 0x1c, 0x17, 0x28, 0x36, 0x49, 0x51, 0x21, 0x2b, 0xfb, 0xda,
  0xe4, 0xd7, 0xc9, 0xc7, 0xbf, 0xbd, 0xb9, 0xbb, 0xc1, 0xbb, 0xb9, 0xb6,
  0xb0, 0xb5, 0x9f, 0x9c, 0xa4, 0xa6, 0x9c, 0x99, 0xa7, 0x9a, 0x92, 0x99,
  0x8c, 0x91, 0x8b, 0x95, 0x85, 0x81, 0x8e, 0x89, 0x8d, 0x86, 0x8e, 0x90,
  0x90, 0x8d, 0x92, 0x91, 0x8d, 0x90, 0x97, 0xa3, 0xa1, 0xaf, 0xab, 0xb8,
  0xb3, 0xb7, 0xbc, 0xc0, 0xc4, 0xbf, 0xc7, 0xcd, 0xd1, 0xd5, 0xd5, 0xdc,
  0xdd, 0xe1, 0xdf, 0xdd, 0xe2, 0xe7, 0xe9, 0xe8, 0xe8, 0xed, 0xe4, 0xe5,
  0xec, 0x0e, 0x11, 0x0b, 0xee, 0xf1, 0xee, 0x13, 0xe0, 0x03, 0x0a, 0x11,
  0xfe, 0xe1, 0xe8, 0xf1, 0xe6, 0x03, 0xf5, 0x19, 0xfa, 0x01, 0x16, 0xf5,
  0x18, 0xf2, 0x21, 0xfa, 0xf1, 0x0e, 0x17, 0x09, 0x04, 0x00, 0x0a, 0x02,
  0x11, 0xf3, 0xef, 0x01, 0xec, 0x10, 0xe5, 0xf9, 0xfd, 0xd6, 0xf6, 0xe2,
  0x01, 0x13, 0x1f, 0xf5, 0xef, 0xe1, 0x13, 0x04, 0x10, 0xfc, 0xf1, 0xe6,
  0xe8, 0xfb, 0xe4, 0xf3, 0xee, 0xe6, 0xee, 0x06, 0xf9, 0xec, 0x0d, 0x09,
  0xfe, 0xee, 0xee, 0x05, 0xfa, 0xff, 0x06, 0xf9, 0x00, 0xf5, 0x00, 0xf3,
  0xfa, 0xc9, 0xd4, 0xec, 0xdc, 0xc8, 0xcb, 0xef, 0xcc, 0xe2, 0xf9, 0xcc,
  0xd9, 0xda, 0xdc, 0xc3, 0xd6, 0xcd, 0xcf, 0xe6, 0xe9, 0xd0, 0xbf, 0xef,
  0xe5, 0xd1, 0xda, 0xd4, 0xc4, 0xe2, 0xd3, 0xc1, 0xc4, 0xe1, 0xcc, 0xd9,
  0xcb, 0xe1, 0x03, 0xe2, 0xe5, 0xea, 0xb5, 0xe9, 0xbc, 0xe6, 0xc7, 0xc3,
  0xd0, 0xbe, 0xd9, 0xc2, 0xc1, 0xe0, 0xc0, 0xe9, 0xdd, 0xe0, 0xca, 0xd1,
  0xf8, 0xf1, 0xd9, 0xd4, 0xd9, 0xf4, 0xe3, 0xda, 0xeb, 0xd5, 0xe5, 0xd9,
  0xd4, 0xd8, 0xdf, 0xe6, 0x02, 0x01, 0xd8, 0xfa, 0xf1, 0xf6, 0xd4, 0xf4,
  0xd9, 0xcc, 0xdb, 0xc9, 0x0c, 0xe1, 0xe0, 0xf6, 0xdf, 0xdf, 0xea, 0xf1,
  0xed, 0xe2, 0xed, 0xeb, 0xbe, 0xca, 0xd7, 0xc4, 0xea, 0xcd, 0xd9, 0xc3,
  0xeb, 0xbd, 0xc4, 0xdd, 0xd0, 0xd8, 0xd5, 0xbe, 0xda, 0xbf, 0xba, 0xb5,
  0xc1, 0xb4, 0xd5, 0xb0, 0xb2, 0xbb, 0xc3, 0xc7, 0xc0, 0xc0, 0xac, 0xc4,
  0xc8, 0xc3, 0xdd, 0xc6, 0xb5, 0xac, 0xcf, 0xbe, 0xc9, 0xcd, 0xdc, 0xcc,
  0xe7, 0xcb, 0xcf, 0xd5, 0xe1, 0xe4, 0xf7, 0xd0, 0xe6, 0xdd, 0xe1, 0xfd,
  0x0d, 0xff, 0xed, 0xe8, 0xf0, 0xf8, 0x13, 0xe6, 0x11, 0x1f, 0x17, 0xfd,
  0xf5, 0x02, 0x10, 0x00, 0x22, 0x0a, 0x0d, 0x04, 0x00, 0x0d, 0x06, 0x06,
  0x0d, 0x35, 0x09, 0x06, 0x04, 0x02, 0x01, 0x1b, 0x11, 0x10, 0xff, 0x13,
  0x1d, 0xfd, 0x0c, 0xff, 0xf3, 0x06, 0xf9, 0x05, 0xfc, 0x24, 0x08, 0x02,
  0x0d, 0xf4, 0xf8, 0x05, 0x11, 0x09, 0x00, 0xf7, 0xf2, 0x00, 0x06, 0xff,
  0x19, 0x10, 0x0f, 0x03, 0xfe, 0x00, 0x0b, 0x16, 0x0c, 0x0a, 0xf8, 0xfd,
  0x0a, 0x06, 0xfd, 0x0b, 0x0f, 0x05, 0x04, 0xf7, 0x00, 0xfe, 0x2a, 0x27,
  0x38, 0x57, 0x50, 0x28, 0x59, 0x43, 0x36, 0x35, 0x31, 0x54, 0x2a, 0x4b,
  0x37, 0x3b, 0x32, 0x2d, 0x40, 0x43, 0x2b, 0x2e, 0x3a, 0x37, 0x40, 0x4c,
  0x41, 0x45, 0x3b, 0x47, 0x38, 0x57, 0x5c, 0x4d, 0x44, 0x52, 0x65, 0x67,
  0x79, 0x53, 0x5c, 0x65, 0x6c, 0x5d, 0x7c, 0x7f, 0x7d, 0x5d, 0x61, 0x71,
  0x7b, 0x7f, 0x7a, 0x73, 0x79, 0x61, 0x6a, 0x70, 0x60, 0x70, 0x71, 0x67,
  0x58, 0x5a, 0x5f, 0x4e, 0x4c, 0x4f, 0x3f, 0x49, 0x36, 0x49, 0x3f, 0x43,
  0x33, 0x41, 0x36, 0x29, 0x6a, 0x01, 0xf4, 0x46, 0xc9, 0x1a, 0x31, 0xe7,
  0x24, 0x34, 0x3b, 0x15, 0x4f, 0x19, 0xdf, 0x09, 0xfa, 0x04, 0x25, 0x5d,
  0xeb, 0xde, 0x0d, 0x0f, 0x23, 0x40, 0x47, 0x10, 0xed, 0x05, 0x3f, 0x14,
  0xf0, 0xf6, 0xb9, 0x35, 0xe3, 0xe5, 0x14, 0xba, 0x2e, 0xb3, 0x2b, 0x00,
  0xd5, 0x1c, 0x02, 0xc2, 0xba, 0x14, 0x0a, 0xf1, 0xea, 0xed, 0xb3, 0xdc,
  0x20, 0xd4, 0xd9, 0xdc, 0x0b, 0xc1, 0x26, 0xb6, 0xc5, 0xdb, 0xe2, 0x06,
  0xb0, 0xf0, 0x10, 0x14, 0x03, 0x30, 0xfe, 0x0a, 0x33, 0x05, 0xca, 0xe8,
  0xf3, 0x53, 0xed, 0x1e, 0x25, 0x02, 0xe1, 0x47, 0x36, 0xfa, 0x17, 0x19,
  0xf5, 0x19, 0xec, 0x32, 0x01, 0x4e, 0x39, 0xdd, 0x60, 0x42, 0x43, 0x21,
  0xdf, 0x12, 0xe0, 0x29, 0xd8, 0xe6, 0xe2, 0xe1, 0xcb, 0x34, 0x30, 0x55,
  0x1f, 0xea, 0x24, 0x48, 0xde, 0xc8, 0x49, 0x1b, 0xff, 0xd3, 0x0c, 0xc8,
  0x1d, 0xb9, 0x37, 0xea, 0x18, 0xfb, 0xca, 0xf5, 0xa6, 0xc4, 0xc8, 0xbc,
  0xc0, 0xe3, 0x09, 0x1d, 0xf4, 0xd9, 0x30, 0xf9, 0x26, 0xfc, 0xd7, 0xed,
  0xc5, 0x10, 0x18, 0x1e, 0x09, 0x09, 0x31, 0x15, 0x3f, 0x3a, 0xea, 0x0c,
  0x1a, 0xca, 0x14, 0x30, 0xcf, 0x21, 0x2f, 0xc9, 0xdb, 0xf1, 0x40, 0xed,
  0x27, 0x42, 0xdc, 0xf2, 0x4f, 0xe8, 0xe3, 0x14, 0x3d, 0x30, 0xce, 0xfa,
  0x26, 0x23, 0xda, 0xcd, 0x16, 0xbe, 0xe5, 0x17, 0x2a, 0x12, 0x1f, 0xbc,
  0xee, 0xd1, 0xf0, 0x08, 0xf9, 0x04, 0x18, 0x07, 0x2a, 0xec, 0xf6, 0xc5,
  0x13, 0x01, 0xbc, 0x28, 0xf0, 0x12, 0x09, 0xdc, 0xf9, 0xd5, 0xec, 0x9c,
  0x21, 0xe9, 0xc2, 0xcb, 0x1c, 0x2f, 0xd9, 0xef, 0xf5, 0x19, 0xdc, 0x08,
  0x08, 0xb7, 0x2f, 0xec, 0xd0, 0xef, 0x08, 0xcd, 0x02, 0xac, 0xd9, 0x14,
  0xf0, 0x18, 0xde, 0x3a, 0xfa, 0x23, 0xd8, 0xfe, 0x2e, 0xe4, 0xc0, 0xeb,
  0xd1, 0xe5, 0xf9, 0xf8, 0x13, 0xb8, 0xeb, 0x29, 0xc0, 0x0d, 0xea, 0x0b,
  0x22, 0x39, 0x22, 0x32, 0xda, 0xcf, 0xf8, 0x12, 0xcb, 0x3c, 0xf3, 0xcb,
  0x11, 0x30, 0xfb, 0x0d, 0x0b, 0xf2, 0x2e, 0x12, 0x4d, 0xdc, 0x49, 0x29,
  0x42, 0x48, 0x19, 0xe1, 0xd2, 0x20, 0xf8, 0xc4, 0x1a, 0xf6, 0x20, 0x14,
  0xbe, 0xf8, 0xda, 0x06, 0xf6, 0xd2, 0xe8, 0x11, 0x09, 0xdb, 0xe5, 0xc7,
  0xe1, 0xe4, 0xf1, 0x27, 0x33, 0x26, 0x32, 0xfb, 0xdb, 0xe0, 0x0c, 0xc1,
  0xa1, 0xfb, 0xe5, 0xb8, 0xd1, 0x87, 0xdd, 0x9a, 0xde, 0xbf, 0x01, 0xfa,
  0xbb, 0x14, 0xb4, 0xdc, 0xf2, 0x18, 0xc0, 0x17, 0x2c, 0xc5, 0xbb, 0xc6,
  0x38, 0xcc, 0xd6, 0x44, 0x42, 0x44, 0x01, 0x22, 0xe6, 0x43, 0x40, 0x1f,
  0x52, 0x18, 0xfb, 0x4a, 0x47, 0x3f, 0x2f, 0x1e, 0x7f, 0x2e, 0x6e, 0x4a,
  0x2a, 0x7f, 0x75, 0x50, 0x79, 0x1f, 0x4c, 0x0c, 0x5d, 0x06, 0x5e, 0xfe,
  0x0a, 0x26, 0xd1, 0x2a, 0xd5, 0xd2, 0x09, 0xc9, 0x4d, 0x13, 0x31, 0x49,
  0x64, 0x79, 0x3a, 0x3a, 0x49, 0x4f, 0x4a, 0x4c, 0x45, 0x0b, 0x30, 0x2d,
  0x49, 0x20, 0x13, 0x2d, 0x2a, 0x27, 0x20, 0x4f, 0x5f, 0x29, 0x38, 0x2d,
  0x4f, 0x30, 0x5b, 0x46, 0x60, 0x65, 0x51, 0x3a, 0x47, 0x54, 0x56, 0x65,
  0x33, 0x53, 0x1a, 0x4b, 0x27, 0x2d, 0x72, 0x56, 0x54, 0x1d, 0x63, 0x2e,
  0x4f, 0x6d, 0x6b, 0x1e, 0x5c, 0x32, 0x3b, 0x39, 0x60, 0x6a, 0x3e, 0x34,
  0x55, 0x57, 0x46, 0x2f, 0x3e, 0x58, 0x21, 0x23, 0x23, 0x3f, 0x32, 0x4a,
  0x3d, 0x13, 0x35, 0x2e, 0x1d, 0x34, 0x39, 0x49, 0x45, 0x2c, 0x22, 0x0b,
  0x21, 0xff, 0x34, 0x1b, 0x29, 0x26, 0x24, 0x1f, 0xd8, 0x11, 0x33, 0xdc,
  0x20, 0xf2, 0x29, 0x05, 0xfb, 0x1b, 0xfc, 0xef, 0xd8, 0x1d, 0xf4, 0xeb,
  0xef, 0x0d, 0x0a, 0xf0, 0x26, 0x28, 0x0f, 0xe5, 0x16, 0xe2, 0xd9, 0x19,
  0xe5, 0x35, 0xd3, 0xf7, 0xeb, 0x2b, 0xf8, 0x14, 0xeb, 0xcc, 0x16, 0x27,
  0xd0, 0xf0, 0x18, 0x15, 0x00, 0xf8, 0x0d, 0xe2, 0xfb, 0xdf, 0xd1, 0xdb,
  0x13, 0xce, 0x05, 0x1d, 0xef, 0x1e, 0x09, 0x22, 0x0b, 0x12, 0xed, 0x25,
  0xef, 0x0c, 0xde, 0xd1, 0xca, 0xfe, 0x1f, 0xe6, 0xe0, 0x1a, 0xc9, 0xca,
  0xf8, 0xe3, 0xca, 0xc8, 0x0d, 0xe2, 0xe8, 0x0f, 0xc3, 0xdf, 0xdf, 0xf6,
  0xd4, 0xef, 0xf6, 0xfa, 0x1c, 0x11, 0xce, 0xd2, 0xf8, 0xcf, 0xd3, 0x04,
  0x18, 0xb8, 0xfb, 0xf7, 0xf6, 0x15, 0xe8, 0xc6, 0x16, 0x01, 0xfd, 0xe6,
  0xd4, 0xcd, 0xd8, 0x01, 0xd4, 0xf7, 0xe4, 0xcc, 0xe9, 0x10, 0xea, 0x11,
  0xea, 0xd3, 0xdd, 0x17, 0x0d, 0xcf, 0xda, 0xd2, 0xf4, 0xfd, 0xdb, 0x1a,
  0xf4, 0xf8, 0xd6, 0xdd, 0xd3, 0xe8, 0x1e, 0x16, 0xf8, 0xff, 0xd7, 0x08,
  0x00, 0xcb, 0xbb, 0x07, 0xfa, 0xbf, 0xf7, 0xd7, 0xdf, 0x00, 0xf1, 0xd6,
  0xf8, 0xd7, 0x0b, 0x12, 0x07, 0x0f, 0xfe, 0xe8, 0x01, 0xe2, 0x26, 0xfa,
  0xf5, 0xd6, 0xe5, 0xfe, 0xbd, 0x21, 0xe2, 0xd8, 0xbf, 0xe9, 0xf3, 0xed,
  0xd7, 0xcd, 0x1e, 0x00, 0xfc, 0xf9, 0xe3, 0x1d, 0x08, 0x1c, 0xf4, 0xd1,
  0x16, 0xcf, 0xc6, 0x03, 0xd3, 0xef, 0xdf, 0xc0, 0xf4, 0x0d, 0x1d, 0x0a,
  0x01, 0xf9, 0x2e, 0xeb, 0xe6, 0xba, 0x08, 0xdc, 0xff, 0xd0, 0x19, 0xdf,
  0x16, 0xfb, 0xc8, 0xd6, 0x97, 0x95, 0xd3, 0x98, 0x81, 0xb6, 0xac, 0xbe,
  0xd9, 0xd3, 0xb7, 0xde, 0xdd, 0xdc, 0xe9, 0x02, 0x0f, 0xe2, 0xc4, 0xf9,
  0xd9, 0xec, 0xd7, 0xd1, 0xdf, 0xd1, 0xbe, 0xd0, 0xd6, 0xda, 0xe7, 0xfa,
  0x05, 0xa6, 0xd4, 0x07, 0xba, 0xd0, 0xc1, 0xca, 0xde, 0xe7, 0x17, 0xee,
  0xbb, 0xad, 0xe1, 0xb8, 0xe6, 0xc4, 0xd4, 0x0a, 0xcc, 0xf9, 0xcf, 0xfe,
  0x08, 0xec, 0xe9, 0xd1, 0xcb, 0xb7, 0xbd, 0xb5, 0xb4, 0x0d, 0xda, 0x10,
  0x07, 0x14, 0xed, 0xc3, 0xf2, 0xef, 0xc7, 0xc9, 0xfa, 0xfb, 0xc7, 0xd9,
  0xdb, 0xf4, 0xc8, 0xda, 0xc8, 0xeb, 0xb8, 0xe5, 0xbe, 0xd0, 0xc8, 0xb8,
  0xd2, 0xdc, 0x03, 0xe1, 0xdd, 0xe5, 0xe2, 0xe0, 0xc0, 0xdf, 0xdd, 0xd2,
  0xd5, 0xc3, 0xd2, 0xe7, 0xe0, 0xdb, 0xf6, 0x00, 0xc4, 0xea, 0xfd, 0xcf,
  0xd4, 0xd7, 0x0a, 0xbe, 0xe0, 0xf6, 0xf1, 0xec, 0xf9, 0xfc, 0xe8, 0xf0,
  0xd3, 0xe9, 0xe8, 0xf9, 0x11, 0xc7, 0xc9, 0xe4, 0xde, 0xce, 0xd3, 0xd8,
  0x01, 0xed, 0x0d, 0xdb, 0x05, 0x08, 0xe2, 0xe4, 0x0e, 0xd6, 0xec, 0xd7,
  0xf4, 0xf1, 0xd0, 0xd2, 0x10, 0xe7, 0x00, 0x03, 0xf2, 0xf3, 0xd7, 0xf8,
  0xc3, 0xe5, 0xf3, 0xd2, 0xf2, 0xfa, 0xf3, 0xb3, 0xcd, 0xb7, 0xc2, 0xd4,
  0xb6, 0xf5, 0xe8, 0xca, 0xe3, 0xd0, 0xe2, 0xc5, 0xd0, 0xcf, 0xe6, 0xe0,
  0xe9, 0xf1, 0xae, 0xc9, 0xeb, 0xe7, 0xb8, 0xd6, 0xcb, 0xc0, 0xdd, 0xd5,
  0xc1, 0xbc, 0xa8, 0xc3, 0xad, 0xe1, 0xf5, 0xdb, 0xd8, 0xa8, 0xbf, 0xe4,
  0xc8, 0xeb, 0xe4, 0xec, 0xd6, 0xe6, 0xcc, 0xf0, 0xcf, 0xde, 0xdf, 0xe7,
  0xeb, 0xc4, 0xff, 0xf9, 0xc8, 0xc6, 0xf8, 0xcb, 0xd5, 0xda, 0xce, 0xf5,
  0x00, 0xdf, 0xe4, 0xea, 0xe8, 0xf6, 0xed, 0xcc, 0xd0, 0xca, 0xde, 0xd5,
  0xe6, 0x05, 0xdf, 0x0d, 0xef, 0xf2, 0xf6, 0xd6, 0x0c, 0xca, 0xda, 0xcd,
  0x12, 0xf7, 0xef, 0xe4, 0xde, 0xf6, 0xd4, 0xcd, 0xd9, 0xd5, 0xd8, 0xcf,
  0xee, 0xd4, 0xee, 0xdb, 0xf3, 0xdf, 0xc2, 0xf4, 0xd9, 0xda, 0xcf, 0xca,
  0xe9, 0xd3, 0xcb, 0xdc, 0xe4, 0xec, 0xc3, 0xd4, 0xbc, 0xe5, 0xe2, 0xd3,
  0xbe, 0xf7, 0xea, 0xc3, 0xe3, 0xf9, 0xba, 0xe8, 0xb8, 0xd8, 0xda, 0xdc,
  0xd7, 0xdf, 0xd7, 0xf0, 0xe5, 0xcd, 0xc8, 0xe4, 0xe9, 0xe5, 0xec, 0xd6,
  0x10, 0xf1, 0x0f, 0x03, 0x34, 0x0a, 0x1b, 0x26, 0x1b, 0x06, 0x11, 0x36,
  0x2d, 0x3c, 0x0a, 0x17, 0x3b, 0xf9, 0x17, 0x18, 0x16, 0x01, 0x34, 0x16,
  0x1e, 0x16, 0x2e, 0x06, 0x0f, 0x09, 0x37, 0x09, 0xff, 0x2a, 0x0b, 0x11,
  0x0f, 0x1c, 0x13, 0x1d, 0x3a, 0x20, 0x33, 0x1f, 0x21, 0x02, 0x08, 0xfa,
  0xf8, 0x25, 0x24, 0xf2, 0x0c, 0x06, 0x14, 0xfe, 0x1b, 0xfa, 0x17, 0x18,
  0x0e, 0x03, 0x18, 0x03, 0xff, 0x18, 0x1c, 0x10, 0xf4, 0x07, 0x0a, 0x07,
  0xfe, 0x0e, 0x20, 0xfd, 0xfe, 0x19, 0x21, 0xfa, 0x16, 0x37, 0x54, 0x5a,
  0x64, 0x61, 0x4c, 0x4e, 0x53, 0x2e, 0x3e, 0x63, 0x32, 0x45, 0x41, 0x4c,
  0x31, 0x59, 0x52, 0x62, 0x39, 0x51, 0x2d, 0x68, 0x54, 0x5c, 0x5d, 0x50,
  0x62, 0x4c, 0x5b, 0x4c, 0x6f, 0x38, 0x60, 0x53, 0x79, 0x68, 0x56, 0x4e,
  0x51, 0x4d, 0x7a, 0x5c, 0x55, 0x5d, 0x41, 0x76, 0x6b, 0x7f, 0x5d, 0x6e,
  0x6b, 0x5e, 0x62, 0x77, 0x69, 0x72, 0x6f, 0x66, 0x6f, 0x52, 0x47, 0x7b,
  0x5b, 0x4e, 0x36, 0x40, 0x43, 0x63, 0x66, 0x4f, 0x58, 0x4c, 0x63, 0x46,
  0x34, 0x31, 0x46, 0x55, 0x11, 0x12, 0xde, 0xd8, 0xdb, 0x00, 0x0c, 0xe4,
  0x05, 0xfc, 0xe1, 0xfc, 0xd8, 0xf3, 0xf9, 0xd1, 0xff, 0xdd, 0xe3, 0xde,
  0xe6, 0xf5, 0xfc, 0xe8, 0xed, 0xf7, 0x08, 0xe9, 0xd4, 0xf0, 0xfb, 0xf8,
  0xf7, 0xf0, 0xe8, 0x12, 0xfe, 0x15, 0xdc, 0x28, 0x13, 0x01, 0x1a, 0x21,
  0x25, 0x1c, 0xf4, 0x1f, 0xee, 0x2f, 0x06, 0x05, 0xf5, 0x18, 0x06, 0x05,
  0x1e, 0x06, 0x2a, 0x2c, 0xf5, 0x11, 0xfe, 0x0f, 0x00, 0xec, 0x02, 0x09,
  0x06, 0xe4, 0x1f, 0x13, 0xfc, 0x1a, 0x12, 0x09, 0xf1, 0xe2, 0xf3, 0xe6,
  0x7f, 0x59, 0x5e, 0x56, 0x52, 0x2d, 0x46, 0x44, 0x12, 0x24, 0x3a, 0x1b,
  0x30, 0x3d, 0x3c, 0x2e, 0x12, 0x33, 0x31, 0x3a, 0x09, 0x4a, 0x37, 0x2d,
  0xfd, 0x40, 0x1d, 0x38, 0x37, 0x43, 0x2b, 0x4e, 0x27, 0x0a, 0x58, 0x37,
  0x58, 0x4c, 0x3d, 0x1b, 0x16, 0x53, 0x26, 0x46, 0x48, 0x42, 0x50, 0x23,
  0x59, 0x4d, 0x46, 0x37, 0x4d, 0x40, 0x0d, 0x45, 0x32, 0x26, 0x1e, 0x2e,
  0x37, 0x37, 0x4b, 0x45, 0x1b, 0x35, 0x1a, 0x25, 0x00, 0x3f, 0x14, 0x2b,
  0x04, 0x01, 0x39, 0x2a, 0x22, 0x07, 0x22, 0x21, 0x4c, 0x5b, 0x08, 0xf1,
  0x19, 0xfa, 0xed, 0x24, 0x2d, 0x1f, 0xfe, 0xfb, 0x00, 0xfc, 0x11, 0x24,
  0x17, 0x1d, 0xff, 0x10, 0xff, 0xf3, 0x16, 0xdd, 0xf5, 0x17, 0xe9, 0x1f,
  0x04, 0xea, 0xec, 0x1b, 0xef, 0x23, 0x21, 0xf7, 0xe6, 0xd8, 0x05, 0x03,
  0x0f, 0x22, 0x02, 0xf3, 0xd7, 0x06, 0x14, 0x1c, 0xe3, 0x0a, 0x14, 0x07,
  0xe4, 0xe8, 0xfa, 0x08, 0xf1, 0x08, 0x0b, 0xdf, 0xe5, 0xf4, 0x02, 0x0f,
  0xdb, 0x12, 0x04, 0xff, 0x0f, 0xf1, 0xf9, 0xf2, 0x03, 0xe3, 0xef, 0x01,
  0x06, 0x03, 0xfe, 0x09, 0x3e, 0x12, 0xf1, 0xbd, 0xe1, 0xde, 0xd4, 0xe6,
  0xd9, 0xdc, 0x04, 0xe8, 0xf1, 0xd3, 0xf5, 0xf1, 0xe9, 0x0c, 0xed, 0xf5,
  0xf7, 0xf5, 0xf5, 0x0d, 0x15, 0x06, 0x10, 0xd4, 0xfa, 0xfc, 0x0c, 0xe1,
  0xfc, 0xf5, 0xdc, 0xc5, 0xd6, 0xff, 0xf3, 0xd2, 0xdc, 0xd6, 0xed, 0xe0,
  0xcd, 0xc8, 0xd2, 0xb6, 0xe2, 0xe3, 0xc0, 0xe6, 0xee, 0xf6, 0xf1, 0xe2,
  0xd6, 0xec, 0xdc, 0xf2, 0xe8, 0xcb, 0xca, 0xae, 0xdb, 0xc8, 0xb7, 0xee,
  0xe0, 0xf7, 0xe2, 0xeb, 0xd2, 0xff, 0xcf, 0xf6, 0xc6, 0xf7, 0x11, 0xdc,
  0x62, 0x5b, 0x16, 0x0d, 0xda, 0xdc, 0x0b, 0xca, 0xe2, 0xdd, 0xf9, 0xfa,
  0xf8, 0xff, 0xc4, 0xe5, 0xd9, 0xd0, 0xfc, 0xdb, 0xfe, 0xda, 0xce, 0xd9,
  0xfb, 0xbe, 0xc7, 0xdc, 0xe8, 0xd4, 0xd0, 0xbb, 0xe3, 0xcd, 0xc8, 0xe9,
  0xc8, 0xce, 0xd4, 0xd9, 0xe4, 0xa4, 0xb6, 0xbc, 0xd5, 0xce, 0xbb, 0xd6,
  0xcf, 0xac, 0xb3, 0xd3, 0xc0, 0xc4, 0xe5, 0xbe, 0xe1, 0xc4, 0xc4, 0xcc,
  0xf9, 0xdc, 0xe7, 0xea, 0x0b, 0xfd, 0x0e, 0x02, 0xd5, 0xf1, 0xeb, 0xe7,
  0x08, 0xe5, 0x0b, 0xde, 0xf0, 0xff, 0xc8, 0x11, 0xcd, 0xd2, 0xee, 0xef,
  0xd1, 0xbf, 0x81, 0xe7, 0xf5, 0x95, 0xd7, 0xf6, 0x03, 0xe4, 0xe7, 0xaf,
  0xbc, 0xb6, 0xa7, 0xeb, 0xd3, 0xe9, 0xea, 0xc9, 0x0d, 0xfe, 0xd5, 0xb2,
  0xa4, 0xea, 0xe5, 0xe2, 0xd4, 0x06, 0xf1, 0xa5, 0xec, 0xc5, 0xf3, 0xd2,
  0xc6, 0xad, 0xd0, 0xce, 0xff, 0xb4, 0xe5, 0x97, 0x92, 0xc8, 0xd0, 0xe5,
  0xac, 0x99, 0x88, 0x8f, 0xcb, 0xd4, 0x85, 0x97, 0xb6, 0xa9, 0xab, 0xc3,
  0xd3, 0xfe, 0xad, 0xd5, 0xbd, 0xd8, 0xf3, 0xa6, 0xf7, 0xde, 0xec, 0x05,
  0xba, 0xa4, 0x14, 0xd2, 0x02, 0xcf, 0xc4, 0xe3, 0xc4, 0xce, 0xda, 0xfd,
  0xc0, 0x06, 0xef, 0xd1, 0xb7, 0x07, 0x11, 0xd8, 0x0a, 0x08, 0xee, 0x05,
  0xe9, 0xd8, 0xdf, 0xe3, 0xb6, 0xec, 0xb1, 0xba, 0xd8, 0x17, 0xbb, 0xe6,
  0xf0, 0xb9, 0xe3, 0xc9, 0x0a, 0xf6, 0x01, 0xbd, 0x00, 0xce, 0xaf, 0xf6,
  0xcf, 0xc2, 0x02, 0xfc, 0xd6, 0xc2, 0xc7, 0xa7, 0xbc, 0xcc, 0xfc, 0xde,
  0xdb, 0xa4, 0xf3, 0xdc, 0x0e, 0xc9, 0xda, 0xb4, 0xb9, 0xed, 0xbb, 0xaa,
  0x0e, 0xe3, 0xd7, 0xab, 0xf8, 0xae, 0xf0, 0xf0, 0x1b, 0xd5, 0xb8, 0xc5,
  0x22, 0xdd, 0x28, 0xe0, 0x3a, 0xe2, 0xf9, 0x3e, 0x04, 0x17, 0x32, 0x1a,
  0xfc, 0xf4, 0x0d, 0xe1, 0x44, 0x3d, 0x44, 0x46, 0x11, 0x3a, 0x16, 0x01,
  0x08, 0xee, 0x57, 0x37, 0xfb, 0x02, 0xfb, 0xfb, 0x46, 0xfb, 0x32, 0x20,
  0x04, 0x20, 0x16, 0x14, 0x4a, 0x25, 0x3b, 0xf6, 0x34, 0xf9, 0x1f, 0x54,
  0x21, 0xe5, 0x3c, 0x14, 0xfa, 0x25, 0x31, 0x30, 0x32, 0x0f, 0xec, 0x4e,
  0x1a, 0x1a, 0x00, 0x24, 0xdf, 0x10, 0x1c, 0x3b, 0xfc, 0x3e, 0xf8, 0xf2,
  0x42, 0x3e, 0x33, 0x02, 0xea, 0x11, 0x29, 0x25, 0x20, 0xed, 0xfa, 0x03,
  0x13, 0x7a, 0x26, 0x07, 0x2a, 0x2b, 0x31, 0x0e, 0xf5, 0x2f, 0x0c, 0x3a,
  0x2b, 0x00, 0x1c, 0xf2, 0x06, 0x11, 0x12, 0x0b, 0x3d, 0x27, 0x01, 0x3e,
  0x30, 0x36, 0x31, 0xee, 0xe6, 0xfc, 0x3a, 0x20, 0xf6, 0x21, 0xee, 0x3c,
  0x14, 0xf3, 0x1c, 0xfb, 0x0a, 0x23, 0x16, 0xf9, 0x00, 0x46, 0x39, 0x4c,
  0x4d, 0x0f, 0x27, 0x13, 0x42, 0x0f, 0x37, 0x41, 0x1c, 0x44, 0x3d, 0x44,
  0x04, 0x0f, 0x31, 0x32, 0x24, 0x36, 0x1a, 0x21, 0xe2, 0x18, 0x31, 0x1a,
  0x26, 0x30, 0x2f, 0x29, 0x52, 0x3f, 0x7c, 0x58, 0x3e, 0x5b, 0x36, 0x18,
  0x03, 0x31, 0x3d, 0xf2, 0xf6, 0xff, 0x45, 0x1a, 0xe5, 0x2f, 0xdc, 0x0d,
  0x24, 0x0e, 0x23, 0x26, 0xed, 0xf5, 0x43, 0x0d, 0x27, 0x36, 0x40, 0x06,
  0x2b, 0x22, 0x31, 0x24, 0x1c, 0x22, 0x3f, 0xfa, 0x06, 0x5e, 0x5d, 0x3a,
  0x0d, 0x3d, 0x29, 0x01, 0x54, 0x6f, 0x21, 0x0f, 0x52, 0x25, 0x2c, 0x76,
  0x0f, 0x6a, 0x49, 0x06, 0x37, 0x1f, 0x58, 0x44, 0x34, 0x35, 0x50, 0x0d,
  0x24, 0xec, 0x1e, 0x4e, 0x01, 0xfc, 0x0b, 0xd9, 0x30, 0x12, 0x0b, 0x0b,
  0xec, 0xd0, 0xe5, 0x15, 0x31, 0x24, 0x52, 0x52, 0x33, 0x46, 0x19, 0x5a,
  0x2d, 0x44, 0x2a, 0x26, 0x41, 0x47, 0x3b, 0x4b, 0x14, 0x57, 0x2c, 0x34,
  0x51, 0x36, 0x4b, 0x68, 0x60, 0x4c, 0x5f, 0x37, 0x69, 0x60, 0x5a, 0x31,
  0x39, 0x41, 0x3a, 0x30, 0x55, 0x1d, 0x7f, 0x15, 0x6b, 0x6e, 0x5f, 0x46,
  0x40, 0x46, 0x61, 0x4d, 0x41, 0x21, 0x52, 0x45, 0x52, 0x5e, 0x31, 0x0b,
  0x58, 0x22, 0x64, 0x26, 0x60, 0x26, 0x2e, 0x2e, 0x28, 0x32, 0x22, 0x12,
  0x09, 0x18, 0x36, 0xf7, 0x3f, 0x4a, 0x38, 0x11, 0xe4, 0x05, 0x22, 0xf6,
  0x24, 0x41, 0x4d, 0xf6, 0x1c, 0x23, 0x29, 0x1d, 0xfe, 0x32, 0x08, 0x35,
  0x03, 0x06, 0x07, 0xf8, 0x36, 0xfb, 0x2f, 0xe8, 0x2c, 0x3a, 0x1a, 0xfa,
  0xff, 0x04, 0x0c, 0x0f, 0xe7, 0xf2, 0xe6, 0x17, 0x05, 0x2e, 0x2c, 0x3b,
  0x39, 0x21, 0xf4, 0x30, 0x39, 0x15, 0xe9, 0x0c, 0x1d, 0x19, 0x2d, 0xf6,
  0x1f, 0x10, 0x2b, 0x19, 0x04, 0x41, 0x4b, 0x1e, 0x22, 0x02, 0xe6, 0x02,
  0x06, 0x21, 0x2f, 0x13, 0x1b, 0x0d, 0xef, 0xfa, 0x58, 0xf7, 0x15, 0x3e,
  0xda, 0x1f, 0xf8, 0x21, 0x08, 0xf3, 0x41, 0x4b, 0x31, 0x1c, 0x0d, 0x10,
  0x0c, 0x0d, 0xf6, 0x16, 0x10, 0xe0, 0xdf, 0xe6, 0xdd, 0x08, 0x0b, 0x10,
  0xf3, 0x01, 0xe4, 0xfb, 0xd5, 0xcd, 0xe3, 0x10, 0xda, 0xdc, 0xdd, 0xec,
  0x1c, 0xd4, 0x01, 0xf2, 0x0c, 0xde, 0xc9, 0xdc, 0x13, 0xfb, 0xc9, 0xe0,
  0xd2, 0xe1, 0x23, 0xdc, 0xf8, 0xc1, 0xe2, 0xd6, 0xf0, 0x22, 0x07, 0xfe,
  0x02, 0xd5, 0xfb, 0x19, 0xe9, 0x0f, 0xff, 0x24, 0xe2, 0xe9, 0xc4, 0x05,
  0x0e, 0xf1, 0x13, 0x14, 0xe5, 0x15, 0xdd, 0xeb, 0x0d, 0xd0, 0x01, 0xfd,
  0x3c, 0x17, 0x0b, 0x22, 0xc3, 0xe2, 0xd0, 0xdc, 0xc4, 0xce, 0x0b, 0xde,
  0xd0, 0x05, 0xfb, 0xd6, 0xf6, 0xfa, 0xc7, 0xfb, 0x1a, 0xd5, 0xd6, 0xf4,
  0xec, 0x05, 0xf3, 0xdf, 0xe7, 0xfc, 0xd8, 0xf7, 0xe0, 0xf4, 0xf2, 0x0f,
  0xcb, 0x16, 0xff, 0xf2, 0xbe, 0xf5, 0xcb, 0xec, 0xbb, 0xd9, 0xea, 0xfc,
  0x08, 0x1a, 0x03, 0xf4, 0xf6, 0xed, 0xd4, 0xf3, 0xf3, 0xc5, 0xd2, 0xf6,
  0xaf, 0x06, 0xf4, 0xf0, 0xe4, 0xd9, 0xfc, 0xaf, 0xff, 0xfd, 0x05, 0xdd,
  0xcc, 0x0c, 0x2e, 0x19, 0x10, 0x1d, 0xff, 0xf9, 0xe1, 0x06, 0xa7, 0x93,
  0xa9, 0x93, 0x85, 0xc7, 0xc4, 0xc2, 0xb9, 0x95, 0xc7, 0xc3, 0xd4, 0xf7,
  0xc0, 0xd2, 0xc4, 0xc0, 0xab, 0xb7, 0xf8, 0xee, 0xbd, 0xb6, 0xbd, 0xae,
  0xce, 0xe4, 0xd1, 0xe6, 0xa2, 0xdf, 0xe2, 0xa6, 0xe1, 0xb0, 0xca, 0xc5,
  0x95, 0xdd, 0xf4, 0xf3, 0xd3, 0xb4, 0xb0, 0xd3, 0xac, 0xb9, 0x95, 0xfe,
  0xb5, 0xb7, 0xb6, 0x9e, 0xd6, 0xb7, 0xad, 0xe6, 0xf1, 0xae, 0xd9, 0xb1,
  0xfa, 0xcf, 0xf5, 0x0d, 0xb4, 0xb8, 0xfc, 0x0b, 0xdb, 0xe7, 0xb1, 0xbd,
  0xcd, 0xaa, 0xe1, 0xd1, 0xf9, 0xfc, 0xfd, 0xfe, 0x02, 0xfa, 0xfe, 0xf4,
  0xf5, 0xfc, 0x05, 0xfe, 0x0f, 0x0d, 0xfc, 0x19, 0x14, 0x02, 0x07, 0xe7,
  0x07, 0xff, 0x11, 0xee, 0xfc, 0xf5, 0xff, 0x06, 0x1d, 0xfe, 0x0a, 0x08,
  0x01, 0x0d, 0xe2, 0x0c, 0xfc, 0x16, 0xef, 0x0a, 0x0a, 0x0f, 0xff, 0xf1,
  0xe9, 0xf7, 0x04, 0x08, 0xfc, 0x11, 0xf5, 0xf7, 0xf4, 0x05, 0x0c, 0x0a,
  0xe6, 0x01, 0x03, 0x13, 0xfb, 0xf6, 0xf2, 0xfc, 0x00, 0xf3, 0x0a, 0x04,
  0xfa, 0x07, 0xfd, 0x00, 0xf8, 0x01, 0xf0, 0xff, 0x02, 0xf1, 0xf4, 0xfa,
  0x01, 0x11, 0xfe, 0x05, 0xf6, 0x10, 0xf0, 0x05, 0x04, 0xf1, 0x02, 0xff,
  0x11, 0x12, 0x09, 0xf8, 0x05, 0xfb, 0xf8, 0x16, 0xf7, 0x07, 0x13, 0xf7,
  0xf9, 0x10, 0xf8, 0xf8, 0xef, 0xf8, 0xff, 0xfb, 0x00, 0x00, 0x15, 0xeb,
  0x0c, 0x1e, 0x1f, 0xe8, 0x14, 0xec, 0xf7, 0x22, 0x03, 0xfe, 0x11, 0xf7,
  0x0b, 0xf0, 0x11, 0xfa, 0xee, 0xf6, 0xed, 0xf6, 0xf5, 0xfe, 0xf4, 0xf9,
  0x02, 0xf0, 0x01, 0xe9, 0xf0, 0x03, 0xf0, 0xf7, 0xf8, 0xf7, 0xf8, 0xff,
  0xf6, 0x0d, 0xff, 0xf4, 0xf6, 0xfb, 0x05, 0xf8, 0x11, 0x00, 0x10, 0x0b,
  0x05, 0xf9, 0xf7, 0xf9, 0x07, 0xfb, 0x03, 0xf8, 0xe9, 0xfc, 0xfe, 0xef,
  0xfd, 0xe7, 0xf9, 0x17, 0xfd, 0x04, 0xef, 0x17, 0x0a, 0x00, 0x14, 0xf8,
  0xe9, 0x13, 0xe5, 0xf5, 0xd9, 0xe2, 0xeb, 0xeb, 0xe0, 0xce, 0xe5, 0xd7,
  0xeb, 0xf3, 0xe9, 0xf9, 0xfa, 0xe9, 0xcf, 0xcd, 0xe0, 0xe8, 0xd2, 0xd3,
  0xe4, 0xd9, 0xca, 0xdc, 0xe6, 0xd4, 0xd3, 0xe1, 0xe2, 0xe9, 0xe6, 0xcf,
  0xef, 0xe1, 0xde, 0xde, 0xe6, 0xe5, 0xdf, 0xed, 0xe7, 0xe6, 0xf0, 0xee,
  0xfb, 0xfd, 0x05, 0xf0, 0xe3, 0xed, 0xf4, 0xdb, 0xd8, 0xcd, 0xd8, 0xe1,
  0xc9, 0xd5, 0xc2, 0xd1, 0xc3, 0xb7, 0xb2, 0xdb, 0xc0, 0xdc, 0xc1, 0xca,
  0xbf, 0xb9, 0xb6, 0xc8, 0xbc, 0xa9, 0xba, 0xbd, 0xc5, 0xa7, 0xd1, 0xbf,
  0xc5, 0xb4, 0xbd, 0xba, 0xbb, 0xad, 0xb3, 0xc9, 0xb0, 0xad, 0xb4, 0xa2,
  0xb0, 0xa7, 0xb4, 0xce, 0xb2, 0xb5, 0xae, 0xc3, 0xb6, 0xb2, 0xc4, 0xbd,
  0xcd, 0xc5, 0xbb, 0xbb, 0xbb, 0xbc, 0xc4, 0xd6, 0xd0, 0xcd, 0xce, 0xd0,
  0xcf, 0xd1, 0xd5, 0xd6, 0xd2, 0xe0, 0xd6, 0xd6, 0xd3, 0xe1, 0xdb, 0xe4,
  0xf1, 0xff, 0xfe, 0x13, 0x20, 0x2c, 0x39, 0x27, 0x34, 0x3c, 0x2e, 0x34,
  0x2e, 0x2c, 0x45, 0x24, 0x26, 0x3a, 0x40, 0x20, 0x41, 0x39, 0x37, 0x39,
  0x40, 0x4e, 0x3b, 0x48, 0x47, 0x4d, 0x3d, 0x4b, 0x5c, 0x5c, 0x60, 0x5f,
  0x57, 0x5a, 0x59, 0x67, 0x54, 0x62, 0x67, 0x58, 0x6f, 0x74, 0x6e, 0x65,
  0x66, 0x66, 0x77, 0x79, 0x7f, 0x7a, 0x7a, 0x6c, 0x6f, 0x6a, 0x72, 0x62,
  0x68, 0x70, 0x62, 0x6d, 0x58, 0x5a, 0x5a, 0x5a, 0x52, 0x4a, 0x4e, 0x43,
  0x44, 0x3b, 0x43, 0x3c, 0x3c, 0x33, 0x2b, 0x31, 0x14, 0xe7, 0x08, 0xde,
  0x03, 0x36, 0x06, 0x30, 0x2d, 0x0d, 0xfe, 0x0c, 0x3d, 0x29, 0x31, 0x0e,
  0x07, 0x1d, 0x35, 0x25, 0x09, 0x2f, 0x13, 0xfd, 0xef, 0x13, 0x19, 0x03,
  0x1e, 0x1a, 0xf0, 0x0d, 0xef, 0xf7, 0xe1, 0x13, 0xd8, 0xf8, 0xc5, 0xe7,
  0x16, 0x0b, 0xf0, 0xff, 0xbf, 0x00, 0xd2, 0xe5, 0xe3, 0xcb, 0xd7, 0xbd,
  0xeb, 0xd4, 0xfe, 0xf3, 0xe1, 0xcc, 0xcc, 0xe7, 0xb6, 0xd2, 0xe7, 0xe9,
  0xf1, 0xdf, 0xf2, 0xd3, 0xff, 0xc8, 0xd6, 0xe3, 0xce, 0x00, 0xd2, 0xd7,
  0xec, 0xe1, 0xbe, 0xdc, 0x14, 0x27, 0x1e, 0x3e, 0x5c, 0x69, 0x7f, 0x69,
  0x73, 0x6d, 0x64, 0x72, 0x35, 0x5b, 0x59, 0x5a, 0x60, 0x2e, 0x2a, 0x55,
  0x6b, 0x16, 0x67, 0x3d, 0x56, 0x43, 0x39, 0x4c, 0x51, 0x39, 0x5c, 0x4a,
  0x4d, 0x5c, 0x5d, 0x5a, 0x60, 0x58, 0x55, 0x38, 0x3e, 0x31, 0x53, 0x43,
  0x5c, 0x2a, 0x4b, 0x66, 0x58, 0x5e, 0x53, 0x6e, 0x4a, 0x5b, 0x4f, 0x57,
  0x35, 0x34, 0x40, 0x3c, 0x4d, 0x59, 0x4d, 0x38, 0x2f, 0x46, 0x3f, 0x4e,
  0x29, 0x2f, 0x21, 0x48, 0x21, 0x2b, 0x32, 0x3a, 0x37, 0x13, 0x43, 0x2a,
  0x37, 0x0b, 0x29, 0x16, 0x07, 0x07, 0xec, 0xcc, 0xdb, 0xca, 0xfc, 0xc0,
  0xe9, 0xd8, 0xbf, 0xe0, 0xfa, 0xd8, 0xc2, 0xc4, 0xeb, 0x02, 0xcb, 0xf8,
  0x03, 0xd7, 0xd9, 0xe7, 0xe9, 0x00, 0x0a, 0xd7, 0x04, 0x04, 0xcb, 0x04,
  0xea, 0xd4, 0x0c, 0xe9, 0xe0, 0xd9, 0xd6, 0xfb, 0xda, 0xce, 0x0d, 0xda,
  0xd1, 0xf1, 0xf1, 0xfe, 0xc7, 0x01, 0xf4, 0x09, 0xd6, 0x0d, 0xdb, 0xec,
  0x0f, 0x12, 0xd0, 0xed, 0x02, 0xd3, 0xce, 0xed, 0xd8, 0x15, 0x15, 0xd5,
  0xfe, 0xf8, 0xf5, 0xfb, 0x0b, 0xf7, 0x02, 0xd3, 0x0f, 0x08, 0xe9, 0xeb,
  0xcc, 0xe8, 0xdb, 0xe1, 0xde, 0xdf, 0xb7, 0x00, 0xdf, 0xbb, 0xef, 0xeb,
  0xc1, 0xea, 0x07, 0xe3, 0xd8, 0xd5, 0xcb, 0xd0, 0xe9, 0x05, 0xe6, 0xcd,
  0xd6, 0xda, 0xce, 0x0d, 0xbd, 0xde, 0x02, 0xc4, 0xf9, 0x10, 0xd7, 0x19,
  0xed, 0xe4, 0x05, 0xff, 0x08, 0x06, 0xf6, 0x06, 0x17, 0xec, 0xee, 0x13,
  0x1e, 0x19, 0xe0, 0xe8, 0x08, 0x01, 0x12, 0x14, 0xfa, 0xce, 0xde, 0x17,
  0x0b, 0x02, 0xed, 0x15, 0x06, 0x06, 0x1b, 0x1d, 0x06, 0xfd, 0xdb, 0x00,
  0xee, 0x13, 0xf1, 0x0c, 0x18, 0x05, 0xf3, 0xf7, 0xe2, 0xb1, 0xc7, 0xb5,
  0xc6, 0xe1, 0xe7, 0xcb, 0xe8, 0xd3, 0xda, 0xca, 0xe1, 0xf4, 0xd8, 0xe4,
  0xc1, 0xdc, 0xfe, 0xf6, 0xd3, 0xd2, 0xdf, 0x06, 0xcb, 0xc9, 0xd6, 0xc5,
  0xfd, 0xce, 0xf3, 0xc5, 0xee, 0xbf, 0x0b, 0xd8, 0xcd, 0x0d, 0xdd, 0xd9,
  0xed, 0x01, 0xdb, 0xda, 0xd6, 0xee, 0xfb, 0xbe, 0xe9, 0xb1, 0xd4, 0xc3,
  0x0c, 0xe6, 0x05, 0xe2, 0xe0, 0xff, 0x10, 0xdb, 0xc9, 0xfd, 0x10, 0xcd,
  0xf6, 0xe5, 0xc7, 0xdb, 0x0d, 0xda, 0x0d, 0xf5, 0xd7, 0x03, 0xe8, 0x17,
  0x10, 0x0f, 0x16, 0xfe, 0xf0, 0xe9, 0x35, 0x2d, 0x13, 0xd0, 0x0f, 0xdb,
  0x17, 0x1b, 0x1e, 0xfa, 0x1c, 0xe0, 0xf3, 0x16, 0xf0, 0xd3, 0x1d, 0x36,
  0xf2, 0xec, 0xef, 0x25, 0x2c, 0x26, 0x0a, 0x08, 0xea, 0xef, 0x16, 0x36,
  0x02, 0xc0, 0xba, 0x29, 0xea, 0xe8, 0xe8, 0x07, 0x21, 0xec, 0xc3, 0xc8,
  0x18, 0xd6, 0x05, 0xeb, 0xdc, 0xe3, 0xc2, 0xf0, 0x0e, 0x02, 0xfa, 0xd3,
  0xf7, 0xf7, 0xfb, 0xae, 0xe9, 0xcd, 0xfa, 0x0f, 0xd1, 0xaa, 0xae, 0xe9,
  0xef, 0x21, 0xb5, 0xe3, 0xfa, 0x01, 0xd0, 0x0a, 0x13, 0x22, 0x0f, 0x1f,
  0xf9, 0xd8, 0xf9, 0xee, 0x0b, 0x35, 0xef, 0xdd, 0x11, 0xe5, 0xe4, 0x19,
  0x03, 0x30, 0xfc, 0x23, 0xd8, 0x03, 0x0f, 0xec, 0xb3, 0xe3, 0x11, 0xde,
  0xf3, 0xc1, 0x01, 0xbd, 0x01, 0x1f, 0xd5, 0xd2, 0xdc, 0xb4, 0xd9, 0xcd,
  0xf1, 0x06, 0xde, 0x0f, 0x28, 0xc1, 0xd3, 0xbb, 0xf4, 0x0a, 0xf2, 0xf6,
  0x08, 0xf0, 0xe0, 0xdb, 0xd2, 0xe1, 0xcc, 0xc9, 0xfc, 0xb5, 0xed, 0x92,
  0xc2, 0xb7, 0x02, 0x06, 0xd1, 0xb8, 0x96, 0xf7, 0x05, 0xa9, 0x06, 0xc3,
  0xcc, 0xcf, 0xc3, 0xd0, 0xc4, 0x1e, 0xf5, 0xb4, 0xd0, 0xd2, 0xb1, 0xb5,
  0x07, 0x1e, 0xd7, 0x21, 0xfc, 0xcd, 0x0e, 0xcd, 0xd7, 0xf3, 0x35, 0xc4,
  0x1a, 0xde, 0xbc, 0xf5, 0x2f, 0x28, 0xf7, 0x26, 0xf6, 0xd7, 0x3f, 0xc3,
  0x07, 0xce, 0x27, 0xcc, 0xe9, 0x19, 0x25, 0xc1, 0x01, 0xe5, 0xdc, 0x02,
  0xd2, 0xe4, 0x18, 0xf1, 0xc0, 0xc7, 0xc0, 0xd9, 0xd4, 0xd3, 0xf0, 0xdd,
  0xb2, 0xe4, 0xc3, 0x13, 0xab, 0xef, 0xa9, 0xa3, 0xe5, 0xb7, 0xa3, 0xab,
  0xf6, 0x04, 0x0b, 0x04, 0xdf, 0xfd, 0xc2, 0xc0, 0x17, 0xce, 0x08, 0x04,
  0xfb, 0xe9, 0xee, 0xe7, 0xd2, 0x15, 0x0f, 0x12, 0x2d, 0xdf, 0xef, 0xe1,
  0xf9, 0xdb, 0x36, 0x3e, 0xe1, 0xec, 0xde, 0x27, 0x33, 0xe0, 0x2c, 0xe0,
  0xfe, 0x3e, 0xff, 0xfe, 0x0b, 0x22, 0xdf, 0x3c, 0x10, 0xf1, 0xe6, 0x14,
  0x40, 0x2f, 0x43, 0x36, 0xe9, 0x36, 0x23, 0x50, 0x1b, 0x07, 0xf9, 0x56,
  0xf6, 0x47, 0xf8, 0x20, 0xe8, 0x1a, 0x15, 0xdd, 0x47, 0xfb, 0xfa, 0xf4,
  0xff, 0x2f, 0x0f, 0x15, 0xd9, 0xf3, 0xd2, 0x19, 0xf0, 0x12, 0x1e, 0xd2,
  0xe9, 0xdb, 0x03, 0xe0, 0x12, 0xec, 0xf1, 0xe2, 0x2c, 0xdf, 0x19, 0x5f,
  0x54, 0x67, 0x29, 0xf6, 0xe9, 0x31, 0x3b, 0x38, 0x1e, 0x01, 0x35, 0xd7,
  0xe5, 0x0f, 0xdd, 0x46, 0xfd, 0x33, 0x27, 0x38, 0x24, 0xea, 0x3b, 0xfe,
  0xe9, 0x12, 0xf6, 0x34, 0x56, 0x2a, 0x0c, 0x00, 0x37, 0x48, 0x52, 0x53,
  0x20, 0x6e, 0x10, 0x51, 0x55, 0x3b, 0x54, 0x12, 0x6b, 0x25, 0x30, 0x1b,
  0x4f, 0x2b, 0x7f, 0x69, 0x56, 0x53, 0x0f, 0x14, 0x57, 0x58, 0x69, 0x74,
  0x4a, 0x64, 0x5f, 0xfc, 0xf7, 0x38, 0x02, 0x15, 0x26, 0x2d, 0xfb, 0x3c,
  0x04, 0x2b, 0x1a, 0x08, 0xe9, 0xf3, 0x24, 0x11, 0xe5, 0x15, 0xcf, 0x07,
  0xcb, 0xc7, 0xde, 0x01, 0xb2, 0x1c, 0xea, 0x18, 0x28, 0x03, 0xf7, 0xd9,
  0x21, 0x10, 0xd6, 0xc9, 0xf3, 0xea, 0xce, 0x0a, 0x11, 0x2c, 0x39, 0xec,
  0xd2, 0x1e, 0x13, 0x07, 0x08, 0xe6, 0x0b, 0x04, 0xff, 0x13, 0xfb, 0x04,
  0x0a, 0x1c, 0x19, 0xd2, 0x27, 0xcb, 0x07, 0xe9, 0xfd, 0x1f, 0x05, 0x1a,
  0xfe, 0xc3, 0xf1, 0x15, 0xde, 0xf7, 0x23, 0x0c, 0x27, 0x4a, 0x33, 0x26,
  0x38, 0x23, 0x0b, 0x43, 0xed, 0xed, 0x27, 0x06, 0x46, 0x23, 0x37, 0x1c,
  0x2e, 0x01, 0xd5, 0xf0, 0xd2, 0xe1, 0xee, 0x24, 0xfd, 0x28, 0xfa, 0x33,
  0xf2, 0x3f, 0x24, 0x16, 0xe5, 0xf6, 0x09, 0x28, 0xe1, 0x1d, 0x1b, 0x05,
  0xd0, 0x47, 0x22, 0xf7, 0xcb, 0x0c, 0xe4, 0xe8, 0x06, 0x10, 0x1a, 0x34,
  0xeb, 0xc7, 0xc4, 0x26, 0xec, 0xcf, 0x0d, 0xc4, 0x0c, 0xf3, 0xd1, 0xe4,
  0x20, 0xfa, 0x10, 0x00, 0xe5, 0xee, 0xec, 0x2f, 0xe5, 0xd7, 0xee, 0xc3,
  0x2b, 0x25, 0x1a, 0xc5, 0xfd, 0x2b, 0xda, 0xcd, 0x37, 0x14, 0xd9, 0xe6,
  0x1c, 0x25, 0xfb, 0x0c, 0x43, 0xed, 0xf1, 0xff, 0xc6, 0x04, 0xdf, 0xf1,
  0x00, 0xd6, 0xe9, 0xf2, 0xf0, 0x03, 0xd3, 0x08, 0x31, 0xd1, 0x21, 0xd5,
  0x0c, 0x1c, 0x16, 0xdd, 0x23, 0x0e, 0xcc, 0x07, 0xe4, 0xea, 0x2d, 0x35,
  0x12, 0xe0, 0xf8, 0xcf, 0xc4, 0xe8, 0x16, 0xde, 0xd8, 0xbe, 0xbb, 0xaf,
  0x07, 0xf0, 0xc1, 0x1b, 0xc8, 0xdd, 0xa4, 0xd4, 0xe2, 0xc7, 0xf4, 0xf8,
  0xeb, 0xd8, 0xd1, 0x02, 0xb9, 0xfa, 0x04, 0xb5, 0xfa, 0xc9, 0xbe, 0x10,
  0xba, 0x01, 0xf3, 0xda, 0xad, 0x17, 0xcb, 0xbf, 0x0f, 0xc3, 0x16, 0x06,
  0xd8, 0xcf, 0xe7, 0xd9, 0x24, 0x37, 0xec, 0xfa, 0xfd, 0xf1, 0x3c, 0x43,
  0x37, 0x4a, 0x30, 0x23, 0x52, 0xe3, 0x47, 0xed, 0xe1, 0x2e, 0x26, 0x48,
  0xf7, 0x3a, 0x0b, 0xe9, 0x1e, 0xec, 0xe8, 0x45, 0xee, 0x30, 0xe5, 0xfd,
  0x2b, 0xf1, 0xf7, 0x31, 0x00, 0xf6, 0xdf, 0x35, 0xe1, 0xf5, 0x1b, 0x08,
  0xbe, 0xf9, 0xed, 0x27, 0xf7, 0xe5, 0xcc, 0xe0, 0x1e, 0xce, 0x08, 0x31,
  0xec, 0x1f, 0x2b, 0xfe, 0xfd, 0xf8, 0x09, 0x14, 0xee, 0xd8, 0x28, 0x22,
  0x0b, 0x0f, 0x07, 0x4b, 0xf4, 0xe3, 0x00, 0xda, 0xfa, 0xf1, 0xe1, 0x04,
  0xfc, 0x16, 0x0b, 0x07, 0x7f, 0x76, 0x1e, 0xd3, 0x3d, 0x1e, 0x34, 0xec,
  0xeb, 0xe6, 0xe4, 0x0e, 0x22, 0x1f, 0xc3, 0xec, 0x1b, 0xd7, 0x07, 0x27,
  0x1d, 0xee, 0xd1, 0xc0, 0xfa, 0xf0, 0xdd, 0xdc, 0x25, 0xde, 0xc7, 0x20,
  0x01, 0x2e, 0x38, 0x2a, 0xe8, 0x00, 0xce, 0x0f, 0x23, 0xff, 0xdb, 0x2d,
  0x05, 0x3d, 0x11, 0x28, 0xef, 0xf7, 0xff, 0x09, 0x3b, 0x0b, 0xf7, 0x0d,
  0x0c, 0x22, 0x1b, 0x20, 0xe0, 0xf4, 0xe0, 0x44, 0xd7, 0x2d, 0xde, 0xfc,
  0x3e, 0x2f, 0x33, 0x33, 0xf1, 0x45, 0x0b, 0x0c, 0x2a, 0x01, 0xbb, 0xec,
  0xa3, 0xad, 0xd9, 0xee, 0xe2, 0xba, 0xdb, 0xd7, 0xc1, 0xa5, 0xe7, 0xfe,
  0xba, 0xf0, 0xaa, 0xe3, 0xf9, 0xb1, 0xdf, 0xd2, 0xdd, 0xc6, 0xfb, 0xee,
  0xc2, 0xd6, 0xd9, 0xef, 0xed, 0xc0, 0xc1, 0xc8, 0xe9, 0x02, 0xb9, 0xc8,
  0xe2, 0xc5, 0x00, 0xf8, 0xb9, 0xe1, 0xb8, 0xd9, 0xce, 0xe0, 0xe4, 0xde,
  0xc4, 0xc0, 0xff, 0xd9, 0xfc, 0xef, 0xc1, 0xf3, 0xb4, 0x02, 0xd1, 0xc9,
  0xfc, 0xcb, 0xf2, 0xe7, 0xc6, 0xae, 0xd8, 0xf0, 0xbf, 0xd0, 0xc3, 0x0d,
  0xde, 0xfa, 0xdb, 0xfc, 0x05, 0x05, 0xb6, 0xd1, 0xa9, 0xb1, 0xba, 0xbf,
  0xc9, 0xb2, 0xec, 0xbe, 0xeb, 0xe5, 0xda, 0xc2, 0xc6, 0xdd, 0xed, 0x15,
  0xd5, 0xdf, 0x15, 0xd5, 0x0d, 0xe9, 0xc7, 0xf3, 0x06, 0x0e, 0xf3, 0xf6,
  0x23, 0xf6, 0x21, 0xed, 0x00, 0x01, 0x0f, 0xee, 0x0d, 0xed, 0xcf, 0x0f,
  0xe5, 0xf7, 0x16, 0x05, 0x12, 0xcc, 0xe7, 0xca, 0x02, 0xd4, 0xff, 0x0d,
  0xce, 0xf8, 0xec, 0xf9, 0xf0, 0xfe, 0xd0, 0x1f, 0xea, 0xea, 0xe2, 0xfc,
  0xfe, 0xf7, 0x06, 0x0f, 0x18, 0x20, 0xcb, 0xf3, 0xfe, 0xcd, 0xe5, 0x05,
  0xe4, 0xcc, 0xdf, 0xed, 0xe7, 0xdd, 0x2d, 0x15, 0x2c, 0x1b, 0x0c, 0x19,
  0x30, 0xee, 0x2f, 0x18, 0x06, 0x3e, 0x1a, 0x01, 0x2c, 0xfe, 0x22, 0x2d,
  0x19, 0x10, 0x38, 0xfd, 0x20, 0x0a, 0xf6, 0x17, 0xff, 0xf8, 0x21, 0x03,
  0xf0, 0x39, 0x18, 0x17, 0xf7, 0xf6, 0x1f, 0xf5, 0x26, 0x0c, 0x0d, 0xe3,
  0x05, 0xff, 0x08, 0x01, 0xfe, 0x18, 0x1f, 0x23, 0x35, 0xed, 0x0b, 0x17,
  0x1e, 0x21, 0xfc, 0x24, 0x17, 0x09, 0x10, 0xf2, 0x03, 0x31, 0x31, 0x22,
  0xf6, 0x0b, 0x0d, 0xfa, 0xe6, 0x30, 0x1f, 0x14, 0xfa, 0x13, 0x17, 0x1e,
  0x55, 0x4d, 0x45, 0x06, 0x2b, 0x20, 0x37, 0x22, 0x1d, 0x24, 0x0e, 0xee,
  0x41, 0x05, 0xe9, 0x1a, 0xf1, 0x14, 0xf1, 0x0b, 0xef, 0xf7, 0xf8, 0x41,
  0x13, 0x29, 0x2a, 0xff, 0xef, 0x2e, 0xfa, 0x07, 0xec, 0xf9, 0x11, 0xf9,
  0x25, 0xf1, 0xf8, 0xfc, 0xf2, 0x03, 0x38, 0xfb, 0x2b, 0x07, 0x28, 0x26,
  0x25, 0x1a, 0x16, 0xe4, 0x0a, 0x1a, 0x2e, 0x2a, 0x20, 0xf5, 0xf5, 0xe6,
  0x17, 0x34, 0x0d, 0x1c, 0x2a, 0x0c, 0xfb, 0xe9, 0x2a, 0x02, 0x15, 0x2f,
  0x38, 0xe4, 0xe6, 0xff, 0x47, 0x13, 0x75, 0x72, 0x7f, 0x4d, 0x57, 0x10,
  0x15, 0x46, 0x12, 0x24, 0x30, 0x29, 0x12, 0x22, 0x31, 0x0e, 0x36, 0x06,
  0x2c, 0x0d, 0x2b, 0x2c, 0x0d, 0x27, 0xed, 0x0d, 0xf5, 0xe5, 0xf1, 0x0b,
  0xf7, 0x32, 0x1e, 0x10, 0x10, 0x17, 0xf9, 0x21, 0x0c, 0x3f, 0x3c, 0x0f,
  0x28, 0xfc, 0x16, 0x33, 0x12, 0x28, 0x28, 0x3c, 0x09, 0x08, 0xeb, 0x10,
  0x23, 0xf5, 0x04, 0xfc, 0x1d, 0x25, 0x1a, 0x21, 0x0c, 0x03, 0x0b, 0x42,
  0x14, 0x08, 0x2a, 0xfb, 0x1a, 0x12, 0x09, 0x18, 0x1e, 0x0e, 0xf3, 0x0a,
  0x18, 0xf4, 0x04, 0xc0, 0x09, 0xd5, 0xd3, 0x16, 0xc1, 0xdb, 0x9f, 0x9f,
  0xfd, 0xf6, 0xad, 0xaa, 0x0a, 0xf8, 0xe0, 0xc7, 0xc2, 0xae, 0xb3, 0xe9,
  0xb8, 0xec, 0xc4, 0x15, 0xa7, 0xf0, 0xcc, 0xf0, 0xbf, 0xc4, 0xd1, 0xce,
  0x1b, 0xad, 0xb9, 0xf8, 0xfe, 0xda, 0x17, 0xc2, 0xcf, 0x1b, 0xc0, 0xee,
  0xb0, 0xf3, 0xb6, 0xfe, 0xf2, 0xdc, 0xbc, 0xbd, 0x0b, 0xf9, 0xd2, 0xad,
  0xd4, 0xf9, 0xd0, 0x24, 0x03, 0xdd, 0xf7, 0x1e, 0xd1, 0xf7, 0x21, 0x28,
  0xc1, 0x03, 0x23, 0xfa, 0x24, 0x01, 0x1a, 0x0e, 0xfa, 0xf7, 0x05, 0x91,
  0xfa, 0xdd, 0xbf, 0xbd, 0x29, 0xf3, 0xad, 0x21, 0x1a, 0xb9, 0xb9, 0x1c,
  0xdd, 0x00, 0xe9, 0x18, 0x3c, 0xe6, 0xb7, 0x14, 0x1c, 0x0b, 0xfa, 0xed,
  0x1e, 0xdd, 0xdf, 0x05, 0xe0, 0xd1, 0xf1, 0xf6, 0xc6, 0x12, 0xc0, 0xd0,
  0xbe, 0x0c, 0xbe, 0x25, 0xd8, 0xa6, 0x13, 0xf9, 0xaf, 0xe9, 0xde, 0xff,
  0x17, 0xcd, 0x19, 0xd2, 0xd9, 0x1a, 0xe6, 0xf2, 0xc3, 0xcd, 0xf1, 0xb8,
  0xf4, 0xd8, 0x14, 0xfa, 0xe3, 0xba, 0xc5, 0x06, 0xd4, 0x0f, 0xb7, 0xf9,
  0x17, 0x20, 0xe9, 0xe3, 0xda, 0xcb, 0xe9, 0x1e, 0xe3, 0xcb, 0x2d, 0xeb,
  0x19, 0xdb, 0x1b, 0x3f, 0xe0, 0x2f, 0xe5, 0x44, 0xd3, 0xe8, 0x12, 0xd9,
  0xff, 0x05, 0x03, 0xc6, 0x1f, 0xdb, 0xe2, 0x24, 0xdd, 0xce, 0x32, 0x15,
  0x1e, 0x43, 0x09, 0x18, 0xf9, 0xe6, 0x09, 0x14, 0xe3, 0xd2, 0xcb, 0x09,
  0xc5, 0x3c, 0x24, 0xb6, 0xfd, 0xbd, 0x39, 0x32, 0x16, 0x1f, 0x02, 0xeb,
  0xfe, 0x38, 0xfb, 0x21, 0xbd, 0x34, 0xe4, 0x25, 0x1e, 0x0d, 0x02, 0xe4,
  0x23, 0xf0, 0xd5, 0x38, 0xd4, 0x2f, 0x2e, 0x04, 0xf4, 0x0e, 0x04, 0x39,
  0x4b, 0xed, 0x03, 0x1a, 0x12, 0xfd, 0x05, 0x4a, 0xe1, 0x01, 0x27, 0xf3,
  0xfa, 0x4e, 0xf7, 0x40, 0xe9, 0xf5, 0xfc, 0x23, 0x03, 0x17, 0x3f, 0x42,
  0x2f, 0x0f, 0x21, 0x2e, 0x2d, 0x27, 0x2c, 0x3d, 0x36, 0x43, 0xfb, 0x18,
  0x4d, 0x4c, 0x04, 0xdf, 0xef, 0x2f, 0x37, 0x1f, 0x37, 0x34, 0x39, 0x4b,
  0x3e, 0x2c, 0xe7, 0xe4, 0x11, 0x3f, 0xe7, 0x0c, 0xed, 0xd7, 0x40, 0x1d,
  0x09, 0xda, 0x1e, 0x2e, 0x3e, 0x04, 0x34, 0x1d, 0xcd, 0x1a, 0x2a, 0xec,
  0xd1, 0xe0, 0x1e, 0xf0, 0xc1, 0xfc, 0xfc, 0x40, 0x47, 0x6d, 0x50, 0x71,
  0x45, 0x7f, 0x1b, 0x1e, 0xff, 0x3a, 0xdf, 0x57, 0x39, 0xee, 0xf7, 0x36,
  0x38, 0xfd, 0x11, 0xdd, 0x36, 0x06, 0xf1, 0x3d, 0x36, 0x48, 0x26, 0x10,
  0xe4, 0x02, 0x1e, 0x39, 0xd4, 0xf5, 0xe5, 0xe1, 0x1a, 0x01, 0x4c, 0x20,
  0x0a, 0xee, 0x4c, 0x12, 0x39, 0x2e, 0xdf, 0x43, 0x2b, 0x46, 0xe8, 0x27,
  0x0d, 0x03, 0x51, 0x3c, 0xfd, 0x43, 0x59, 0x27, 0x10, 0x5c, 0x53, 0xea,
  0x21, 0xfe, 0x09, 0x40, 0x39, 0x48, 0x60, 0x1f, 0x3a, 0x0f, 0xe7, 0x2e,
  0x49, 0x31, 0x3a, 0x40, 0x51, 0x33, 0x55, 0x65, 0x34, 0x40, 0x63, 0x54,
  0x6c, 0x38, 0x6d, 0x4d, 0x53, 0x3f, 0x64, 0x31, 0x58, 0x3f, 0x3d, 0x4c,
  0x4e, 0x4e, 0x41, 0x2a, 0x48, 0x36, 0x3c, 0x5b, 0x25, 0x42, 0x5e, 0x3f,
  0x40, 0x4e, 0x54, 0x5a, 0x3e, 0x55, 0x48, 0x48, 0x6a, 0x4c, 0x60, 0x52,
  0x6a, 0x6c, 0x49, 0x3b, 0x59, 0x5d, 0x48, 0x7d, 0x5f, 0x3b, 0x6c, 0x61,
  0x55, 0x6f, 0x45, 0x75, 0x6f, 0x48, 0x6f, 0x54, 0x47, 0x4f, 0x57, 0x39,
  0x54, 0x40, 0x54, 0x5f, 0x5f, 0x35, 0x6b, 0x61, 0x50, 0x57, 0x51, 0x51,
  0x1f, 0x30, 0x07, 0x16, 0x0f, 0x26, 0xff, 0x09, 0xe7, 0x04, 0x15, 0x04,
  0xe0, 0xf4, 0xfc, 0x04, 0x0c, 0xf1, 0x14, 0x11, 0xf9, 0xed, 0xfe, 0x03,
  0x0f, 0xe3, 0xd8, 0xf6, 0x0e, 0xe6, 0xe9, 0xf4, 0xf2, 0x07, 0xda, 0xed,
  0xf6, 0xe1, 0xf8, 0x09, 0xd3, 0xe3, 0x0f, 0xd4, 0xfd, 0xc2, 0x00, 0x16,
  0x0b, 0xe7, 0xd7, 0xca, 0xc6, 0x01, 0xec, 0xcf, 0x12, 0xec, 0xf2, 0xe1,
  0xd1, 0xdd, 0xdc, 0xda, 0xd2, 0x19, 0x15, 0x0f, 0xd6, 0xf6, 0xd0, 0xd8,
  0xf5, 0xee, 0xde, 0xd6, 0xec, 0x12, 0xf9, 0xfb, 0xfc, 0xfa, 0x24, 0x20,
  0x17, 0xef, 0xe7, 0xe1, 0xd7, 0xf3, 0xef, 0xe3, 0xe9, 0xfa, 0xef, 0xf3,
  0xe3, 0xf8, 0xd8, 0xe5, 0x01, 0xf5, 0xed, 0xfc, 0xdc, 0xd6, 0x0a, 0xe1,
  0xdd, 0xd7, 0x15, 0xf1, 0x0d, 0xbf, 0xee, 0xd4, 0xd6, 0x19, 0xe5, 0xd8,
  0xfc, 0x07, 0xcf, 0xde, 0xfc, 0x0a, 0x05, 0xe8, 0xfa, 0xe5, 0x0c, 0xda,
  0x05, 0xd3, 0xf5, 0x06, 0xf7, 0xc0, 0xed, 0xdb, 0xe0, 0x0e, 0xe0, 0xe1,
  0xeb, 0xee, 0xfc, 0xfd, 0x09, 0xe8, 0x07, 0xe7, 0xcc, 0xeb, 0x0f, 0xf6,
  0x10, 0xfc, 0x10, 0x04, 0x0e, 0x04, 0xd2, 0xef, 0xe8, 0xdc, 0x0b, 0xf3,
  0xd8, 0xdf, 0xcc, 0xf8, 0xd9, 0xe2, 0xf5, 0x01, 0xd1, 0xf0, 0xd6, 0xcc,
  0xde, 0xe1, 0xd2, 0xf0, 0xec, 0x1b, 0xef, 0x0c, 0xf7, 0xea, 0xe3, 0xd0,
  0xfc, 0xf0, 0xe4, 0xf9, 0x03, 0xe4, 0xfa, 0xff, 0x0d, 0xe5, 0xf8, 0x05,
  0xe5, 0xee, 0xf2, 0xd2, 0xff, 0xf0, 0x01, 0xf9, 0x14, 0xff, 0xfe, 0xec,
  0xed, 0xf6, 0xe1, 0xff, 0x19, 0xfe, 0x0e, 0xed, 0x02, 0xe1, 0xd7, 0x02,
  0xdb, 0x0c, 0xd6, 0xe7, 0xf3, 0xff, 0xcc, 0xf0, 0xec, 0xd6, 0xfd, 0xe0,
  0xab, 0xb3, 0xa4, 0x81, 0xbe, 0xbe, 0xbd, 0xd9, 0xf3, 0xf4, 0xc7, 0xdd,
  0xfb, 0xe9, 0xc6, 0xd8, 0xd6, 0xfa, 0x04, 0xd4, 0xf7, 0xf2, 0xf5, 0xe8,
  0xd6, 0x05, 0xed, 0xca, 0xf9, 0xf7, 0xe2, 0xf4, 0xcb, 0xf2, 0x0b, 0xe1,
  0xff, 0xbb, 0xdd, 0xd6, 0xc4, 0xdc, 0xc7, 0xde, 0xdf, 0xc6, 0xce, 0xd7,
  0xb4, 0xcb, 0xf0, 0xb7, 0xdd, 0xee, 0xac, 0xe2, 0xb3, 0xe3, 0x02, 0xce,
  0xb7, 0xce, 0xc8, 0x0c, 0xed, 0xb2, 0xd2, 0xc7, 0xcc, 0xf2, 0xfa, 0xf1,
  0xf8, 0xf0, 0xda, 0xed, 0xb5, 0xcc, 0xcb, 0xd4, 0x57, 0x59, 0x39, 0x45,
  0x39, 0x2d, 0x2c, 0x26, 0x15, 0x2a, 0x23, 0x10, 0x1b, 0x31, 0x2a, 0x0f,
  0x2c, 0x24, 0x1e, 0x2f, 0x26, 0x21, 0x18, 0x30, 0x1d, 0x19, 0x23, 0x35,
  0x10, 0x22, 0x2c, 0x19, 0x14, 0x14, 0x0c, 0x0c, 0x18, 0x14, 0x08, 0x0a,
  0x0b, 0x1e, 0x0b, 0x16, 0x13, 0x1d, 0x0f, 0x0f, 0x17, 0x1e, 0x1b, 0x13,
  0x22, 0x19, 0x12, 0x1d, 0x27, 0x0a, 0x22, 0x0b, 0x2c, 0x19, 0x10, 0x22,
  0x21, 0x20, 0x29, 0x17, 0x15, 0x24, 0x1a, 0x26, 0x15, 0x32, 0x20, 0x2a,
  0x1b, 0x36, 0x15, 0x3e, 0x17, 0x21, 0x12, 0x18, 0xfb, 0x0e, 0x1f, 0x1d,
  0x0e, 0x0b, 0x0f, 0x1f, 0x0f, 0x04, 0x17, 0xfd, 0x05, 0x0c, 0x18, 0x12,
  0x0a, 0x1c, 0xff, 0x03, 0x10, 0x13, 0x12, 0xf9, 0x0a, 0x16, 0x04, 0xf5,
  0x15, 0x0d, 0x14, 0x0d, 0x00, 0x07, 0xf9, 0x0e, 0x00, 0x07, 0xf7, 0x01,
  0x05, 0xea, 0xf3, 0xf2, 0xf2, 0xfd, 0xee, 0xf4, 0xef, 0xf7, 0x05, 0xfd,
  0xfc, 0xf0, 0xfb, 0xef, 0xe8, 0xf9, 0xef, 0xee, 0xf8, 0xf7, 0xf0, 0xf3,
  0xff, 0xf0, 0xf7, 0xff, 0x01, 0xe8, 0xed, 0x0c, 0x01, 0x07, 0xec, 0xff,
  0xf7, 0xed, 0x12, 0xf8, 0xf8, 0x14, 0x06, 0x0c, 0x0d, 0x0a, 0x09, 0xfd,
  0xf7, 0xf8, 0x06, 0xf9, 0x06, 0x08, 0x04, 0x05, 0xf8, 0xfe, 0xf8, 0x02,
  0xf5, 0x12, 0xf4, 0x00, 0x0b, 0xff, 0xf1, 0x04, 0x06, 0xf6, 0x00, 0xf7,
  0x0b, 0xea, 0x0c, 0xf8, 0xf8, 0xfc, 0xf5, 0x01, 0xf9, 0x06, 0xfd, 0xfd,
  0x07, 0xf7, 0x05, 0x05, 0x0f, 0x06, 0xf2, 0xf4, 0xfe, 0x05, 0x00, 0xf1,
  0xfb, 0x0a, 0xfd, 0x03, 0x07, 0x07, 0x02, 0xf4, 0x08, 0xf6, 0xf0, 0xfc,
  0xfe, 0xfd, 0x02, 0xea, 0x04, 0xf4, 0xf6, 0xf4, 0xbb, 0xdf, 0xec, 0xe3,
  0xec, 0xef, 0xec, 0xed, 0xff, 0xfb, 0xf8, 0xeb, 0x06, 0x04, 0x06, 0xfa,
  0x01, 0x06, 0xf4, 0xed, 0xf3, 0x0a, 0x0d, 0xf1, 0x01, 0x05, 0x06, 0xea,
  0x01, 0xf3, 0x05, 0xfc, 0x09, 0x05, 0xf7, 0x05, 0x09, 0xfa, 0x0e, 0xfd,
  0x0d, 0xf8, 0x0f, 0xeb, 0x01, 0x12, 0x16, 0x11, 0x09, 0x0b, 0x11, 0x01,
  0x0f, 0x03, 0x0b, 0x07, 0xf9, 0x0f, 0x00, 0x13, 0x0a, 0x05, 0x0e, 0xfa,
  0x02, 0xf9, 0x02, 0x10, 0xfb, 0xfc, 0xfd, 0xee, 0x02, 0xe9, 0xff, 0xf8,
  0xf6, 0xe2, 0xf1, 0xe8, 0x81, 0xaa, 0xb2, 0xa4, 0xa9, 0xa2, 0xa3, 0xa3,
  0xb5, 0xbb, 0xcf, 0xbb, 0xc7, 0xd7, 0xc5, 0xd5, 0xc0, 0xc2, 0xcf, 0xd3,
  0xc5, 0xc7, 0xd9, 0xd7, 0xbe, 0xd8, 0xd2, 0xc0, 0xc7, 0xc0, 0xd7, 0xd2,
  0xdd, 0xd3, 0xe8, 0xcc, 0xd4, 0xd7, 0xce, 0xe4, 0xe3, 0xdf, 0xdd, 0xe9,
  0xce, 0xdd, 0xe4, 0xe4, 0xd1, 0xee, 0xee, 0xcc, 0xd0, 0xd5, 0xe2, 0xcd,
  0xe3, 0xd3, 0xd1, 0xcb, 0xd3, 0xd4, 0xd4, 0xce, 0xd3, 0xd7, 0xd7, 0xcd,
  0xc4, 0xb2, 0xcb, 0xc2, 0xbb, 0xd0, 0xb7, 0xb9, 0xa3, 0xc1, 0xaa, 0xaf,
  0x48, 0x19, 0x17, 0x17, 0x28, 0x1a, 0x0a, 0x29, 0x19, 0x0e, 0x1f, 0x0e,
  0x23, 0x11, 0x29, 0x0b, 0xfc, 0x18, 0x27, 0x2b, 0x1c, 0x28, 0xfc, 0x22,
  0x1f, 0x00, 0x1b, 0xf7, 0x2d, 0x17, 0x2e, 0x1a, 0x0a, 0xfc, 0x1e, 0x0d,
  0x19, 0x2f, 0x03, 0x0b, 0x37, 0x1b, 0x0e, 0x03, 0x14, 0x33, 0x05, 0x18,
  0x1a, 0x29, 0x07, 0x07, 0x37, 0xff, 0x17, 0x2b, 0x3a, 0x2d, 0x27, 0x32,
  0x0a, 0x21, 0x26, 0x2f, 0x2f, 0x16, 0x30, 0x09, 0x2c, 0x11, 0x29, 0x1d,
  0x1b, 0x25, 0x1b, 0x26, 0x1f, 0x2d, 0x18, 0x23, 0x3b, 0x29, 0x10, 0x1a,
  0xfb, 0x10, 0x03, 0xf4, 0x13, 0xf9, 0xcf, 0xe1, 0xe4, 0xf0, 0xf2, 0xee,
  0xe1, 0xf6, 0x01, 0xee, 0xd1, 0xf1, 0xd5, 0xe7, 0x02, 0xe6, 0xd7, 0x10,
  0xf0, 0x05, 0xfc, 0x04, 0x16, 0xee, 0xda, 0xee, 0xf3, 0xe0, 0xf4, 0xee,
  0xe7, 0xea, 0xee, 0x19, 0xe6, 0xf9, 0xd5, 0xf0, 0xf7, 0xe4, 0x11, 0xdb,
  0x01, 0x0a, 0x02, 0x1a, 0xd4, 0xf4, 0xd1, 0xdd, 0xde, 0xe0, 0x15, 0x04,
  0xda, 0xf7, 0xd0, 0x02, 0xf0, 0x06, 0xf7, 0x01, 0xf1, 0xf5, 0xf5, 0xe6,
  0xf8, 0x04, 0x1d, 0x03, 0x32, 0x22, 0x08, 0xf6, 0x12, 0x15, 0xd8, 0xcc,
  0xff, 0xfe, 0x0a, 0xd9, 0x06, 0xda, 0xd2, 0xf8, 0xdf, 0xec, 0xe9, 0xe7,
  0xfe, 0x04, 0xd6, 0x08, 0x04, 0xe7, 0x11, 0x02, 0xd6, 0xfd, 0xed, 0xff,
  0x09, 0x13, 0x01, 0x0f, 0xfe, 0x12, 0xf6, 0xed, 0x0d, 0x05, 0x2f, 0xff,
  0xf7, 0xf6, 0xff, 0x04, 0xec, 0x11, 0xf6, 0x02, 0xf7, 0xfc, 0xe5, 0x09,
  0xf5, 0x07, 0x04, 0x05, 0x06, 0xfc, 0xfc, 0xf4, 0xf4, 0xe4, 0xee, 0x07,
  0xe8, 0x07, 0xd5, 0xd8, 0x0f, 0xe3, 0xe7, 0x12, 0xee, 0x0f, 0xec, 0x13,
  0x42, 0x02, 0xfe, 0xf4, 0xce, 0xf9, 0xf1, 0xfd, 0xc3, 0xfc, 0xfa, 0xf2,
  0xde, 0xd0, 0x02, 0x0a, 0xf7, 0xf0, 0xf9, 0xdb, 0x00, 0xe2, 0xe1, 0xef,
  0xdd, 0xf7, 0x12, 0xf2, 0x17, 0xf4, 0xf5, 0xfd, 0xf4, 0x09, 0x14, 0x1e,
  0xf2, 0x1b, 0xed, 0x13, 0x0a, 0xfd, 0x02, 0xeb, 0x32, 0x0a, 0x1d, 0x22,
  0x01, 0xff, 0x0a, 0x33, 0x06, 0x00, 0x3b, 0xf3, 0x2b, 0x0c, 0xf6, 0xfb,
  0x0c, 0xfd, 0xe4, 0xe1, 0x21, 0x16, 0x11, 0xfa, 0xfb, 0xef, 0x13, 0x1c,
  0xfa, 0x09, 0xe3, 0xf9, 0x1a, 0xf1, 0xea, 0xf7, 0x27, 0x0a, 0xc4, 0xb9,
  0xb9, 0x81, 0xb5, 0xb7, 0xd2, 0xbf, 0xba, 0xcb, 0xd8, 0xbe, 0xeb, 0xc1,
  0xf4, 0xbe, 0xe6, 0xe2, 0xf5, 0x03, 0xec, 0x0c, 0x08, 0xff, 0xf7, 0xd9,
  0xfc, 0xeb, 0xdc, 0xef, 0xe5, 0xf0, 0x06, 0xe7, 0xea, 0xf7, 0x20, 0x05,
  0x0a, 0x10, 0xeb, 0xf9, 0x17, 0xf7, 0x25, 0x0a, 0x0a, 0x39, 0xed, 0x1d,
  0x05, 0x13, 0xff, 0xdd, 0xed, 0x08, 0x25, 0x15, 0x26, 0x2e, 0xf2, 0x1f,
  0xea, 0x1b, 0x1c, 0x1e, 0xf1, 0xfe, 0x0d, 0x03, 0xe7, 0x1d, 0x0f, 0xf8,
  0xec, 0xea, 0xf1, 0xea, 0x30, 0x32, 0x17, 0x37, 0x04, 0x0c, 0x06, 0x1e,
  0x18, 0x1f, 0x22, 0x19, 0x23, 0x19, 0x0c, 0x1b, 0x1d, 0x06, 0x0b, 0x28,
  0xfe, 0x10, 0x08, 0x2f, 0x08, 0x01, 0x2c, 0x06, 0x26, 0x1d, 0x0f, 0x1f,
  0x12, 0x31, 0x0b, 0x17, 0x23, 0x08, 0x21, 0x04, 0x0e, 0x26, 0x08, 0x28,
  0x0f, 0x11, 0x1e, 0x29, 0x1a, 0xff, 0x29, 0x16, 0x23, 0x30, 0xfc, 0x24,
  0x1f, 0x0c, 0x2c, 0x1f, 0x18, 0x0f, 0x2a, 0x30, 0x28, 0x0c, 0x24, 0x21,
  0x32, 0x1a, 0x25, 0x37, 0x1c, 0x1c, 0x2c, 0x28, 0x49, 0x49, 0x3d, 0x3d,
  0x1f, 0x29, 0x19, 0x0d, 0x22, 0xfc, 0x22, 0x1d, 0x2e, 0x21, 0x1d, 0x15,
  0x23, 0x2d, 0x05, 0x11, 0x37, 0x10, 0x2a, 0x1b, 0x33, 0x31, 0x15, 0x38,
  0x1c, 0x31, 0x15, 0x33, 0x36, 0x2b, 0x31, 0x33, 0x27, 0x08, 0x34, 0x1e,
  0x1e, 0x2e, 0x2c, 0x3c, 0x24, 0x27, 0x01, 0x2c, 0x14, 0x08, 0x1e, 0x1e,
  0x1b, 0x1d, 0x32, 0x24, 0x10, 0x3b, 0x34, 0x0e, 0x2f, 0x3e, 0x34, 0x16,
  0x20, 0x31, 0x35, 0x28, 0x37, 0x32, 0x21, 0x15, 0x3a, 0x1d, 0x3b, 0x1e,
  0x38, 0x42, 0x32, 0x30, 0x25, 0x1d, 0x39, 0x42, 0xc1, 0xfb, 0x08, 0x01,
  0xf6, 0xf8, 0x03, 0xe6, 0x0d, 0xe4, 0x14, 0xf9, 0xf1, 0xec, 0x07, 0xfc,
  0xee, 0xf5, 0x0c, 0xf2, 0x13, 0x11, 0x06, 0x1a, 0x1e, 0x1a, 0xf9, 0x02,
  0x19, 0xf8, 0x14, 0xff, 0xf3, 0x17, 0x1b, 0x08, 0xf8, 0x01, 0x18, 0xfa,
  0x15, 0x14, 0xf7, 0x00, 0x19, 0x13, 0x21, 0xff, 0x1a, 0x1e, 0xee, 0xfc,
  0x16, 0x01, 0x1a, 0xfd, 0xf1, 0x02, 0x06, 0x10, 0x00, 0xff, 0xfe, 0xf5,
  0xf0, 0x1b, 0x14, 0x24, 0x1e, 0x00, 0x0d, 0x16, 0xf2, 0x04, 0x07, 0x12,
  0x23, 0xf1, 0x05, 0xf8, 0xb5, 0xbd, 0xc9, 0xc9, 0xe6, 0xfd, 0xee, 0xd1,
  0xfe, 0xe2, 0xe9, 0xfe, 0xdf, 0xd5, 0xf0, 0xda, 0xdc, 0x09, 0xfe, 0x04,
  0xe9, 0x0b, 0xf1, 0xe3, 0xfd, 0xed, 0x02, 0xff, 0xdf, 0x06, 0xe1, 0x13,
  0x09, 0xe5, 0xe4, 0x0a, 0x08, 0xea, 0xe7, 0xef, 0x0e, 0xe1, 0x16, 0x10,
  0x04, 0x07, 0xfd, 0x04, 0xe7, 0x09, 0xfe, 0xf7, 0xe9, 0xee, 0x09, 0x11,
  0x18, 0xf0, 0x0b, 0xf3, 0xf3, 0xf4, 0xf7, 0xfd, 0xfb, 0xf3, 0xe0, 0xea,
  0xe7, 0xfa, 0x00, 0xd9, 0xec, 0x0a, 0xe5, 0xdc, 0xe0, 0xee, 0xf1, 0xfc,
  0x81, 0x85, 0xb2, 0xb3, 0xa0, 0x96, 0xb3, 0x95, 0xaa, 0x8e, 0xc0, 0xa2,
  0x97, 0xb7, 0xc1, 0xb0, 0x91, 0x9f, 0x96, 0x92, 0xad, 0xce, 0x9f, 0xa8,
  0xb7, 0xc4, 0x9c, 0xae, 0xad, 0xb1, 0x9d, 0xb2, 0x9c, 0xae, 0x95, 0xae,
  0xa2, 0xc8, 0xad, 0xad, 0xb6, 0xb9, 0xc5, 0xb8, 0xc8, 0xa8, 0xab, 0xce,
  0xc9, 0xad, 0xa3, 0xc6, 0xa9, 0xc6, 0xc1, 0xd1, 0xa5, 0xbd, 0xc4, 0xc0,
  0xd0, 0xae, 0xad, 0x92, 0xbe, 0xaa, 0x9d, 0xa1, 0xa3, 0x9e, 0xb2, 0xb4,
  0xba, 0xc4, 0xb0, 0x8d, 0x9f, 0xa4, 0xbc, 0x99, 0x0f, 0xf5, 0xeb, 0xd3,
  0xd1, 0xdb, 0xc0, 0xcf, 0xf6, 0x03, 0xca, 0xd6, 0xe4, 0xee, 0xd9, 0xe0,
  0xda, 0xca, 0xdb, 0xee, 0xf0, 0xd2, 0xea, 0xce, 0x02, 0xf0, 0xd8, 0xce,
  0xec, 0xc5, 0xf1, 0xbf, 0xd8, 0xe9, 0xc4, 0xce, 0xd5, 0xd1, 0xd3, 0xf6,
  0x03, 0xde, 0xd5, 0xeb, 0xce, 0xfd, 0xdc, 0xe1, 0xdf, 0xc3, 0xd6, 0xc4,
  0xcc, 0x09, 0xd9, 0xe2, 0xde, 0xca, 0xdc, 0xc0, 0xd4, 0xe8, 0xc6, 0xea,
  0xec, 0xca, 0xcf, 0xfd, 0xfe, 0xe8, 0xd0, 0xe5, 0xe4, 0xd2, 0x12, 0xed,
  0xd4, 0xee, 0xf1, 0xf2, 0xe0, 0xc9, 0xe6, 0xde, 0xd4, 0xe0, 0xdd, 0xd9,
  0xc9, 0xc9, 0xf9, 0xf9, 0xf4, 0xf3, 0xdc, 0xe8, 0xfe, 0xf7, 0xfc, 0xe2,
  0xce, 0xf6, 0xce, 0x00, 0xf2, 0xfa, 0xf3, 0xf2, 0xec, 0xf9, 0x08, 0xf0,
  0xc6, 0xdd, 0xf7, 0xe8, 0xfc, 0xd7, 0xf1, 0xf4, 0xcd, 0xc0, 0xda, 0xd5,
  0xdd, 0xd5, 0xd5, 0xea, 0xd4, 0xd3, 0xc3, 0xeb, 0xc6, 0xb9, 0xb9, 0xe2,
  0xdf, 0xc8, 0xe9, 0xda, 0xc7, 0xe9, 0xbc, 0xd6, 0xdd, 0xf1, 0xfa, 0xc2,
  0xe9, 0x02, 0xd6, 0xf8, 0xce, 0xe7, 0x0d, 0xdc, 0xcd, 0x01, 0xee, 0xe4,
  0xe1, 0x04, 0xf8, 0xd3, 0xfd, 0x02, 0xf2, 0xeb, 0xf3, 0xe3, 0xe8, 0x0b,
  0xe7, 0x00, 0xdf, 0x17, 0xfd, 0x09, 0xeb, 0x0a, 0xd3, 0xf9, 0xce, 0xd1,
  0xd8, 0xed, 0xf2, 0xfc, 0x00, 0xe2, 0xdc, 0xfb, 0xdd, 0xe0, 0xf6, 0xdb,
  0xe6, 0xdb, 0xdc, 0xe9, 0xff, 0xf8, 0x0b, 0xe6, 0xe3, 0xe4, 0xf7, 0xf8,
  0xf5, 0xca, 0x05, 0xdf, 0xf7, 0xd6, 0xd1, 0xed, 0xd8, 0xe5, 0xd1, 0xe6,
  0xeb, 0xca, 0xd3, 0xe7, 0xd4, 0xe5, 0xe9, 0xea, 0xf5, 0xe3, 0xf7, 0xce,
  0xe9, 0xfd, 0xe2, 0xf9, 0xe8, 0xe8, 0xde, 0xe1, 0xf2, 0xff, 0xeb, 0xfa,
  0x2d, 0x09, 0x15, 0x15, 0x0e, 0xfc, 0x09, 0xec, 0x0f, 0x0e, 0x3c, 0x02,
  0xf9, 0x14, 0x00, 0x22, 0x28, 0x15, 0x29, 0x1e, 0xfa, 0x15, 0x28, 0xfa,
  0xfc, 0x2c, 0xe9, 0x26, 0x2f, 0x23, 0x13, 0x0c, 0x1e, 0x25, 0x0b, 0xe6,
  0x0e, 0x23, 0xfc, 0x13, 0x03, 0xf7, 0x03, 0xf9, 0x0a, 0x26, 0x0a, 0xf7,
  0x11, 0x1b, 0x20, 0x18, 0xf6, 0x04, 0x07, 0x1a, 0x2a, 0x00, 0x1d, 0x23,
  0x1d, 0x1f, 0x14, 0x1c, 0x25, 0xfc, 0x10, 0x22, 0x28, 0xfc, 0xfb, 0x0e,
  0x10, 0xfd, 0x05, 0x0b, 0x3c, 0x3d, 0x61, 0x71, 0x39, 0x5d, 0x54, 0x3e,
  0x62, 0x36, 0x43, 0x40, 0x31, 0x11, 0x29, 0x1b, 0x28, 0x29, 0x22, 0x22,
  0x32, 0x36, 0x44, 0x42, 0x37, 0x16, 0x1c, 0x49, 0x2a, 0x2e, 0x45, 0x41,
  0x39, 0x39, 0x4a, 0x58, 0x48, 0x3f, 0x42, 0x58, 0x35, 0x32, 0x4b, 0x54,
  0x6c, 0x48, 0x53, 0x56, 0x56, 0x4e, 0x7b, 0x7a, 0x60, 0x5a, 0x55, 0x78,
  0x7f, 0x55, 0x54, 0x7e, 0x65, 0x54, 0x70, 0x46, 0x50, 0x51, 0x47, 0x4b,
  0x42, 0x60, 0x38, 0x50, 0x3a, 0x59, 0x2d, 0x54, 0x5b, 0x38, 0x39, 0x2c,
  0x2e, 0x0b, 0x1f, 0x21, 0x1c, 0x06, 0x22, 0x10, 0x2a, 0x1c, 0x21, 0x16,
  0x01, 0x07, 0x2c, 0x0d, 0x16, 0x07, 0x08, 0x0b, 0x1a, 0x11, 0xf2, 0x1d,
  0xf5, 0x05, 0xec, 0x0d, 0xf9, 0xee, 0xf3, 0xe3, 0x0e, 0xf3, 0xf7, 0xf8,
  0xec, 0xf0, 0xed, 0xfb, 0xe7, 0xcf, 0xde, 0xe6, 0xf1, 0xe6, 0xee, 0xd8,
  0xd3, 0xda, 0xcc, 0xe5, 0xe4, 0xdd, 0xec, 0xe1, 0xe5, 0xf1, 0xe0, 0xf1,
  0xdd, 0xe0, 0xf4, 0xd4, 0xe1, 0xe2, 0xfa, 0xda, 0xe7, 0xed, 0xe2, 0xfa,
  0xed, 0x05, 0x03, 0xf5, 0xfd, 0xf2, 0xf0, 0xf0, 0xed, 0xfd, 0xe0, 0xdd,
  0xf5, 0xe0, 0xd1, 0xdd, 0xd6, 0xf6, 0xe5, 0xf5, 0xf2, 0xd6, 0xd5, 0x0a,
  0xde, 0xf8, 0xe9, 0xf0, 0xe8, 0xdb, 0xe3, 0xde, 0xd8, 0xdb, 0xe1, 0xd1,
  0xe8, 0xd8, 0xd0, 0xd4, 0xdf, 0xc2, 0xad, 0xce, 0xdb, 0xca, 0xba, 0xc3,
  0xcb, 0xc2, 0xbf, 0xa9, 0xc2, 0xa3, 0xa1, 0xa6, 0xb0, 0xb4, 0xb5, 0xa6,
  0xa2, 0xab, 0xa8, 0xb3, 0x9a, 0x98, 0xb0, 0x9a, 0x9f, 0xad, 0xb6, 0xb3,
  0xa6, 0xb8, 0xa4, 0xc8, 0xb8, 0xb5, 0xc2, 0xc1, 0xbe, 0xc8, 0xc4, 0xc9,
  0xc1, 0xc5, 0xd4, 0xdd, 0xe5, 0xee, 0xd7, 0xde, 0xc7, 0xcf, 0xe1, 0xdc,
  0xda, 0xcd, 0xca, 0xc8, 0xd6, 0xed, 0xd0, 0xc9, 0xd6, 0xd6, 0xd3, 0xc9,
  0xc9, 0xc6, 0xdb, 0xc3, 0xdc, 0xce, 0xd7, 0xe3, 0xc2, 0xd1, 0xd6, 0xbb,
  0xbc, 0xce, 0xda, 0xd5, 0xc4, 0xb7, 0xe4, 0xb0, 0xce, 0xce, 0xc7, 0xd4,
  0xc4, 0xc5, 0xc6, 0xd8, 0xc3, 0xc9, 0xc6, 0xd0, 0xbe, 0xd2, 0xd4, 0xba,
  0xd8, 0xbe, 0xc9, 0xc6, 0xcc, 0xce, 0xcb, 0xdc, 0xdc, 0xcf, 0xd5, 0xd1,
  0xe1, 0xd4, 0xdc, 0xd7, 0xd1, 0xcf, 0xcc, 0xe4, 0xda, 0xd1, 0xdf, 0xdd,
  0xe4, 0xeb, 0x01, 0xeb, 0xf6, 0x07, 0xfc, 0x09, 0x0a, 0xff, 0x11, 0xf6,
  0x1a, 0xfe, 0x0e, 0x09, 0x0b, 0x0f, 0x11, 0x0b, 0x10, 0x2d, 0x0e, 0x12,
  0x18, 0x14, 0x26, 0x11, 0x24, 0x28, 0x1c, 0x2f, 0x0e, 0x32, 0x2c, 0x26,
  0x24, 0x2e, 0x29, 0x3f, 0x35, 0x38, 0x33, 0x48, 0x2a, 0x35, 0x4d, 0x46,
  0x51, 0x35, 0x4c, 0x46, 0x4c, 0x3a, 0x36, 0x44, 0x37, 0x4f, 0x2f, 0x3c,
  0x42, 0x36, 0x2d, 0x34, 0x40, 0x3a, 0x22, 0x2d, 0x28, 0x38, 0x30, 0x21,
  0x25, 0x2d, 0x1d, 0x19, 0x21, 0x21, 0x13, 0x19, 0x19, 0x22, 0x30, 0x3b,
  0x3a, 0x49, 0x3d, 0x28, 0x26, 0x24, 0x29, 0x35, 0x2a, 0x33, 0x27, 0x1f,
  0x2e, 0x1f, 0x2c, 0x33, 0x2a, 0x26, 0x40, 0x37, 0x42, 0x3f, 0x34, 0x31,
  0x3e, 0x48, 0x46, 0x63, 0x54, 0x4a, 0x56, 0x4b, 0x50, 0x68, 0x51, 0x53,
  0x4d, 0x6e, 0x69, 0x56, 0x63, 0x7f, 0x67, 0x5d, 0x74, 0x6a, 0x77, 0x68,
  0x6f, 0x73, 0x68, 0x70, 0x74, 0x6f, 0x7b, 0x78, 0x70, 0x73, 0x65, 0x64,
  0x63, 0x5d, 0x6c, 0x62, 0x58, 0x58, 0x50, 0x54, 0x5b, 0x47, 0x4e, 0x46,
  0x49, 0x5c, 0x3e, 0x45, 0x10, 0x67, 0xd0, 0x15, 0x9f, 0x26, 0x15, 0xbd,
  0xb2, 0xfc, 0xef, 0x04, 0xd2, 0x34, 0xda, 0x33, 0x2f, 0xd7, 0x42, 0xac,
  0xba, 0x08, 0x01, 0x23, 0x18, 0xea, 0xef, 0xac, 0x41, 0x0f, 0x27, 0x12,
  0x23, 0x29, 0x14, 0x25, 0x9f, 0x1c, 0xe7, 0x02, 0x27, 0xa4, 0xf7, 0xe8,
  0xbd, 0x38, 0xfd, 0x2f, 0x03, 0x42, 0x15, 0x02, 0x0b, 0x20, 0x1e, 0xd7,
  0xe4, 0xb3, 0xd4, 0xd2, 0x06, 0xc3, 0x31, 0x0d, 0xd5, 0xbf, 0xf4, 0xbf,
  0x29, 0xdd, 0x3b, 0x0d, 0xcd, 0xf9, 0xb7, 0x1a, 0x32, 0x15, 0xf7, 0x51,
  0x28, 0xee, 0xd2, 0x9f, 0xbb, 0x9d, 0xd8, 0x0c, 0x11, 0xbc, 0x98, 0xcf,
  0xd2, 0xd7, 0xca, 0x19, 0xcf, 0x9c, 0x20, 0xea, 0xbb, 0xc5, 0xd6, 0x39,
  0x0c, 0xa9, 0x03, 0xc7, 0x25, 0xf4, 0x27, 0xa9, 0x0e, 0xac, 0xdb, 0xb8,
  0xf1, 0xc6, 0x00, 0x07, 0x2a, 0x31, 0x2a, 0xa1, 0xd6, 0xb4, 0xb5, 0x98,
  0x1b, 0xbf, 0x14, 0xb1, 0x15, 0xeb, 0x0f, 0xc0, 0xb6, 0x94, 0x19, 0x1d,
  0xb6, 0xb7, 0x0b, 0xc8, 0x19, 0xf6, 0x02, 0xb3, 0xf5, 0xe2, 0x9f, 0xdd,
  0xf7, 0x05, 0x1e, 0x1d, 0x2b, 0x39, 0xf2, 0x0a, 0xc5, 0xd3, 0xc2, 0x82,
  0x84, 0x9e, 0xcf, 0x25, 0xc9, 0xe9, 0x11, 0xf9, 0x00, 0x3e, 0xad, 0xfb,
  0x1a, 0xed, 0xa4, 0x20, 0xc0, 0x3f, 0x2c, 0xc1, 0x24, 0x2c, 0xba, 0xcf,
  0xb9, 0xcd, 0xe0, 0x0d, 0xc4, 0x37, 0x04, 0xb8, 0xee, 0xeb, 0xc8, 0x91,
  0xb9, 0x2b, 0xa5, 0xc9, 0xfa, 0x29, 0x1c, 0xab, 0x0b, 0xe3, 0xdc, 0x09,
  0x96, 0xda, 0xb4, 0x15, 0xd0, 0x9e, 0x15, 0x1d, 0xef, 0xb0, 0x12, 0xf5,
  0xd3, 0xdc, 0xd7, 0xe7, 0x13, 0xa7, 0xe5, 0xd7, 0x19, 0x16, 0xd4, 0xdb,
  0xed, 0x37, 0x41, 0xb5, 0xf8, 0xbb, 0x30, 0x44, 0x37, 0x3d, 0x01, 0xd7,
  0x34, 0x4f, 0x01, 0xef, 0x65, 0x20, 0xef, 0xbb, 0xd1, 0x27, 0xfb, 0xed,
  0x0e, 0xeb, 0x1e, 0x0d, 0x20, 0xfa, 0x0e, 0xd1, 0x25, 0x1d, 0xd3, 0x4e,
  0x55, 0xf2, 0x3b, 0x05, 0x14, 0x13, 0x58, 0x38, 0x61, 0x06, 0xd4, 0x4e,
  0x23, 0xf4, 0xf0, 0x55, 0x48, 0xf2, 0x38, 0x4f, 0x21, 0x4c, 0xcf, 0x41,
  0x32, 0x07, 0xe0, 0x46, 0x6a, 0x44, 0x0a, 0x20, 0x42, 0xfa, 0xeb, 0x0e,
  0x19, 0x40, 0xf9, 0x10, 0x4a, 0x34, 0x38, 0xce, 0x0d, 0xd9, 0xd2, 0xd9,
  0x11, 0x56, 0x68, 0x56, 0x73, 0x57, 0x7c, 0xca, 0x3d, 0x3a, 0x4e, 0x12,
  0xe2, 0x0e, 0x0b, 0x34, 0xe3, 0x20, 0x3c, 0x5d, 0x28, 0x47, 0xb7, 0xbb,
  0xe7, 0x13, 0x38, 0x4e, 0x2a, 0xc9, 0x13, 0xd3, 0xea, 0xcb, 0x1b, 0x03,
  0x28, 0x48, 0x2c, 0x59, 0x40, 0x7f, 0x48, 0x6c, 0x01, 0xfc, 0x36, 0x7a,
  0x31, 0x2c, 0x60, 0x6a, 0xf0, 0x39, 0x59, 0x54, 0x2e, 0x71, 0x62, 0x2a,
  0x41, 0x15, 0x2d, 0x63, 0x3e, 0x5a, 0x6c, 0xff, 0x2d, 0x49, 0x3b, 0x65,
  0x4d, 0x0b, 0xf5, 0x20, 0x63, 0xed, 0x4d, 0x31, 0xe7, 0xfa, 0xe1, 0xe2,
  0x17, 0xfb, 0x22, 0xf8, 0xfe, 0x05, 0x2d, 0x1a, 0x0c, 0x0c, 0x04, 0x1d,
  0x03, 0x06, 0xed, 0x11, 0x11, 0x09, 0xf8, 0x12, 0xfb, 0x01, 0xff, 0xfe,
  0x1b, 0x22, 0x09, 0x2b, 0x02, 0x19, 0xf9, 0xf9, 0x13, 0x1e, 0xf2, 0xf6,
  0x05, 0x06, 0xf1, 0x18, 0xfe, 0x00, 0x04, 0x07, 0x1b, 0x05, 0x13, 0x0a,
  0xf8, 0x0f, 0x1c, 0xfb, 0xeb, 0x0a, 0xe3, 0x06, 0x07, 0xfe, 0xee, 0x1e,
  0xef, 0x0c, 0x11, 0xea, 0xe4, 0x23, 0xea, 0xf7, 0x18, 0xff, 0x16, 0x11,
  0x13, 0x0b, 0x0c, 0xe3, 0xd5, 0xf1, 0x0c, 0x19, 0x00, 0x08, 0xe3, 0x24,
  0xf1, 0x06, 0xe0, 0x12, 0x10, 0xe7, 0x02, 0xf3, 0x14, 0xf7, 0xf6, 0xe1,
  0x09, 0xed, 0xf1, 0xf7, 0x28, 0xf2, 0xf6, 0x03, 0xe9, 0xf5, 0xe7, 0xf3,
  0xe7, 0xe1, 0x19, 0xfe, 0xe1, 0x20, 0xef, 0x10, 0x18, 0x0c, 0x28, 0xe5,
  0xe4, 0xef, 0xea, 0x0c, 0x0a, 0xe3, 0x0d, 0x0a, 0xe2, 0xf7, 0xd2, 0x1f,
  0x06, 0x01, 0x05, 0xe6, 0xe4, 0x1d, 0x1a, 0xdc, 0xe7, 0xfa, 0x03, 0xff,
  0x02, 0xe9, 0x0c, 0xfe, 0x04, 0xf7, 0xfe, 0x0e, 0x0e, 0xf4, 0xee, 0x0c,
  0xe1, 0xc3, 0xfb, 0x01, 0x08, 0x03, 0x09, 0x21, 0xf9, 0x01, 0xe9, 0xde,
  0xe2, 0x03, 0xfb, 0xfa, 0x09, 0x04, 0x0d, 0x01, 0x05, 0x08, 0xde, 0x0d,
  0xe2, 0x03, 0xe8, 0xf2, 0xe3, 0xfb, 0xf1, 0xea, 0x03, 0x00, 0xd6, 0x0e,
  0xd6, 0xd8, 0xf8, 0xe7, 0xfa, 0xdf, 0xea, 0xfe, 0x0b, 0x0b, 0xe2, 0x07,
  0xd6, 0xe5, 0xe4, 0xd6, 0xf0, 0xf4, 0x0b, 0xcd, 0xfa, 0xd7, 0xea, 0x03,
  0xee, 0xed, 0xf1, 0xcc, 0xfd, 0xf9, 0xf2, 0xe9, 0xf4, 0xff, 0xf0, 0x07,
  0xf4, 0x05, 0xcb, 0xd6, 0xf6, 0xf1, 0x08, 0xfa, 0xdc, 0xc0, 0xe3, 0x02,
  0x08, 0x1b, 0xf1, 0xf4, 0x15, 0x04, 0x1b, 0xf9, 0xf3, 0xf1, 0x09, 0x03,
  0xfe, 0x03, 0x13, 0x09, 0xfb, 0xf3, 0xf6, 0x13, 0xec, 0xf5, 0xed, 0x00,
  0x0f, 0xe7, 0x0f, 0xde, 0xf8, 0x13, 0x14, 0xea, 0x19, 0xe8, 0xfb, 0x03,
  0xde, 0xf4, 0xf8, 0xec, 0x07, 0xf9, 0xec, 0x0e, 0xf0, 0xf3, 0xd5, 0xf9,
  0x12, 0xea, 0xfe, 0x08, 0x1a, 0x06, 0xf7, 0x08, 0xfd, 0xe6, 0xf6, 0xfe,
  0xdf, 0x0a, 0xe8, 0xfa, 0xfb, 0xf0, 0xea, 0xe4, 0xe7, 0xeb, 0xf3, 0xde,
  0x06, 0x0a, 0xdb, 0x04, 0x81, 0x93, 0xbd, 0xe0, 0xde, 0xe0, 0xec, 0xea,
  0xdb, 0xf1, 0xf7, 0xc8, 0xfb, 0xfd, 0xd7, 0xca, 0xed, 0xec, 0xd6, 0xd7,
  0xed, 0xf5, 0xfe, 0xd9, 0xd8, 0x0b, 0x01, 0xeb, 0x0d, 0xed, 0xfb, 0x07,
  0xea, 0x05, 0xed, 0x0b, 0x1a, 0xf0, 0x0d, 0x0e, 0x01, 0xfe, 0x0b, 0xf4,
  0x20, 0x0c, 0x1f, 0xf1, 0x16, 0x23, 0x28, 0x16, 0x25, 0x26, 0x02, 0x15,
  0xfc, 0x25, 0x26, 0x1f, 0x16, 0x0e, 0x0a, 0x2c, 0x2c, 0xfa, 0xfa, 0x26,
  0x1f, 0xfd, 0x07, 0x09, 0x03, 0xf7, 0x11, 0x03, 0xe3, 0xe4, 0xe8, 0x00,
  0x58, 0xf0, 0x3a, 0xf8, 0x41, 0x68, 0x20, 0xfa, 0x5d, 0x21, 0x2d, 0x48,
  0xcc, 0x5b, 0x1d, 0xd7, 0x62, 0xfb, 0x27, 0xe8, 0x2f, 0x3c, 0xd6, 0xd8,
  0x1e, 0xd3, 0xec, 0xfc, 0x52, 0x2c, 0xd5, 0x07, 0xde, 0x14, 0xdf, 0x08,
  0x51, 0xed, 0x41, 0xfa, 0x1d, 0x3d, 0xf6, 0xd5, 0xac, 0x15, 0xe9, 0x29,
  0xb0, 0xd9, 0x04, 0xbc, 0xb2, 0xb3, 0xf8, 0xe4, 0xb3, 0x07, 0xdb, 0xf6,
  0xed, 0x45, 0xec, 0x14, 0xfd, 0xd8, 0x32, 0xe4, 0xfd, 0x33, 0x27, 0x03,
  0xc0, 0xe8, 0x1c, 0x18, 0xf6, 0x33, 0xe3, 0x45, 0x0c, 0x4a, 0x2d, 0xd0,
  0x65, 0xc1, 0x09, 0x3b, 0x45, 0x05, 0x53, 0x1c, 0x4b, 0x25, 0xdb, 0x43,
  0x22, 0xe4, 0xdd, 0x60, 0x25, 0xe1, 0x5a, 0xdb, 0x03, 0xdc, 0x3d, 0xc8,
  0xb5, 0x01, 0xd7, 0x29, 0xd8, 0x37, 0xf0, 0xbd, 0xbe, 0xd2, 0xab, 0x1a,
  0xbc, 0xcd, 0xfb, 0xea, 0xf8, 0xc6, 0xb6, 0x9b, 0xaf, 0x39, 0x16, 0xc9,
  0xd3, 0x41, 0x41, 0xaf, 0x34, 0xa0, 0x02, 0xb7, 0x3a, 0x1f, 0xad, 0xa2,
  0xb4, 0x19, 0xb7, 0x1e, 0xfb, 0x07, 0x23, 0x10, 0xdd, 0xf8, 0x0f, 0xf8,
  0xac, 0x27, 0xc9, 0xd5, 0xed, 0x98, 0xf6, 0x0f, 0xe9, 0x15, 0x2c, 0xe7,
  0xd1, 0x3c, 0xd8, 0xa9, 0x00, 0xd9, 0x64, 0x2d, 0x59, 0x35, 0xd4, 0xdf,
  0x35, 0xcb, 0x3f, 0x54, 0x16, 0xc2, 0x05, 0xaf, 0x17, 0xbb, 0x59, 0x05,
  0xfb, 0x3b, 0x3a, 0x15, 0xc0, 0x48, 0xbf, 0x06, 0x63, 0xdc, 0x07, 0xa7,
  0xd9, 0xb0, 0x9f, 0xfc, 0xd5, 0x40, 0x2e, 0x0f, 0x16, 0xf5, 0xce, 0x07,
  0x46, 0xf8, 0x0a, 0x1d, 0x37, 0xb1, 0xb9, 0xd4, 0xf8, 0x03, 0xe6, 0xc1,
  0xe0, 0x29, 0x1b, 0x9e, 0xd7, 0x1b, 0xbd, 0xe2, 0x23, 0xee, 0x2d, 0x26,
  0xc4, 0xf5, 0x9e, 0xdf, 0xb5, 0x26, 0xb8, 0xad, 0xc9, 0xed, 0xa9, 0x30,
  0xf7, 0x2f, 0xd6, 0xcf, 0xe9, 0x05, 0xee, 0x0b, 0xd6, 0xcb, 0xfe, 0xce,
  0xb0, 0x3d, 0x4f, 0x0f, 0x25, 0xf3, 0xfe, 0x3b, 0xee, 0x39, 0x01, 0x0d,
  0xd5, 0x38, 0x48, 0xf2, 0xc2, 0xf7, 0x27, 0xca, 0x70, 0x05, 0x4a, 0x5d,
  0x12, 0x45, 0xb2, 0x01, 0xf1, 0x2c, 0x5c, 0xba, 0x43, 0xdb, 0x43, 0xf4,
  0x00, 0x10, 0xd1, 0x1a, 0x28, 0x4c, 0xf3, 0xe3, 0x26, 0x9c, 0xc8, 0xf0,
  0x06, 0x17, 0x12, 0xfc, 0xbe, 0xe4, 0x3c, 0xac, 0xe2, 0xff, 0xca, 0x03,
  0xbf, 0x2d, 0x20, 0xc2, 0xec, 0xc1, 0xa3, 0x03, 0x26, 0x23, 0xb5, 0x87,
  0x2c, 0x26, 0xdf, 0x1f, 0x97, 0x3c, 0xaa, 0xe2, 0x2b, 0xc6, 0x10, 0xed,
  0x30, 0x50, 0xe0, 0xf4, 0x3c, 0xa7, 0x25, 0xde, 0xd0, 0x3a, 0x4d, 0xee,
  0xe6, 0xd6, 0x01, 0x6a, 0x70, 0x71, 0x32, 0xd4, 0x6b, 0xeb, 0x19, 0x50,
  0x4b, 0x45, 0x23, 0x65, 0xe8, 0x7f, 0x6c, 0x3d, 0x1a, 0xfe, 0x2b, 0x52,
  0xe8, 0x54, 0x12, 0x0d, 0xd4, 0x44, 0xef, 0xc9, 0x50, 0x5e, 0x1d, 0xea,
  0x0c, 0x33, 0x2f, 0xfd, 0x10, 0xf6, 0xed, 0x01, 0xfb, 0xe2, 0xfa, 0xd5,
  0xe4, 0xe6, 0xd3, 0xd2, 0xe5, 0xdc, 0xd7, 0xdc, 0x0b, 0xf5, 0xe7, 0xe5,
  0xf0, 0xe7, 0xd8, 0xf9, 0xde, 0x02, 0xd5, 0xf6, 0xd5, 0xec, 0xc8, 0xdf,
  0xff, 0xe4, 0xdd, 0xf1, 0xe3, 0xcd, 0x0e, 0xe7, 0xe3, 0xe5, 0xf1, 0xf9,
  0x10, 0x0c, 0xfe, 0x05, 0xf1, 0xd5, 0xec, 0xe4, 0xe6, 0x0c, 0xdb, 0xfc,
  0xf0, 0xf5, 0xe8, 0xf1, 0xf7, 0xfa, 0xe9, 0x10, 0xf6, 0x09, 0xee, 0xdd,
  0xed, 0xf9, 0xff, 0xe7, 0xfd, 0xe8, 0xfd, 0x09, 0xf0, 0x07, 0x04, 0x08,
  0xf6, 0x09, 0xfd, 0xf0, 0xf1, 0xed, 0xf0, 0xf2, 0xda, 0xe0, 0xc9, 0xda,
  0xfd, 0xf1, 0xf9, 0xde, 0xe3, 0xd8, 0xef, 0xec, 0xf1, 0xfc, 0xde, 0xea,
  0xe3, 0xe0, 0xf5, 0xd4, 0xdf, 0xf3, 0xe4, 0xd4, 0xda, 0xdb, 0xf1, 0xe3,
  0xcf, 0xd0, 0xce, 0xe4, 0xce, 0x02, 0xec, 0xc8, 0xc5, 0xe1, 0xda, 0xef,
  0xf6, 0xf9, 0xd8, 0xe4, 0xe3, 0xf8, 0xe0, 0xd3, 0xf4, 0xd0, 0xeb, 0xcc,
  0xd4, 0xcd, 0xf8, 0x03, 0xdd, 0xd5, 0xe8, 0xec, 0xfa, 0xdc, 0xe9, 0xf2,
  0xfc, 0xeb, 0xe3, 0x00, 0x02, 0x04, 0xe8, 0xf6, 0xe8, 0xf9, 0xfb, 0xe0,
  0xdf, 0xf6, 0xf1, 0xeb, 0xf6, 0x00, 0xff, 0xd0, 0xd1, 0xf5, 0xf5, 0xe6,
  0xe9, 0x0f, 0xd3, 0xce, 0xd5, 0xe4, 0x01, 0xc5, 0xdb, 0xfe, 0xe6, 0xe8,
  0xdb, 0xdb, 0xf1, 0x07, 0xd8, 0xe4, 0xdf, 0xea, 0xe4, 0xfe, 0xd6, 0xe7,
  0xbc, 0xc2, 0xbc, 0xe4, 0xcd, 0xe0, 0xe7, 0xd8, 0xc7, 0xc8, 0xd9, 0xd6,
  0xda, 0xbd, 0xc6, 0xd5, 0xd9, 0xc9, 0xcc, 0xda, 0xd1, 0xd5, 0xcf, 0xd8,
  0xd0, 0xde, 0xdc, 0xe2, 0xce, 0xf9, 0xf0, 0xec, 0xe9, 0xec, 0xf9, 0xed,
  0xe0, 0xea, 0xe2, 0xe9, 0xf1, 0xf3, 0xef, 0x10, 0xf3, 0xfc, 0xed, 0x09,
  0x00, 0xec, 0xff, 0x1e, 0xef, 0x08, 0xf4, 0x08, 0xe1, 0xf4, 0x10, 0x0b,
  0x15, 0xe7, 0xf1, 0x10, 0xf3, 0xdc, 0xec, 0xf4, 0x03, 0xfb, 0xff, 0xef,
  0xee, 0xf7, 0xeb, 0xe7, 0xe9, 0xf8, 0xf5, 0xf2, 0x0c, 0xf1, 0x08, 0x01,
  0xf3, 0xe5, 0xe4, 0xe1, 0xf0, 0xf0, 0xec, 0x02, 0xee, 0xf3, 0xe2, 0xf0,
  0xe6, 0xf5, 0xec, 0xf2, 0xef, 0x0b, 0xfe, 0xdc, 0xe4, 0xe8, 0xed, 0xf3,
  0xf1, 0xe4, 0xfc, 0xf3, 0xf2, 0xf5, 0xf0, 0xeb, 0xfc, 0xdf, 0xf7, 0xf6,
  0x0f, 0x0d, 0x28, 0x1f, 0x38, 0x3c, 0x36, 0x3d, 0x44, 0x4d, 0x63, 0x58,
  0x5e, 0x30, 0x45, 0x50, 0x42, 0x2d, 0x44, 0x4b, 0x31, 0x55, 0x4a, 0x50,
  0x62, 0x4c, 0x56, 0x64, 0x57, 0x5d, 0x50, 0x5c, 0x61, 0x5f, 0x63, 0x66,
  0x6f, 0x6d, 0x53, 0x6a, 0x76, 0x64, 0x6a, 0x5f, 0x5f, 0x5e, 0x5b, 0x5f,
  0x5d, 0x72, 0x78, 0x71, 0x5f, 0x74, 0x7f, 0x6f, 0x6f, 0x71, 0x73, 0x71,
  0x70, 0x50, 0x53, 0x53, 0x65, 0x63, 0x52, 0x56, 0x58, 0x49, 0x44, 0x35,
  0x41, 0x3d, 0x34, 0x31, 0x2e, 0x31, 0x31, 0x27, 0xc9, 0x16, 0x3d, 0x4c,
  0xeb, 0x05, 0x2c, 0x25, 0x05, 0xef, 0x66, 0xa6, 0xb7, 0xbc, 0x24, 0xdd,
  0xf9, 0x26, 0xeb, 0x19, 0x12, 0x3a, 0x0e, 0xf0, 0x36, 0x42, 0xcc, 0xb5,
  0xf0, 0x36, 0xaf, 0xda, 0x17, 0x37, 0x00, 0x9f, 0xed, 0x24, 0x08, 0x29,
  0xf0, 0x0c, 0xf1, 0x2d, 0x10, 0xe7, 0x2a, 0xf7, 0xda, 0x26, 0xe6, 0x29,
  0x1b, 0xee, 0x25, 0xbd, 0xe8, 0x0e, 0x21, 0x20, 0x1b, 0x96, 0x43, 0xd7,
  0x0e, 0x26, 0xb6, 0x2e, 0x3c, 0xbe, 0x9b, 0x00, 0x09, 0xd3, 0x46, 0x9f,
  0x04, 0xe2, 0xcd, 0x0d, 0xf1, 0x15, 0xf8, 0x65, 0x2d, 0x42, 0x20, 0x06,
  0x33, 0x7f, 0xea, 0x4a, 0xe9, 0x1a, 0x26, 0x4f, 0xe3, 0x24, 0x01, 0xe5,
  0xdd, 0x1e, 0x00, 0xc6, 0xb8, 0x19, 0xb3, 0x06, 0x24, 0x16, 0xf6, 0x67,
  0x39, 0x14, 0xc8, 0xed, 0x02, 0x3d, 0xbd, 0xec, 0xaf, 0xc2, 0x9e, 0xfd,
  0xf8, 0x4a, 0x0e, 0x20, 0xbc, 0x9b, 0xa4, 0xe6, 0xfe, 0xbf, 0xc2, 0x3c,
  0x47, 0x93, 0xbc, 0x12, 0x19, 0x02, 0xf2, 0x31, 0xc4, 0xda, 0xae, 0x45,
  0xf8, 0xfd, 0x25, 0x23, 0xf9, 0xcf, 0xcf, 0x1e, 0xac, 0x07, 0x44, 0x4e,
  0x91, 0xbf, 0xb7, 0x2d, 0xfe, 0xd1, 0xb4, 0x42, 0xb7, 0xc6, 0xd0, 0x31,
  0xe0, 0xd5, 0x4d, 0xac, 0xf8, 0xd1, 0x48, 0x01, 0x10, 0x1f, 0x0f, 0x38,
  0x6b, 0xf2, 0xf3, 0xe4, 0x20, 0x5d, 0xff, 0xf8, 0xb3, 0xdd, 0xbd, 0x28,
  0x18, 0xad, 0x11, 0xab, 0xe1, 0x35, 0xe3, 0x2c, 0xb6, 0x8a, 0xa9, 0xf2,
  0xe2, 0xb1, 0xcd, 0xa6, 0xe5, 0x3e, 0xab, 0xe7, 0xbc, 0xbf, 0x9e, 0x0d,
  0xfe, 0x02, 0xe5, 0x00, 0xc5, 0xb7, 0xed, 0xee, 0x0b, 0xf4, 0x29, 0x1a,
  0x2d, 0x01, 0x3e, 0xf1, 0x5e, 0x58, 0x0a, 0xcf, 0x06, 0x81, 0x20, 0x85,
  0xc6, 0x1d, 0xad, 0x1b, 0xc5, 0xc8, 0x52, 0x44, 0xb2, 0x53, 0x19, 0x48,
  0x2d, 0x4e, 0xc0, 0xc4, 0x0a, 0x0b, 0x33, 0xd8, 0xb3, 0x3e, 0xcb, 0xe5,
  0xb5, 0xdb, 0xcf, 0x3b, 0xd6, 0xa6, 0xd2, 0x1f, 0x40, 0xc3, 0xa2, 0x1e,
  0x08, 0x33, 0xfd, 0x9a, 0x32, 0x98, 0x1d, 0xf1, 0xc2, 0x3d, 0x21, 0xf5,
  0x38, 0xc9, 0xba, 0xe1, 0xb3, 0x56, 0xab, 0x22, 0x03, 0x1f, 0xf4, 0xe1,
  0x4b, 0x0d, 0x3e, 0x06, 0xde, 0x18, 0x37, 0x41, 0x22, 0x41, 0x5e, 0x2e,
  0xe4, 0x09, 0xde, 0xda, 0xf0, 0xda, 0x15, 0x31, 0x53, 0x66, 0x57, 0x1f,
  0x3f, 0xb2, 0xf3, 0x14, 0x2e, 0x21, 0xe8, 0xd3, 0xcd, 0xd1, 0xbc, 0xff,
  0xca, 0xe1, 0x0b, 0x91, 0x9a, 0xbd, 0x4e, 0x20, 0x26, 0xac, 0xd1, 0xf3,
  0xbb, 0x2e, 0x0c, 0xf4, 0x15, 0x2c, 0xde, 0x07, 0xe1, 0x37, 0xc6, 0xd0,
  0x29, 0x32, 0x2a, 0xfd, 0x55, 0xf7, 0x30, 0x42, 0x4b, 0xf1, 0x5e, 0x1c,
  0x58, 0x15, 0x76, 0x7a, 0x48, 0x15, 0x0b, 0x35, 0x2f, 0x5d, 0xe3, 0x30,
  0x1b, 0x21, 0x53, 0x03, 0xe2, 0x3e, 0xde, 0xfb, 0xd1, 0x02, 0xfe, 0x22,
  0x5e, 0xea, 0xff, 0xff, 0x04, 0x00, 0x00, 0x00, 0x80, 0x00, 0x00, 0x00,
  0xa1, 0x8b, 0x01, 0x00, 0x5b, 0x4b, 0x01, 0x00, 0x2a, 0xca, 0x02, 0x00,
  0x1b, 0x84, 0x01, 0x00, 0xc6, 0xb9, 0xff, 0xff, 0xc0, 0xb1, 0xff, 0xff,
  0x13, 0x4e, 0x02, 0x00, 0xe3, 0x07, 0x00, 0x00, 0xda, 0xf3, 0xff, 0xff,
  0x78, 0x71, 0x00, 0x00, 0xda, 0xec, 0x00, 0x00, 0xff, 0xc8, 0xff, 0xff,
  0x1c, 0x0b, 0x00, 0x00, 0x68, 0x8a, 0xff, 0xff, 0x99, 0x5f, 0x00, 0x00,
  0xb8, 0x35, 0x00, 0x00, 0x14, 0x39, 0xff, 0xff, 0xe4, 0x44, 0x01, 0x00,
  0xe7, 0x12, 0x01, 0x00, 0xcb, 0x5c, 0x00, 0x00, 0x9f, 0xe7, 0xff, 0xff,
  0x9c, 0x8b, 0x00, 0x00, 0x94, 0xdf, 0x01, 0x00, 0xba, 0xd4, 0x00, 0x00,
  0x5f, 0x29, 0x01, 0x00, 0x50, 0xe1, 0xff, 0xff, 0xaf, 0x5b, 0xff, 0xff,
  0x1a, 0x25, 0x00, 0x00, 0xb7, 0x5b, 0x01, 0x00, 0x27, 0x6b, 0x01, 0x00,
  0x58, 0x1d, 0x00, 0x00, 0x63, 0xc5, 0x02, 0x00, 0xea, 0xea, 0xff, 0xff,
  0x04, 0x00, 0x00, 0x00, 0x00, 0x14, 0x00, 0x00, 0x02, 0xff, 0x07, 0xfc,
  0x00, 0xfe, 0x05, 0x02, 0x00, 0x04, 0x05, 0x01, 0xfa, 0x02, 0x0e, 0x30,
  0x02, 0xff, 0x03, 0x01, 0x03, 0x07, 0xda, 0xf8, 0xf2, 0x01, 0x00, 0x00,
  0x09, 0x06, 0x01, 0x02, 0x01, 0x02, 0x08, 0x03, 0x00, 0x00, 0x01, 0xf5,
  0xff, 0x01, 0x08, 0x00, 0xfd, 0xfd, 0x09, 0xd5, 0x05, 0x07, 0xfe, 0x03,
  0xff, 0x02, 0xd9, 0x01, 0xd1, 0x01, 0xfd, 0x05, 0xfd, 0x05, 0xff, 0x02,
  0x07, 0x0c, 0x10, 0x00, 0x00, 0x00, 0x04, 0xf4, 0xf7, 0xfd, 0xfd, 0xfe,
  0x07, 0x01, 0x06, 0x81, 0x07, 0xff, 0x06, 0x04, 0xfc, 0x09, 0xd5, 0x00,
  0xbf, 0x00, 0xf9, 0x04, 0x01, 0x04, 0xfb, 0x02, 0x01, 0xfc, 0x07, 0xfd,
  0xe6, 0x00, 0x04, 0xc7, 0xac, 0x03, 0xff, 0xfb, 0xfe, 0xfe, 0x17, 0xa9,
  0x03, 0x04, 0x02, 0xff, 0x05, 0x02, 0xe0, 0x04, 0xc2, 0x02, 0xe2, 0x00,
  0x09, 0x00, 0xfb, 0x00, 0x00, 0x00, 0x0a, 0x06, 0xfd, 0xf4, 0x07, 0x09,
  0xb6, 0x02, 0xf8, 0xd9, 0xf7, 0xfc, 0x0a, 0x00, 0xef, 0x09, 0x03, 0xf4,
  0xf8, 0xf5, 0x06, 0x08, 0x04, 0xe8, 0xaa, 0x03, 0x01, 0x06, 0xc0, 0xff,
  0x01, 0xff, 0x09, 0x02, 0xf9, 0xfe, 0x03, 0xfa, 0x03, 0x01, 0xd6, 0xfb,
  0xfe, 0x01, 0xf8, 0xbd, 0x03, 0x06, 0xff, 0x02, 0x00, 0xd8, 0xeb, 0xf8,
  0xf1, 0xfd, 0x17, 0x00, 0xfc, 0x01, 0xf3, 0xff, 0xfe, 0xfb, 0x04, 0x01,
  0x9f, 0x01, 0x03, 0xfe, 0xe8, 0x02, 0x00, 0x00, 0x05, 0x02, 0xff, 0x91,
  0x03, 0x02, 0xff, 0x01, 0xfe, 0xfe, 0x00, 0x01, 0xff, 0x03, 0x19, 0x00,
  0x00, 0x02, 0xd4, 0x04, 0xfa, 0xf8, 0x02, 0x01, 0xc8, 0x00, 0x00, 0xfc,
  0xb6, 0x01, 0x03, 0x0e, 0x01, 0xff, 0x00, 0x81, 0xfd, 0x05, 0x02, 0xff,
  0x01, 0x02, 0x00, 0x06, 0x00, 0x0d, 0x19, 0x01, 0xed, 0x00, 0xa6, 0x02,
  0xfd, 0xfd, 0x02, 0x03, 0xf9, 0x04, 0x02, 0x02, 0xc9, 0x01, 0xff, 0x0f,
  0xfe, 0x01, 0x01, 0x95, 0xfc, 0x01, 0xff, 0xfc, 0x01, 0xff, 0x01, 0x06,
  0x01, 0x0a, 0x2e, 0x00, 0xfa, 0x02, 0xac, 0x02, 0xfe, 0xfc, 0x05, 0x02,
  0xfd, 0xff, 0x00, 0xff, 0xab, 0x01, 0xfe, 0xed, 0xff, 0x03, 0x02, 0xc4,
  0x00, 0x00, 0x00, 0x02, 0x03, 0xfc, 0x02, 0x02, 0x02, 0xf8, 0xdf, 0x00,
  0x0c, 0x01, 0xcc, 0xfe, 0x07, 0x07, 0x0e, 0x06, 0x01, 0xfc, 0x00, 0x49,
  0xec, 0x05, 0x05, 0xfb, 0xfb, 0x01, 0x1d, 0xd2, 0x11, 0x01, 0xfe, 0x03,
  0x04, 0xfb, 0xcf, 0x00, 0x98, 0xfd, 0xf7, 0xfd, 0x18, 0x03, 0xf6, 0x05,
  0x04, 0x04, 0x12, 0x02, 0xdb, 0xe8, 0x06, 0xfc, 0xd4, 0x05, 0x09, 0xec,
  0x02, 0xfc, 0x0c, 0xf9, 0x12, 0x05, 0x06, 0xfd, 0xfc, 0xfe, 0xc9, 0x03,
  0x81, 0xf0, 0xd0, 0x00, 0x1e, 0x05, 0xdb, 0x04, 0x02, 0x07, 0x10, 0xfd,
  0x0a, 0xe6, 0xff, 0xe3, 0xf3, 0xfd, 0x0b, 0xe8, 0xfc, 0xef, 0xff, 0x1c,
  0xf7, 0x04, 0xff, 0xf8, 0xfd, 0xfe, 0xbd, 0x09, 0x9a, 0xed, 0xe5, 0x00,
  0x20, 0xff, 0xd7, 0x08, 0x01, 0x06, 0x14, 0xfe, 0x00, 0xf0, 0x04, 0xe6,
  0xf3, 0x01, 0xfa, 0xef, 0xf9, 0xff, 0x06, 0xe8, 0xd6, 0x05, 0x01, 0x07,
  0x00, 0xfa, 0xce, 0x02, 0xcd, 0xfa, 0xe3, 0xfe, 0x24, 0x02, 0xd4, 0x08,
  0x06, 0x02, 0x0e, 0x08, 0x03, 0xec, 0x03, 0x9d, 0xe6, 0x03, 0x03, 0xe7,
  0x01, 0xf6, 0x03, 0xcf, 0xed, 0xfc, 0x03, 0xfa, 0xfe, 0xf6, 0xe0, 0x06,
  0xd9, 0xf1, 0xe6, 0xff, 0x1a, 0x04, 0xd7, 0x01, 0x04, 0x05, 0x04, 0x03,
  0xfd, 0x0c, 0x04, 0x81, 0xed, 0xff, 0xf6, 0xf9, 0xf9, 0x01, 0xc3, 0xe8,
  0xda, 0x08, 0x02, 0x01, 0xff, 0xf7, 0xba, 0xff, 0xcd, 0x07, 0xf2, 0x01,
  0xfc, 0x03, 0xf7, 0x04, 0x03, 0x05, 0x0c, 0x04, 0xdb, 0xfd, 0x01, 0x8f,
  0xe7, 0xfe, 0xf5, 0xdf, 0xf8, 0x07, 0xbf, 0xc3, 0xdd, 0x01, 0xfe, 0x06,
  0xff, 0xf4, 0xb9, 0xfc, 0xcf, 0xf1, 0xd6, 0x02, 0x00, 0x04, 0xe6, 0xfc,
  0xff, 0x03, 0x0a, 0xfe, 0xd0, 0xfb, 0xfc, 0xca, 0x02, 0x02, 0xf2, 0xf3,
  0xfa, 0x06, 0xcc, 0xfd, 0xe5, 0x01, 0xfc, 0x04, 0x02, 0xfd, 0xd4, 0xfc,
  0xdb, 0xf4, 0xec, 0xfe, 0x04, 0xff, 0x0e, 0xfb, 0x05, 0x03, 0x01, 0x02,
  0xc5, 0x01, 0x01, 0x29, 0x06, 0x04, 0xf3, 0xfe, 0xfe, 0x02, 0xec, 0x31,
  0xff, 0xfd, 0xff, 0xfd, 0x03, 0xf7, 0xf6, 0xff, 0xf4, 0x03, 0xff, 0x04,
  0x05, 0x01, 0x0b, 0xfd, 0x03, 0x05, 0xfb, 0x03, 0xd8, 0x04, 0xfe, 0x48,
  0x09, 0x03, 0xe4, 0x08, 0xf1, 0x03, 0xf8, 0x1f, 0xe2, 0x01, 0x00, 0xfe,
  0x01, 0xf2, 0xfa, 0x03, 0xf8, 0x03, 0x0c, 0x02, 0x0c, 0xfe, 0x03, 0x00,
  0x0e, 0xfa, 0x2c, 0x07, 0xfb, 0x0c, 0x13, 0x07, 0xfc, 0xf4, 0x0d, 0x07,
  0x0e, 0x09, 0xcb, 0x16, 0xe5, 0x0c, 0xfc, 0xfd, 0xfc, 0xfd, 0xa2, 0xfa,
  0xe2, 0x08, 0x01, 0xf6, 0xab, 0x07, 0xf6, 0x12, 0x0f, 0xfd, 0x0e, 0xf8,
  0xfb, 0x00, 0x0b, 0x02, 0xfc, 0x01, 0xf5, 0x06, 0xf7, 0xf4, 0xb3, 0xc7,
  0xdf, 0xf5, 0x03, 0x09, 0x10, 0x19, 0xcb, 0x10, 0x0a, 0x00, 0x07, 0x13,
  0x9f, 0xf3, 0x00, 0xf4, 0x1a, 0x09, 0x2d, 0x10, 0x00, 0x00, 0x13, 0xeb,
  0xfe, 0xf4, 0xe5, 0xfd, 0xfb, 0x0c, 0xc2, 0x20, 0xa7, 0xfd, 0x0f, 0x04,
  0xf6, 0xee, 0xdd, 0x0c, 0xff, 0xf9, 0xf4, 0x0e, 0xaf, 0x16, 0xf4, 0xf7,
  0x00, 0x0e, 0x17, 0x04, 0xa8, 0x06, 0xfb, 0x24, 0xfd, 0x0d, 0xd8, 0x10,
  0xe5, 0x10, 0xbc, 0x52, 0x96, 0x11, 0xff, 0x0e, 0x07, 0xdd, 0x37, 0xf2,
  0xe1, 0x19, 0x01, 0x08, 0xd6, 0xf2, 0x0f, 0x03, 0x0b, 0x02, 0x09, 0x10,
  0x81, 0x05, 0xf6, 0x7f, 0x34, 0xf9, 0x99, 0x14, 0xf1, 0x16, 0xb7, 0x50,
  0xc7, 0xf6, 0x10, 0x03, 0x0e, 0xb3, 0xf4, 0xeb, 0xd7, 0x1c, 0x34, 0x00,
  0x29, 0x03, 0x20, 0xec, 0x0a, 0x25, 0x1a, 0xfe, 0x06, 0xe8, 0x1f, 0x12,
  0x00, 0x23, 0x18, 0xf9, 0x10, 0x09, 0xfc, 0xfe, 0x16, 0xe7, 0x13, 0x1b,
  0x05, 0x21, 0xec, 0xf4, 0xfa, 0xe5, 0xf9, 0x13, 0xb1, 0x0f, 0xf6, 0x0a,
  0x00, 0x1b, 0x3e, 0xec, 0x07, 0x09, 0xff, 0x0d, 0xf6, 0x1c, 0x00, 0x14,
  0xfb, 0xf4, 0x18, 0x37, 0xf4, 0x02, 0x0c, 0xf7, 0x06, 0x03, 0xf9, 0xf7,
  0xfd, 0x12, 0xf0, 0x04, 0x81, 0x13, 0xf9, 0x25, 0x25, 0x09, 0x43, 0x1e,
  0xfb, 0xfc, 0x2a, 0xe7, 0x08, 0x21, 0xea, 0x11, 0x13, 0x1b, 0x02, 0x0b,
  0xf1, 0x1f, 0xfa, 0x00, 0x24, 0x05, 0x04, 0x23, 0x05, 0x09, 0xfa, 0xfb,
  0xad, 0x1c, 0xf2, 0x1b, 0x22, 0x13, 0x27, 0x10, 0xf0, 0x0c, 0x1f, 0xd1,
  0x05, 0xf8, 0x05, 0x0a, 0x06, 0xfd, 0x00, 0x16, 0xf9, 0x09, 0x11, 0x19,
  0x02, 0xfe, 0x05, 0xfc, 0x19, 0x06, 0xef, 0x0d, 0xf4, 0x23, 0x10, 0x0a,
  0x04, 0x29, 0x46, 0x0a, 0xe5, 0x18, 0x03, 0x0a, 0x1e, 0x0f, 0xed, 0x12,
  0xe1, 0x1d, 0xdc, 0x25, 0xec, 0x36, 0x28, 0xfd, 0x2b, 0xd8, 0x36, 0x02,
  0x3f, 0x1a, 0x0a, 0x28, 0x65, 0x24, 0x02, 0x1d, 0x09, 0x06, 0x0a, 0xff,
  0xff, 0x04, 0xff, 0xed, 0xfe, 0xfb, 0xfc, 0x03, 0xf8, 0x0c, 0xb9, 0xdb,
  0xd2, 0x0e, 0x0d, 0x07, 0x0c, 0xf9, 0x85, 0x09, 0xa5, 0xff, 0xfe, 0x0c,
  0xe5, 0xf5, 0xfe, 0x04, 0x09, 0x13, 0x1f, 0xfb, 0x18, 0xf9, 0x0d, 0xd0,
  0xdb, 0xff, 0xf4, 0xf3, 0x09, 0xfd, 0xc6, 0xd8, 0xda, 0xff, 0x06, 0x0a,
  0x02, 0xf8, 0xe2, 0x07, 0xfe, 0xf7, 0xe2, 0xf9, 0xd8, 0x02, 0xee, 0x0c,
  0x14, 0x03, 0x1d, 0x0c, 0xd6, 0xf6, 0xfe, 0xc5, 0x09, 0x0a, 0xfb, 0xfd,
  0xf0, 0x03, 0xbe, 0x47, 0xc1, 0xfc, 0xfb, 0xfd, 0x01, 0xf5, 0x01, 0xf9,
  0xfa, 0xfe, 0xf0, 0x0b, 0xea, 0x08, 0x11, 0x0b, 0xfb, 0x0e, 0x1d, 0xff,
  0x81, 0x08, 0xfc, 0xff, 0x1e, 0xf8, 0xed, 0x05, 0xf2, 0xf8, 0xe6, 0x44,
  0x03, 0x0d, 0xfb, 0x00, 0x0d, 0xf0, 0x12, 0xf6, 0x0b, 0x07, 0x0f, 0xfc,
  0xfb, 0x0a, 0x1a, 0x04, 0x0a, 0xfc, 0x0f, 0xf9, 0x9f, 0x16, 0xf9, 0x18,
  0x2a, 0x06, 0xf2, 0x24, 0x03, 0x04, 0x00, 0x23, 0xf2, 0x0c, 0xf4, 0x11,
  0x0c, 0xec, 0x17, 0xf7, 0x01, 0x1f, 0x1d, 0x0d, 0x17, 0xfc, 0x2b, 0x0a,
  0x1b, 0x1c, 0x25, 0xff, 0x03, 0xf6, 0x12, 0x0f, 0xf5, 0xf8, 0x10, 0xf7,
  0x0f, 0xee, 0xe7, 0xfb, 0x0f, 0x16, 0xf3, 0x00, 0xf8, 0x08, 0xe6, 0x00,
  0xef, 0x04, 0xe1, 0x14, 0xb7, 0x12, 0x02, 0x19, 0xfe, 0x21, 0x39, 0x0d,
  0xfc, 0x12, 0x04, 0x15, 0x05, 0xf8, 0x09, 0x0b, 0x1b, 0xf8, 0xfb, 0x0f,
  0xe1, 0x09, 0x05, 0x09, 0x04, 0x24, 0xe3, 0xfb, 0xe1, 0x0c, 0xf6, 0x14,
  0xbe, 0x18, 0x05, 0x0f, 0x28, 0x02, 0x2d, 0x1b, 0xfb, 0x16, 0x0a, 0xe6,
  0x00, 0x09, 0x0b, 0xf7, 0xe3, 0x0d, 0xf3, 0x0b, 0xce, 0x07, 0x14, 0x17,
  0x1e, 0xf5, 0x06, 0xf1, 0x06, 0xf7, 0x03, 0xf6, 0x9e, 0x0e, 0xf3, 0x13,
  0x19, 0x1b, 0x2a, 0x0d, 0xe9, 0x08, 0x15, 0xf2, 0x04, 0x21, 0xe5, 0x02,
  0xfb, 0x04, 0xd8, 0x16, 0xcf, 0x23, 0x1f, 0x03, 0x1b, 0xec, 0x19, 0xf2,
  0x11, 0x0e, 0x03, 0xf8, 0xfc, 0x1a, 0x0c, 0x14, 0x16, 0x04, 0x55, 0x18,
  0xe5, 0x15, 0x0e, 0x0c, 0x15, 0x0c, 0xbd, 0x19, 0xed, 0x2d, 0xc1, 0x3b,
  0xa0, 0x19, 0x23, 0x15, 0xff, 0xba, 0x44, 0x10, 0x39, 0x0a, 0x1a, 0x08,
  0x7f, 0x0c, 0x22, 0x0c, 0x10, 0x05, 0xf9, 0xff, 0xff, 0xff, 0x05, 0x02,
  0xfd, 0x06, 0xda, 0xfd, 0xf4, 0x06, 0xae, 0xf3, 0xe0, 0xfe, 0x07, 0x01,
  0x02, 0xea, 0xf5, 0xf9, 0x09, 0xfe, 0xfd, 0x01, 0x1e, 0x03, 0xfd, 0xfe,
  0x00, 0xff, 0xf7, 0x02, 0xff, 0x03, 0x08, 0xf9, 0xff, 0x06, 0xaf, 0xff,
  0xbd, 0x07, 0xda, 0x00, 0xe3, 0x06, 0x07, 0x04, 0x07, 0xd9, 0x11, 0xf0,
  0x08, 0x00, 0xfd, 0x08, 0x29, 0x07, 0xff, 0x05, 0x0a, 0x04, 0xfc, 0x03,
  0xff, 0x03, 0x0b, 0xd7, 0xff, 0x09, 0x81, 0x00, 0x9c, 0x06, 0xdd, 0xf5,
  0xdd, 0x05, 0x08, 0x05, 0x05, 0xa8, 0x0e, 0xf0, 0x16, 0x02, 0x00, 0x05,
  0x01, 0x0a, 0xff, 0x04, 0x0a, 0x02, 0x00, 0x05, 0xf2, 0x06, 0x05, 0xf8,
  0x03, 0x0a, 0x8d, 0x03, 0xdb, 0x06, 0xc1, 0xb9, 0x50, 0x08, 0x00, 0x04,
  0x07, 0xad, 0xfb, 0x01, 0xf3, 0x05, 0x03, 0x05, 0xef, 0x0c, 0x00, 0xfb,
  0x04, 0x03, 0xfc, 0x08, 0xd1, 0x0e, 0xfe, 0xbd, 0xf6, 0x0a, 0x08, 0x08,
  0x07, 0x0c, 0xc8, 0x1c, 0x4f, 0x08, 0x00, 0x07, 0x0c, 0x2e, 0x8c, 0x20,
  0x83, 0x0c, 0x00, 0x0b, 0xdc, 0x0b, 0x05, 0x07, 0x05, 0x04, 0x07, 0x03,
  0xff, 0x01, 0x05, 0xf4, 0xfe, 0x03, 0x9b, 0xff, 0xd5, 0x03, 0xb3, 0xfb,
  0xcb, 0x03, 0x02, 0x03, 0x05, 0xbc, 0xe4, 0xf8, 0xe7, 0x00, 0xfd, 0x03,
  0x0a, 0x05, 0xfe, 0x03, 0xff, 0x00, 0x05, 0x04, 0xff, 0x00, 0x05, 0xf4,
  0x00, 0x04, 0x8b, 0xff, 0xf6, 0x03, 0xd3, 0xfd, 0x03, 0x02, 0x03, 0x03,
  0x01, 0xb6, 0xf6, 0xf2, 0xef, 0x00, 0x00, 0x01, 0xeb, 0x03, 0x00, 0x04,
  0x03, 0x01, 0xfb, 0x02, 0xfe, 0x03, 0x05, 0xf7, 0x05, 0x03, 0xf5, 0x02,
  0x02, 0x01, 0x3e, 0xa7, 0x21, 0x03, 0x03, 0x00, 0x00, 0xef, 0xd1, 0xfe,
  0xc2, 0x03, 0x04, 0x03, 0xe5, 0x04, 0x03, 0x03, 0x05, 0xfd, 0xf9, 0x01,
  0xd1, 0x09, 0x02, 0xe0, 0xee, 0x04, 0x1f, 0x08, 0x02, 0x05, 0x25, 0x81,
  0x02, 0x0a, 0x03, 0x03, 0x02, 0x18, 0xc8, 0x0c, 0xb7, 0x0a, 0x14, 0x06,
  0xed, 0x03, 0xfd, 0x02, 0x0b, 0x02, 0xfb, 0x01, 0xab, 0x05, 0x00, 0xab,
  0xc7, 0x04, 0x04, 0xf7, 0x01, 0x06, 0x20, 0x8f, 0xf0, 0xff, 0xfe, 0xfb,
  0x01, 0xff, 0xd8, 0x10, 0xd3, 0x08, 0x07, 0x03, 0xf0, 0x02, 0xd2, 0xff,
  0x08, 0x0c, 0x13, 0x07, 0xff, 0x01, 0xfe, 0xf3, 0xff, 0x05, 0xff, 0xff,
  0xf6, 0xfe, 0x0b, 0xf7, 0x07, 0x08, 0x08, 0x03, 0xfd, 0xef, 0xec, 0x04,
  0xda, 0xfd, 0xff, 0x02, 0x24, 0xff, 0x01, 0x04, 0x0a, 0x08, 0x0f, 0xff,
  0xff, 0x03, 0x04, 0x0a, 0xfc, 0xfd, 0xff, 0x01, 0x06, 0x04, 0x02, 0x81,
  0x02, 0x06, 0xfe, 0x06, 0x02, 0xff, 0xe2, 0xfe, 0xc7, 0xff, 0xfd, 0x01,
  0x21, 0x04, 0xff, 0x02, 0x0d, 0x05, 0x13, 0x02, 0xda, 0xfb, 0x07, 0xce,
  0xb1, 0x03, 0x0b, 0xfc, 0x0d, 0x02, 0x15, 0xb8, 0x0a, 0x01, 0x02, 0x04,
  0x06, 0xfb, 0xd9, 0x02, 0xaa, 0x02, 0xd4, 0xfd, 0x1f, 0xfe, 0xf1, 0x02,
  0x0b, 0x05, 0x0e, 0x04, 0x23, 0xe4, 0x07, 0xc1, 0xd7, 0x04, 0x0d, 0xd0,
  0xf6, 0xf3, 0x1a, 0xf4, 0xeb, 0x01, 0x03, 0xf5, 0xfe, 0x0f, 0xce, 0x02,
  0xb0, 0xe2, 0xc2, 0xfa, 0x18, 0x06, 0xc5, 0x02, 0x01, 0x07, 0x0e, 0x01,
  0xfd, 0xe9, 0xff, 0x10, 0xdc, 0xff, 0xf4, 0xda, 0x02, 0xfc, 0x03, 0xae,
  0xee, 0x01, 0x01, 0xfe, 0xfc, 0xf8, 0x06, 0x09, 0xff, 0xf2, 0xdc, 0xfe,
  0x14, 0x00, 0xbc, 0x02, 0x1e, 0x04, 0x1c, 0x06, 0x0d, 0xdf, 0x20, 0x26,
  0xdd, 0xf2, 0xf8, 0xeb, 0x25, 0xea, 0xfc, 0x0f, 0x12, 0x1a, 0x04, 0x18,
  0x01, 0x1f, 0x00, 0xf7, 0xe8, 0x06, 0xea, 0x17, 0x92, 0xf0, 0xe8, 0x03,
  0x0a, 0x1c, 0x56, 0xfe, 0x08, 0x18, 0x03, 0x24, 0xfb, 0x23, 0x19, 0x00,
  0xfe, 0x10, 0xf3, 0x0f, 0xe6, 0x16, 0x0b, 0xf6, 0x06, 0x22, 0xf5, 0xf8,
  0xf7, 0xec, 0xfc, 0x1f, 0x81, 0x18, 0x01, 0x2a, 0x2b, 0x0c, 0x30, 0xff,
  0xf5, 0x17, 0x17, 0xee, 0x0e, 0xf3, 0x07, 0xf6, 0x17, 0x03, 0xf9, 0xfb,
  0x03, 0x0e, 0x16, 0x19, 0x07, 0x04, 0xfd, 0x06, 0xff, 0x1a, 0xfb, 0xff,
  0x9a, 0x16, 0x02, 0x03, 0x18, 0xfd, 0x42, 0x20, 0xf0, 0x0d, 0x16, 0xdc,
  0x07, 0x29, 0xe0, 0x0b, 0xed, 0x01, 0xf5, 0x27, 0xf6, 0x19, 0x14, 0x12,
  0x20, 0xe3, 0x16, 0x15, 0x29, 0x00, 0x0b, 0x0f, 0xfe, 0x10, 0xf5, 0xfa,
  0x11, 0x11, 0x48, 0x20, 0xe3, 0x09, 0x2c, 0x06, 0x0c, 0x19, 0xf2, 0x09,
  0xe6, 0x26, 0x02, 0x40, 0xd5, 0x14, 0x04, 0x15, 0x26, 0xd2, 0x3a, 0x17,
  0x29, 0x03, 0x1c, 0x15, 0x73, 0x2f, 0x1b, 0x30, 0x2f, 0x21, 0x38, 0x01,
  0x05, 0xf0, 0x05, 0x12, 0xf8, 0x0c, 0x18, 0xee, 0x0a, 0xf7, 0xf3, 0xf2,
  0xf1, 0x0e, 0x0f, 0xf2, 0x10, 0xf9, 0xf3, 0x00, 0xfb, 0xed, 0xf3, 0x0c,
  0xb1, 0x04, 0x0f, 0x01, 0x2b, 0x20, 0x22, 0x1c, 0xfe, 0xfe, 0x23, 0x04,
  0x12, 0x22, 0x18, 0xf3, 0x19, 0x11, 0xed, 0x0a, 0xfb, 0x1e, 0xfe, 0xf2,
  0x16, 0x10, 0xff, 0x23, 0xf2, 0x07, 0xf6, 0x1d, 0xb1, 0x1d, 0x03, 0xf8,
  0x04, 0x04, 0x40, 0x01, 0xfb, 0x14, 0x0c, 0xef, 0xf3, 0xf8, 0x06, 0x0d,
  0xfa, 0x18, 0xec, 0x01, 0xf3, 0x19, 0x24, 0x1b, 0xfb, 0x15, 0xff, 0x15,
  0x02, 0x02, 0xfb, 0x12, 0xac, 0x21, 0x07, 0xf7, 0x10, 0x0e, 0x31, 0xfe,
  0xe9, 0x09, 0x23, 0xef, 0x0b, 0x1b, 0xdf, 0x09, 0xd7, 0x1b, 0xdf, 0x0e,
  0xc6, 0x02, 0x02, 0xfd, 0xf3, 0xe0, 0x19, 0x0c, 0x2a, 0x14, 0x10, 0xff,
  0xe2, 0x02, 0x02, 0x1c, 0x2b, 0x15, 0x56, 0x11, 0xe4, 0x20, 0x12, 0xed,
  0x19, 0x0a, 0xce, 0x12, 0xfc, 0x03, 0xd6, 0x26, 0xdc, 0x25, 0x0e, 0x2c,
  0x24, 0xc9, 0x5d, 0xf6, 0x2b, 0x17, 0x08, 0x1f, 0x7f, 0x16, 0x17, 0x16,
  0xfc, 0xfd, 0x02, 0x03, 0x00, 0x00, 0x02, 0x00, 0x00, 0xfd, 0x06, 0x01,
  0x04, 0xfd, 0x1d, 0xff, 0x03, 0x04, 0xfe, 0x01, 0xfd, 0x0c, 0xcb, 0xfe,
  0xea, 0x01, 0x01, 0x01, 0x0f, 0x00, 0x02, 0x04, 0x02, 0x07, 0x07, 0x03,
  0x00, 0x01, 0x05, 0xf4, 0xfd, 0xff, 0x09, 0x00, 0xf9, 0xff, 0x11, 0xde,
  0x03, 0xff, 0x06, 0x00, 0x06, 0x02, 0xca, 0xfe, 0xcd, 0xff, 0xfe, 0x06,
  0xfe, 0xfe, 0xfd, 0x01, 0x06, 0x01, 0x0c, 0x06, 0x00, 0x04, 0x06, 0x05,
  0xf9, 0xfe, 0x02, 0x00, 0xf8, 0x05, 0x05, 0x81, 0xfb, 0x04, 0xfb, 0x03,
  0x04, 0x01, 0xda, 0x01, 0xd6, 0x00, 0xfc, 0xfe, 0x00, 0x02, 0xfc, 0xfb,
  0x05, 0x04, 0x05, 0x02, 0xdd, 0x05, 0xfe, 0xb3, 0xb4, 0x02, 0x01, 0x08,
  0xfa, 0x08, 0x0f, 0xbc, 0xfe, 0x05, 0x02, 0x04, 0xff, 0xff, 0xcf, 0xfd,
  0xcd, 0x08, 0xee, 0x04, 0x0a, 0x01, 0xf7, 0x02, 0x06, 0x03, 0x09, 0xfd,
  0xfa, 0xf9, 0xff, 0xae, 0xc1, 0x03, 0xfc, 0xe8, 0xf2, 0xff, 0x18, 0xd6,
  0xdb, 0x04, 0x00, 0xf9, 0xfd, 0xff, 0xe7, 0x06, 0xe6, 0xf9, 0xc5, 0xff,
  0x16, 0x01, 0xca, 0x03, 0x17, 0x0a, 0x19, 0x09, 0xfd, 0x03, 0x09, 0xe6,
  0x04, 0x0a, 0x06, 0x06, 0x03, 0x08, 0xae, 0x04, 0xdd, 0x05, 0x0b, 0x0b,
  0x0c, 0x03, 0x8b, 0xfd, 0xcb, 0xfc, 0x03, 0xfb, 0xce, 0xfb, 0x06, 0xfb,
  0x01, 0x0c, 0x17, 0x0a, 0x01, 0xf9, 0xfb, 0xdb, 0xfd, 0x01, 0xfd, 0xf3,
  0xf9, 0x09, 0x9e, 0xc4, 0xca, 0x09, 0x02, 0x0b, 0x06, 0x0b, 0x81, 0xf9,
  0xe4, 0x03, 0xfb, 0x0b, 0xde, 0xf9, 0xf0, 0x07, 0x11, 0x11, 0x11, 0xf8,
  0x03, 0x06, 0x01, 0xd5, 0xf4, 0xfa, 0xe3, 0x01, 0xf3, 0xfc, 0xad, 0x08,
  0xc5, 0x0a, 0xfe, 0xfe, 0xf8, 0xfc, 0xdc, 0xf9, 0xeb, 0x0d, 0xfc, 0xf6,
  0xf7, 0xfa, 0x05, 0xf4, 0x07, 0xfa, 0x1e, 0x0a, 0xbc, 0xfe, 0xf5, 0xe9,
  0x06, 0xfa, 0xce, 0x0f, 0xe7, 0x0e, 0xac, 0x39, 0xc6, 0x0f, 0xfa, 0x05,
  0xf6, 0xd0, 0xf8, 0xff, 0xf6, 0x06, 0xf7, 0x00, 0xf9, 0xf7, 0x02, 0x0a,
  0xff, 0x0d, 0x00, 0x03, 0xa4, 0x18, 0xf8, 0x6b, 0x1e, 0x02, 0x99, 0x18,
  0xd9, 0x08, 0x9e, 0x50, 0xb1, 0xfa, 0x06, 0x00, 0x05, 0xb7, 0xcf, 0xf5,
  0xca, 0x0e, 0x1b, 0x0f, 0x1c, 0x08, 0x18, 0x00, 0x06, 0xfd, 0x08, 0x03,
  0x00, 0x05, 0x01, 0xfd, 0xfe, 0x04, 0xf2, 0xfe, 0x03, 0x03, 0x0d, 0xba,
  0x01, 0xfd, 0xff, 0x00, 0x01, 0xf8, 0xf9, 0xfe, 0xf7, 0x01, 0xf7, 0x03,
  0xfd, 0x01, 0xfb, 0xfe, 0x0d, 0xfa, 0x01, 0x00, 0xf7, 0x08, 0x04, 0x03,
  0xd1, 0x01, 0x00, 0xff, 0x04, 0x08, 0x0f, 0x96, 0x01, 0x00, 0x02, 0x06,
  0x06, 0x00, 0xe8, 0xff, 0xe6, 0x0c, 0xf8, 0x04, 0xfd, 0x03, 0xf3, 0x02,
  0x05, 0xfc, 0xfb, 0xfe, 0xfa, 0xe8, 0xff, 0xdc, 0xa9, 0x05, 0x08, 0xdc,
  0x00, 0xfc, 0x0e, 0x81, 0x03, 0xff, 0xff, 0xfe, 0xff, 0x09, 0xe7, 0x00,
  0xe4, 0xe2, 0xcd, 0x03, 0x00, 0x05, 0xc5, 0x00, 0x03, 0xfe, 0x01, 0x00,
  0x04, 0xe1, 0x03, 0xfd, 0xb7, 0x00, 0xff, 0xcb, 0x03, 0xf9, 0xfd, 0xa1,
  0xff, 0x00, 0x02, 0xf3, 0x03, 0x01, 0xff, 0x07, 0xfd, 0xc5, 0x93, 0x01,
  0xfa, 0x02, 0xc2, 0xff, 0x07, 0xfc, 0x03, 0xfe, 0x01, 0xd6, 0x04, 0x06,
  0xc8, 0x02, 0xff, 0xc7, 0x03, 0xf2, 0x02, 0xa0, 0xfc, 0x01, 0xff, 0xf5,
  0x02, 0x00, 0x01, 0xfe, 0x00, 0xbe, 0xa7, 0xfe, 0xea, 0xff, 0xca, 0xfc,
  0xf9, 0x0f, 0x06, 0x08, 0xfa, 0xe8, 0x0f, 0xaa, 0xc5, 0x0d, 0xf4, 0x81,
  0xfe, 0xe4, 0xf8, 0xc1, 0xda, 0x05, 0x13, 0xec, 0x06, 0x03, 0x09, 0x13,
  0x0d, 0x9e, 0x89, 0x13, 0xe1, 0x11, 0xa2, 0x05, 0x05, 0x19, 0x1c, 0x09,
  0xe5, 0x0f, 0x0f, 0xe7, 0x15, 0xfd, 0xf9, 0x02, 0x07, 0x19, 0x0b, 0xf0,
  0xed, 0xfb, 0xf9, 0x11, 0x0d, 0xfb, 0x13, 0xfb, 0x04, 0x18, 0xfd, 0x0c,
  0xee, 0xf8, 0x0f, 0x03, 0x06, 0xf9, 0x07, 0x0a, 0xad, 0x05, 0x06, 0xf5,
