// Auto-generated by export_tflite.py — do not edit
// Model size: 13768 bytes (13.4 KB)
// SHA256 prefix: ddca3fda51a1b1f1
// Exported: 2026-03-20T15:26:11Z

#ifndef FRAME_ONSET_MODEL_DATA_V7_H
#define FRAME_ONSET_MODEL_DATA_V7_H

#define FRAME_ONSET_MODEL_DATA_V7_HASH "ddca3fda51a1b1f1"
#define FRAME_ONSET_MODEL_DATA_SIZE 13768

alignas(8) static const unsigned char frame_onset_model_data[] = {
  0x1c, 0x00, 0x00, 0x00, 0x54, 0x46, 0x4c, 0x33, 0x14, 0x00, 0x20, 0x00,
  0x1c, 0x00, 0x18, 0x00, 0x14, 0x00, 0x10, 0x00, 0x0c, 0x00, 0x00, 0x00,
  0x08, 0x00, 0x04, 0x00, 0x14, 0x00, 0x00, 0x00, 0x1c, 0x00, 0x00, 0x00,
  0x88, 0x00, 0x00, 0x00, 0xe0, 0x00, 0x00, 0x00, 0x0c, 0x1f, 0x00, 0x00,
  0x1c, 0x1f, 0x00, 0x00, 0x1c, 0x35, 0x00, 0x00, 0x03, 0x00, 0x00, 0x00,
  0x01, 0x00, 0x00, 0x00, 0x04, 0x00, 0x00, 0x00, 0xf2, 0xde, 0xff, 0xff,
  0x0c, 0x00, 0x00, 0x00, 0x1c, 0x00, 0x00, 0x00, 0x3c, 0x00, 0x00, 0x00,
  0x0f, 0x00, 0x00, 0x00, 0x73, 0x65, 0x72, 0x76, 0x69, 0x6e, 0x67, 0x5f,
  0x64, 0x65, 0x66, 0x61, 0x75, 0x6c, 0x74, 0x00, 0x01, 0x00, 0x00, 0x00,
  0x04, 0x00, 0x00, 0x00, 0x94, 0xff, 0xff, 0xff, 0x17, 0x00, 0x00, 0x00,
  0x04, 0x00, 0x00, 0x00, 0x0b, 0x00, 0x00, 0x00, 0x6f, 0x75, 0x74, 0x70,
  0x75, 0x74, 0x5f, 0x63, 0x6f, 0x6e, 0x76, 0x00, 0x01, 0x00, 0x00, 0x00,
  0x04, 0x00, 0x00, 0x00, 0x8e, 0xe1, 0xff, 0xff, 0x04, 0x00, 0x00, 0x00,
  0x09, 0x00, 0x00, 0x00, 0x6d, 0x65, 0x6c, 0x5f, 0x69, 0x6e, 0x70, 0x75,
  0x74, 0x00, 0x00, 0x00, 0x02, 0x00, 0x00, 0x00, 0x34, 0x00, 0x00, 0x00,
  0x04, 0x00, 0x00, 0x00, 0xdc, 0xff, 0xff, 0xff, 0x1a, 0x00, 0x00, 0x00,
  0x04, 0x00, 0x00, 0x00, 0x13, 0x00, 0x00, 0x00, 0x43, 0x4f, 0x4e, 0x56,
  0x45, 0x52, 0x53, 0x49, 0x4f, 0x4e, 0x5f, 0x4d, 0x45, 0x54, 0x41, 0x44,
  0x41, 0x54, 0x41, 0x00, 0x08, 0x00, 0x0c, 0x00, 0x08, 0x00, 0x04, 0x00,
  0x08, 0x00, 0x00, 0x00, 0x19, 0x00, 0x00, 0x00, 0x04, 0x00, 0x00, 0x00,
  0x13, 0x00, 0x00, 0x00, 0x6d, 0x69, 0x6e, 0x5f, 0x72, 0x75, 0x6e, 0x74,
  0x69, 0x6d, 0x65, 0x5f, 0x76, 0x65, 0x72, 0x73, 0x69, 0x6f, 0x6e, 0x00,
  0x1b, 0x00, 0x00, 0x00, 0x28, 0x1e, 0x00, 0x00, 0x20, 0x1e, 0x00, 0x00,
  0xf8, 0x1d, 0x00, 0x00, 0xdc, 0x1d, 0x00, 0x00, 0xc0, 0x1d, 0x00, 0x00,
  0xa4, 0x1d, 0x00, 0x00, 0x88, 0x1d, 0x00, 0x00, 0x74, 0x1d, 0x00, 0x00,
  0x44, 0x1d, 0x00, 0x00, 0xb4, 0x1c, 0x00, 0x00, 0xa4, 0x0d, 0x00, 0x00,
  0x34, 0x0d, 0x00, 0x00, 0xf4, 0x00, 0x00, 0x00, 0xec, 0x00, 0x00, 0x00,
  0xe4, 0x00, 0x00, 0x00, 0xdc, 0x00, 0x00, 0x00, 0xd4, 0x00, 0x00, 0x00,
  0xcc, 0x00, 0x00, 0x00, 0xc4, 0x00, 0x00, 0x00, 0xbc, 0x00, 0x00, 0x00,
  0xb4, 0x00, 0x00, 0x00, 0xac, 0x00, 0x00, 0x00, 0xa4, 0x00, 0x00, 0x00,
  0x9c, 0x00, 0x00, 0x00, 0x94, 0x00, 0x00, 0x00, 0x74, 0x00, 0x00, 0x00,
  0x04, 0x00, 0x00, 0x00, 0x72, 0xe2, 0xff, 0xff, 0x04, 0x00, 0x00, 0x00,
  0x60, 0x00, 0x00, 0x00, 0x0c, 0x00, 0x00, 0x00, 0x08, 0x00, 0x0e, 0x00,
  0x08, 0x00, 0x04, 0x00, 0x08, 0x00, 0x00, 0x00, 0x10, 0x00, 0x00, 0x00,
  0x28, 0x00, 0x00, 0x00, 0x00, 0x00, 0x06, 0x00, 0x08, 0x00, 0x04, 0x00,
  0x06, 0x00, 0x00, 0x00, 0x04, 0x00, 0x00, 0x00, 0x01, 0x00, 0x00, 0x00,
  0xeb, 0x03, 0x00, 0x00, 0x0c, 0x00, 0x18, 0x00, 0x14, 0x00, 0x10, 0x00,
  0x0c, 0x00, 0x04, 0x00, 0x0c, 0x00, 0x00, 0x00, 0xc9, 0x83, 0xb9, 0xc2,
  0xac, 0xe7, 0xa1, 0xe7, 0x02, 0x00, 0x00, 0x00, 0x02, 0x00, 0x00, 0x00,
  0x04, 0x00, 0x00, 0x00, 0x06, 0x00, 0x00, 0x00, 0x32, 0x2e, 0x32, 0x30,
  0x2e, 0x30, 0x00, 0x00, 0xde, 0xe2, 0xff, 0xff, 0x04, 0x00, 0x00, 0x00,
  0x10, 0x00, 0x00, 0x00, 0x31, 0x2e, 0x31, 0x34, 0x2e, 0x30, 0x00, 0x00,
  0x00, 0x00, 0x00, 0x00, 0x00, 0x00, 0x00, 0x00, 0x7c, 0xcd, 0xff, 0xff,
  0x80, 0xcd, 0xff, 0xff, 0x84, 0xcd, 0xff, 0xff, 0x88, 0xcd, 0xff, 0xff,
  0x8c, 0xcd, 0xff, 0xff, 0x90, 0xcd, 0xff, 0xff, 0x94, 0xcd, 0xff, 0xff,
  0x98, 0xcd, 0xff, 0xff, 0x9c, 0xcd, 0xff, 0xff, 0xa0, 0xcd, 0xff, 0xff,
  0xa4, 0xcd, 0xff, 0xff, 0xa8, 0xcd, 0xff, 0xff, 0x2a, 0xe3, 0xff, 0xff,
  0x04, 0x00, 0x00, 0x00, 0x30, 0x0c, 0x00, 0x00, 0xf4, 0x02, 0xfe, 0x0c,
  0xfc, 0xfd, 0xfe, 0x09, 0x04, 0x04, 0x06, 0xff, 0x06, 0x07, 0xf9, 0xfc,
  0x02, 0xf7, 0xf6, 0x0d, 0xf6, 0xfd, 0xfa, 0xfc, 0xfb, 0xf6, 0xf2, 0xff,
  0xfe, 0xff, 0x06, 0x0a, 0xfb, 0x09, 0x09, 0x13, 0x0a, 0x05, 0x09, 0x01,
  0x0e, 0x09, 0x0c, 0x0b, 0x07, 0x03, 0x15, 0x04, 0xf8, 0x01, 0x03, 0x05,
  0x93, 0xc1, 0xde, 0xe7, 0xe2, 0xe1, 0xe8, 0xe9, 0xf2, 0xec, 0xe7, 0xed,
  0xf4, 0xec, 0xf3, 0xf7, 0xfa, 0xf6, 0xf2, 0xd4, 0x06, 0xe6, 0xf9, 0xff,
  0xf2, 0xf6, 0xef, 0xf6, 0xfe, 0xdf, 0xf2, 0xe0, 0xff, 0xe5, 0xf7, 0xef,
  0xfc, 0xf8, 0xf6, 0xfa, 0x02, 0xf5, 0x11, 0xef, 0x14, 0xd0, 0x34, 0xe6,
  0x11, 0x04, 0xdb, 0x09, 0x7f, 0x3b, 0x21, 0x24, 0x20, 0x2c, 0x17, 0x1c,
  0x0a, 0x0e, 0x0d, 0x13, 0x07, 0x0f, 0x07, 0x0c, 0xef, 0x11, 0x05, 0x29,
  0xe2, 0x21, 0x0b, 0x0a, 0x1e, 0x15, 0xff, 0x03, 0xfa, 0x03, 0x08, 0x05,
  0x02, 0x05, 0x02, 0x05, 0xfd, 0x06, 0x00, 0x03, 0xfa, 0xff, 0xfb, 0x04,
  0xf8, 0xfd, 0x03, 0xf3, 0xf9, 0xf9, 0xf8, 0xeb, 0xf9, 0xf4, 0xf3, 0xfd,
  0x03, 0x03, 0x02, 0x02, 0x07, 0x00, 0x03, 0xfc, 0x04, 0xfe, 0xfc, 0xfb,
  0x00, 0xf3, 0x00, 0xfc, 0xf4, 0xf1, 0xf8, 0xea, 0xed, 0xe7, 0xf0, 0xed,
  0xe8, 0xf3, 0x07, 0x03, 0x03, 0x01, 0x07, 0x08, 0x08, 0xfb, 0xfe, 0xfd,
  0x00, 0xfe, 0xf5, 0xf0, 0xf5, 0xea, 0xe8, 0xe4, 0xd8, 0xcf, 0xea, 0xc8,
  0xf3, 0xf2, 0xf4, 0xff, 0x02, 0x09, 0x0c, 0x09, 0x09, 0x05, 0x09, 0x06,
  0x0c, 0x01, 0x08, 0x07, 0xfe, 0x00, 0xf2, 0x01, 0xf6, 0xfd, 0xdc, 0xe6,
  0xeb, 0xe7, 0x22, 0x28, 0x38, 0x0e, 0xed, 0xec, 0xee, 0xef, 0xe8, 0xf0,
  0xf0, 0xff, 0xf4, 0x01, 0x02, 0x00, 0x12, 0x18, 0x23, 0x1c, 0x2d, 0x3a,
  0x5b, 0x66, 0x46, 0x7f, 0xf4, 0xfd, 0x09, 0xfd, 0x08, 0x00, 0x01, 0x02,
  0x00, 0x03, 0xfe, 0xfd, 0xfb, 0xff, 0x06, 0xff, 0xfb, 0xf8, 0x05, 0xf3,
  0x05, 0xee, 0x05, 0x0b, 0xeb, 0x09, 0xf2, 0x02, 0xff, 0x01, 0xfa, 0xfd,
  0x09, 0x02, 0xff, 0x06, 0xfa, 0x06, 0x07, 0x08, 0xf7, 0x02, 0x09, 0x02,
  0x05, 0xf8, 0x06, 0xf5, 0x0c, 0x05, 0xf2, 0x01, 0x0c, 0x03, 0x05, 0x05,
  0x00, 0x07, 0xff, 0xff, 0xff, 0x01, 0x07, 0x07, 0xfd, 0x03, 0x06, 0x03,
  0xf5, 0x01, 0xf6, 0xfe, 0xea, 0xf0, 0xef, 0xfc, 0xde, 0xf5, 0xf1, 0xfb,
  0xf4, 0x05, 0x04, 0x0a, 0x03, 0xfe, 0x0b, 0xfa, 0x00, 0x05, 0xfe, 0xfe,
  0xff, 0xfa, 0x00, 0xff, 0xfa, 0x01, 0xf9, 0x07, 0xfa, 0x00, 0xc7, 0x06,
  0x1e, 0x12, 0x02, 0xf9, 0xf9, 0xf7, 0xf8, 0x00, 0xf8, 0xfe, 0x03, 0xf4,
  0x05, 0xfd, 0x01, 0x07, 0x14, 0x08, 0x0b, 0x17, 0x1b, 0x24, 0x05, 0xf4,
  0x81, 0xfc, 0x2f, 0x55, 0x47, 0x26, 0x1a, 0x12, 0x2c, 0x0f, 0x30, 0x10,
  0x23, 0x2b, 0x19, 0x20, 0x1b, 0x1b, 0x1e, 0x1c, 0x21, 0x0c, 0x30, 0x14,
  0x14, 0x20, 0x22, 0x17, 0x4f, 0x53, 0x4d, 0x2d, 0x2d, 0x31, 0x15, 0x2c,
  0x17, 0x3c, 0x2a, 0x23, 0x35, 0x2d, 0x3a, 0x2a, 0x40, 0x12, 0x34, 0x38,
  0x16, 0x15, 0x40, 0x36, 0x07, 0x42, 0x2e, 0x03, 0x0d, 0x12, 0x16, 0xfa,
  0x0d, 0x13, 0xfa, 0xff, 0xf7, 0x04, 0xfc, 0x0d, 0xf4, 0x17, 0xfb, 0x07,
  0x14, 0x06, 0x1a, 0x30, 0x14, 0x22, 0x0b, 0xef, 0xc8, 0xbd, 0xcc, 0xde,
  0xdf, 0xe0, 0xed, 0xd6, 0xde, 0xe7, 0xce, 0xd7, 0xc5, 0xd9, 0xc0, 0xc6,
  0xc3, 0xed, 0xae, 0xd6, 0xde, 0xdc, 0xb6, 0xbd, 0xed, 0xdf, 0x81, 0x92,
  0x94, 0xb9, 0xc0, 0xdc, 0xbe, 0xd8, 0xdb, 0xca, 0xe8, 0xd1, 0xe8, 0xc7,
  0xef, 0xd6, 0xe0, 0xd6, 0xe6, 0xd5, 0xc5, 0xc0, 0xe0, 0xc9, 0xcf, 0xc2,
  0xfe, 0x05, 0x02, 0x03, 0x06, 0x02, 0x04, 0x05, 0x05, 0xfc, 0x0a, 0xff,
  0xff, 0x07, 0x14, 0x04, 0x18, 0xff, 0x14, 0x0e, 0x38, 0xf9, 0x0d, 0x12,
  0x16, 0x1e, 0xb5, 0xe6, 0xf6, 0xda, 0xd3, 0xd1, 0xea, 0xcc, 0xe5, 0xd3,
  0xdb, 0xd6, 0xe7, 0xcb, 0xe4, 0xcc, 0xed, 0xc4, 0x13, 0x8e, 0x5a, 0xa0,
  0x02, 0xf5, 0x8b, 0x07, 0xe9, 0x01, 0xff, 0x01, 0xff, 0x0c, 0x00, 0x01,
  0xf8, 0xfe, 0xfc, 0x00, 0xfc, 0xfe, 0xff, 0xf5, 0x08, 0xfa, 0x0b, 0xef,
  0x39, 0xf1, 0x22, 0x13, 0xfd, 0x04, 0xce, 0xe6, 0x24, 0x01, 0xfd, 0xfb,
  0x0c, 0xf1, 0x0b, 0xf2, 0xfd, 0xf8, 0x02, 0xf3, 0xfd, 0xf5, 0x19, 0xe6,
  0x40, 0x86, 0x7f, 0x8c, 0x11, 0x12, 0xa0, 0x1d, 0x3d, 0x27, 0xf4, 0x09,
  0x16, 0x0f, 0x06, 0x1c, 0x0e, 0x1d, 0x16, 0x19, 0x16, 0x1d, 0x14, 0x1f,
  0x06, 0x2a, 0xe7, 0x64, 0xbb, 0x66, 0x0d, 0x0d, 0x53, 0x19, 0xff, 0x08,
  0xf7, 0xfb, 0xfc, 0xfc, 0xf8, 0x02, 0xfd, 0xfe, 0x06, 0xfc, 0xfd, 0x04,
  0x02, 0x00, 0x03, 0x05, 0x05, 0xfd, 0x04, 0xf8, 0x02, 0x08, 0xf4, 0x09,
  0xfa, 0xfc, 0xeb, 0xed, 0xf5, 0xf3, 0xf3, 0xf2, 0xf3, 0xf0, 0x05, 0xfa,
  0xff, 0xf9, 0xfe, 0x04, 0xfc, 0x02, 0x03, 0x03, 0xf3, 0xf2, 0x01, 0xf5,
  0x02, 0x03, 0xf8, 0xfe, 0xc7, 0xdd, 0xdf, 0xd3, 0xe0, 0xe8, 0xeb, 0xf7,
  0xec, 0xec, 0xf3, 0x00, 0xf3, 0xfc, 0x06, 0xf0, 0x0c, 0xdf, 0xfc, 0xf2,
  0xff, 0x0c, 0xe9, 0x09, 0xec, 0xe0, 0xd3, 0xbc, 0xcf, 0xd7, 0xbf, 0xe5,
  0xd9, 0xe2, 0xe6, 0xe6, 0xe1, 0xe8, 0xe4, 0xea, 0xe9, 0xf3, 0xee, 0xf4,
  0xd8, 0xf1, 0xeb, 0xeb, 0xfa, 0xfe, 0x1e, 0x21, 0x7f, 0x7e, 0x61, 0x65,
  0x72, 0x3e, 0x48, 0x38, 0x22, 0x39, 0x30, 0x1d, 0x28, 0x16, 0x14, 0x15,
  0xfe, 0x2f, 0x36, 0x33, 0x17, 0x0c, 0x29, 0xea, 0xea, 0xef, 0xf9, 0x01,
  0xec, 0xf9, 0xf7, 0xf8, 0xf0, 0xec, 0xf7, 0xf3, 0xf3, 0xf6, 0xec, 0xf9,
  0x01, 0xec, 0x06, 0xce, 0x0c, 0xe9, 0x0d, 0xf9, 0xbf, 0xd5, 0xb6, 0xb5,
  0xc7, 0xdb, 0xdc, 0xe2, 0xe3, 0xd9, 0xe4, 0xd0, 0xc8, 0xbd, 0xd0, 0xbb,
  0xd1, 0xb4, 0xc3, 0x85, 0xa1, 0xb5, 0x9d, 0x91, 0x9b, 0x97, 0xb9, 0xb2,
  0xf2, 0xff, 0x23, 0x26, 0x33, 0x1e, 0x22, 0x1e, 0x23, 0x2a, 0x35, 0x2e,
  0x3c, 0x30, 0x3e, 0x3a, 0x47, 0x66, 0x4b, 0x56, 0x45, 0x7f, 0x6e, 0x65,
  0x2d, 0x1a, 0x03, 0x21, 0x07, 0xf4, 0xf1, 0xfb, 0xef, 0xf9, 0xfb, 0x01,
  0xf4, 0x00, 0xea, 0xfe, 0xf8, 0xf2, 0xec, 0xf9, 0xed, 0xe0, 0xeb, 0xd9,
  0xdd, 0xea, 0x09, 0xfb, 0x56, 0x3c, 0x10, 0x05, 0x0c, 0x00, 0x0f, 0x12,
  0x06, 0x10, 0x18, 0x16, 0x0f, 0x17, 0x09, 0x20, 0x07, 0x25, 0x1f, 0x3c,
  0x25, 0x20, 0x16, 0x15, 0x40, 0x3e, 0x34, 0x0a, 0xff, 0xfe, 0x02, 0x01,
  0xfd, 0xff, 0xfa, 0x00, 0xfc, 0xf8, 0x03, 0xfa, 0xf8, 0xf8, 0xfd, 0xf7,
  0xfb, 0xfc, 0xf4, 0x00, 0xf2, 0xfa, 0xff, 0xf0, 0x31, 0x0c, 0xfc, 0x00,
  0xfe, 0xfb, 0x02, 0xfe, 0xf7, 0xf9, 0xf3, 0x02, 0xfa, 0xfa, 0xf8, 0xfc,
  0xfa, 0xfc, 0xfa, 0xff, 0x02, 0xfd, 0xfc, 0xf5, 0xfd, 0xfa, 0x2a, 0x0e,
  0x04, 0x0a, 0x00, 0x05, 0xfb, 0xfa, 0x02, 0xea, 0xf8, 0xfb, 0xfd, 0xf2,
  0x01, 0xf1, 0xfa, 0xf7, 0xec, 0xe7, 0xe3, 0xea, 0xf0, 0xed, 0xf5, 0xeb,
  0xf1, 0xed, 0xf0, 0xf8, 0xf5, 0xed, 0xfc, 0xe6, 0xe2, 0xea, 0xd9, 0xf2,
  0xdd, 0xe5, 0xe1, 0xe5, 0xd3, 0xda, 0xd1, 0xde, 0xd9, 0xe1, 0xc0, 0xc9,
  0xdf, 0xe3, 0x81, 0xef, 0x14, 0x01, 0x0e, 0x13, 0x0b, 0x24, 0x2d, 0x36,
  0x40, 0x1a, 0x2a, 0x36, 0x30, 0x38, 0x3d, 0x3c, 0x4f, 0x40, 0x4f, 0x39,
  0x62, 0x59, 0x31, 0x49, 0xcf, 0xfb, 0x09, 0x0a, 0x0d, 0x15, 0x04, 0x06,
  0x04, 0x00, 0x05, 0xf6, 0x0b, 0xf8, 0x01, 0x0a, 0xe7, 0x0c, 0xfe, 0xf9,
  0xe9, 0xdf, 0xf4, 0xff, 0x04, 0x08, 0xe7, 0x1b, 0xf9, 0x0d, 0xfd, 0xf1,
  0x06, 0xfc, 0xfb, 0xfe, 0xf9, 0x10, 0xe7, 0x08, 0xf7, 0x07, 0x04, 0x0c,
  0xfd, 0x01, 0xf8, 0xfd, 0x11, 0x1a, 0xfb, 0x14, 0x11, 0x24, 0xf1, 0xfb,
  0x00, 0x04, 0xf6, 0x04, 0x0d, 0xf2, 0xff, 0xfc, 0xf2, 0xf1, 0x08, 0x1c,
  0xd9, 0x12, 0xfc, 0xf7, 0xec, 0xf7, 0xfd, 0xed, 0x00, 0x00, 0x15, 0x1f,
  0x0b, 0xfb, 0x02, 0xf9, 0x08, 0xf9, 0xf1, 0x05, 0xfd, 0xf4, 0x01, 0x09,
  0x09, 0xf1, 0xc8, 0x0e, 0x0e, 0x0b, 0x03, 0x03, 0xf7, 0xec, 0x03, 0xe6,
  0x1c, 0x2e, 0x07, 0xf5, 0xf6, 0xfd, 0xfd, 0x04, 0x06, 0x0c, 0x08, 0x0a,
  0x1f, 0x04, 0xf8, 0xe1, 0x81, 0xc6, 0xfd, 0x22, 0x46, 0x15, 0x0f, 0x0d,
  0x0e, 0xfb, 0xee, 0x01, 0x07, 0x09, 0xfe, 0xfe, 0x07, 0x01, 0xff, 0xff,
  0x03, 0x03, 0xff, 0xfe, 0x01, 0x05, 0x03, 0x02, 0x02, 0x00, 0xff, 0xf6,
  0x05, 0x01, 0x00, 0xf0, 0xf6, 0x04, 0x19, 0xfe, 0x05, 0x04, 0xf4, 0x03,
  0x00, 0xff, 0xfc, 0x00, 0xfd, 0x06, 0xf9, 0xfd, 0x00, 0xfa, 0xf8, 0x0b,
  0xfa, 0x00, 0x01, 0x04, 0xf0, 0xf8, 0xe8, 0x04, 0x2c, 0x0c, 0xfd, 0xfa,
  0x03, 0x00, 0xfd, 0xfc, 0xfa, 0xfa, 0xf6, 0xfc, 0xe7, 0xf7, 0xf4, 0xfb,
  0xfa, 0xf4, 0xf7, 0xf3, 0x04, 0xfc, 0xfd, 0xd9, 0xf9, 0x14, 0x34, 0x0f,
  0x0b, 0xfd, 0xe1, 0xe3, 0xd9, 0xdc, 0xcf, 0xca, 0xc4, 0xcc, 0xb9, 0xb1,
  0xb6, 0xb6, 0x8f, 0xdc, 0xc0, 0xbb, 0x93, 0xa7, 0xd6, 0xc6, 0x3a, 0xe9,
  0x81, 0xdf, 0xf5, 0x06, 0x22, 0x18, 0x2c, 0x2a, 0x38, 0x39, 0x4a, 0x34,
  0x65, 0x57, 0x55, 0x53, 0x7a, 0x29, 0x4d, 0x5b, 0x60, 0x56, 0x40, 0x78,
  0xcd, 0x0c, 0x00, 0x17, 0x14, 0x07, 0x05, 0xfb, 0x06, 0xf6, 0x0f, 0xfe,
  0x06, 0x08, 0xff, 0xed, 0x00, 0xfd, 0xd9, 0x0b, 0xf4, 0x09, 0xec, 0xf8,
  0xfd, 0xed, 0xf6, 0x0c, 0xfd, 0xf9, 0xfb, 0xf5, 0xfa, 0x07, 0x00, 0x02,
  0xfa, 0x06, 0xf9, 0x07, 0xf9, 0xf6, 0x00, 0xf3, 0x08, 0x04, 0x0f, 0xf8,
  0x15, 0x12, 0x15, 0x18, 0x09, 0x26, 0xef, 0xf7, 0x03, 0x0f, 0xff, 0x05,
  0xf7, 0x0c, 0xf2, 0xf7, 0x03, 0xf6, 0x01, 0xfb, 0x17, 0xff, 0xf9, 0x13,
  0xd8, 0xed, 0xfe, 0xe9, 0x07, 0xef, 0xf4, 0x18, 0xe4, 0x2b, 0xfa, 0x06,
  0x10, 0xf1, 0x03, 0xf4, 0x0a, 0x06, 0xfe, 0xec, 0x06, 0xfd, 0x47, 0x02,
  0xf0, 0xff, 0x1a, 0xfc, 0xe9, 0xed, 0x04, 0xd3, 0x2d, 0x7f, 0x29, 0xcb,
  0xf1, 0xe9, 0xef, 0x01, 0xfb, 0x01, 0xf5, 0xf9, 0xf9, 0x07, 0xfb, 0x1b,
  0x59, 0x04, 0x30, 0x10, 0x0e, 0xfe, 0x17, 0x13, 0x1b, 0x1b, 0x20, 0xfc,
  0x28, 0x06, 0x00, 0xff, 0xf5, 0x00, 0xfe, 0x00, 0xfd, 0xfd, 0x00, 0xf8,
  0xff, 0xf5, 0xf3, 0x07, 0x01, 0x02, 0x0d, 0xe6, 0x06, 0x0a, 0x24, 0x1a,
  0x38, 0xfd, 0x2c, 0xe5, 0xf6, 0xf8, 0xf8, 0xf9, 0xf9, 0xf1, 0x00, 0xf2,
  0x01, 0xff, 0xfd, 0x08, 0x16, 0x01, 0x21, 0xec, 0x2e, 0x0e, 0x43, 0x39,
  0x00, 0x2b, 0x2f, 0x1a, 0x52, 0x0e, 0x1d, 0x10, 0x1b, 0x1c, 0x11, 0x13,
  0x13, 0x15, 0x09, 0x0e, 0x17, 0xfe, 0x07, 0xff, 0x0c, 0xe1, 0x14, 0xf6,
  0xf5, 0xe9, 0x81, 0xbf, 0xf4, 0x14, 0x54, 0x0c, 0xfd, 0xfa, 0x03, 0xf3,
  0x11, 0x09, 0xff, 0x04, 0x0e, 0x08, 0x08, 0x11, 0x0b, 0xf5, 0x19, 0xd6,
  0x1d, 0xed, 0x10, 0x1c, 0xd5, 0x17, 0x90, 0xe7, 0x2b, 0xf9, 0xec, 0xfc,
  0xf1, 0xf9, 0xe6, 0xf0, 0xef, 0xf6, 0xe4, 0xf3, 0xe4, 0xf0, 0xdb, 0xff,
  0xb6, 0x3e, 0x96, 0x1e, 0xb2, 0xb7, 0x5f, 0xd7, 0x00, 0xff, 0x05, 0x08,
  0x00, 0xfe, 0x07, 0xfb, 0xfd, 0xfe, 0x01, 0x03, 0x01, 0x04, 0xfc, 0x02,
  0x04, 0xf5, 0x01, 0xf1, 0x0e, 0xf8, 0xfa, 0x0e, 0xed, 0x11, 0xef, 0xf7,
  0xfc, 0xf9, 0x03, 0x05, 0xfe, 0x04, 0x08, 0x05, 0xfd, 0xf9, 0x01, 0xf9,
  0x08, 0xf7, 0xff, 0x0a, 0xfd, 0x09, 0x0a, 0xff, 0x0a, 0xfb, 0x0e, 0x03,
  0xf4, 0xe7, 0x0b, 0xf9, 0xf5, 0x05, 0xfa, 0x06, 0xf5, 0x03, 0xfc, 0x06,
  0x01, 0x01, 0xfe, 0x04, 0xf9, 0x04, 0xf9, 0x06, 0xf3, 0x05, 0xf7, 0xfa,
  0xfe, 0xea, 0xd5, 0xed, 0xff, 0x02, 0xf8, 0xf3, 0x02, 0x02, 0x06, 0x01,
  0x04, 0x08, 0xfd, 0x08, 0x09, 0x05, 0x0d, 0x02, 0x15, 0xfd, 0x0b, 0xfe,
  0x02, 0xfc, 0x03, 0xee, 0x41, 0x81, 0xf3, 0x04, 0x13, 0x0d, 0x01, 0xfd,
  0x04, 0xfe, 0x05, 0xf9, 0x06, 0x00, 0xf9, 0x02, 0xf8, 0xff, 0x00, 0x0b,
  0x00, 0xfe, 0x0d, 0x05, 0x12, 0x1d, 0xf9, 0xfb, 0x05, 0xf6, 0xfc, 0x06,
  0xfc, 0xfc, 0x02, 0x01, 0xfe, 0x02, 0x03, 0xf6, 0xfc, 0xf0, 0xff, 0x03,
  0xff, 0xfa, 0x13, 0xf3, 0x00, 0x00, 0xfa, 0xed, 0xfa, 0x06, 0x05, 0xff,
  0xff, 0x00, 0xfc, 0xfe, 0xff, 0xfc, 0xf7, 0xfc, 0x01, 0x05, 0x02, 0xfd,
  0x0a, 0xf5, 0x04, 0xf3, 0x1b, 0xf9, 0xf8, 0x04, 0xfe, 0x08, 0xf4, 0x15,
  0x0a, 0x0f, 0x08, 0x01, 0x0a, 0x0a, 0xfd, 0x06, 0x12, 0x01, 0xff, 0x06,
  0x07, 0x06, 0x04, 0x01, 0x1f, 0xf2, 0x21, 0xf4, 0x21, 0x16, 0xf3, 0x27,
  0x84, 0xb8, 0xfc, 0xf1, 0xe4, 0xe1, 0xf2, 0xd5, 0xf2, 0xdb, 0xe3, 0xe1,
  0xe4, 0xe4, 0xe9, 0xf1, 0x01, 0xd8, 0x2a, 0x86, 0x47, 0x81, 0x21, 0x1c,
  0x8a, 0x2a, 0x68, 0x1f, 0xfa, 0x01, 0x0d, 0x0c, 0x07, 0x13, 0x0a, 0x12,
  0x0e, 0x0f, 0x10, 0x0d, 0x0c, 0x0e, 0x00, 0x17, 0xec, 0x35, 0xe4, 0x3c,
  0xf5, 0xfa, 0x34, 0xff, 0x0c, 0x0c, 0xfd, 0xfe, 0xf8, 0xf9, 0x09, 0xf7,
  0xfc, 0xf4, 0xf9, 0x04, 0xfd, 0xf7, 0x08, 0xec, 0x08, 0xfd, 0x06, 0x04,
  0x02, 0x06, 0xf3, 0xf9, 0xfc, 0xfc, 0xea, 0xe2, 0xf5, 0xfb, 0x02, 0xf1,
  0xeb, 0xef, 0x05, 0x02, 0xfa, 0xff, 0x03, 0x07, 0x02, 0x0d, 0x16, 0x03,
  0x13, 0x17, 0x19, 0x0c, 0x23, 0x1f, 0x17, 0xff, 0x49, 0x39, 0x17, 0x1d,
  0x12, 0x05, 0x11, 0x19, 0xf1, 0x02, 0x02, 0xfa, 0xfb, 0xfd, 0xed, 0xfe,
  0xeb, 0x03, 0xe6, 0xea, 0xdc, 0xe9, 0xd5, 0xd0, 0xd2, 0xb8, 0xc3, 0xaa,
  0xe2, 0x12, 0x05, 0x14, 0x02, 0x06, 0x09, 0xfc, 0x0f, 0x08, 0x07, 0xf9,
  0x03, 0x05, 0x15, 0xf9, 0x07, 0x15, 0xfe, 0xf2, 0x06, 0xff, 0x11, 0x1e,
  0x5c, 0x7a, 0x30, 0xf4, 0x0e, 0x15, 0x1a, 0x1a, 0x24, 0x28, 0x1d, 0x1c,
  0x1f, 0x2d, 0x29, 0x28, 0x18, 0x2b, 0x24, 0x14, 0x31, 0x3b, 0x30, 0x3c,
  0x42, 0x7f, 0x56, 0x5e, 0x23, 0x1a, 0x1d, 0x19, 0x07, 0x1e, 0x0f, 0x1e,
  0x1c, 0x15, 0x2a, 0x1b, 0x33, 0x28, 0x24, 0x43, 0x2a, 0x46, 0x37, 0x45,
  0x67, 0x6a, 0x38, 0x7f, 0x1c, 0x12, 0xef, 0xf7, 0xf6, 0x04, 0xfc, 0x02,
  0xf8, 0xf7, 0xf8, 0x01, 0xe8, 0x06, 0xf0, 0xf9, 0xe9, 0x07, 0xec, 0x05,
  0xfc, 0x13, 0xf0, 0xf4, 0x09, 0x02, 0xfe, 0xf6, 0xfe, 0xf5, 0xff, 0xfb,
  0xf8, 0xf6, 0xfd, 0x0b, 0xfb, 0x08, 0xfe, 0xff, 0xf6, 0xfd, 0xf3, 0xee,
  0x00, 0xfd, 0xfa, 0xf8, 0xe9, 0xe1, 0xf6, 0xf2, 0xde, 0xdc, 0x08, 0x08,
  0xff, 0xf1, 0x04, 0x05, 0xfc, 0xf5, 0xfe, 0xfc, 0xf8, 0xee, 0xff, 0xfd,
  0x03, 0xee, 0xf5, 0xd9, 0xff, 0xe3, 0xeb, 0xe8, 0xe0, 0xde, 0xb2, 0xbb,
  0xe8, 0xf2, 0xf0, 0xf7, 0x00, 0xe4, 0xff, 0xe9, 0xf1, 0xe6, 0xf6, 0xf1,
  0xe8, 0xe3, 0xfb, 0xd9, 0xf5, 0xd8, 0xd3, 0xca, 0xd5, 0xd7, 0xe4, 0xab,
  0x7f, 0x30, 0x0f, 0x1d, 0x29, 0x23, 0x12, 0x23, 0x1c, 0x21, 0x1c, 0x1c,
  0x16, 0x20, 0x1a, 0x15, 0x0d, 0x2a, 0x04, 0x41, 0xe6, 0x3e, 0x13, 0x1a,
  0x35, 0x00, 0x06, 0xea, 0xff, 0xff, 0x03, 0xf8, 0x05, 0xfc, 0xf9, 0xfa,
  0xfa, 0xfc, 0xf4, 0xf9, 0xf8, 0xfa, 0xf9, 0xfe, 0xe9, 0x08, 0xe8, 0xfd,
  0xee, 0xee, 0xf7, 0xe8, 0x0e, 0xfb, 0x00, 0x02, 0x05, 0x0e, 0x04, 0x02,
  0x07, 0x04, 0xff, 0x02, 0x0a, 0x0a, 0x05, 0x08, 0x04, 0xfa, 0x07, 0x0d,
  0xfe, 0x02, 0x04, 0x03, 0xff, 0x04, 0xde, 0x04, 0x06, 0x00, 0xfa, 0xfa,
  0x03, 0xf9, 0x04, 0x00, 0xff, 0x07, 0x01, 0xf9, 0xf5, 0x08, 0x02, 0x00,
  0x0b, 0xfa, 0x1a, 0x00, 0x07, 0x00, 0x02, 0x10, 0x89, 0xea, 0xf3, 0xe4,
  0xd4, 0xdf, 0xe6, 0xe8, 0xe2, 0xe3, 0xee, 0xe3, 0xe8, 0xe7, 0xf4, 0xe2,
  0xf7, 0xe0, 0x05, 0xb7, 0x18, 0xce, 0xf5, 0xf2, 0xd8, 0x0d, 0x03, 0xf4,
  0x01, 0x01, 0x00, 0x03, 0xfb, 0x00, 0xfe, 0x02, 0xfb, 0xfc, 0xfe, 0xfc,
  0x01, 0x00, 0xfd, 0x02, 0xfc, 0x08, 0xf6, 0x07, 0x02, 0x02, 0x10, 0x00,
  0x13, 0x07, 0xf6, 0x03, 0x05, 0xfd, 0x03, 0x00, 0x00, 0xfc, 0x00, 0x02,
  0xfb, 0x06, 0xf7, 0xfc, 0xfc, 0x01, 0xf8, 0x05, 0xf8, 0x02, 0xf9, 0xf4,
  0xfd, 0x01, 0x23, 0x0b, 0xfc, 0xfd, 0xfa, 0x09, 0xfb, 0x05, 0xfc, 0x00,
  0x00, 0xfe, 0x03, 0xf7, 0xfe, 0xfc, 0xf9, 0xf8, 0xfd, 0xf1, 0xff, 0xf0,
  0xf9, 0xfa, 0xe7, 0xee, 0xf3, 0x13, 0x0d, 0xf9, 0xf5, 0xf3, 0x00, 0xf5,
  0xfd, 0xfe, 0x00, 0xfc, 0xff, 0x03, 0x06, 0x05, 0x0e, 0x07, 0x0d, 0x01,
  0x18, 0x0b, 0x16, 0x17, 0x10, 0x2c, 0x81, 0xc8, 0xf3, 0xeb, 0xd9, 0xe4,
  0xe9, 0xdd, 0xec, 0xde, 0xeb, 0xdf, 0xef, 0xe7, 0xef, 0xe9, 0xff, 0xe8,
  0x1d, 0x89, 0x2f, 0xcd, 0x1b, 0x0c, 0xa2, 0x26, 0xee, 0x00, 0x0b, 0xff,
  0x01, 0x02, 0x05, 0xfc, 0x03, 0x05, 0x00, 0xfb, 0x02, 0xfc, 0x03, 0xf6,
  0x02, 0xfa, 0x0c, 0xfb, 0x06, 0xf7, 0xfd, 0xf9, 0xfa, 0xff, 0xfa, 0x01,
  0xfe, 0x00, 0x02, 0xfd, 0x02, 0xfa, 0x04, 0xfb, 0xfe, 0x03, 0xfb, 0xfb,
  0xfd, 0x00, 0xf9, 0x06, 0xfd, 0x00, 0x0a, 0xff, 0x02, 0x06, 0x04, 0x0f,
  0x08, 0xfb, 0xfc, 0x05, 0x03, 0x00, 0x06, 0x09, 0xfa, 0xfc, 0xff, 0x03,
  0xff, 0x06, 0x01, 0xf7, 0xf7, 0x02, 0x0a, 0x05, 0x01, 0x0d, 0xfa, 0xf2,
  0xfa, 0xf7, 0xfe, 0xfb, 0x04, 0x04, 0x01, 0x08, 0xf8, 0x02, 0x00, 0x04,
  0x00, 0x06, 0xfd, 0x06, 0xf4, 0x06, 0xfe, 0x02, 0x03, 0xd0, 0xf4, 0x06,
  0xff, 0x02, 0xf8, 0xf2, 0x13, 0x14, 0xfd, 0xfa, 0xfb, 0xfd, 0xfd, 0x02,
  0x00, 0x03, 0x05, 0xfc, 0x0c, 0x00, 0x0e, 0x12, 0x12, 0xfd, 0xed, 0x81,
  0xf8, 0xf8, 0x0c, 0x12, 0x15, 0x0d, 0x02, 0xf6, 0xfc, 0x02, 0x00, 0x02,
  0xff, 0x01, 0x01, 0x00, 0xff, 0x00, 0x00, 0x01, 0xff, 0x01, 0x00, 0x01,
  0x00, 0x00, 0x00, 0xfe, 0x02, 0x00, 0xfe, 0x00, 0x03, 0xf4, 0xfc, 0x02,
  0x03, 0xfe, 0x02, 0x00, 0x02, 0xff, 0x00, 0x01, 0x00, 0x01, 0x00, 0x00,
  0x00, 0x00, 0x00, 0x01, 0x04, 0x01, 0xfe, 0x02, 0xff, 0x01, 0x06, 0xf0,
  0xf1, 0x03, 0x00, 0xfe, 0x01, 0xff, 0xfd, 0xfe, 0xfc, 0xfd, 0xfe, 0xfc,
  0xf9, 0x00, 0xfb, 0xfc, 0xfc, 0xfb, 0xfb, 0xff, 0xfd, 0xfd, 0xfe, 0xfb,
  0xcf, 0xcf, 0xcd, 0xf8, 0xfe, 0x00, 0x01, 0x04, 0x06, 0x03, 0x04, 0x06,
  0x05, 0x07, 0x07, 0x06, 0x0a, 0x06, 0x07, 0x05, 0xf6, 0x00, 0x04, 0xfe,
  0xff, 0xfc, 0x24, 0x7f, 0x45, 0x00, 0xfe, 0x02, 0xfe, 0xfc, 0xf9, 0x00,
  0xff, 0xfb, 0xfd, 0xfc, 0x00, 0xfa, 0xfb, 0xfd, 0xfc, 0xfe, 0x0a, 0x01,
  0xfd, 0x03, 0x07, 0x08, 0x1b, 0x0f, 0x07, 0x10, 0x05, 0x0d, 0x0a, 0x11,
  0x0b, 0x16, 0x11, 0x22, 0x16, 0x20, 0x1a, 0x2a, 0x18, 0x39, 0x1a, 0x2e,
  0x0c, 0x3a, 0x39, 0x24, 0x0e, 0xf4, 0x09, 0xe5, 0xf2, 0xeb, 0xdd, 0xe2,
  0xe4, 0xdc, 0xd8, 0xd3, 0xd8, 0xc6, 0xd2, 0xcd, 0xce, 0xb4, 0xd6, 0xa4,
  0xd5, 0xae, 0xdd, 0x8d, 0x9c, 0xb4, 0xab, 0xca, 0xe8, 0xfa, 0x18, 0x25,
  0x28, 0x23, 0x22, 0x2f, 0x38, 0x36, 0x3d, 0x38, 0x41, 0x46, 0x3e, 0x52,
  0x3e, 0x4c, 0x59, 0x0d, 0x32, 0x35, 0x75, 0x60, 0x1d, 0x7f, 0xfa, 0xf0,
  0xda, 0xc9, 0xdf, 0xd4, 0xe1, 0xcb, 0xd4, 0xcd, 0xcc, 0xc4, 0xc9, 0xb5,
  0xbe, 0xaf, 0xc9, 0xb2, 0xc7, 0xdc, 0x13, 0xd2, 0xc2, 0xbf, 0xf0, 0xea,
  0xf9, 0x1e, 0x14, 0x17, 0x16, 0x19, 0x12, 0x17, 0x10, 0x14, 0x0c, 0x18,
  0x0d, 0x17, 0x17, 0x21, 0x09, 0x24, 0xf0, 0x32, 0xd4, 0x2d, 0xf2, 0x0a,
  0x35, 0xdb, 0x14, 0xfd, 0xf2, 0xf5, 0xfd, 0xfa, 0xff, 0xef, 0xf2, 0x05,
  0xfc, 0xff, 0x01, 0xfe, 0xfd, 0xf7, 0x04, 0xff, 0x01, 0x10, 0xf5, 0xf1,
  0x0d, 0xf6, 0x13, 0xec, 0x1a, 0x0c, 0x02, 0x00, 0x02, 0xed, 0x05, 0x01,
  0x0c, 0xf7, 0xfa, 0xef, 0xfe, 0xfb, 0xf8, 0x04, 0xf1, 0x02, 0xec, 0x05,
  0x0c, 0x08, 0xf6, 0xf2, 0x03, 0xf6, 0x3e, 0x36, 0x33, 0x2a, 0x21, 0x36,
  0x1e, 0x22, 0x28, 0x35, 0x3b, 0x36, 0x1d, 0x36, 0x3c, 0x37, 0x56, 0x24,
  0x56, 0x0b, 0x25, 0x3a, 0x7f, 0x77, 0x31, 0x7a, 0xf3, 0x01, 0x0c, 0x04,
  0x0c, 0xfc, 0xff, 0x03, 0xfc, 0xeb, 0xee, 0xf6, 0x02, 0xe9, 0xf8, 0xe8,
  0xdf, 0xe9, 0xe0, 0xf6, 0xfa, 0xf3, 0xdf, 0xe9, 0xe3, 0xf3, 0xa2, 0xb4,
  0xcf, 0xdf, 0xd6, 0xe7, 0xe1, 0xec, 0xdf, 0xe7, 0xe3, 0xe5, 0xe3, 0xe6,
  0xd8, 0xe7, 0xd3, 0xf2, 0xe1, 0xd4, 0xe8, 0xd2, 0xa7, 0xbb, 0xc6, 0xad,
  0x03, 0xec, 0x09, 0xfe, 0xfd, 0xf8, 0x09, 0xfb, 0xff, 0xff, 0xf9, 0x02,
  0x07, 0xf6, 0x04, 0xff, 0xfa, 0xf4, 0x09, 0xfd, 0x04, 0xfe, 0x08, 0xfc,
  0xfb, 0x01, 0xf2, 0xfd, 0xf9, 0x04, 0xfa, 0x0b, 0xfe, 0xfe, 0x03, 0x05,
  0x01, 0xf7, 0xfe, 0xfb, 0x05, 0xfc, 0x08, 0x05, 0x00, 0xea, 0xfd, 0x0a,
  0xfd, 0x0c, 0xf4, 0x02, 0xd4, 0xd8, 0xdb, 0xe4, 0xe9, 0xec, 0xfd, 0xeb,
  0xee, 0xe9, 0xe6, 0xfb, 0xea, 0xf2, 0xf3, 0xe6, 0xec, 0xec, 0xf0, 0x04,
  0xfa, 0xfd, 0x0c, 0xfd, 0xed, 0xeb, 0xd3, 0xd2, 0xa2, 0xc0, 0xbc, 0xc7,
  0xd4, 0xe1, 0xc7, 0xd0, 0xd5, 0xd7, 0xe6, 0xdf, 0xe4, 0xef, 0xe7, 0xfc,
  0xf8, 0xf0, 0xf6, 0xfd, 0x0c, 0x0d, 0xff, 0x08, 0x66, 0x68, 0x7f, 0x59,
  0x64, 0x4a, 0x2a, 0x3c, 0x49, 0x42, 0x4b, 0x34, 0x2b, 0x3e, 0x21, 0x33,
  0x2d, 0x20, 0x0f, 0x2a, 0x0b, 0xff, 0xe4, 0xef, 0x27, 0x0e, 0xf3, 0xfc,
  0x05, 0x01, 0x01, 0x00, 0x02, 0x01, 0x02, 0x01, 0x01, 0x01, 0x00, 0x01,
  0x02, 0x00, 0x02, 0x00, 0x00, 0x00, 0x00, 0x01, 0x00, 0xfe, 0x01, 0xfe,
  0xee, 0xf7, 0x08, 0x06, 0x00, 0x03, 0x01, 0x03, 0xff, 0x03, 0x00, 0x00,
  0x00, 0x00, 0x01, 0x01, 0xfe, 0x01, 0x02, 0xff, 0xff, 0x04, 0xfd, 0x01,
  0x01, 0xfc, 0xe3, 0xec, 0x09, 0x04, 0xff, 0x02, 0xff, 0x00, 0x02, 0xfc,
  0x01, 0x03, 0xfe, 0x01, 0x03, 0xfe, 0x02, 0x00, 0x03, 0xfc, 0xf9, 0xfb,
  0x02, 0x04, 0xf3, 0xfb, 0xbe, 0xe2, 0x1d, 0x13, 0x0b, 0x07, 0x0f, 0x08,
  0x0c, 0x0e, 0x0b, 0x0a, 0x0c, 0x08, 0x09, 0x0c, 0x0b, 0x09, 0x07, 0x0d,
  0x0e, 0x02, 0x01, 0xfb, 0x02, 0xf5, 0x7f, 0x3e, 0xcc, 0xe3, 0xf5, 0xf5,
  0xee, 0xf4, 0xf2, 0xf2, 0xf4, 0xf2, 0xf6, 0xf5, 0xf3, 0xf5, 0xf3, 0xf7,
  0xf5, 0xf9, 0xf9, 0x00, 0x01, 0x02, 0x09, 0x16, 0x66, 0xef, 0xff, 0xff,
  0x04, 0x00, 0x00, 0x00, 0x60, 0x00, 0x00, 0x00, 0xa8, 0xe9, 0xff, 0xff,
  0x9c, 0xf7, 0xff, 0xff, 0x17, 0xef, 0xff, 0xff, 0xfa, 0x67, 0x00, 0x00,
  0xf2, 0x75, 0xff, 0xff, 0x86, 0x00, 0x00, 0x00, 0xec, 0x48, 0x00, 0x00,
  0x42, 0xee, 0xff, 0xff, 0x14, 0xae, 0xff, 0xff, 0x46, 0xf7, 0xff, 0xff,
  0x42, 0x62, 0xff, 0xff, 0xdf, 0x65, 0xff, 0xff, 0xa5, 0xf6, 0xff, 0xff,
  0xe9, 0xe4, 0xff, 0xff, 0x05, 0xb5, 0xfd, 0xff, 0x5e, 0x03, 0x00, 0x00,
  0x95, 0x9b, 0xff, 0xff, 0x8e, 0x65, 0x00, 0x00, 0xf1, 0xf1, 0xff, 0xff,
  0x69, 0xe0, 0xff, 0xff, 0xff, 0x01, 0x00, 0x00, 0x54, 0x28, 0x00, 0x00,
  0x73, 0xe6, 0xff, 0xff, 0xa5, 0xf8, 0xff, 0xff, 0xd2, 0xef, 0xff, 0xff,
  0x04, 0x00, 0x00, 0x00, 0x00, 0x0f, 0x00, 0x00, 0x03, 0xfa, 0x02, 0x02,
  0x02, 0x01, 0xff, 0xf9, 0x02, 0xf6, 0x02, 0xfe, 0xff, 0x1a, 0xfd, 0xff,
  0x00, 0x0e, 0x00, 0x0e, 0x03, 0xff, 0x02, 0x0e, 0x06, 0xfd, 0xff, 0xff,
  0xff, 0xfd, 0x02, 0x03, 0x03, 0x00, 0x03, 0x08, 0x00, 0x03, 0xff, 0x01,
  0xfe, 0x15, 0x03, 0xf7, 0x03, 0x0a, 0xfd, 0xfb, 0x07, 0x07, 0x01, 0xf9,
  0x01, 0x05, 0xfa, 0x05, 0x00, 0x05, 0x04, 0x0c, 0x01, 0x0d, 0xfe, 0xfe,
  0xa5, 0xcf, 0x01, 0x06, 0x03, 0xf9, 0x05, 0x23, 0x02, 0x01, 0xfc, 0x06,
  0xee, 0xf6, 0xfe, 0xf0, 0x00, 0xd9, 0xfd, 0x07, 0x02, 0x9c, 0xfe, 0xff,
  0x8f, 0xd3, 0xff, 0xde, 0x0c, 0x06, 0xf4, 0xeb, 0xa3, 0xe9, 0x04, 0xf3,
  0xed, 0xdc, 0x01, 0xcb, 0x05, 0xc1, 0x05, 0xf6, 0x09, 0x81, 0x03, 0xec,
  0xa0, 0xf9, 0x02, 0xc4, 0x13, 0xe2, 0xbd, 0xae, 0xfd, 0xff, 0x01, 0x02,
  0x01, 0xfd, 0x00, 0xfa, 0x02, 0xfb, 0x02, 0xff, 0x02, 0xf2, 0x00, 0xf1,
  0x0b, 0x00, 0x00, 0xff, 0x01, 0x03, 0xfe, 0xfe, 0xf2, 0x00, 0x01, 0x01,
  0xfd, 0xfb, 0x03, 0xf3, 0x00, 0xf9, 0x01, 0x00, 0x00, 0xf7, 0x01, 0xf5,
  0x03, 0xf7, 0x01, 0xfb, 0x05, 0xfa, 0xfb, 0xec, 0x01, 0xf8, 0x02, 0xfe,
  0xff, 0xee, 0x01, 0xec, 0x01, 0xf2, 0x00, 0x01, 0x00, 0xfa, 0x01, 0xf4,
  0xf6, 0xf6, 0x00, 0x03, 0xf4, 0xfd, 0xfd, 0xe8, 0xba, 0xfc, 0x00, 0xfa,
  0xd0, 0x06, 0xc7, 0x08, 0x01, 0x08, 0xff, 0x02, 0x01, 0xc0, 0x00, 0xe3,
  0xf1, 0xf4, 0x00, 0xe1, 0xea, 0xfe, 0xfe, 0xda, 0x9c, 0xfc, 0xfd, 0xfe,
  0xc9, 0x02, 0xb1, 0x0a, 0xfe, 0x08, 0x00, 0x03, 0x00, 0xa2, 0xff, 0xf7,
  0xe4, 0xda, 0x00, 0x19, 0x81, 0x05, 0xff, 0x20, 0xfc, 0xfc, 0x01, 0x02,
  0xfe, 0xf9, 0xff, 0xf7, 0x02, 0xfb, 0x01, 0x02, 0x02, 0xf3, 0xfe, 0xf6,
  0xac, 0xdf, 0x03, 0xf9, 0x03, 0x02, 0xf4, 0xf0, 0xdd, 0xfd, 0x02, 0xff,
  0xed, 0xfd, 0x02, 0xfc, 0x01, 0xff, 0x01, 0x02, 0x03, 0xc2, 0xfe, 0xf6,
  0xc8, 0xd1, 0x02, 0xfb, 0x06, 0x00, 0xfc, 0xf2, 0xc0, 0xfd, 0x00, 0xfb,
  0xfd, 0xff, 0x08, 0x00, 0x05, 0x03, 0x01, 0xfc, 0x02, 0xf4, 0xfb, 0xee,
  0xc9, 0xd4, 0x03, 0xfe, 0x00, 0xff, 0xff, 0xf2, 0x81, 0xff, 0x01, 0xfc,
  0xde, 0x02, 0x0a, 0xfd, 0xfc, 0x00, 0x01, 0xfe, 0xfc, 0xb6, 0xf9, 0xf7,
  0xe8, 0xd1, 0xff, 0xfd, 0xf4, 0xff, 0x00, 0xfe, 0xc2, 0x04, 0xff, 0xf9,
  0x96, 0x06, 0x00, 0x01, 0xff, 0x05, 0xfe, 0xfd, 0xfe, 0xa1, 0x0a, 0x07,
  0xda, 0xcf, 0xfd, 0xfd, 0xfb, 0x00, 0x0e, 0x06, 0xf7, 0xae, 0xfd, 0x00,
  0xfd, 0x81, 0xd4, 0xdc, 0xfa, 0xf9, 0xff, 0xff, 0xfc, 0x02, 0x02, 0x00,
  0x00, 0x01, 0x00, 0xd6, 0xff, 0x00, 0xca, 0xff, 0x00, 0xdc, 0xfb, 0x00,
  0x02, 0xd9, 0xed, 0xe6, 0xff, 0xe5, 0xff, 0xfe, 0xfc, 0x03, 0x01, 0x00,
  0x00, 0x02, 0xfb, 0xe6, 0xfe, 0x00, 0xd2, 0x03, 0x04, 0xfe, 0xfe, 0x00,
  0x02, 0x00, 0xfd, 0x00, 0xf7, 0xff, 0xfc, 0x00, 0xfb, 0x01, 0x01, 0x00,
  0xff, 0x02, 0xf9, 0x03, 0xff, 0x00, 0x01, 0x02, 0x03, 0x01, 0xf8, 0x00,
  0xfd, 0x01, 0x00, 0x01, 0xfe, 0x00, 0xf8, 0x02, 0xf1, 0xff, 0x00, 0x00,
  0x00, 0x08, 0x01, 0xff, 0x01, 0x01, 0x00, 0xff, 0xff, 0xfe, 0x12, 0x01,
  0x01, 0xfd, 0x00, 0xfe, 0x17, 0x05, 0x13, 0x02, 0x22, 0xfc, 0xfd, 0x00,
  0x00, 0x0d, 0x0c, 0x08, 0x03, 0xff, 0xfe, 0x01, 0x14, 0xf9, 0x02, 0xfc,
  0xfd, 0xdf, 0x06, 0xee, 0x02, 0xf7, 0x01, 0x01, 0xff, 0x20, 0x00, 0xfc,
  0xdb, 0xec, 0x03, 0xf5, 0x08, 0x0d, 0xe0, 0xd7, 0x00, 0x0a, 0x04, 0xfc,
  0xf9, 0x06, 0xe0, 0x16, 0x02, 0x10, 0x03, 0x08, 0x00, 0xee, 0xff, 0xff,
  0xd1, 0x22, 0x02, 0x0e, 0x13, 0xef, 0x0a, 0x1d, 0xe3, 0xf9, 0x01, 0xfc,
  0xc0, 0xf0, 0xe6, 0x00, 0x01, 0xd6, 0xfd, 0xfb, 0x02, 0x03, 0xfe, 0x04,
  0xc8, 0xf6, 0x03, 0x01, 0x03, 0x05, 0xf3, 0x1f, 0xc9, 0xf4, 0x04, 0x04,
  0xa0, 0xe7, 0x06, 0xe7, 0x05, 0xe3, 0x01, 0xf9, 0x03, 0x81, 0xff, 0xf5,
  0xad, 0xf6, 0x06, 0xf5, 0x16, 0xfc, 0xdd, 0xd1, 0x96, 0xcb, 0x09, 0xfd,
  0xb6, 0xcd, 0xe9, 0xd3, 0x07, 0xd6, 0x06, 0xef, 0x03, 0xb6, 0x01, 0x0f,
  0xfa, 0x18, 0x04, 0xfe, 0x00, 0xf0, 0xd0, 0xdb, 0x08, 0x02, 0xfd, 0xfe,
  0xfd, 0xfe, 0x00, 0xfe, 0x03, 0xf9, 0x01, 0xfd, 0xf9, 0x18, 0xf8, 0xff,
  0x00, 0x15, 0x00, 0xfe, 0x05, 0x00, 0xfe, 0x01, 0x09, 0xff, 0xfd, 0x02,
  0xfe, 0xff, 0x00, 0xff, 0xfd, 0xfe, 0x02, 0x04, 0xfa, 0x0d, 0xfb, 0xfe,
  0xfc, 0x0a, 0xfb, 0x00, 0x09, 0x04, 0xff, 0x01, 0x07, 0x00, 0xfc, 0x00,
  0x00, 0x01, 0xfb, 0xff, 0xff, 0xff, 0xfe, 0x0e, 0xfd, 0x10, 0x04, 0xfd,
  0xd6, 0xc0, 0xfd, 0xff, 0x05, 0x06, 0x00, 0xfd, 0xfd, 0x05, 0x03, 0xfe,
  0xef, 0x01, 0xfd, 0x06, 0x05, 0x0b, 0x02, 0xf9, 0x01, 0xc7, 0x03, 0xf4,
  0xf4, 0x81, 0x08, 0xfb, 0x09, 0xfb, 0x02, 0xf5, 0xcf, 0x10, 0x15, 0xf7,
  0xe3, 0x00, 0x01, 0x0d, 0x0c, 0x11, 0x08, 0xf0, 0x1c, 0xb4, 0x08, 0xfe,
  0x04, 0x45, 0x0d, 0x2a, 0x02, 0xed, 0x07, 0x2b, 0x04, 0xff, 0xfe, 0x02,
  0x01, 0xfe, 0x00, 0xfe, 0xfd, 0x01, 0xff, 0x03, 0xff, 0x01, 0xfe, 0xfe,
  0xfc, 0xff, 0xfd, 0xfc, 0x01, 0x02, 0xfd, 0xfc, 0x04, 0x01, 0xfe, 0xfb,
  0xff, 0x04, 0x01, 0xff, 0xfd, 0x04, 0xfd, 0x02, 0xfc, 0x04, 0xfd, 0x00,
  0xfc, 0x01, 0xff, 0x0e, 0x05, 0x02, 0x03, 0x0a, 0x04, 0xfb, 0xf8, 0x01,
  0xf7, 0xf9, 0x00, 0xf3, 0xfb, 0xfa, 0xfe, 0x03, 0xfb, 0xc8, 0xfc, 0xff,
  0xfa, 0xfd, 0xfa, 0xd6, 0x08, 0x07, 0xf5, 0xde, 0xd4, 0xfe, 0xf9, 0xff,
  0xf8, 0xf1, 0x08, 0xfe, 0xfe, 0x09, 0x00, 0x08, 0xfd, 0xb7, 0xfe, 0xfd,
  0xff, 0xfd, 0xfc, 0xde, 0x07, 0x00, 0xd8, 0xbf, 0x92, 0xfb, 0xf9, 0xfc,
  0xc1, 0xdf, 0xfd, 0xfe, 0xfd, 0x06, 0x01, 0x01, 0xff, 0x81, 0xfe, 0xfb,
  0x01, 0xfe, 0xfa, 0xb5, 0x00, 0x03, 0xc3, 0xc8, 0xe9, 0xc5, 0x02, 0xfb,
  0xe6, 0xda, 0xec, 0xa7, 0x04, 0xdc, 0xfe, 0xf2, 0x04, 0x13, 0xfd, 0xef,
  0xb0, 0xcb, 0xfe, 0xd7, 0x00, 0xfe, 0xd4, 0xe8, 0x3d, 0xd4, 0x03, 0xf9,
  0xbd, 0xf0, 0xe5, 0xd5, 0xfe, 0xef, 0xfd, 0xfc, 0xff, 0x12, 0xff, 0xf7,
  0xd6, 0xd9, 0x00, 0xd6, 0x0a, 0x00, 0xfb, 0xf2, 0x12, 0xc1, 0xff, 0x02,
  0xcc, 0xeb, 0x00, 0xcf, 0xfc, 0xcc, 0x01, 0x05, 0xfd, 0x02, 0x00, 0xff,
  0xe8, 0xf4, 0x02, 0xe5, 0x1e, 0x05, 0xee, 0xfd, 0xed, 0x01, 0x03, 0x00,
  0xf5, 0x05, 0x06, 0x02, 0x0b, 0xfd, 0x00, 0x17, 0x09, 0x00, 0xfd, 0xf7,
  0xcd, 0x81, 0x02, 0xeb, 0x0f, 0x04, 0xf9, 0xf8, 0xf5, 0xfc, 0x0a, 0xf2,
  0xc1, 0x09, 0x0a, 0xef, 0x08, 0x12, 0x0f, 0xf6, 0x06, 0xce, 0xfe, 0x03,
  0xef, 0x4f, 0x0c, 0x1e, 0x1e, 0xe7, 0xeb, 0x17, 0xca, 0x15, 0x04, 0xf8,
  0xa8, 0xff, 0xcf, 0x14, 0x02, 0x03, 0x02, 0xfb, 0x03, 0x81, 0xff, 0x08,
  0xf0, 0xd0, 0x02, 0x23, 0x07, 0xf2, 0x06, 0x2c, 0xd1, 0x03, 0x00, 0xfe,
  0xbe, 0xcf, 0xef, 0xff, 0x02, 0xfd, 0x00, 0xf8, 0x03, 0x9e, 0xfe, 0x03,
  0xf3, 0xc2, 0x03, 0xe3, 0x1b, 0x08, 0xd8, 0xe2, 0xf8, 0x0d, 0x04, 0x00,
  0xd2, 0x0d, 0xed, 0x0d, 0x03, 0x00, 0x03, 0x03, 0x03, 0xcc, 0xfe, 0xfd,
  0xf8, 0xdc, 0x03, 0x32, 0x18, 0xf7, 0x20, 0x0a, 0xf1, 0xf7, 0x03, 0x00,
  0x03, 0xe9, 0xd1, 0xf0, 0x04, 0xed, 0x03, 0x04, 0x01, 0x1c, 0xfe, 0x11,
  0xf6, 0xcc, 0x03, 0xf6, 0xf0, 0xfd, 0xe9, 0x19, 0xab, 0xe9, 0x04, 0x00,
  0xa6, 0xe3, 0xf9, 0xe5, 0x07, 0xe7, 0x04, 0xff, 0x02, 0x9f, 0x00, 0x07,
  0xfe, 0xfe, 0x04, 0xfc, 0xed, 0xfc, 0xe2, 0xd9, 0x01, 0xff, 0x00, 0xfb,
  0x00, 0x02, 0x00, 0x00, 0xfc, 0x06, 0xfe, 0x00, 0xfb, 0xff, 0xfe, 0x00,
  0xf8, 0xee, 0xfe, 0x07, 0x03, 0xfc, 0x02, 0x09, 0xfd, 0xfa, 0xfd, 0x01,
  0xfe, 0xf9, 0xff, 0xf4, 0xfc, 0xf5, 0xfe, 0xff, 0xfc, 0x2f, 0xfe, 0x03,
  0xf3, 0xeb, 0xfd, 0xe8, 0x04, 0x01, 0xf6, 0xf6, 0x16, 0x02, 0xfd, 0xff,
  0xf9, 0x00, 0x06, 0xff, 0xfe, 0x03, 0xfe, 0x04, 0xfd, 0xfb, 0xff, 0x02,
  0xea, 0x0c, 0xfe, 0x0b, 0x09, 0x04, 0x03, 0xe4, 0xf6, 0xff, 0xfc, 0xfd,
  0xea, 0xf8, 0xfe, 0xfd, 0xfb, 0xfc, 0xfe, 0x05, 0xfc, 0x56, 0xfe, 0xf9,
  0xd3, 0x04, 0xfb, 0xda, 0x01, 0x01, 0xf2, 0xfb, 0x09, 0xf3, 0xfb, 0xfb,
  0xa8, 0xea, 0x07, 0xed, 0xf8, 0xeb, 0xfe, 0x01, 0xfd, 0x81, 0xff, 0xf5,
  0xfa, 0x0e, 0xf9, 0x9e, 0x10, 0x00, 0xcd, 0xc5, 0xf9, 0x00, 0xf5, 0x00,
  0xed, 0xf7, 0xfe, 0xf3, 0xf7, 0xf8, 0xfd, 0xfd, 0xfe, 0xb3, 0x00, 0x06,
  0xf6, 0xca, 0xf5, 0xf3, 0x07, 0x06, 0xf4, 0xf2, 0xfc, 0x03, 0xf8, 0x01,
  0xee, 0x07, 0x0f, 0x00, 0xf8, 0x08, 0xfb, 0x05, 0xfc, 0xee, 0x01, 0x07,
  0xfa, 0xea, 0xf9, 0x10, 0x04, 0x03, 0x08, 0xe1, 0xf8, 0x00, 0xfb, 0xfe,
  0xf3, 0xf5, 0xf5, 0xfb, 0xf9, 0x06, 0xfc, 0x03, 0xfa, 0x18, 0x00, 0xfe,
  0x03, 0xf7, 0xf7, 0xe9, 0xf6, 0x04, 0xe9, 0x0b, 0x06, 0x02, 0xf8, 0x00,
  0x06, 0xf8, 0xfd, 0x02, 0xfa, 0x03, 0xfb, 0x0a, 0xfb, 0xd0, 0xff, 0xfe,
  0xfe, 0xf0, 0xf7, 0xdf, 0x01, 0x04, 0xea, 0xe2, 0x81, 0x02, 0xf7, 0x00,
  0xb3, 0xf1, 0xfd, 0x02, 0xfa, 0x07, 0xfe, 0x10, 0xfe, 0x9e, 0xfc, 0x00,
  0xfb, 0xf6, 0xf6, 0xbd, 0x04, 0x01, 0xe2, 0xdc, 0x00, 0xff, 0x02, 0x00,
  0x02, 0x01, 0x00, 0x00, 0x01, 0x01, 0x00, 0x01, 0x02, 0x01, 0x01, 0xfd,
  0xd5, 0xe3, 0x02, 0x02, 0x01, 0x01, 0x01, 0x02, 0x00, 0x00, 0x00, 0xff,
  0x05, 0xfe, 0x00, 0xfb, 0x01, 0xf9, 0x01, 0x00, 0x01, 0x08, 0x00, 0xfc,
  0xfb, 0x02, 0x02, 0xf8, 0xff, 0xff, 0xfd, 0xfe, 0x08, 0xfe, 0xfe, 0x01,
  0xfd, 0xf9, 0x01, 0xf7, 0x01, 0xf8, 0x01, 0x00, 0x03, 0x07, 0x01, 0xfa,
  0x03, 0xf3, 0x01, 0xf9, 0x05, 0x02, 0xf7, 0xfa, 0xfc, 0x03, 0x01, 0xfd,
  0xe0, 0x01, 0xff, 0x01, 0x01, 0x03, 0x01, 0x03, 0x02, 0xe6, 0xff, 0xf6,
  0xfe, 0xc5, 0xff, 0xfd, 0x06, 0x02, 0x03, 0x05, 0xf4, 0x05, 0x03, 0xee,
  0xca, 0x05, 0xff, 0x01, 0x03, 0x06, 0x03, 0xfc, 0xff, 0xd3, 0x01, 0x81,
  0xf8, 0xdc, 0xff, 0x0a, 0x0c, 0xf3, 0x07, 0x19, 0x00, 0x01, 0xfe, 0x04,
  0x01, 0x00, 0x00, 0xff, 0xfe, 0x00, 0xfd, 0x10, 0xff, 0x01, 0x04, 0x02,
  0xfc, 0x07, 0xfa, 0x01, 0x05, 0x05, 0x00, 0x04, 0x07, 0xfb, 0xfe, 0x01,
  0x03, 0xfe, 0x00, 0xfd, 0x01, 0xff, 0xfe, 0x09, 0x02, 0x06, 0x03, 0x01,
  0x9d, 0xbe, 0xfe, 0xff, 0x07, 0x03, 0xfd, 0xf8, 0x0c, 0xfd, 0xfd, 0xfe,
  0x03, 0x00, 0x00, 0xfc, 0x00, 0xfd, 0x05, 0x06, 0x03, 0xf7, 0xfb, 0xf6,
  0xc4, 0xdc, 0x02, 0xf2, 0x07, 0x04, 0xfd, 0xf5, 0xce, 0x04, 0x05, 0x00,
  0xed, 0x06, 0x06, 0x05, 0x08, 0x00, 0x09, 0x05, 0x08, 0xe2, 0xfe, 0xf9,
  0xaa, 0xc8, 0x07, 0x03, 0x07, 0xf8, 0x07, 0x01, 0xee, 0x11, 0x09, 0xed,
  0xac, 0x0c, 0x05, 0x0b, 0x09, 0x12, 0x02, 0xea, 0x06, 0xa6, 0x00, 0xea,
  0xea, 0x81, 0x07, 0x21, 0xee, 0xf9, 0x12, 0x53, 0x01, 0x02, 0x05, 0x00,
  0xff, 0x00, 0x00, 0x01, 0x04, 0xff, 0xff, 0xfe, 0x00, 0x03, 0x01, 0x00,
  0x00, 0x0a, 0x01, 0xfd, 0x02, 0x02, 0x00, 0xff, 0x05, 0x01, 0x02, 0x01,
  0x01, 0xfe, 0x00, 0xfe, 0x01, 0xfe, 0xfe, 0xfe, 0xfc, 0x07, 0x03, 0x01,
  0xfd, 0xf7, 0x00, 0xfc, 0x03, 0x02, 0xff, 0xff, 0x09, 0xfe, 0x00, 0xff,
  0xfd, 0x02, 0xff, 0x04, 0xfe, 0x03, 0xff, 0x00, 0xfe, 0x0f, 0x02, 0x05,
  0xf7, 0xda, 0x00, 0x04, 0x04, 0xff, 0x02, 0x08, 0x01, 0xf9, 0xfe, 0xff,
  0xef, 0x00, 0xff, 0xf0, 0xfe, 0xe3, 0x01, 0x00, 0xfd, 0xfd, 0xfe, 0x02,
  0xf7, 0xe3, 0xff, 0xe9, 0x06, 0x03, 0xfe, 0xf7, 0xa9, 0xea, 0x00, 0x03,
  0xe3, 0xf1, 0x02, 0xe4, 0xfe, 0xe9, 0x03, 0xf2, 0x02, 0x81, 0x00, 0x04,
  0xfe, 0xec, 0x00, 0xdc, 0x08, 0xfd, 0xdf, 0xc1, 0xff, 0x00, 0x02, 0xff,
  0x03, 0x01, 0x00, 0x01, 0x09, 0x00, 0x08, 0x02, 0x04, 0x01, 0xe7, 0xff,
  0x02, 0x04, 0x04, 0x00, 0x01, 0x00, 0x00, 0x06, 0x02, 0x00, 0x04, 0xff,
  0x03, 0x00, 0x01, 0xff, 0x05, 0xff, 0x04, 0x03, 0x07, 0xff, 0xe2, 0x00,
  0x01, 0x04, 0x02, 0x00, 0x01, 0x01, 0x00, 0xfe, 0x02, 0xfe, 0x00, 0xfc,
  0x01, 0x00, 0x00, 0x00, 0x01, 0x00, 0x00, 0x0a, 0x06, 0x02, 0xe0, 0x01,
  0xed, 0xbe, 0x00, 0x00, 0x03, 0x01, 0x01, 0xfc, 0x07, 0xfc, 0x02, 0xf1,
  0x02, 0xff, 0x01, 0x00, 0x04, 0xff, 0x04, 0x03, 0x03, 0xf7, 0xef, 0xf8,
  0xf4, 0x9d, 0xfe, 0xf9, 0x06, 0xf5, 0xff, 0xe8, 0xdd, 0x01, 0x04, 0x81,
  0xfd, 0x02, 0x01, 0x04, 0x0a, 0xf7, 0x09, 0xed, 0x02, 0xb8, 0x04, 0xa7,
  0xfb, 0xc6, 0x0c, 0x1b, 0x07, 0xb4, 0x04, 0x0a, 0x0c, 0xfb, 0x03, 0x04,
  0xf4, 0xfc, 0x02, 0xf8, 0x02, 0xf8, 0x01, 0x03, 0x00, 0x0f, 0xff, 0xf1,
  0xf8, 0xf5, 0x03, 0x03, 0x0a, 0x01, 0xfd, 0xf0, 0xf3, 0x01, 0xff, 0x02,
  0x03, 0xfc, 0xf9, 0xfa, 0x01, 0xfd, 0x02, 0xff, 0xfd, 0xf0, 0xff, 0xf7,
  0x01, 0xf6, 0x01, 0xf9, 0xde, 0xfe, 0xf9, 0xf3, 0xfd, 0xec, 0x00, 0xff,
  0x00, 0xe6, 0x00, 0xda, 0x02, 0xd3, 0x00, 0xff, 0x01, 0xed, 0x00, 0xf8,
  0xee, 0xee, 0x00, 0x07, 0xf1, 0x01, 0xf6, 0xf9, 0x8b, 0x04, 0x02, 0xf3,
  0xa4, 0x04, 0xf4, 0x09, 0x03, 0x07, 0x01, 0xfc, 0x04, 0x81, 0x02, 0xc9,
  0xf3, 0xf2, 0x02, 0x06, 0xfc, 0xf5, 0x05, 0x06, 0xbb, 0x00, 0x01, 0x00,
  0xeb, 0xfa, 0xdb, 0x03, 0xff, 0x0b, 0xff, 0x01, 0x04, 0xa0, 0x00, 0x00,
  0xfe, 0x04, 0xfe, 0x2a, 0xa6, 0x03, 0xfa, 0x00, 0xef, 0x07, 0x01, 0xfd,
  0xed, 0x02, 0x01, 0x03, 0xff, 0x00, 0xff, 0xfc, 0x01, 0xea, 0xe8, 0xff,
  0xea, 0xc4, 0x00, 0xfc, 0xed, 0xfe, 0x06, 0x02, 0xf3, 0x04, 0x01, 0xfe,
  0xe6, 0x04, 0xfe, 0x02, 0x02, 0x04, 0x02, 0xfa, 0x02, 0xa0, 0xdf, 0xfd,
  0x04, 0xf3, 0x04, 0x00, 0xe6, 0x01, 0x05, 0x09, 0xef, 0x06, 0x01, 0x05,
  0xe6, 0x05, 0xfe, 0x02, 0x04, 0x03, 0x06, 0xfc, 0x01, 0xaa, 0xcd, 0x00,
  0xff, 0xe1, 0x04, 0x03, 0xd6, 0x02, 0x08, 0x10, 0x00, 0x03, 0x03, 0xfe,
  0xec, 0x06, 0x00, 0x00, 0x07, 0x00, 0x02, 0xf5, 0x01, 0xf5, 0xf5, 0xff,
  0xcd, 0xc4, 0x05, 0x0c, 0xe1, 0xfb, 0x0b, 0x16, 0x06, 0xf6, 0xfc, 0x0a,
  0x9f, 0xdf, 0xff, 0x06, 0xf9, 0x1b, 0xfc, 0xff, 0xf9, 0x9e, 0x09, 0x02,
  0xd7, 0xe7, 0xf7, 0x7f, 0xcf, 0x08, 0xe2, 0xa2, 0x01, 0x01, 0xfe, 0xff,
  0x0b, 0xfe, 0xff, 0xfe, 0x03, 0xfc, 0x04, 0x00, 0x02, 0x09, 0x00, 0xf1,
  0xd2, 0x06, 0x01, 0x01, 0xfe, 0x01, 0xff, 0xf9, 0x04, 0x00, 0xff, 0x00,
  0x00, 0xff, 0x01, 0xfe, 0x00, 0xfe, 0xfe, 0x03, 0x00, 0x0d, 0xfe, 0xf7,
  0xa7, 0xae, 0xff, 0xff, 0xff, 0xfe, 0x00, 0xf8, 0x12, 0xfd, 0xfd, 0x00,
  0x03, 0xfa, 0xfe, 0xf9, 0xff, 0xf9, 0xfe, 0x05, 0xff, 0x03, 0xfe, 0xf5,
  0xe0, 0xc3, 0xfe, 0xf4, 0xfb, 0x03, 0xf7, 0xf9, 0xe6, 0x05, 0x03, 0x04,
  0xf6, 0x01, 0xfe, 0x02, 0xfc, 0x01, 0xfe, 0x0b, 0x07, 0xef, 0x00, 0xf3,
  0xe4, 0xb0, 0x00, 0xfd, 0x09, 0x01, 0x05, 0xf7, 0xe6, 0x05, 0x08, 0xef,
  0xa8, 0x14, 0x03, 0x0c, 0x0d, 0x09, 0x09, 0xf5, 0x04, 0xa8, 0x04, 0xe3,
  0xf9, 0x81, 0x09, 0x19, 0x10, 0xeb, 0x0e, 0x37, 0x2d, 0xfa, 0x06, 0xf9,
  0xe7, 0xec, 0xf0, 0xfa, 0x0a, 0x07, 0x07, 0x01, 0xfe, 0x3d, 0xb6, 0xf6,
  0xfc, 0xef, 0x01, 0xc1, 0xee, 0x04, 0xf4, 0x24, 0x02, 0x08, 0xfd, 0xfc,
  0xed, 0x03, 0xc6, 0x0d, 0x02, 0x0d, 0x03, 0xf6, 0x00, 0x1c, 0x86, 0xfb,
  0xff, 0xf8, 0x06, 0xed, 0xed, 0x00, 0x04, 0x04, 0x08, 0x01, 0xfd, 0xfd,
  0xf2, 0x08, 0xfc, 0x00, 0xfc, 0xff, 0x0b, 0xed, 0xfd, 0x06, 0x81, 0x03,
  0xfe, 0xfd, 0xfe, 0x04, 0xec, 0xfa, 0x09, 0xf8, 0xf9, 0x03, 0x05, 0xf8,
  0xd7, 0x0a, 0x02, 0x08, 0x0b, 0x09, 0x08, 0xe3, 0x0b, 0xf0, 0xe6, 0x02,
  0x03, 0xfb, 0x02, 0x02, 0xf2, 0xf5, 0x02, 0x1d, 0x00, 0x16, 0x13, 0xf8,
  0x10, 0x0c, 0xfd, 0x0c, 0x20, 0x06, 0x1a, 0xf4, 0x18, 0x0a, 0xbe, 0xef,
  0x35, 0xff, 0x1b, 0x1e, 0xf6, 0xfa, 0x09, 0x15, 0x0f, 0xfa, 0xfe, 0x00,
  0xfc, 0xfc, 0x00, 0xfb, 0xfe, 0xff, 0xff, 0x07, 0x01, 0x00, 0x01, 0xf8,
  0xae, 0xae, 0xfe, 0xff, 0x09, 0x00, 0xfc, 0xf3, 0x00, 0xfc, 0x00, 0xfd,
  0xfc, 0xff, 0x00, 0xfa, 0x02, 0xfd, 0xff, 0x07, 0x00, 0x03, 0xff, 0xf9,
  0xee, 0xe9, 0xff, 0xf8, 0x0a, 0xfc, 0xfa, 0xf6, 0xea, 0x00, 0x03, 0xfd,
  0xf5, 0x00, 0x08, 0xfc, 0x03, 0xff, 0x00, 0x01, 0x04, 0x0c, 0xfe, 0xf6,
  0xfb, 0xe6, 0x04, 0xfd, 0x05, 0xfb, 0x00, 0xec, 0xc5, 0x06, 0x00, 0xfc,
  0xc2, 0x03, 0x0d, 0x02, 0x05, 0x08, 0x03, 0xff, 0x03, 0xa5, 0x00, 0xfe,
  0xf7, 0xe0, 0x04, 0x05, 0xf3, 0xfb, 0x05, 0x10, 0xd5, 0x02, 0xff, 0xf8,
  0x81, 0x0d, 0x01, 0x0d, 0xff, 0x04, 0x04, 0xf8, 0x02, 0xaa, 0x01, 0x00,
  0xe2, 0xc9, 0x00, 0x0f, 0xe7, 0x07, 0x11, 0x36, 0x07, 0x06, 0x04, 0xfa,
  0x05, 0xff, 0xff, 0x07, 0xfe, 0x02, 0xfc, 0x06, 0x05, 0xfa, 0xe6, 0xf4,
  0xd6, 0x81, 0x03, 0xf7, 0x04, 0xff, 0xfc, 0xf3, 0xd2, 0x04, 0x04, 0xff,
  0xf3, 0xfe, 0x01, 0x08, 0xfe, 0x04, 0x03, 0xfc, 0x00, 0xf5, 0xdb, 0xfd,
  0x04, 0xbe, 0x01, 0xee, 0xff, 0xfb, 0x01, 0xf5, 0xef, 0x02, 0xfd, 0xff,
  0x01, 0x00, 0x01, 0x03, 0x01, 0x00, 0x05, 0xf0, 0xfe, 0xfe, 0xd9, 0x01,
  0x02, 0xfb, 0x00, 0xf2, 0xee, 0xfb, 0x01, 0x00, 0xfe, 0x01, 0x03, 0xff,
  0xe5, 0x05, 0xfd, 0x00, 0x08, 0x00, 0x07, 0xf9, 0x03, 0x02, 0xf9, 0x05,
  0x01, 0x03, 0x01, 0x03, 0xf1, 0xfc, 0x04, 0x0f, 0x07, 0x0a, 0x01, 0xf0,
  0xdc, 0x0b, 0xfc, 0x00, 0x09, 0x02, 0x08, 0xf3, 0x04, 0x11, 0xf9, 0xd9,
  0xd9, 0xc9, 0x09, 0x11, 0xfc, 0xf9, 0x0a, 0x23, 0xfb, 0xf8, 0x01, 0x05,
  0x02, 0xf9, 0x04, 0xf8, 0x03, 0xfa, 0x01, 0x01, 0x02, 0xee, 0x00, 0xe7,
  0xf8, 0xe6, 0x02, 0x08, 0xfe, 0xff, 0x01, 0xe3, 0x00, 0xf6, 0x02, 0x00,
  0xfb, 0xf1, 0xec, 0xeb, 0x03, 0xf6, 0x01, 0xff, 0x07, 0xec, 0x00, 0xe8,
  0xee, 0xe6, 0x02, 0xfd, 0xea, 0xfc, 0xf3, 0xe6, 0x12, 0xeb, 0x02, 0xfc,
  0x08, 0x00, 0xfa, 0xee, 0x01, 0xf9, 0x02, 0xff, 0x01, 0xf6, 0x00, 0xeb,
  0xf0, 0xe7, 0x03, 0x01, 0x03, 0xfe, 0x01, 0xe1, 0x9d, 0x03, 0x01, 0x00,
  0xde, 0xf5, 0xf1, 0x02, 0xff, 0x0a, 0x00, 0x03, 0xfd, 0xc2, 0xff, 0xf5,
  0xf4, 0xe8, 0xff, 0x06, 0xe7, 0x03, 0xfc, 0xfb, 0x98, 0xf9, 0xff, 0xf8,
  0xe5, 0x10, 0xe6, 0x0a, 0xff, 0x05, 0x00, 0x03, 0xfe, 0x81, 0x00, 0xf3,
  0xf0, 0xcd, 0xfe, 0xfc, 0xfd, 0xf9, 0x02, 0x1b, 0x00, 0xf9, 0x00, 0xfc,
  0xfa, 0xff, 0x00, 0xfe, 0xff, 0x01, 0xfe, 0x00, 0xfe, 0xec, 0xfe, 0xf4,
  0xcd, 0x1f, 0xff, 0x00, 0x0c, 0x03, 0x01, 0xf2, 0xeb, 0xf3, 0xff, 0xff,
  0xc9, 0xf6, 0xf3, 0xeb, 0xfe, 0xd9, 0x00, 0xfc, 0xff, 0xf2, 0xfe, 0xff,
  0xd8, 0x03, 0xfe, 0xf6, 0x18, 0xff, 0xfa, 0xfb, 0xa2, 0x00, 0x00, 0xfe,
  0xa3, 0xfc, 0x16, 0xff, 0x01, 0x00, 0x01, 0xff, 0x00, 0xc2, 0xfe, 0xff,
  0xe2, 0xfe, 0x00, 0xf2, 0x11, 0x00, 0x01, 0xcd, 0xcf, 0xde, 0x02, 0xfa,
  0xfe, 0xd4, 0xf9, 0xd6, 0x01, 0xc6, 0x02, 0xfa, 0xfe, 0xde, 0xfe, 0xfc,
  0x02, 0xfb, 0x01, 0xd2, 0xfc, 0xfc, 0xbe, 0xf5, 0x00, 0x9a, 0x02, 0xff,
  0xf2, 0xb5, 0x08, 0xc4, 0xfe, 0xd7, 0x00, 0x01, 0xfd, 0xd5, 0xfe, 0xff,
  0x01, 0x05, 0xff, 0xbe, 0xf9, 0x02, 0x81, 0x0b, 0xff, 0x03, 0x07, 0xfe,
  0xfd, 0x00, 0x00, 0x02, 0x03, 0xff, 0xfd, 0x03, 0xff, 0x00, 0x03, 0x02,
  0xfd, 0x09, 0x02, 0xfe, 0x05, 0xfe, 0x00, 0x02, 0x03, 0x00, 0x00, 0x03,
  0x01, 0xfe, 0x00, 0xff, 0xfc, 0xff, 0x00, 0x02, 0xfe, 0x05, 0xff, 0x03,
  0xf9, 0x03, 0xfd, 0xfb, 0x05, 0x01, 0xff, 0x06, 0x0a, 0x00, 0xfc, 0xfd,
  0x05, 0x01, 0xff, 0x04, 0xf7, 0x05, 0xff, 0x02, 0xfa, 0x08, 0x02, 0x09,
  0xf3, 0xb8, 0xfc, 0x05, 0x01, 0x02, 0x04, 0x09, 0x08, 0xfe, 0xf9, 0x00,
  0xf2, 0xff, 0xff, 0xf5, 0xfa, 0xe5, 0xfb, 0x07, 0xf8, 0x2e, 0x00, 0x06,
  0xf8, 0xa6, 0xfc, 0xdf, 0x09, 0x07, 0xfe, 0xf8, 0x81, 0xe8, 0xf9, 0x02,
  0xf0, 0xe9, 0x05, 0xde, 0x00, 0xe1, 0x01, 0xfe, 0x03, 0x9e, 0xff, 0x04,
  0xf8, 0xa3, 0xfc, 0xa4, 0x0c, 0xf3, 0xc5, 0x89, 0x01, 0x00, 0x08, 0x00,
  0x00, 0x01, 0x00, 0x00, 0x03, 0x01, 0x02, 0x06, 0xfc, 0xff, 0xf2, 0x00,
  0xfd, 0xfd, 0x05, 0x01, 0x01, 0xff, 0x01, 0x06, 0x03, 0xff, 0x03, 0xff,
  0x00, 0x01, 0x00, 0x03, 0x03, 0x03, 0x01, 0x01, 0x00, 0xfd, 0xe1, 0x00,
  0xff, 0x01, 0x05, 0x00, 0x02, 0x01, 0x01, 0xff, 0x01, 0x01, 0x01, 0x01,
  0x00, 0x02, 0xff, 0x03, 0xff, 0x03, 0x02, 0x05, 0xfc, 0xff, 0xda, 0x00,
  0x01, 0x00, 0xff, 0x00, 0xfe, 0x05, 0x02, 0xf8, 0xfd, 0xfe, 0xfd, 0xf9,
  0xff, 0xff, 0xff, 0xff, 0x06, 0xff, 0x01, 0xfe, 0x07, 0xfe, 0xf0, 0xfb,
  0x98, 0x81, 0x04, 0xfb, 0x00, 0xef, 0xff, 0xef, 0x03, 0x04, 0x06, 0xc1,
  0x0a, 0x02, 0x01, 0x02, 0x0b, 0x02, 0x0d, 0xf4, 0x13, 0xc9, 0xf7, 0xce,
  0xd0, 0xe0, 0x05, 0x17, 0xf9, 0xe2, 0x05, 0x1c, 0x01, 0x00, 0x00, 0x01,
  0xff, 0x02, 0x00, 0x05, 0x0a, 0x03, 0x07, 0x12, 0x00, 0x0a, 0x02, 0xfc,
  0x81, 0xd6, 0x04, 0x07, 0x04, 0x01, 0x03, 0x04, 0x00, 0xfd, 0xfd, 0x02,
  0x0b, 0xf7, 0xfd, 0xf2, 0xff, 0xea, 0x00, 0x0c, 0x0b, 0x1e, 0x05, 0xfa,
  0xd8, 0xc6, 0x01, 0xee, 0x0c, 0x03, 0xf2, 0x07, 0x1a, 0xf6, 0x07, 0x02,
  0x03, 0xf6, 0x01, 0xfb, 0x02, 0xf6, 0x05, 0x05, 0x01, 0xf6, 0x00, 0xf1,
  0xf6, 0xee, 0xfe, 0xf2, 0x07, 0x03, 0xf8, 0xec, 0xef, 0x0f, 0xff, 0x07,
  0xa9, 0x09, 0xfd, 0x09, 0xff, 0x11, 0x05, 0x09, 0x09, 0xd3, 0xff, 0xff,
  0xf9, 0xfc, 0x00, 0xfb, 0x07, 0x09, 0x09, 0xfc, 0xdd, 0x0f, 0x10, 0xc7,
  0x91, 0x13, 0x06, 0x1d, 0x12, 0x1c, 0x01, 0xe6, 0x0e, 0xaf, 0xfd, 0x83,
  0xff, 0x90, 0x10, 0x25, 0x03, 0xcd, 0x1f, 0x70, 0xc9, 0xf7, 0x04, 0xfd,
  0xc3, 0xe2, 0xdf, 0xec, 0x09, 0xb0, 0x0a, 0xfd, 0x07, 0xb9, 0xeb, 0xfa,
  0x8f, 0x8b, 0x06, 0xff, 0xff, 0xfe, 0xf3, 0xfe, 0xe4, 0x03, 0x06, 0xf9,
  0x95, 0x02, 0x23, 0x12, 0x0b, 0x0c, 0x07, 0x03, 0x06, 0xa7, 0xee, 0x0a,
  0xbe, 0x08, 0x08, 0x12, 0x0c, 0xfb, 0x0c, 0xe1, 0xd8, 0xeb, 0x07, 0xf9,
  0xd4, 0xdf, 0xac, 0xf0, 0x0a, 0xbe, 0x0a, 0xfd, 0x06, 0xf4, 0xe8, 0xfd,
  0xcd, 0xc0, 0x07, 0x10, 0xdd, 0xf9, 0xeb, 0x18, 0xf4, 0xcb, 0x06, 0xfd,
  0xbd, 0xdb, 0x0e, 0xdd, 0x0c, 0xd9, 0x08, 0x07, 0x07, 0xeb, 0xe5, 0x0a,
  0xe9, 0xda, 0x09, 0xf5, 0x0d, 0xfa, 0xdd, 0xd2, 0xd6, 0x81, 0x08, 0xf3,
  0xdf, 0xb8, 0xc3, 0xba, 0x0a, 0xb9, 0x0a, 0xf9, 0x04, 0x3d, 0xf1, 0x01,
  0x06, 0x12, 0x06, 0xe3, 0xf2, 0xf1, 0xac, 0xed, 0xf5, 0xc9, 0x06, 0x00,
  0xff, 0xe9, 0xe1, 0xd5, 0x00, 0xef, 0xfe, 0xfc, 0x03, 0xfd, 0xff, 0xf4,
  0xd4, 0xf8, 0xff, 0xf1, 0xe9, 0x00, 0xe6, 0xdf, 0xfe, 0xeb, 0x06, 0x02,
  0xf8, 0xf0, 0xfd, 0xec, 0x03, 0xf1, 0x00, 0x01, 0x02, 0xd9, 0x00, 0xfc,
  0xe9, 0xf9, 0x04, 0xf5, 0xfb, 0xfe, 0xee, 0xe5, 0xff, 0xdb, 0x01, 0x02,
  0xf7, 0xe3, 0x11, 0xd6, 0x02, 0xd7, 0x01, 0x02, 0x01, 0xd6, 0xfe, 0xfa,
  0xf1, 0xf7, 0x02, 0xfc, 0xf3, 0x05, 0xed, 0xeb, 0xd7, 0x06, 0x02, 0xf0,
  0x81, 0x02, 0x0e, 0x06, 0x03, 0x04, 0x04, 0xf7, 0x02, 0xb4, 0x00, 0xde,
  0xf2, 0xf0, 0x02, 0x10, 0x07, 0xf4, 0x03, 0x0c, 0xe4, 0xf8, 0xfa, 0xff,
  0xcd, 0xf3, 0xf7, 0x02, 0x00, 0x14, 0x00, 0x02, 0xfa, 0x8a, 0x02, 0x02,
  0x01, 0xfd, 0xff, 0x15, 0x0c, 0x02, 0xfc, 0x03, 0xff, 0x03, 0x01, 0x00,
  0x04, 0xfa, 0x00, 0xf1, 0x02, 0xf5, 0x02, 0xfe, 0x03, 0xfe, 0xe6, 0xf4,
  0xcc, 0xd6, 0x00, 0xfc, 0xfc, 0x00, 0xfa, 0xfc, 0x05, 0x01, 0x02, 0xfe,
  0xfa, 0xf3, 0x00, 0xf2, 0x03, 0xfa, 0x01, 0x02, 0x02, 0xd2, 0xe5, 0xf8,
  0xdb, 0xd9, 0xff, 0xf4, 0xf4, 0xff, 0xee, 0x08, 0x1a, 0xf8, 0x04, 0xfb,
  0xee, 0xf7, 0xfa, 0xf7, 0x03, 0xfd, 0xff, 0x03, 0x03, 0xf4, 0xe7, 0xf9,
  0xf2, 0xd3, 0x02, 0xf5, 0x02, 0xfd, 0xf6, 0xfc, 0x81, 0x01, 0x02, 0xfb,
  0xc0, 0x00, 0x04, 0xfe, 0x02, 0xfe, 0x02, 0xfc, 0x01, 0xb9, 0xf6, 0xff,
  0xe8, 0xe1, 0x05, 0xfa, 0x11, 0xfd, 0xfb, 0xef, 0xc6, 0x0b, 0xfd, 0xf5,
  0x87, 0x04, 0x02, 0xfa, 0xfa, 0xf7, 0x00, 0xf5, 0xf7, 0x90, 0x14, 0x15,
  0xd8, 0xc5, 0xfe, 0x07, 0x0e, 0xf3, 0x0b, 0x0a, 0xf3, 0x06, 0xf5, 0xfe,
  0xd9, 0xfc, 0x01, 0x04, 0xdb, 0xf5, 0xcc, 0xf2, 0xe9, 0xf7, 0x03, 0xfa,
  0x00, 0xc4, 0xf4, 0x09, 0x00, 0x02, 0xf6, 0xf6, 0xee, 0x0e, 0x02, 0xfa,
  0xd6, 0x03, 0x03, 0xfc, 0xe0, 0xf8, 0xcf, 0x06, 0xe9, 0xf7, 0x00, 0xf1,
  0x15, 0xc0, 0xfa, 0xcb, 0xf4, 0x07, 0xed, 0xf2, 0xf0, 0x0a, 0x03, 0xf8,
  0xc2, 0x07, 0x1c, 0xfd, 0xe3, 0xf8, 0xc8, 0x0e, 0xe7, 0xef, 0xff, 0xb5,
  0x81, 0xcb, 0xfc, 0xf5, 0xda, 0xff, 0xff, 0xe8, 0xeb, 0x05, 0xf5, 0x04,
  0xd1, 0x0c, 0x07, 0x03, 0xd8, 0x08, 0xe3, 0xcf, 0xe4, 0xec, 0x06, 0xef,
  0xc0, 0xd9, 0xf1, 0x08, 0xf6, 0x03, 0x0d, 0xf8, 0xef, 0x0e, 0xee, 0x0e,
  0xe3, 0x10, 0xfa, 0x07, 0xe1, 0x0b, 0xeb, 0xda, 0xe7, 0xda, 0x11, 0x06,
  0xc4, 0x98, 0xed, 0x30, 0xf6, 0x26, 0x18, 0x27, 0xdb, 0x11, 0xf9, 0xf7,
  0xba, 0x02, 0x00, 0x07, 0xff, 0xff, 0x09, 0xf2, 0xf2, 0xd7, 0x9e, 0xea,
  0xf6, 0xee, 0x00, 0x01, 0xd1, 0xfa, 0x09, 0x0f, 0xe2, 0x0b, 0xf9, 0xfe,
  0xee, 0x02, 0xfd, 0x04, 0x01, 0x04, 0x07, 0xf7, 0xec, 0xfb, 0x81, 0xee,
  0x0a, 0xe7, 0x01, 0x09, 0xc0, 0x01, 0x07, 0x12, 0xe7, 0x08, 0x00, 0x01,
  0xe5, 0x04, 0xfb, 0x00, 0xfd, 0xfe, 0x05, 0x08, 0xf1, 0x05, 0x81, 0x04,
  0xe7, 0xb7, 0xfd, 0x05, 0xc1, 0xfa, 0x03, 0x19, 0x05, 0xf4, 0xfa, 0x0a,
  0x02, 0xf4, 0xf8, 0x02, 0x01, 0xff, 0x00, 0x0c, 0xed, 0x0f, 0xe8, 0x08,
  0xde, 0xce, 0x02, 0xfc, 0xf2, 0x04, 0xfb, 0xee, 0xf0, 0x05, 0x20, 0x02,
  0xe6, 0xfc, 0x06, 0xff, 0x1a, 0xf1, 0xff, 0xef, 0x4c, 0xf5, 0xfa, 0x02,
  0xed, 0xba, 0x12, 0xfc, 0x03, 0xfa, 0x1c, 0x19, 0x03, 0x05, 0xfe, 0xfe,
  0x81, 0x07, 0x03, 0x0a, 0x00, 0x16, 0x01, 0x03, 0x04, 0xae, 0xff, 0x15,
  0xe1, 0xc8, 0xff, 0x1e, 0x15, 0x00, 0x0e, 0xe3, 0xb5, 0x07, 0x02, 0xfb,
  0xd3, 0xf1, 0xa4, 0x0b, 0x01, 0x13, 0x01, 0x02, 0x02, 0xfb, 0xfe, 0x03,
  0xe3, 0xb1, 0x00, 0x29, 0xa6, 0xf7, 0xec, 0x38, 0xd3, 0xfa, 0xff, 0x02,
  0x8b, 0xff, 0xf6, 0x0f, 0x01, 0x10, 0x01, 0x05, 0x02, 0xec, 0xfc, 0x04,
  0xef, 0xdc, 0xff, 0x1c, 0x00, 0x05, 0x0a, 0xda, 0xc2, 0xf1, 0x03, 0xf9,
  0xcc, 0xea, 0xd6, 0xf4, 0x04, 0xf8, 0x02, 0x04, 0x01, 0xa9, 0xff, 0x01,
  0xf6, 0xeb, 0x03, 0xff, 0x0e, 0xf7, 0xeb, 0xf3, 0xce, 0xf1, 0x03, 0xfa,
  0xb4, 0xdf, 0xcb, 0xed, 0x04, 0xf3, 0x04, 0xfb, 0x02, 0x8f, 0x01, 0x0d,
  0xf9, 0xfa, 0x03, 0xf7, 0xfe, 0xfe, 0xdc, 0xd3, 0xde, 0xfe, 0xff, 0xff,
  0x04, 0x00, 0x00, 0x00, 0x80, 0x00, 0x00, 0x00, 0x3a, 0x02, 0x00, 0x00,
  0x14, 0x00, 0x00, 0x00, 0x7c, 0x00, 0x00, 0x00, 0xdb, 0xff, 0xff, 0xff,
  0xdc, 0x01, 0x00, 0x00, 0xb0, 0xff, 0xff, 0xff, 0x99, 0x01, 0x00, 0x00,
  0x17, 0x01, 0x00, 0x00, 0xeb, 0x00, 0x00, 0x00, 0xbb, 0x01, 0x00, 0x00,
  0x04, 0x01, 0x00, 0x00, 0x3b, 0x00, 0x00, 0x00, 0xb6, 0xff, 0xff, 0xff,
  0x9f, 0x01, 0x00, 0x00, 0x24, 0x00, 0x00, 0x00, 0x4b, 0x00, 0x00, 0x00,
  0xf8, 0xff, 0xff, 0xff, 0x43, 0x00, 0x00, 0x00, 0xcd, 0x01, 0x00, 0x00,
  0x56, 0x00, 0x00, 0x00, 0x40, 0x01, 0x00, 0x00, 0x6f, 0x00, 0x00, 0x00,
  0x80, 0x01, 0x00, 0x00, 0x1f, 0x03, 0x00, 0x00, 0x6c, 0x00, 0x00, 0x00,
  0x0c, 0x00, 0x00, 0x00, 0x04, 0x01, 0x00, 0x00, 0xe9, 0x00, 0x00, 0x00,
  0xfb, 0x00, 0x00, 0x00, 0x69, 0x00, 0x00, 0x00, 0x69, 0x00, 0x00, 0x00,
  0x22, 0x01, 0x00, 0x00, 0x6a, 0xff, 0xff, 0xff, 0x04, 0x00, 0x00, 0x00,
  0x20, 0x00, 0x00, 0x00, 0xd5, 0x55, 0x3d, 0x33, 0xbf, 0x20, 0xcf, 0x41,
  0xbc, 0xc0, 0xca, 0x25, 0x1a, 0xdf, 0x51, 0x47, 0x77, 0x1d, 0x1c, 0x29,
  0x29, 0x47, 0x9c, 0xe0, 0x35, 0x19, 0x81, 0x42, 0x56, 0xb0, 0x3f, 0xbc,
  0x96, 0xff, 0xff, 0xff, 0x04, 0x00, 0x00, 0x00, 0x04, 0x00, 0x00, 0x00,
  0xf2, 0xfa, 0xff, 0xff, 0xa6, 0xff, 0xff, 0xff, 0x04, 0x00, 0x00, 0x00,
  0x0c, 0x00, 0x00, 0x00, 0xff, 0xff, 0xff, 0xff, 0x10, 0x00, 0x00, 0x00,
  0x01, 0x00, 0x00, 0x00, 0xbe, 0xff, 0xff, 0xff, 0x04, 0x00, 0x00, 0x00,
  0x0c, 0x00, 0x00, 0x00, 0xff, 0xff, 0xff, 0xff, 0x10, 0x00, 0x00, 0x00,
  0x20, 0x00, 0x00, 0x00, 0xd6, 0xff, 0xff, 0xff, 0x04, 0x00, 0x00, 0x00,
  0x0c, 0x00, 0x00, 0x00, 0xff, 0xff, 0xff, 0xff, 0x10, 0x00, 0x00, 0x00,
  0x18, 0x00, 0x00, 0x00, 0xee, 0xff, 0xff, 0xff, 0x04, 0x00, 0x00, 0x00,
  0x04, 0x00, 0x00, 0x00, 0xfd, 0xff, 0xff, 0xff, 0x00, 0x00, 0x06, 0x00,
  0x08, 0x00, 0x04, 0x00, 0x06, 0x00, 0x00, 0x00, 0x04, 0x00, 0x00, 0x00,
  0x18, 0x00, 0x00, 0x00, 0x00, 0x00, 0x00, 0x00, 0x00, 0x00, 0x00, 0x00,
  0x04, 0x00, 0x00, 0x00, 0x00, 0x00, 0x00, 0x00, 0x00, 0x00, 0x00, 0x00,
  0x00, 0x00, 0x00, 0x00, 0xac, 0xea, 0xff, 0xff, 0xb0, 0xea, 0xff, 0xff,
  0x0f, 0x00, 0x00, 0x00, 0x4d, 0x4c, 0x49, 0x52, 0x20, 0x43, 0x6f, 0x6e,
  0x76, 0x65, 0x72, 0x74, 0x65, 0x64, 0x2e, 0x00, 0x01, 0x00, 0x00, 0x00,
  0x14, 0x00, 0x00, 0x00, 0x00, 0x00, 0x0e, 0x00, 0x18, 0x00, 0x14, 0x00,
  0x10, 0x00, 0x0c, 0x00, 0x08, 0x00, 0x04, 0x00, 0x0e, 0x00, 0x00, 0x00,
  0x14, 0x00, 0x00, 0x00, 0x1c, 0x00, 0x00, 0x00, 0xdc, 0x02, 0x00, 0x00,
  0xe0, 0x02, 0x00, 0x00, 0xe4, 0x02, 0x00, 0x00, 0x04, 0x00, 0x00, 0x00,
  0x6d, 0x61, 0x69, 0x6e, 0x00, 0x00, 0x00, 0x00, 0x0c, 0x00, 0x00, 0x00,
  0x94, 0x02, 0x00, 0x00, 0x50, 0x02, 0x00, 0x00, 0xec, 0x01, 0x00, 0x00,
  0xc4, 0x01, 0x00, 0x00, 0x88, 0x01, 0x00, 0x00, 0x54, 0x01, 0x00, 0x00,
  0x0c, 0x01, 0x00, 0x00, 0xe4, 0x00, 0x00, 0x00, 0xb0, 0x00, 0x00, 0x00,
  0x60, 0x00, 0x00, 0x00, 0x2c, 0x00, 0x00, 0x00, 0x04, 0x00, 0x00, 0x00,
  0x6a, 0xfe, 0xff, 0xff, 0x0c, 0x00, 0x00, 0x00, 0x10, 0x00, 0x00, 0x00,
  0x03, 0x00, 0x00, 0x00, 0x01, 0x00, 0x00, 0x00, 0x17, 0x00, 0x00, 0x00,
  0x02, 0x00, 0x00, 0x00, 0x16, 0x00, 0x00, 0x00, 0x05, 0x00, 0x00, 0x00,
  0x8e, 0xfe, 0xff, 0xff, 0x0c, 0x00, 0x00, 0x00, 0x10, 0x00, 0x00, 0x00,
  0x04, 0x00, 0x00, 0x00, 0x01, 0x00, 0x00, 0x00, 0x16, 0x00, 0x00, 0x00,
  0x01, 0x00, 0x00, 0x00, 0x15, 0x00, 0x00, 0x00, 0x00, 0x00, 0x0e, 0x00,
  0x1a, 0x00, 0x14, 0x00, 0x10, 0x00, 0x0c, 0x00, 0x0b, 0x00, 0x04, 0x00,
  0x0e, 0x00, 0x00, 0x00, 0x20, 0x00, 0x00, 0x00, 0x00, 0x00, 0x00, 0x01,
  0x28, 0x00, 0x00, 0x00, 0x2c, 0x00, 0x00, 0x00, 0x02, 0x00, 0x00, 0x00,
  0x00, 0x00, 0x0a, 0x00, 0x10, 0x00, 0x0f, 0x00, 0x08, 0x00, 0x04, 0x00,
  0x0a, 0x00, 0x00, 0x00, 0x01, 0x00, 0x00, 0x00, 0x01, 0x00, 0x00, 0x00,
  0x00, 0x00, 0x00, 0x01, 0x01, 0x00, 0x00, 0x00, 0x15, 0x00, 0x00, 0x00,
  0x03, 0x00, 0x00, 0x00, 0x14, 0x00, 0x00, 0x00, 0x07, 0x00, 0x00, 0x00,
  0x06, 0x00, 0x00, 0x00, 0x8a, 0xfe, 0xff, 0xff, 0x14, 0x00, 0x00, 0x00,
  0x00, 0x00, 0x00, 0x34, 0x10, 0x00, 0x00, 0x00, 0x14, 0x00, 0x00, 0x00,
  0x01, 0x00, 0x00, 0x00, 0xf0, 0xeb, 0xff, 0xff, 0x01, 0x00, 0x00, 0x00,
  0x14, 0x00, 0x00, 0x00, 0x02, 0x00, 0x00, 0x00, 0x13, 0x00, 0x00, 0x00,
  0x02, 0x00, 0x00, 0x00, 0x3a, 0xff, 0xff, 0xff, 0x0c, 0x00, 0x00, 0x00,
  0x10, 0x00, 0x00, 0x00, 0x03, 0x00, 0x00, 0x00, 0x01, 0x00, 0x00, 0x00,
  0x13, 0x00, 0x00, 0x00, 0x02, 0x00, 0x00, 0x00, 0x12, 0x00, 0x00, 0x00,
  0x04, 0x00, 0x00, 0x00, 0xde, 0xfe, 0xff, 0xff, 0x14, 0x00, 0x00, 0x00,
  0x00, 0x00, 0x00, 0x01, 0x20, 0x00, 0x00, 0x00, 0x24, 0x00, 0x00, 0x00,
  0x02, 0x00, 0x00, 0x00, 0x30, 0xff, 0xff, 0xff, 0x00, 0x00, 0x00, 0x01,
  0x01, 0x00, 0x00, 0x00, 0x01, 0x00, 0x00, 0x00, 0x00, 0x00, 0x00, 0x01,
  0x01, 0x00, 0x00, 0x00, 0x12, 0x00, 0x00, 0x00, 0x03, 0x00, 0x00, 0x00,
  0x11, 0x00, 0x00, 0x00, 0x09, 0x00, 0x00, 0x00, 0x08, 0x00, 0x00, 0x00,
  0x22, 0xff, 0xff, 0xff, 0x14, 0x00, 0x00, 0x00, 0x00, 0x00, 0x00, 0x34,
  0x10, 0x00, 0x00, 0x00, 0x14, 0x00, 0x00, 0x00, 0x01, 0x00, 0x00, 0x00,
  0x88, 0xec, 0xff, 0xff, 0x01, 0x00, 0x00, 0x00, 0x11, 0x00, 0x00, 0x00,
  0x02, 0x00, 0x00, 0x00, 0x10, 0x00, 0x00, 0x00, 0x02, 0x00, 0x00, 0x00,
  0x12, 0xff, 0xff, 0xff, 0x10, 0x00, 0x00, 0x00, 0x00, 0x00, 0x00, 0x16,
  0x0c, 0x00, 0x00, 0x00, 0x10, 0x00, 0x00, 0x00, 0xb4, 0xec, 0xff, 0xff,
  0x01, 0x00, 0x00, 0x00, 0x10, 0x00, 0x00, 0x00, 0x02, 0x00, 0x00, 0x00,
  0x0f, 0x00, 0x00, 0x00, 0x01, 0x00, 0x00, 0x00, 0x00, 0x00, 0x0a, 0x00,
  0x10, 0x00, 0x0c, 0x00, 0x08, 0x00, 0x04, 0x00, 0x0a, 0x00, 0x00, 0x00,
  0x0c, 0x00, 0x00, 0x00, 0x10, 0x00, 0x00, 0x00, 0x03, 0x00, 0x00, 0x00,
  0x01, 0x00, 0x00, 0x00, 0x0f, 0x00, 0x00, 0x00, 0x02, 0x00, 0x00, 0x00,
  0x0e, 0x00, 0x00, 0x00, 0x03, 0x00, 0x00, 0x00, 0xae, 0xff, 0xff, 0xff,
  0x20, 0x00, 0x00, 0x00, 0x00, 0x00, 0x00, 0x01, 0x2c, 0x00, 0x00, 0x00,
  0x30, 0x00, 0x00, 0x00, 0x02, 0x00, 0x00, 0x00, 0x0c, 0x00, 0x14, 0x00,
  0x13, 0x00, 0x0c, 0x00, 0x08, 0x00, 0x07, 0x00, 0x0c, 0x00, 0x00, 0x00,
  0x00, 0x00, 0x00, 0x01, 0x01, 0x00, 0x00, 0x00, 0x01, 0x00, 0x00, 0x00,
  0x00, 0x00, 0x00, 0x01, 0x01, 0x00, 0x00, 0x00, 0x0e, 0x00, 0x00, 0x00,
  0x03, 0x00, 0x00, 0x00, 0x0d, 0x00, 0x00, 0x00, 0x0b, 0x00, 0x00, 0x00,
  0x0a, 0x00, 0x00, 0x00, 0x00, 0x00, 0x0e, 0x00, 0x18, 0x00, 0x14, 0x00,
  0x10, 0x00, 0x0c, 0x00, 0x0b, 0x00, 0x04, 0x00, 0x0e, 0x00, 0x00, 0x00,
  0x14, 0x00, 0x00, 0x00, 0x00, 0x00, 0x00, 0x34, 0x10, 0x00, 0x00, 0x00,
  0x14, 0x00, 0x00, 0x00, 0x01, 0x00, 0x00, 0x00, 0x74, 0xed, 0xff, 0xff,
  0x01, 0x00, 0x00, 0x00, 0x0d, 0x00, 0x00, 0x00, 0x02, 0x00, 0x00, 0x00,
  0x0c, 0x00, 0x00, 0x00, 0x02, 0x00, 0x00, 0x00, 0x00, 0x00, 0x0e, 0x00,
  0x14, 0x00, 0x00, 0x00, 0x10, 0x00, 0x0c, 0x00, 0x0b, 0x00, 0x04, 0x00,
  0x0e, 0x00, 0x00, 0x00, 0x10, 0x00, 0x00, 0x00, 0x00, 0x00, 0x00, 0x16,
  0x0c, 0x00, 0x00, 0x00, 0x10, 0x00, 0x00, 0x00, 0xb0, 0xed, 0xff, 0xff,
  0x01, 0x00, 0x00, 0x00, 0x0c, 0x00, 0x00, 0x00, 0x02, 0x00, 0x00, 0x00,
  0x00, 0x00, 0x00, 0x00, 0x01, 0x00, 0x00, 0x00, 0x01, 0x00, 0x00, 0x00,
  0x17, 0x00, 0x00, 0x00, 0x01, 0x00, 0x00, 0x00, 0x00, 0x00, 0x00, 0x00,
  0x18, 0x00, 0x00, 0x00, 0x64, 0x12, 0x00, 0x00, 0x04, 0x12, 0x00, 0x00,
  0xb0, 0x11, 0x00, 0x00, 0x70, 0x11, 0x00, 0x00, 0x30, 0x11, 0x00, 0x00,
  0xf0, 0x10, 0x00, 0x00, 0x8c, 0x10, 0x00, 0x00, 0x20, 0x10, 0x00, 0x00,
  0x4c, 0x0e, 0x00, 0x00, 0x68, 0x0c, 0x00, 0x00, 0xf4, 0x0a, 0x00, 0x00,
  0x70, 0x09, 0x00, 0x00, 0xe0, 0x08, 0x00, 0x00, 0x40, 0x08, 0x00, 0x00,
  0x14, 0x07, 0x00, 0x00, 0x14, 0x06, 0x00, 0x00, 0x80, 0x05, 0x00, 0x00,
  0xe0, 0x04, 0x00, 0x00, 0xe4, 0x03, 0x00, 0x00, 0x14, 0x03, 0x00, 0x00,
  0x6c, 0x02, 0x00, 0x00, 0x80, 0x01, 0x00, 0x00, 0x8c, 0x00, 0x00, 0x00,
  0x04, 0x00, 0x00, 0x00, 0x12, 0xee, 0xff, 0xff, 0x00, 0x00, 0x00, 0x01,
  0x18, 0x00, 0x00, 0x00, 0x24, 0x00, 0x00, 0x00, 0x44, 0x00, 0x00, 0x00,
  0x18, 0x00, 0x00, 0x00, 0x00, 0x00, 0x00, 0x09, 0x58, 0x00, 0x00, 0x00,
  0x03, 0x00, 0x00, 0x00, 0xff, 0xff, 0xff, 0xff, 0x10, 0x00, 0x00, 0x00,
  0x01, 0x00, 0x00, 0x00, 0xfc, 0xed, 0xff, 0xff, 0x08, 0x00, 0x00, 0x00,
  0x14, 0x00, 0x00, 0x00, 0x01, 0x00, 0x00, 0x00, 0x80, 0xff, 0xff, 0xff,
  0xff, 0xff, 0xff, 0xff, 0x00, 0x00, 0x00, 0x00, 0x01, 0x00, 0x00, 0x00,
  0x00, 0x00, 0x80, 0x3b, 0x19, 0x00, 0x00, 0x00, 0x53, 0x74, 0x61, 0x74,
  0x65, 0x66, 0x75, 0x6c, 0x50, 0x61, 0x72, 0x74, 0x69, 0x74, 0x69, 0x6f,
  0x6e, 0x65, 0x64, 0x43, 0x61, 0x6c, 0x6c, 0x3a, 0x30, 0x00, 0x00, 0x00,
  0x03, 0x00, 0x00, 0x00, 0x01, 0x00, 0x00, 0x00, 0x10, 0x00, 0x00, 0x00,
  0x01, 0x00, 0x00, 0x00, 0x96, 0xee, 0xff, 0xff, 0x00, 0x00, 0x00, 0x01,
  0x18, 0x00, 0x00, 0x00, 0x28, 0x00, 0x00, 0x00, 0x48, 0x00, 0x00, 0x00,
  0x17, 0x00, 0x00, 0x00, 0x00, 0x00, 0x00, 0x09, 0xc0, 0x00, 0x00, 0x00,
  0x04, 0x00, 0x00, 0x00, 0xff, 0xff, 0xff, 0xff, 0x01, 0x00, 0x00, 0x00,
  0x10, 0x00, 0x00, 0x00, 0x01, 0x00, 0x00, 0x00, 0x84, 0xee, 0xff, 0xff,
  0x08, 0x00, 0x00, 0x00, 0x14, 0x00, 0x00, 0x00, 0x01, 0x00, 0x00, 0x00,
  0x80, 0xff, 0xff, 0xff, 0xff, 0xff, 0xff, 0xff, 0x00, 0x00, 0x00, 0x00,
  0x01, 0x00, 0x00, 0x00, 0x00, 0x00, 0x80, 0x3b, 0x7c, 0x00, 0x00, 0x00,
  0x66, 0x72, 0x61, 0x6d, 0x65, 0x5f, 0x6f, 0x6e, 0x73, 0x65, 0x74, 0x5f,
  0x63, 0x6f, 0x6e, 0x76, 0x31, 0x64, 0x2f, 0x6f, 0x75, 0x74, 0x70, 0x75,
  0x74, 0x5f, 0x63, 0x6f, 0x6e, 0x76, 0x2f, 0x53, 0x69, 0x67, 0x6d, 0x6f,
  0x69, 0x64, 0x3b, 0x66, 0x72, 0x61, 0x6d, 0x65, 0x5f, 0x6f, 0x6e, 0x73,
  0x65, 0x74, 0x5f, 0x63, 0x6f, 0x6e, 0x76, 0x31, 0x64, 0x2f, 0x6f, 0x75,
  0x74, 0x70, 0x75, 0x74, 0x5f, 0x63, 0x6f, 0x6e, 0x76, 0x2f, 0x42, 0x69,
  0x61, 0x73, 0x41, 0x64, 0x64, 0x3b, 0x66, 0x72, 0x61, 0x6d, 0x65, 0x5f,
  0x6f, 0x6e, 0x73, 0x65, 0x74, 0x5f, 0x63, 0x6f, 0x6e, 0x76, 0x31, 0x64,
  0x2f, 0x6f, 0x75, 0x74, 0x70, 0x75, 0x74, 0x5f, 0x63, 0x6f, 0x6e, 0x76,
  0x2f, 0x43, 0x6f, 0x6e, 0x76, 0x31, 0x44, 0x2f, 0x53, 0x71, 0x75, 0x65,
  0x65, 0x7a, 0x65, 0x3b, 0x00, 0x00, 0x00, 0x00, 0x04, 0x00, 0x00, 0x00,
  0x01, 0x00, 0x00, 0x00, 0x01, 0x00, 0x00, 0x00, 0x10, 0x00, 0x00, 0x00,
  0x01, 0x00, 0x00, 0x00, 0x86, 0xef, 0xff, 0xff, 0x00, 0x00, 0x00, 0x01,
  0x18, 0x00, 0x00, 0x00, 0x28, 0x00, 0x00, 0x00, 0x44, 0x00, 0x00, 0x00,
  0x16, 0x00, 0x00, 0x00, 0x00, 0x00, 0x00, 0x09, 0xb8, 0x00, 0x00, 0x00,
  0x04, 0x00, 0x00, 0x00, 0xff, 0xff, 0xff, 0xff, 0x01, 0x00, 0x00, 0x00,
  0x10, 0x00, 0x00, 0x00, 0x01, 0x00, 0x00, 0x00, 0x74, 0xef, 0xff, 0xff,
  0x08, 0x00, 0x00, 0x00, 0x10, 0x00, 0x00, 0x00, 0x01, 0x00, 0x00, 0x00,
  0x15, 0x00, 0x00, 0x00, 0x00, 0x00, 0x00, 0x00, 0x01, 0x00, 0x00, 0x00,
  0xdd, 0x5e, 0xc5, 0x3c, 0x7b, 0x00, 0x00, 0x00, 0x66, 0x72, 0x61, 0x6d,
  0x65, 0x5f, 0x6f, 0x6e, 0x73, 0x65, 0x74, 0x5f, 0x63, 0x6f, 0x6e, 0x76,
  0x31, 0x64, 0x2f, 0x6f, 0x75, 0x74, 0x70, 0x75, 0x74, 0x5f, 0x63, 0x6f,
  0x6e, 0x76, 0x2f, 0x42, 0x69, 0x61, 0x73, 0x41, 0x64, 0x64, 0x3b, 0x66,
  0x72, 0x61, 0x6d, 0x65, 0x5f, 0x6f, 0x6e, 0x73, 0x65, 0x74, 0x5f, 0x63,
  0x6f, 0x6e, 0x76, 0x31, 0x64, 0x2f, 0x6f, 0x75, 0x74, 0x70, 0x75, 0x74,
  0x5f, 0x63, 0x6f, 0x6e, 0x76, 0x2f, 0x43, 0x6f, 0x6e, 0x76, 0x31, 0x44,
  0x2f, 0x53, 0x71, 0x75, 0x65, 0x65, 0x7a, 0x65, 0x3b, 0x3b, 0x66, 0x72,
  0x61, 0x6d, 0x65, 0x5f, 0x6f, 0x6e, 0x73, 0x65, 0x74, 0x5f, 0x63, 0x6f,
  0x6e, 0x76, 0x31, 0x64, 0x2f, 0x6f, 0x75, 0x74, 0x70, 0x75, 0x74, 0x5f,
  0x63, 0x6f, 0x6e, 0x76, 0x2f, 0x43, 0x6f, 0x6e, 0x76, 0x31, 0x44, 0x00,
  0x04, 0x00, 0x00, 0x00, 0x01, 0x00, 0x00, 0x00, 0x01, 0x00, 0x00, 0x00,
  0x10, 0x00, 0x00, 0x00, 0x01, 0x00, 0x00, 0x00, 0x6e, 0xf0, 0xff, 0xff,
  0x00, 0x00, 0x00, 0x01, 0x18, 0x00, 0x00, 0x00, 0x28, 0x00, 0x00, 0x00,
  0x48, 0x00, 0x00, 0x00, 0x15, 0x00, 0x00, 0x00, 0x00, 0x00, 0x00, 0x09,
  0x74, 0x00, 0x00, 0x00, 0x04, 0x00, 0x00, 0x00, 0xff, 0xff, 0xff, 0xff,
  0x01, 0x00, 0x00, 0x00, 0x10, 0x00, 0x00, 0x00, 0x20, 0x00, 0x00, 0x00,
  0x5c, 0xf0, 0xff, 0xff, 0x08, 0x00, 0x00, 0x00, 0x14, 0x00, 0x00, 0x00,
  0x01, 0x00, 0x00, 0x00, 0x80, 0xff, 0xff, 0xff, 0xff, 0xff, 0xff, 0xff,
  0x00, 0x00, 0x00, 0x00, 0x01, 0x00, 0x00, 0x00, 0x67, 0xed, 0x1a, 0x3c,
  0x30, 0x00, 0x00, 0x00, 0x66, 0x72, 0x61, 0x6d, 0x65, 0x5f, 0x6f, 0x6e,
  0x73, 0x65, 0x74, 0x5f, 0x63, 0x6f, 0x6e, 0x76, 0x31, 0x64, 0x2f, 0x6f,
  0x75, 0x74, 0x70, 0x75, 0x74, 0x5f, 0x63, 0x6f, 0x6e, 0x76, 0x2f, 0x43,
  0x6f, 0x6e, 0x76, 0x31, 0x44, 0x2f, 0x45, 0x78, 0x70, 0x61, 0x6e, 0x64,
  0x44, 0x69, 0x6d, 0x73, 0x00, 0x00, 0x00, 0x00, 0x04, 0x00, 0x00, 0x00,
  0x01, 0x00, 0x00, 0x00, 0x01, 0x00, 0x00, 0x00, 0x10, 0x00, 0x00, 0x00,
  0x20, 0x00, 0x00, 0x00, 0x12, 0xf1, 0xff, 0xff, 0x00, 0x00, 0x00, 0x01,
  0x18, 0x00, 0x00, 0x00, 0x24, 0x00, 0x00, 0x00, 0x40, 0x00, 0x00, 0x00,
  0x14, 0x00, 0x00, 0x00, 0x00, 0x00, 0x00, 0x09, 0xa0, 0x00, 0x00, 0x00,
  0x03, 0x00, 0x00, 0x00, 0xff, 0xff, 0xff, 0xff, 0x10, 0x00, 0x00, 0x00,
  0x20, 0x00, 0x00, 0x00, 0xfc, 0xf0, 0xff, 0xff, 0x08, 0x00, 0x00, 0x00,
  0x10, 0x00, 0x00, 0x00, 0x01, 0x00, 0x00, 0x00, 0x80, 0xff, 0xff, 0xff,
  0xff, 0xff, 0xff, 0xff, 0x01, 0x00, 0x00, 0x00, 0x67, 0xed, 0x1a, 0x3c,
  0x67, 0x00, 0x00, 0x00, 0x66, 0x72, 0x61, 0x6d, 0x65, 0x5f, 0x6f, 0x6e,
  0x73, 0x65, 0x74, 0x5f, 0x63, 0x6f, 0x6e, 0x76, 0x31, 0x64, 0x2f, 0x63,
  0x6f, 0x6e, 0x76, 0x32, 0x2f, 0x52, 0x65, 0x6c, 0x75, 0x3b, 0x66, 0x72,
  0x61, 0x6d, 0x65, 0x5f, 0x6f, 0x6e, 0x73, 0x65, 0x74, 0x5f, 0x63, 0x6f,
  0x6e, 0x76, 0x31, 0x64, 0x2f, 0x63, 0x6f, 0x6e, 0x76, 0x32, 0x2f, 0x42,
  0x69, 0x61, 0x73, 0x41, 0x64, 0x64, 0x3b, 0x66, 0x72, 0x61, 0x6d, 0x65,
  0x5f, 0x6f, 0x6e, 0x73, 0x65, 0x74, 0x5f, 0x63, 0x6f, 0x6e, 0x76, 0x31,
  0x64, 0x2f, 0x63, 0x6f, 0x6e, 0x76, 0x32, 0x2f, 0x43, 0x6f, 0x6e, 0x76,
  0x31, 0x44, 0x2f, 0x53, 0x71, 0x75, 0x65, 0x65, 0x7a, 0x65, 0x3b, 0x00,
  0x03, 0x00, 0x00, 0x00, 0x01, 0x00, 0x00, 0x00, 0x10, 0x00, 0x00, 0x00,
  0x20, 0x00, 0x00, 0x00, 0xde, 0xf1, 0xff, 0xff, 0x00, 0x00, 0x00, 0x01,
  0x18, 0x00, 0x00, 0x00, 0x28, 0x00, 0x00, 0x00, 0x48, 0x00, 0x00, 0x00,
  0x13, 0x00, 0x00, 0x00, 0x00, 0x00, 0x00, 0x09, 0xc8, 0x00, 0x00, 0x00,
  0x04, 0x00, 0x00, 0x00, 0xff, 0xff, 0xff, 0xff, 0x01, 0x00, 0x00, 0x00,
  0x10, 0x00, 0x00, 0x00, 0x20, 0x00, 0x00, 0x00, 0xcc, 0xf1, 0xff, 0xff,
  0x08, 0x00, 0x00, 0x00, 0x14, 0x00, 0x00, 0x00, 0x01, 0x00, 0x00, 0x00,
  0x80, 0xff, 0xff, 0xff, 0xff, 0xff, 0xff, 0xff, 0x00, 0x00, 0x00, 0x00,
  0x01, 0x00, 0x00, 0x00, 0x67, 0xed, 0x1a, 0x3c, 0x87, 0x00, 0x00, 0x00,
  0x66, 0x72, 0x61, 0x6d, 0x65, 0x5f, 0x6f, 0x6e, 0x73, 0x65, 0x74, 0x5f,
  0x63, 0x6f, 0x6e, 0x76, 0x31, 0x64, 0x2f, 0x63, 0x6f, 0x6e, 0x76, 0x32,
  0x2f, 0x52, 0x65, 0x6c, 0x75, 0x3b, 0x66, 0x72, 0x61, 0x6d, 0x65, 0x5f,
  0x6f, 0x6e, 0x73, 0x65, 0x74, 0x5f, 0x63, 0x6f, 0x6e, 0x76, 0x31, 0x64,
  0x2f, 0x63, 0x6f, 0x6e, 0x76, 0x32, 0x2f, 0x42, 0x69, 0x61, 0x73, 0x41,
  0x64, 0x64, 0x3b, 0x66, 0x72, 0x61, 0x6d, 0x65, 0x5f, 0x6f, 0x6e, 0x73,
  0x65, 0x74, 0x5f, 0x63, 0x6f, 0x6e, 0x76, 0x31, 0x64, 0x2f, 0x63, 0x6f,
  0x6e, 0x76, 0x32, 0x2f, 0x43, 0x6f, 0x6e, 0x76, 0x31, 0x44, 0x2f, 0x53,
  0x71, 0x75, 0x65, 0x65, 0x7a, 0x65, 0x3b, 0x3b, 0x66, 0x72, 0x61, 0x6d,
  0x65, 0x5f, 0x6f, 0x6e, 0x73, 0x65, 0x74, 0x5f, 0x63, 0x6f, 0x6e, 0x76,
  0x31, 0x64, 0x2f, 0x63, 0x6f, 0x6e, 0x76, 0x32, 0x2f, 0x43, 0x6f, 0x6e,
  0x76, 0x31, 0x44, 0x00, 0x04, 0x00, 0x00, 0x00, 0x01, 0x00, 0x00, 0x00,
  0x01, 0x00, 0x00, 0x00, 0x10, 0x00, 0x00, 0x00, 0x20, 0x00, 0x00, 0x00,
  0xd6, 0xf2, 0xff, 0xff, 0x00, 0x00, 0x00, 0x01, 0x18, 0x00, 0x00, 0x00,
  0x28, 0x00, 0x00, 0x00, 0x48, 0x00, 0x00, 0x00, 0x12, 0x00, 0x00, 0x00,
  0x00, 0x00, 0x00, 0x09, 0x6c, 0x00, 0x00, 0x00, 0x04, 0x00, 0x00, 0x00,
  0xff, 0xff, 0xff, 0xff, 0x01, 0x00, 0x00, 0x00, 0x14, 0x00, 0x00, 0x00,
  0x18, 0x00, 0x00, 0x00, 0xc4, 0xf2, 0xff, 0xff, 0x08, 0x00, 0x00, 0x00,
  0x14, 0x00, 0x00, 0x00, 0x01, 0x00, 0x00, 0x00, 0x80, 0xff, 0xff, 0xff,
  0xff, 0xff, 0xff, 0xff, 0x00, 0x00, 0x00, 0x00, 0x01, 0x00, 0x00, 0x00,
  0xd7, 0x91, 0xd1, 0x3c, 0x2a, 0x00, 0x00, 0x00, 0x66, 0x72, 0x61, 0x6d,
  0x65, 0x5f, 0x6f, 0x6e, 0x73, 0x65, 0x74, 0x5f, 0x63, 0x6f, 0x6e, 0x76,
  0x31, 0x64, 0x2f, 0x63, 0x6f, 0x6e, 0x76, 0x32, 0x2f, 0x43, 0x6f, 0x6e,
  0x76, 0x31, 0x44, 0x2f, 0x45, 0x78, 0x70, 0x61, 0x6e, 0x64, 0x44, 0x69,
  0x6d, 0x73, 0x00, 0x00, 0x04, 0x00, 0x00, 0x00, 0x01, 0x00, 0x00, 0x00,
  0x01, 0x00, 0x00, 0x00, 0x14, 0x00, 0x00, 0x00, 0x18, 0x00, 0x00, 0x00,
  0x72, 0xf3, 0xff, 0xff, 0x00, 0x00, 0x00, 0x01, 0x18, 0x00, 0x00, 0x00,
  0x24, 0x00, 0x00, 0x00, 0x44, 0x00, 0x00, 0x00, 0x11, 0x00, 0x00, 0x00,
  0x00, 0x00, 0x00, 0x09, 0x64, 0x00, 0x00, 0x00, 0x03, 0x00, 0x00, 0x00,
  0xff, 0xff, 0xff, 0xff, 0x14, 0x00, 0x00, 0x00, 0x18, 0x00, 0x00, 0x00,
  0x5c, 0xf3, 0xff, 0xff, 0x08, 0x00, 0x00, 0x00, 0x14, 0x00, 0x00, 0x00,
  0x01, 0x00, 0x00, 0x00, 0x80, 0xff, 0xff, 0xff, 0xff, 0xff, 0xff, 0xff,
  0x00, 0x00, 0x00, 0x00, 0x01, 0x00, 0x00, 0x00, 0xd7, 0x91, 0xd1, 0x3c,
  0x27, 0x00, 0x00, 0x00, 0x66, 0x72, 0x61, 0x6d, 0x65, 0x5f, 0x6f, 0x6e,
  0x73, 0x65, 0x74, 0x5f, 0x63, 0x6f, 0x6e, 0x76, 0x31, 0x64, 0x2f, 0x7a,
  0x65, 0x72, 0x6f, 0x5f, 0x70, 0x61, 0x64, 0x64, 0x69, 0x6e, 0x67, 0x31,
  0x64, 0x5f, 0x31, 0x2f, 0x50, 0x61, 0x64, 0x00, 0x03, 0x00, 0x00, 0x00,
  0x01, 0x00, 0x00, 0x00, 0x14, 0x00, 0x00, 0x00, 0x18, 0x00, 0x00, 0x00,
  0x02, 0xf4, 0xff, 0xff, 0x00, 0x00, 0x00, 0x01, 0x18, 0x00, 0x00, 0x00,
  0x24, 0x00, 0x00, 0x00, 0x40, 0x00, 0x00, 0x00, 0x10, 0x00, 0x00, 0x00,
  0x00, 0x00, 0x00, 0x09, 0xd0, 0x00, 0x00, 0x00, 0x03, 0x00, 0x00, 0x00,
  0xff, 0xff, 0xff, 0xff, 0x10, 0x00, 0x00, 0x00, 0x18, 0x00, 0x00, 0x00,
  0xec, 0xf3, 0xff, 0xff, 0x08, 0x00, 0x00, 0x00, 0x10, 0x00, 0x00, 0x00,
  0x01, 0x00, 0x00, 0x00, 0x80, 0xff, 0xff, 0xff, 0xff, 0xff, 0xff, 0xff,
  0x01, 0x00, 0x00, 0x00, 0xd7, 0x91, 0xd1, 0x3c, 0x96, 0x00, 0x00, 0x00,
  0x66, 0x72, 0x61, 0x6d, 0x65, 0x5f, 0x6f, 0x6e, 0x73, 0x65, 0x74, 0x5f,
  0x63, 0x6f, 0x6e, 0x76, 0x31, 0x64, 0x2f, 0x63, 0x6f, 0x6e, 0x76, 0x31,
  0x2f, 0x52, 0x65, 0x6c, 0x75, 0x3b, 0x66, 0x72, 0x61, 0x6d, 0x65, 0x5f,
  0x6f, 0x6e, 0x73, 0x65, 0x74, 0x5f, 0x63, 0x6f, 0x6e, 0x76, 0x31, 0x64,
  0x2f, 0x63, 0x6f, 0x6e, 0x76, 0x31, 0x2f, 0x42, 0x69, 0x61, 0x73, 0x41,
  0x64, 0x64, 0x3b, 0x66, 0x72, 0x61, 0x6d, 0x65, 0x5f, 0x6f, 0x6e, 0x73,
  0x65, 0x74, 0x5f, 0x63, 0x6f, 0x6e, 0x76, 0x31, 0x64, 0x2f, 0x63, 0x6f,
  0x6e, 0x76, 0x31, 0x2f, 0x43, 0x6f, 0x6e, 0x76, 0x31, 0x44, 0x2f, 0x53,
  0x71, 0x75, 0x65, 0x65, 0x7a, 0x65, 0x3b, 0x66, 0x72, 0x61, 0x6d, 0x65,
  0x5f, 0x6f, 0x6e, 0x73, 0x65, 0x74, 0x5f, 0x63, 0x6f, 0x6e, 0x76, 0x31,
  0x64, 0x2f, 0x63, 0x6f, 0x6e, 0x76, 0x31, 0x2f, 0x42, 0x69, 0x61, 0x73,
  0x41, 0x64, 0x64, 0x2f, 0x52, 0x65, 0x61, 0x64, 0x56, 0x61, 0x72, 0x69,
  0x61, 0x62, 0x6c, 0x65, 0x4f, 0x70, 0x00, 0x00, 0x03, 0x00, 0x00, 0x00,
  0x01, 0x00, 0x00, 0x00, 0x10, 0x00, 0x00, 0x00, 0x18, 0x00, 0x00, 0x00,
  0xfe, 0xf4, 0xff, 0xff, 0x00, 0x00, 0x00, 0x01, 0x18, 0x00, 0x00, 0x00,
  0x28, 0x00, 0x00, 0x00, 0x48, 0x00, 0x00, 0x00, 0x0f, 0x00, 0x00, 0x00,
  0x00, 0x00, 0x00, 0x09, 0xf8, 0x00, 0x00, 0x00, 0x04, 0x00, 0x00, 0x00,
  0xff, 0xff, 0xff, 0xff, 0x01, 0x00, 0x00, 0x00, 0x10, 0x00, 0x00, 0x00,
  0x18, 0x00, 0x00, 0x00, 0xec, 0xf4, 0xff, 0xff, 0x08, 0x00, 0x00, 0x00,
  0x14, 0x00, 0x00, 0x00, 0x01, 0x00, 0x00, 0x00, 0x80, 0xff, 0xff, 0xff,
  0xff, 0xff, 0xff, 0xff, 0x00, 0x00, 0x00, 0x00, 0x01, 0x00, 0x00, 0x00,
  0xd7, 0x91, 0xd1, 0x3c, 0xb6, 0x00, 0x00, 0x00, 0x66, 0x72, 0x61, 0x6d,
  0x65, 0x5f, 0x6f, 0x6e, 0x73, 0x65, 0x74, 0x5f, 0x63, 0x6f, 0x6e, 0x76,
  0x31, 0x64, 0x2f, 0x63, 0x6f, 0x6e, 0x76, 0x31, 0x2f, 0x52, 0x65, 0x6c,
  0x75, 0x3b, 0x66, 0x72, 0x61, 0x6d, 0x65, 0x5f, 0x6f, 0x6e, 0x73, 0x65,
  0x74, 0x5f, 0x63, 0x6f, 0x6e, 0x76, 0x31, 0x64, 0x2f, 0x63, 0x6f, 0x6e,
  0x76, 0x31, 0x2f, 0x42, 0x69, 0x61, 0x73, 0x41, 0x64, 0x64, 0x3b, 0x66,
  0x72, 0x61, 0x6d, 0x65, 0x5f, 0x6f, 0x6e, 0x73, 0x65, 0x74, 0x5f, 0x63,
  0x6f, 0x6e, 0x76, 0x31, 0x64, 0x2f, 0x63, 0x6f, 0x6e, 0x76, 0x31, 0x2f,
  0x43, 0x6f, 0x6e, 0x76, 0x31, 0x44, 0x2f, 0x53, 0x71, 0x75, 0x65, 0x65,
  0x7a, 0x65, 0x3b, 0x66, 0x72, 0x61, 0x6d, 0x65, 0x5f, 0x6f, 0x6e, 0x73,
  0x65, 0x74, 0x5f, 0x63, 0x6f, 0x6e, 0x76, 0x31, 0x64, 0x2f, 0x63, 0x6f,
  0x6e, 0x76, 0x31, 0x2f, 0x42, 0x69, 0x61, 0x73, 0x41, 0x64, 0x64, 0x2f,
  0x52, 0x65, 0x61, 0x64, 0x56, 0x61, 0x72, 0x69, 0x61, 0x62, 0x6c, 0x65,
  0x4f, 0x70, 0x3b, 0x66, 0x72, 0x61, 0x6d, 0x65, 0x5f, 0x6f, 0x6e, 0x73,
  0x65, 0x74, 0x5f, 0x63, 0x6f, 0x6e, 0x76, 0x31, 0x64, 0x2f, 0x63, 0x6f,
  0x6e, 0x76, 0x31, 0x2f, 0x43, 0x6f, 0x6e, 0x76, 0x31, 0x44, 0x00, 0x00,
  0x04, 0x00, 0x00, 0x00, 0x01, 0x00, 0x00, 0x00, 0x01, 0x00, 0x00, 0x00,
  0x10, 0x00, 0x00, 0x00, 0x18, 0x00, 0x00, 0x00, 0x26, 0xf6, 0xff, 0xff,
  0x00, 0x00, 0x00, 0x01, 0x18, 0x00, 0x00, 0x00, 0x28, 0x00, 0x00, 0x00,
  0x48, 0x00, 0x00, 0x00, 0x0e, 0x00, 0x00, 0x00, 0x00, 0x00, 0x00, 0x09,
  0x6c, 0x00, 0x00, 0x00, 0x04, 0x00, 0x00, 0x00, 0xff, 0xff, 0xff, 0xff,
  0x01, 0x00, 0x00, 0x00, 0x14, 0x00, 0x00, 0x00, 0x1a, 0x00, 0x00, 0x00,
  0x14, 0xf6, 0xff, 0xff, 0x08, 0x00, 0x00, 0x00, 0x14, 0x00, 0x00, 0x00,
  0x01, 0x00, 0x00, 0x00, 0x80, 0xff, 0xff, 0xff, 0xff, 0xff, 0xff, 0xff,
  0x00, 0x00, 0x00, 0x00, 0x01, 0x00, 0x00, 0x00, 0x81, 0x80, 0x80, 0x3b,
  0x2a, 0x00, 0x00, 0x00, 0x66, 0x72, 0x61, 0x6d, 0x65, 0x5f, 0x6f, 0x6e,
  0x73, 0x65, 0x74, 0x5f, 0x63, 0x6f, 0x6e, 0x76, 0x31, 0x64, 0x2f, 0x63,
  0x6f, 0x6e, 0x76, 0x31, 0x2f, 0x43, 0x6f, 0x6e, 0x76, 0x31, 0x44, 0x2f,
  0x45, 0x78, 0x70, 0x61, 0x6e, 0x64, 0x44, 0x69, 0x6d, 0x73, 0x00, 0x00,
  0x04, 0x00, 0x00, 0x00, 0x01, 0x00, 0x00, 0x00, 0x01, 0x00, 0x00, 0x00,
  0x14, 0x00, 0x00, 0x00, 0x1a, 0x00, 0x00, 0x00, 0xc2, 0xf6, 0xff, 0xff,
  0x00, 0x00, 0x00, 0x01, 0x18, 0x00, 0x00, 0x00, 0x24, 0x00, 0x00, 0x00,
  0x40, 0x00, 0x00, 0x00, 0x0d, 0x00, 0x00, 0x00, 0x00, 0x00, 0x00, 0x09,
  0x60, 0x00, 0x00, 0x00, 0x03, 0x00, 0x00, 0x00, 0xff, 0xff, 0xff, 0xff,
  0x14, 0x00, 0x00, 0x00, 0x1a, 0x00, 0x00, 0x00, 0xac, 0xf6, 0xff, 0xff,
  0x08, 0x00, 0x00, 0x00, 0x10, 0x00, 0x00, 0x00, 0x01, 0x00, 0x00, 0x00,
  0x80, 0xff, 0xff, 0xff, 0xff, 0xff, 0xff, 0xff, 0x01, 0x00, 0x00, 0x00,
  0x81, 0x80, 0x80, 0x3b, 0x25, 0x00, 0x00, 0x00, 0x66, 0x72, 0x61, 0x6d,
  0x65, 0x5f, 0x6f, 0x6e, 0x73, 0x65, 0x74, 0x5f, 0x63, 0x6f, 0x6e, 0x76,
  0x31, 0x64, 0x2f, 0x7a, 0x65, 0x72, 0x6f, 0x5f, 0x70, 0x61, 0x64, 0x64,
  0x69, 0x6e, 0x67, 0x31, 0x64, 0x2f, 0x50, 0x61, 0x64, 0x00, 0x00, 0x00,
  0x03, 0x00, 0x00, 0x00, 0x01, 0x00, 0x00, 0x00, 0x14, 0x00, 0x00, 0x00,
  0x1a, 0x00, 0x00, 0x00, 0xaa, 0xf7, 0xff, 0xff, 0x00, 0x00, 0x00, 0x01,
  0x14, 0x00, 0x00, 0x00, 0x48, 0x01, 0x00, 0x00, 0x0c, 0x00, 0x00, 0x00,
  0x00, 0x00, 0x00, 0x09, 0x54, 0x01, 0x00, 0x00, 0x24, 0xf7, 0xff, 0xff,
  0x08, 0x00, 0x00, 0x00, 0xcc, 0x00, 0x00, 0x00, 0x18, 0x00, 0x00, 0x00,
  0x00, 0x00, 0x00, 0x00, 0x00, 0x00, 0x00, 0x00, 0x00, 0x00, 0x00, 0x00,
  0x00, 0x00, 0x00, 0x00, 0x00, 0x00, 0x00, 0x00, 0x00, 0x00, 0x00, 0x00,
  0x00, 0x00, 0x00, 0x00, 0x00, 0x00, 0x00, 0x00, 0x00, 0x00, 0x00, 0x00,
  0x00, 0x00, 0x00, 0x00, 0x00, 0x00, 0x00, 0x00, 0x00, 0x00, 0x00, 0x00,
  0x00, 0x00, 0x00, 0x00, 0x00, 0x00, 0x00, 0x00, 0x00, 0x00, 0x00, 0x00,
  0x00, 0x00, 0x00, 0x00, 0x00, 0x00, 0x00, 0x00, 0x00, 0x00, 0x00, 0x00,
  0x00, 0x00, 0x00, 0x00, 0x00, 0x00, 0x00, 0x00, 0x00, 0x00, 0x00, 0x00,
  0x00, 0x00, 0x00, 0x00, 0x00, 0x00, 0x00, 0x00, 0x00, 0x00, 0x00, 0x00,
  0x00, 0x00, 0x00, 0x00, 0x00, 0x00, 0x00, 0x00, 0x00, 0x00, 0x00, 0x00,
  0x00, 0x00, 0x00, 0x00, 0x00, 0x00, 0x00, 0x00, 0x00, 0x00, 0x00, 0x00,
  0x00, 0x00, 0x00, 0x00, 0x00, 0x00, 0x00, 0x00, 0x00, 0x00, 0x00, 0x00,
  0x00, 0x00, 0x00, 0x00, 0x00, 0x00, 0x00, 0x00, 0x00, 0x00, 0x00, 0x00,
  0x00, 0x00, 0x00, 0x00, 0x00, 0x00, 0x00, 0x00, 0x00, 0x00, 0x00, 0x00,
  0x00, 0x00, 0x00, 0x00, 0x00, 0x00, 0x00, 0x00, 0x00, 0x00, 0x00, 0x00,
  0x00, 0x00, 0x00, 0x00, 0x00, 0x00, 0x00, 0x00, 0x00, 0x00, 0x00, 0x00,
  0x00, 0x00, 0x00, 0x00, 0x00, 0x00, 0x00, 0x00, 0x00, 0x00, 0x00, 0x00,
  0x00, 0x00, 0x00, 0x00, 0x18, 0x00, 0x00, 0x00, 0x74, 0xcb, 0xa2, 0x3b,
  0x62, 0xd6, 0xa5, 0x3b, 0x65, 0x5e, 0xe9, 0x3b, 0xf7, 0x11, 0x30, 0x3b,
  0xfd, 0x75, 0xd9, 0x3b, 0x89, 0x85, 0x86, 0x3b, 0xe3, 0x9f, 0x5e, 0x3b,
  0xf1, 0xfa, 0x93, 0x3b, 0xf8, 0xac, 0x76, 0x3b, 0xec, 0x5e, 0x61, 0x3b,
  0x2d, 0x38, 0x77, 0x3b, 0x0b, 0x1b, 0x7f, 0x3b, 0x79, 0xf5, 0xcb, 0x3b,
  0x80, 0xbf, 0xc8, 0x3b, 0xf2, 0x93, 0x72, 0x3b, 0x37, 0x64, 0xa4, 0x3b,
  0xcc, 0x33, 0xe1, 0x3b, 0xea, 0xf8, 0x08, 0x3c, 0xa4, 0x49, 0xfa, 0x3b,
  0x3b, 0xef, 0x0e, 0x3c, 0x34, 0xda, 0x81, 0x3b, 0x4d, 0x35, 0x55, 0x3b,
  0x66, 0x4c, 0x6c, 0x3b, 0x37, 0xd4, 0x06, 0x3c, 0x12, 0x00, 0x00, 0x00,
  0x74, 0x66, 0x6c, 0x2e, 0x70, 0x73, 0x65, 0x75, 0x64, 0x6f, 0x5f, 0x71,
  0x63, 0x6f, 0x6e, 0x73, 0x74, 0x35, 0x00, 0x00, 0x04, 0x00, 0x00, 0x00,
  0x18, 0x00, 0x00, 0x00, 0x01, 0x00, 0x00, 0x00, 0x05, 0x00, 0x00, 0x00,
  0x1a, 0x00, 0x00, 0x00, 0x2a, 0xf9, 0xff, 0xff, 0x00, 0x00, 0x00, 0x01,
  0x14, 0x00, 0x00, 0x00, 0x44, 0x01, 0x00, 0x00, 0x0b, 0x00, 0x00, 0x00,
  0x00, 0x00, 0x00, 0x02, 0x50, 0x01, 0x00, 0x00, 0xa4, 0xf8, 0xff, 0xff,
  0x08, 0x00, 0x00, 0x00, 0xc8, 0x00, 0x00, 0x00, 0x18, 0x00, 0x00, 0x00,
  0x00, 0x00, 0x00, 0x00, 0x00, 0x00, 0x00, 0x00, 0x00, 0x00, 0x00, 0x00,
  0x00, 0x00, 0x00, 0x00, 0x00, 0x00, 0x00, 0x00, 0x00, 0x00, 0x00, 0x00,
  0x00, 0x00, 0x00, 0x00, 0x00, 0x00, 0x00, 0x00, 0x00, 0x00, 0x00, 0x00,
  0x00, 0x00, 0x00, 0x00, 0x00, 0x00, 0x00, 0x00, 0x00, 0x00, 0x00, 0x00,
  0x00, 0x00, 0x00, 0x00, 0x00, 0x00, 0x00, 0x00, 0x00, 0x00, 0x00, 0x00,
  0x00, 0x00, 0x00, 0x00, 0x00, 0x00, 0x00, 0x00, 0x00, 0x00, 0x00, 0x00,
  0x00, 0x00, 0x00, 0x00, 0x00, 0x00, 0x00, 0x00, 0x00, 0x00, 0x00, 0x00,
  0x00, 0x00, 0x00, 0x00, 0x00, 0x00, 0x00, 0x00, 0x00, 0x00, 0x00, 0x00,
  0x00, 0x00, 0x00, 0x00, 0x00, 0x00, 0x00, 0x00, 0x00, 0x00, 0x00, 0x00,
  0x00, 0x00, 0x00, 0x00, 0x00, 0x00, 0x00, 0x00, 0x00, 0x00, 0x00, 0x00,
  0x00, 0x00, 0x00, 0x00, 0x00, 0x00, 0x00, 0x00, 0x00, 0x00, 0x00, 0x00,
  0x00, 0x00, 0x00, 0x00, 0x00, 0x00, 0x00, 0x00, 0x00, 0x00, 0x00, 0x00,
  0x00, 0x00, 0x00, 0x00, 0x00, 0x00, 0x00, 0x00, 0x00, 0x00, 0x00, 0x00,
  0x00, 0x00, 0x00, 0x00, 0x00, 0x00, 0x00, 0x00, 0x00, 0x00, 0x00, 0x00,
  0x00, 0x00, 0x00, 0x00, 0x00, 0x00, 0x00, 0x00, 0x00, 0x00, 0x00, 0x00,
  0x00, 0x00, 0x00, 0x00, 0x00, 0x00, 0x00, 0x00, 0x00, 0x00, 0x00, 0x00,
  0x18, 0x00, 0x00, 0x00, 0xe4, 0x6e, 0xa3, 0x37, 0xe0, 0x7c, 0xa6, 0x37,
  0xaf, 0x48, 0xea, 0x37, 0xba, 0xc2, 0x30, 0x37, 0x4e, 0x50, 0xda, 0x37,
  0x96, 0x0c, 0x87, 0x37, 0x63, 0x7f, 0x5f, 0x37, 0x81, 0x8f, 0x94, 0x37,
  0x9e, 0xa4, 0x77, 0x37, 0x2e, 0x41, 0x62, 0x37, 0x5e, 0x30, 0x78, 0x37,
  0x94, 0x0d, 0x80, 0x37, 0x3c, 0xc2, 0xcc, 0x37, 0x0a, 0x89, 0xc9, 0x37,
  0x7a, 0x87, 0x73, 0x37, 0x41, 0x09, 0xa5, 0x37, 0xe3, 0x15, 0xe2, 0x37,
  0x6d, 0x82, 0x09, 0x38, 0xea, 0x44, 0xfb, 0x37, 0xba, 0x7e, 0x0f, 0x38,
  0x91, 0x5c, 0x82, 0x37, 0x59, 0x0b, 0x56, 0x37, 0xa1, 0x39, 0x6d, 0x37,
  0x93, 0x5b, 0x07, 0x38, 0x12, 0x00, 0x00, 0x00, 0x74, 0x66, 0x6c, 0x2e,
  0x70, 0x73, 0x65, 0x75, 0x64, 0x6f, 0x5f, 0x71, 0x63, 0x6f, 0x6e, 0x73,
  0x74, 0x34, 0x00, 0x00, 0x01, 0x00, 0x00, 0x00, 0x18, 0x00, 0x00, 0x00,
  0x9a, 0xfa, 0xff, 0xff, 0x00, 0x00, 0x00, 0x01, 0x14, 0x00, 0x00, 0x00,
  0xa8, 0x01, 0x00, 0x00, 0x0a, 0x00, 0x00, 0x00, 0x00, 0x00, 0x00, 0x09,
  0xb4, 0x01, 0x00, 0x00, 0x14, 0xfa, 0xff, 0xff, 0x08, 0x00, 0x00, 0x00,
  0x0c, 0x01, 0x00, 0x00, 0x20, 0x00, 0x00, 0x00, 0x00, 0x00, 0x00, 0x00,
  0x00, 0x00, 0x00, 0x00, 0x00, 0x00, 0x00, 0x00, 0x00, 0x00, 0x00, 0x00,
  0x00, 0x00, 0x00, 0x00, 0x00, 0x00, 0x00, 0x00, 0x00, 0x00, 0x00, 0x00,
  0x00, 0x00, 0x00, 0x00, 0x00, 0x00, 0x00, 0x00, 0x00, 0x00, 0x00, 0x00,
  0x00, 0x00, 0x00, 0x00, 0x00, 0x00, 0x00, 0x00, 0x00, 0x00, 0x00, 0x00,
  0x00, 0x00, 0x00, 0x00, 0x00, 0x00, 0x00, 0x00, 0x00, 0x00, 0x00, 0x00,
  0x00, 0x00, 0x00, 0x00, 0x00, 0x00, 0x00, 0x00, 0x00, 0x00, 0x00, 0x00,
  0x00, 0x00, 0x00, 0x00, 0x00, 0x00, 0x00, 0x00, 0x00, 0x00, 0x00, 0x00,
  0x00, 0x00, 0x00, 0x00, 0x00, 0x00, 0x00, 0x00, 0x00, 0x00, 0x00, 0x00,
  0x00, 0x00, 0x00, 0x00, 0x00, 0x00, 0x00, 0x00, 0x00, 0x00, 0x00, 0x00,
  0x00, 0x00, 0x00, 0x00, 0x00, 0x00, 0x00, 0x00, 0x00, 0x00, 0x00, 0x00,
  0x00, 0x00, 0x00, 0x00, 0x00, 0x00, 0x00, 0x00, 0x00, 0x00, 0x00, 0x00,
  0x00, 0x00, 0x00, 0x00, 0x00, 0x00, 0x00, 0x00, 0x00, 0x00, 0x00, 0x00,
  0x00, 0x00, 0x00, 0x00, 0x00, 0x00, 0x00, 0x00, 0x00, 0x00, 0x00, 0x00,
  0x00, 0x00, 0x00, 0x00, 0x00, 0x00, 0x00, 0x00, 0x00, 0x00, 0x00, 0x00,
  0x00, 0x00, 0x00, 0x00, 0x00, 0x00, 0x00, 0x00, 0x00, 0x00, 0x00, 0x00,
  0x00, 0x00, 0x00, 0x00, 0x00, 0x00, 0x00, 0x00, 0x00, 0x00, 0x00, 0x00,
  0x00, 0x00, 0x00, 0x00, 0x00, 0x00, 0x00, 0x00, 0x00, 0x00, 0x00, 0x00,
  0x00, 0x00, 0x00, 0x00, 0x00, 0x00, 0x00, 0x00, 0x00, 0x00, 0x00, 0x00,
  0x00, 0x00, 0x00, 0x00, 0x00, 0x00, 0x00, 0x00, 0x00, 0x00, 0x00, 0x00,
  0x00, 0x00, 0x00, 0x00, 0x00, 0x00, 0x00, 0x00, 0x00, 0x00, 0x00, 0x00,
  0x00, 0x00, 0x00, 0x00, 0x00, 0x00, 0x00, 0x00, 0x00, 0x00, 0x00, 0x00,
  0x00, 0x00, 0x00, 0x00, 0x20, 0x00, 0x00, 0x00, 0x42, 0xdb, 0x49, 0x3c,
  0x4a, 0xa3, 0xfb, 0x3c, 0x65, 0x1b, 0xfe, 0x3c, 0x1a, 0x8d, 0xc2, 0x3c,
  0x02, 0x45, 0x41, 0x3c, 0x45, 0x86, 0x68, 0x3c, 0xfe, 0xc3, 0x9d, 0x3c,
  0x0f, 0x3e, 0x55, 0x3c, 0x20, 0x67, 0x86, 0x3c, 0xff, 0x10, 0x86, 0x3c,
  0xde, 0xc2, 0xb3, 0x3c, 0x1e, 0x74, 0x06, 0x3d, 0xbf, 0x94, 0x77, 0x3c,
  0x6e, 0x09, 0x9c, 0x3c, 0xc1, 0xa5, 0xc9, 0x3c, 0xf8, 0x60, 0xd5, 0x3c,
  0x8c, 0x76, 0x99, 0x3c, 0x3a, 0x8a, 0x9d, 0x3c, 0xf4, 0xed, 0x22, 0x3c,
  0x7a, 0xa0, 0x93, 0x3c, 0xe9, 0xf2, 0x88, 0x3c, 0xeb, 0x7c, 0xd8, 0x3c,
  0x74, 0xd9, 0x9b, 0x3c, 0xad, 0x67, 0x3a, 0x3c, 0x88, 0xfe, 0xb3, 0x3c,
  0xc3, 0xed, 0x17, 0x3c, 0x9d, 0x52, 0x6f, 0x3c, 0xa5, 0x5c, 0x9e, 0x3c,
  0x48, 0xa6, 0xcf, 0x3c, 0x25, 0xeb, 0x59, 0x3c, 0x1f, 0x6e, 0x63, 0x3c,
  0x52, 0x6d, 0x6c, 0x3c, 0x12, 0x00, 0x00, 0x00, 0x74, 0x66, 0x6c, 0x2e,
  0x70, 0x73, 0x65, 0x75, 0x64, 0x6f, 0x5f, 0x71, 0x63, 0x6f, 0x6e, 0x73,
  0x74, 0x33, 0x00, 0x00, 0x04, 0x00, 0x00, 0x00, 0x20, 0x00, 0x00, 0x00,
  0x01, 0x00, 0x00, 0x00, 0x05, 0x00, 0x00, 0x00, 0x18, 0x00, 0x00, 0x00,
  0x7a, 0xfc, 0xff, 0xff, 0x00, 0x00, 0x00, 0x01, 0x14, 0x00, 0x00, 0x00,
  0xa4, 0x01, 0x00, 0x00, 0x09, 0x00, 0x00, 0x00, 0x00, 0x00, 0x00, 0x02,
  0xb0, 0x01, 0x00, 0x00, 0xf4, 0xfb, 0xff, 0xff, 0x08, 0x00, 0x00, 0x00,
  0x08, 0x01, 0x00, 0x00, 0x20, 0x00, 0x00, 0x00, 0x00, 0x00, 0x00, 0x00,
  0x00, 0x00, 0x00, 0x00, 0x00, 0x00, 0x00, 0x00, 0x00, 0x00, 0x00, 0x00,
  0x00, 0x00, 0x00, 0x00, 0x00, 0x00, 0x00, 0x00, 0x00, 0x00, 0x00, 0x00,
  0x00, 0x00, 0x00, 0x00, 0x00, 0x00, 0x00, 0x00, 0x00, 0x00, 0x00, 0x00,
  0x00, 0x00, 0x00, 0x00, 0x00, 0x00, 0x00, 0x00, 0x00, 0x00, 0x00, 0x00,
  0x00, 0x00, 0x00, 0x00, 0x00, 0x00, 0x00, 0x00, 0x00, 0x00, 0x00, 0x00,
  0x00, 0x00, 0x00, 0x00, 0x00, 0x00, 0x00, 0x00, 0x00, 0x00, 0x00, 0x00,
  0x00, 0x00, 0x00, 0x00, 0x00, 0x00, 0x00, 0x00, 0x00, 0x00, 0x00, 0x00,
  0x00, 0x00, 0x00, 0x00, 0x00, 0x00, 0x00, 0x00, 0x00, 0x00, 0x00, 0x00,
  0x00, 0x00, 0x00, 0x00, 0x00, 0x00, 0x00, 0x00, 0x00, 0x00, 0x00, 0x00,
  0x00, 0x00, 0x00, 0x00, 0x00, 0x00, 0x00, 0x00, 0x00, 0x00, 0x00, 0x00,
  0x00, 0x00, 0x00, 0x00, 0x00, 0x00, 0x00, 0x00, 0x00, 0x00, 0x00, 0x00,
  0x00, 0x00, 0x00, 0x00, 0x00, 0x00, 0x00, 0x00, 0x00, 0x00, 0x00, 0x00,
  0x00, 0x00, 0x00, 0x00, 0x00, 0x00, 0x00, 0x00, 0x00, 0x00, 0x00, 0x00,
  0x00, 0x00, 0x00, 0x00, 0x00, 0x00, 0x00, 0x00, 0x00, 0x00, 0x00, 0x00,
  0x00, 0x00, 0x00, 0x00, 0x00, 0x00, 0x00, 0x00, 0x00, 0x00, 0x00, 0x00,
  0x00, 0x00, 0x00, 0x00, 0x00, 0x00, 0x00, 0x00, 0x00, 0x00, 0x00, 0x00,
  0x00, 0x00, 0x00, 0x00, 0x00, 0x00, 0x00, 0x00, 0x00, 0x00, 0x00, 0x00,
  0x00, 0x00, 0x00, 0x00, 0x00, 0x00, 0x00, 0x00, 0x00, 0x00, 0x00, 0x00,
  0x00, 0x00, 0x00, 0x00, 0x00, 0x00, 0x00, 0x00, 0x00, 0x00, 0x00, 0x00,
  0x00, 0x00, 0x00, 0x00, 0x00, 0x00, 0x00, 0x00, 0x00, 0x00, 0x00, 0x00,
  0x00, 0x00, 0x00, 0x00, 0x00, 0x00, 0x00, 0x00, 0x00, 0x00, 0x00, 0x00,
  0x20, 0x00, 0x00, 0x00, 0x00, 0x3f, 0xa5, 0x39, 0xaa, 0xff, 0x4d, 0x3a,
  0x20, 0x05, 0x50, 0x3a, 0x08, 0x44, 0x1f, 0x3a, 0x71, 0x37, 0x9e, 0x39,
  0x16, 0x5a, 0xbe, 0x39, 0xe3, 0x26, 0x01, 0x3a, 0x25, 0x91, 0xae, 0x39,
  0x85, 0x0d, 0xdc, 0x39, 0x81, 0x80, 0xdb, 0x39, 0x80, 0x28, 0x13, 0x3a,
  0xca, 0x22, 0x5c, 0x3a, 0x7b, 0xad, 0xca, 0x39, 0x2e, 0x79, 0xff, 0x39,
  0x33, 0x13, 0x25, 0x3a, 0xba, 0xad, 0x2e, 0x3a, 0x6b, 0x42, 0xfb, 0x39,
  0x99, 0xf7, 0x00, 0x3a, 0x16, 0x61, 0x85, 0x39, 0x3b, 0xb4, 0xf1, 0x39,
  0xaa, 0x38, 0xe0, 0x39, 0x50, 0x39, 0x31, 0x3a, 0xa2, 0x2a, 0xff, 0x39,
  0xd6, 0x98, 0x98, 0x39, 0x57, 0x59, 0x13, 0x3a, 0x53, 0xbf, 0x78, 0x39,
  0xc9, 0xea, 0xc3, 0x39, 0xda, 0xa3, 0x01, 0x3a, 0x0c, 0xfd, 0x29, 0x3a,
  0x1e, 0x65, 0xb2, 0x39, 0x78, 0x2e, 0xba, 0x39, 0xf0, 0x8b, 0xc1, 0x39,
  0x12, 0x00, 0x00, 0x00, 0x74, 0x66, 0x6c, 0x2e, 0x70, 0x73, 0x65, 0x75,
  0x64, 0x6f, 0x5f, 0x71, 0x63, 0x6f, 0x6e, 0x73, 0x74, 0x32, 0x00, 0x00,
  0x01, 0x00, 0x00, 0x00, 0x20, 0x00, 0x00, 0x00, 0x4a, 0xfe, 0xff, 0xff,
  0x00, 0x00, 0x00, 0x01, 0x14, 0x00, 0x00, 0x00, 0x30, 0x00, 0x00, 0x00,
  0x08, 0x00, 0x00, 0x00, 0x00, 0x00, 0x00, 0x09, 0x3c, 0x00, 0x00, 0x00,
  0xc4, 0xfd, 0xff, 0xff, 0x08, 0x00, 0x00, 0x00, 0x10, 0x00, 0x00, 0x00,
  0x01, 0x00, 0x00, 0x00, 0x00, 0x00, 0x00, 0x00, 0x00, 0x00, 0x00, 0x00,
  0x01, 0x00, 0x00, 0x00, 0xc1, 0x49, 0x1a, 0x3c, 0x12, 0x00, 0x00, 0x00,
  0x74, 0x66, 0x6c, 0x2e, 0x70, 0x73, 0x65, 0x75, 0x64, 0x6f, 0x5f, 0x71,
  0x63, 0x6f, 0x6e, 0x73, 0x74, 0x31, 0x00, 0x00, 0x04, 0x00, 0x00, 0x00,
  0x01, 0x00, 0x00, 0x00, 0x01, 0x00, 0x00, 0x00, 0x01, 0x00, 0x00, 0x00,
  0x20, 0x00, 0x00, 0x00, 0xb2, 0xfe, 0xff, 0xff, 0x00, 0x00, 0x00, 0x01,
  0x14, 0x00, 0x00, 0x00, 0x34, 0x00, 0x00, 0x00, 0x07, 0x00, 0x00, 0x00,
  0x00, 0x00, 0x00, 0x02, 0x40, 0x00, 0x00, 0x00, 0x2c, 0xfe, 0xff, 0xff,
  0x08, 0x00, 0x00, 0x00, 0x14, 0x00, 0x00, 0x00, 0x01, 0x00, 0x00, 0x00,
  0x00, 0x00, 0x00, 0x00, 0x00, 0x00, 0x00, 0x00, 0x00, 0x00, 0x00, 0x00,
  0x01, 0x00, 0x00, 0x00, 0xe5, 0xbe, 0xba, 0x38, 0x11, 0x00, 0x00, 0x00,
  0x74, 0x66, 0x6c, 0x2e, 0x70, 0x73, 0x65, 0x75, 0x64, 0x6f, 0x5f, 0x71,
  0x63, 0x6f, 0x6e, 0x73, 0x74, 0x00, 0x00, 0x00, 0x01, 0x00, 0x00, 0x00,
  0x01, 0x00, 0x00, 0x00, 0x12, 0xff, 0xff, 0xff, 0x00, 0x00, 0x00, 0x01,
  0x14, 0x00, 0x00, 0x00, 0x14, 0x00, 0x00, 0x00, 0x06, 0x00, 0x00, 0x00,
  0x00, 0x00, 0x00, 0x02, 0x1c, 0x00, 0x00, 0x00, 0xfc, 0xfe, 0xff, 0xff,
  0x0f, 0x00, 0x00, 0x00, 0x61, 0x72, 0x69, 0x74, 0x68, 0x2e, 0x63, 0x6f,
  0x6e, 0x73, 0x74, 0x61, 0x6e, 0x74, 0x34, 0x00, 0x01, 0x00, 0x00, 0x00,
  0x03, 0x00, 0x00, 0x00, 0x4e, 0xff, 0xff, 0xff, 0x00, 0x00, 0x00, 0x01,
  0x14, 0x00, 0x00, 0x00, 0x14, 0x00, 0x00, 0x00, 0x05, 0x00, 0x00, 0x00,
  0x00, 0x00, 0x00, 0x02, 0x1c, 0x00, 0x00, 0x00, 0x38, 0xff, 0xff, 0xff,
  0x0f, 0x00, 0x00, 0x00, 0x61, 0x72, 0x69, 0x74, 0x68, 0x2e, 0x63, 0x6f,
  0x6e, 0x73, 0x74, 0x61, 0x6e, 0x74, 0x33, 0x00, 0x01, 0x00, 0x00, 0x00,
  0x03, 0x00, 0x00, 0x00, 0x8a, 0xff, 0xff, 0xff, 0x00, 0x00, 0x00, 0x01,
  0x14, 0x00, 0x00, 0x00, 0x14, 0x00, 0x00, 0x00, 0x04, 0x00, 0x00, 0x00,
  0x00, 0x00, 0x00, 0x02, 0x1c, 0x00, 0x00, 0x00, 0x74, 0xff, 0xff, 0xff,
  0x0f, 0x00, 0x00, 0x00, 0x61, 0x72, 0x69, 0x74, 0x68, 0x2e, 0x63, 0x6f,
  0x6e, 0x73, 0x74, 0x61, 0x6e, 0x74, 0x32, 0x00, 0x01, 0x00, 0x00, 0x00,
  0x03, 0x00, 0x00, 0x00, 0xc6, 0xff, 0xff, 0xff, 0x00, 0x00, 0x00, 0x01,
  0x14, 0x00, 0x00, 0x00, 0x14, 0x00, 0x00, 0x00, 0x03, 0x00, 0x00, 0x00,
  0x00, 0x00, 0x00, 0x02, 0x1c, 0x00, 0x00, 0x00, 0xb0, 0xff, 0xff, 0xff,
  0x0f, 0x00, 0x00, 0x00, 0x61, 0x72, 0x69, 0x74, 0x68, 0x2e, 0x63, 0x6f,
  0x6e, 0x73, 0x74, 0x61, 0x6e, 0x74, 0x31, 0x00, 0x00, 0x00, 0x00, 0x00,
  0x00, 0x00, 0x16, 0x00, 0x1c, 0x00, 0x18, 0x00, 0x17, 0x00, 0x10, 0x00,
  0x0c, 0x00, 0x08, 0x00, 0x00, 0x00, 0x00, 0x00, 0x00, 0x00, 0x07, 0x00,
  0x16, 0x00, 0x00, 0x00, 0x00, 0x00, 0x00, 0x01, 0x18, 0x00, 0x00, 0x00,
  0x18, 0x00, 0x00, 0x00, 0x02, 0x00, 0x00, 0x00, 0x00, 0x00, 0x00, 0x02,
  0x20, 0x00, 0x00, 0x00, 0x04, 0x00, 0x04, 0x00, 0x04, 0x00, 0x00, 0x00,
  0x0e, 0x00, 0x00, 0x00, 0x61, 0x72, 0x69, 0x74, 0x68, 0x2e, 0x63, 0x6f,
  0x6e, 0x73, 0x74, 0x61, 0x6e, 0x74, 0x00, 0x00, 0x02, 0x00, 0x00, 0x00,
  0x03, 0x00, 0x00, 0x00, 0x02, 0x00, 0x00, 0x00, 0x00, 0x00, 0x16, 0x00,
  0x20, 0x00, 0x1c, 0x00, 0x1b, 0x00, 0x14, 0x00, 0x10, 0x00, 0x0c, 0x00,
  0x00, 0x00, 0x00, 0x00, 0x08, 0x00, 0x07, 0x00, 0x16, 0x00, 0x00, 0x00,
  0x00, 0x00, 0x00, 0x01, 0x18, 0x00, 0x00, 0x00, 0x30, 0x00, 0x00, 0x00,
  0x4c, 0x00, 0x00, 0x00, 0x01, 0x00, 0x00, 0x00, 0x00, 0x00, 0x00, 0x09,
  0x60, 0x00, 0x00, 0x00, 0x03, 0x00, 0x00, 0x00, 0xff, 0xff, 0xff, 0xff,
  0x10, 0x00, 0x00, 0x00, 0x1a, 0x00, 0x00, 0x00, 0x0c, 0x00, 0x0c, 0x00,
  0x00, 0x00, 0x00, 0x00, 0x08, 0x00, 0x04, 0x00, 0x0c, 0x00, 0x00, 0x00,
  0x08, 0x00, 0x00, 0x00, 0x10, 0x00, 0x00, 0x00, 0x01, 0x00, 0x00, 0x00,
  0x80, 0xff, 0xff, 0xff, 0xff, 0xff, 0xff, 0xff, 0x01, 0x00, 0x00, 0x00,
  0x81, 0x80, 0x80, 0x3b, 0x1b, 0x00, 0x00, 0x00, 0x73, 0x65, 0x72, 0x76,
  0x69, 0x6e, 0x67, 0x5f, 0x64, 0x65, 0x66, 0x61, 0x75, 0x6c, 0x74, 0x5f,
  0x6d, 0x65, 0x6c, 0x5f, 0x69, 0x6e, 0x70, 0x75, 0x74, 0x3a, 0x30, 0x00,
  0x03, 0x00, 0x00, 0x00, 0x01, 0x00, 0x00, 0x00, 0x10, 0x00, 0x00, 0x00,
  0x1a, 0x00, 0x00, 0x00, 0x05, 0x00, 0x00, 0x00, 0x64, 0x00, 0x00, 0x00,
  0x48, 0x00, 0x00, 0x00, 0x28, 0x00, 0x00, 0x00, 0x18, 0x00, 0x00, 0x00,
  0x04, 0x00, 0x00, 0x00, 0xbc, 0xff, 0xff, 0xff, 0x0e, 0x00, 0x00, 0x00,
  0x02, 0x00, 0x00, 0x00, 0x00, 0x00, 0x00, 0x0e, 0xe4, 0xff, 0xff, 0xff,
  0x16, 0x00, 0x00, 0x00, 0x00, 0x00, 0x00, 0x16, 0xd8, 0xff, 0xff, 0xff,
  0x03, 0x00, 0x00, 0x00, 0x03, 0x00, 0x00, 0x00, 0x00, 0x00, 0x00, 0x03,
  0x0c, 0x00, 0x0c, 0x00, 0x0b, 0x00, 0x00, 0x00, 0x00, 0x00, 0x04, 0x00,
  0x0c, 0x00, 0x00, 0x00, 0x46, 0x00, 0x00, 0x00, 0x00, 0x00, 0x00, 0x46,
  0x0c, 0x00, 0x10, 0x00, 0x0f, 0x00, 0x00, 0x00, 0x08, 0x00, 0x04, 0x00,
  0x0c, 0x00, 0x00, 0x00, 0x22, 0x00, 0x00, 0x00, 0x02, 0x00, 0x00, 0x00,
  0x00, 0x00, 0x00, 0x22,
};

static const unsigned int frame_onset_model_data_len = 13768;

#endif // FRAME_ONSET_MODEL_DATA_V7_H
