// Auto-generated by export_tflite.py — do not edit
// Model size: 10048 bytes (9.8 KB)
// SHA256 prefix: f3b193ec45ddfa3b
// Exported: 2026-03-16T15:19:30Z

#ifndef ONSET_MODEL_DATA_H
#define ONSET_MODEL_DATA_H

#define ONSET_MODEL_DATA_HASH "f3b193ec45ddfa3b"
#define ONSET_MODEL_DATA_SIZE 10048

alignas(8) static const unsigned char onset_model_data[] = {
  0x1c, 0x00, 0x00, 0x00, 0x54, 0x46, 0x4c, 0x33, 0x14, 0x00, 0x20, 0x00,
  0x1c, 0x00, 0x18, 0x00, 0x14, 0x00, 0x10, 0x00, 0x0c, 0x00, 0x00, 0x00,
  0x08, 0x00, 0x04, 0x00, 0x14, 0x00, 0x00, 0x00, 0x1c, 0x00, 0x00, 0x00,
  0x88, 0x00, 0x00, 0x00, 0xe0, 0x00, 0x00, 0x00, 0xa8, 0x11, 0x00, 0x00,
  0xb8, 0x11, 0x00, 0x00, 0x94, 0x26, 0x00, 0x00, 0x03, 0x00, 0x00, 0x00,
  0x01, 0x00, 0x00, 0x00, 0x04, 0x00, 0x00, 0x00, 0x56, 0xec, 0xff, 0xff,
  0x0c, 0x00, 0x00, 0x00, 0x1c, 0x00, 0x00, 0x00, 0x3c, 0x00, 0x00, 0x00,
  0x0f, 0x00, 0x00, 0x00, 0x73, 0x65, 0x72, 0x76, 0x69, 0x6e, 0x67, 0x5f,
  0x64, 0x65, 0x66, 0x61, 0x75, 0x6c, 0x74, 0x00, 0x01, 0x00, 0x00, 0x00,
  0x04, 0x00, 0x00, 0x00, 0x94, 0xff, 0xff, 0xff, 0x16, 0x00, 0x00, 0x00,
  0x04, 0x00, 0x00, 0x00, 0x0b, 0x00, 0x00, 0x00, 0x6f, 0x75, 0x74, 0x70,
  0x75, 0x74, 0x5f, 0x63, 0x6f, 0x6e, 0x76, 0x00, 0x01, 0x00, 0x00, 0x00,
  0x04, 0x00, 0x00, 0x00, 0xf2, 0xee, 0xff, 0xff, 0x04, 0x00, 0x00, 0x00,
  0x09, 0x00, 0x00, 0x00, 0x6d, 0x65, 0x6c, 0x5f, 0x69, 0x6e, 0x70, 0x75,
  0x74, 0x00, 0x00, 0x00, 0x02, 0x00, 0x00, 0x00, 0x34, 0x00, 0x00, 0x00,
  0x04, 0x00, 0x00, 0x00, 0xdc, 0xff, 0xff, 0xff, 0x19, 0x00, 0x00, 0x00,
  0x04, 0x00, 0x00, 0x00, 0x13, 0x00, 0x00, 0x00, 0x43, 0x4f, 0x4e, 0x56,
  0x45, 0x52, 0x53, 0x49, 0x4f, 0x4e, 0x5f, 0x4d, 0x45, 0x54, 0x41, 0x44,
  0x41, 0x54, 0x41, 0x00, 0x08, 0x00, 0x0c, 0x00, 0x08, 0x00, 0x04, 0x00,
  0x08, 0x00, 0x00, 0x00, 0x18, 0x00, 0x00, 0x00, 0x04, 0x00, 0x00, 0x00,
  0x13, 0x00, 0x00, 0x00, 0x6d, 0x69, 0x6e, 0x5f, 0x72, 0x75, 0x6e, 0x74,
  0x69, 0x6d, 0x65, 0x5f, 0x76, 0x65, 0x72, 0x73, 0x69, 0x6f, 0x6e, 0x00,
  0x1a, 0x00, 0x00, 0x00, 0xc4, 0x10, 0x00, 0x00, 0xbc, 0x10, 0x00, 0x00,
  0x94, 0x10, 0x00, 0x00, 0x78, 0x10, 0x00, 0x00, 0x5c, 0x10, 0x00, 0x00,
  0x40, 0x10, 0x00, 0x00, 0x2c, 0x10, 0x00, 0x00, 0x04, 0x10, 0x00, 0x00,
  0x94, 0x0f, 0x00, 0x00, 0xc4, 0x08, 0x00, 0x00, 0x54, 0x08, 0x00, 0x00,
  0xf4, 0x00, 0x00, 0x00, 0xec, 0x00, 0x00, 0x00, 0xe4, 0x00, 0x00, 0x00,
  0xdc, 0x00, 0x00, 0x00, 0xd4, 0x00, 0x00, 0x00, 0xcc, 0x00, 0x00, 0x00,
  0xc4, 0x00, 0x00, 0x00, 0xbc, 0x00, 0x00, 0x00, 0xb4, 0x00, 0x00, 0x00,
  0xac, 0x00, 0x00, 0x00, 0xa4, 0x00, 0x00, 0x00, 0x9c, 0x00, 0x00, 0x00,
  0x94, 0x00, 0x00, 0x00, 0x74, 0x00, 0x00, 0x00, 0x04, 0x00, 0x00, 0x00,
  0xd2, 0xef, 0xff, 0xff, 0x04, 0x00, 0x00, 0x00, 0x60, 0x00, 0x00, 0x00,
  0x0c, 0x00, 0x00, 0x00, 0x08, 0x00, 0x0e, 0x00, 0x08, 0x00, 0x04, 0x00,
  0x08, 0x00, 0x00, 0x00, 0x10, 0x00, 0x00, 0x00, 0x28, 0x00, 0x00, 0x00,
  0x00, 0x00, 0x06, 0x00, 0x08, 0x00, 0x04, 0x00, 0x06, 0x00, 0x00, 0x00,
  0x04, 0x00, 0x00, 0x00, 0x01, 0x00, 0x00, 0x00, 0xeb, 0x03, 0x00, 0x00,
  0x0c, 0x00, 0x18, 0x00, 0x14, 0x00, 0x10, 0x00, 0x0c, 0x00, 0x04, 0x00,
  0x0c, 0x00, 0x00, 0x00, 0x9a, 0xca, 0x81, 0x6a, 0xb7, 0xac, 0x94, 0x5c,
  0x02, 0x00, 0x00, 0x00, 0x02, 0x00, 0x00, 0x00, 0x04, 0x00, 0x00, 0x00,
  0x06, 0x00, 0x00, 0x00, 0x32, 0x2e, 0x32, 0x30, 0x2e, 0x30, 0x00, 0x00,
  0x3e, 0xf0, 0xff, 0xff, 0x04, 0x00, 0x00, 0x00, 0x10, 0x00, 0x00, 0x00,
  0x31, 0x2e, 0x31, 0x34, 0x2e, 0x30, 0x00, 0x00, 0x00, 0x00, 0x00, 0x00,
  0x00, 0x00, 0x00, 0x00, 0x00, 0xdc, 0xff, 0xff, 0x04, 0xdc, 0xff, 0xff,
  0x08, 0xdc, 0xff, 0xff, 0x0c, 0xdc, 0xff, 0xff, 0x10, 0xdc, 0xff, 0xff,
  0x14, 0xdc, 0xff, 0xff, 0x18, 0xdc, 0xff, 0xff, 0x1c, 0xdc, 0xff, 0xff,
  0x20, 0xdc, 0xff, 0xff, 0x24, 0xdc, 0xff, 0xff, 0x28, 0xdc, 0xff, 0xff,
  0x2c, 0xdc, 0xff, 0xff, 0x8a, 0xf0, 0xff, 0xff, 0x04, 0x00, 0x00, 0x00,
  0x50, 0x07, 0x00, 0x00, 0x1b, 0x1a, 0x2a, 0x20, 0x24, 0x1e, 0x29, 0x25,
  0x25, 0x2c, 0x25, 0x37, 0x2f, 0x2b, 0x2c, 0x37, 0x37, 0x37, 0x41, 0x2d,
  0x3c, 0x32, 0x4f, 0x34, 0x3b, 0x2f, 0x11, 0x03, 0x12, 0xfc, 0x00, 0x10,
  0xf0, 0xfe, 0xfb, 0xf6, 0x19, 0xfb, 0x01, 0xea, 0xf2, 0x1e, 0xd9, 0x10,
  0xfb, 0xe9, 0x11, 0x0e, 0x2e, 0x0e, 0x0e, 0x06, 0xd4, 0xe4, 0xc3, 0xe4,
  0xdd, 0xd2, 0xe7, 0xdd, 0xe0, 0xde, 0xc2, 0xce, 0xd0, 0xeb, 0xe3, 0xaa,
  0xf0, 0xb9, 0xc3, 0xea, 0xb2, 0xc1, 0x81, 0xbf, 0xb6, 0xca, 0x19, 0x0b,
  0x10, 0x27, 0x08, 0xf9, 0x0b, 0x03, 0xf6, 0xf1, 0xec, 0xd7, 0xe5, 0x12,
  0xca, 0x0a, 0xf9, 0x23, 0x2e, 0xf8, 0x21, 0x54, 0x48, 0x61, 0x42, 0x6f,
  0x23, 0xe7, 0xe0, 0x00, 0x48, 0x3d, 0x62, 0x44, 0x32, 0x51, 0x39, 0x58,
  0x62, 0xe3, 0x0e, 0xeb, 0x3a, 0xf0, 0x09, 0x06, 0xfe, 0xfa, 0xcf, 0xd3,
  0xfc, 0xd4, 0x7f, 0x24, 0x0e, 0xd8, 0xac, 0xcc, 0x91, 0xb5, 0xda, 0xba,
  0xd5, 0xd0, 0xb5, 0x07, 0x20, 0x09, 0xc7, 0xed, 0xbd, 0xfd, 0xda, 0xb7,
  0xe8, 0xcd, 0xc0, 0xc3, 0xdf, 0xd6, 0xca, 0xc6, 0xc8, 0xc4, 0xd1, 0xc7,
  0xbd, 0xbe, 0xb4, 0xb7, 0xb8, 0xad, 0xa2, 0xad, 0xb4, 0xa8, 0xa2, 0xa9,
  0xaa, 0xa1, 0xab, 0xb4, 0xae, 0xc6, 0x09, 0x12, 0x2a, 0x46, 0x41, 0x4b,
  0x4a, 0x55, 0x5b, 0x61, 0x6b, 0x6c, 0x67, 0x72, 0x7f, 0x7f, 0x68, 0x7a,
  0x6b, 0x60, 0x51, 0x4f, 0x57, 0x4c, 0x35, 0x2d, 0x1a, 0x1b, 0x0d, 0xf4,
  0xf8, 0xf0, 0xe7, 0xe6, 0xeb, 0xe0, 0xe3, 0xe1, 0xe0, 0xe3, 0xe2, 0xd4,
  0xe7, 0xe1, 0xf5, 0xf9, 0x08, 0x15, 0x05, 0x04, 0x27, 0x15, 0x0f, 0x11,
  0x02, 0x08, 0x04, 0x08, 0x1f, 0xf7, 0x06, 0x08, 0xfc, 0x39, 0x04, 0x1f,
  0x4b, 0x41, 0x25, 0x0b, 0xee, 0x46, 0x2c, 0x4c, 0x17, 0xfb, 0x35, 0x29,
  0x15, 0xfc, 0x10, 0x08, 0x04, 0xe3, 0xeb, 0x0d, 0xee, 0x4c, 0xe5, 0xf7,
  0x0c, 0x0f, 0xaa, 0xe9, 0x63, 0xc9, 0x1c, 0x34, 0x09, 0xd9, 0xec, 0xff,
  0x51, 0x1b, 0xf5, 0x0b, 0xfd, 0xfd, 0x06, 0x22, 0x05, 0x0a, 0x1b, 0xb6,
  0x30, 0xdd, 0x01, 0xe3, 0x1b, 0xe7, 0x84, 0x3c, 0x04, 0x93, 0xd8, 0xea,
  0x0b, 0x15, 0x81, 0xe1, 0xff, 0x04, 0xfb, 0x9c, 0xfa, 0xbf, 0x44, 0xd5,
  0xea, 0x45, 0x97, 0xeb, 0x27, 0xb9, 0xfc, 0x92, 0xb1, 0xa9, 0x06, 0x12,
  0x85, 0xf9, 0x17, 0xcb, 0x15, 0x19, 0xc6, 0xf0, 0x06, 0xb1, 0x25, 0x3a,
  0x8b, 0xae, 0x03, 0x0e, 0xdb, 0x86, 0xb8, 0xa8, 0x27, 0x5c, 0x0b, 0x08,
  0x21, 0xdf, 0xc2, 0xdb, 0x03, 0x81, 0xd9, 0x2d, 0xae, 0x51, 0x22, 0xa8,
  0xbe, 0x46, 0xe6, 0x9e, 0x21, 0x82, 0x2a, 0xdb, 0x25, 0x52, 0xbc, 0xb7,
  0xdc, 0x1a, 0x85, 0xf3, 0xd6, 0x49, 0xb3, 0x13, 0xa7, 0x0c, 0xf7, 0xde,
  0xd3, 0xcf, 0xcc, 0xc3, 0xc6, 0xc8, 0xc1, 0xb5, 0xad, 0xa7, 0xb1, 0xaf,
  0xad, 0x9e, 0xa3, 0xa4, 0xa9, 0xa2, 0xa5, 0x9d, 0xaa, 0xad, 0xaf, 0xc5,
  0xfa, 0xef, 0xef, 0xf0, 0xf0, 0xf5, 0xf7, 0xec, 0xf6, 0xf3, 0xf6, 0xee,
  0xf4, 0xea, 0xed, 0xf1, 0xf1, 0xeb, 0xe9, 0xec, 0xeb, 0xe5, 0xe5, 0xee,
  0xee, 0xef, 0x35, 0x34, 0x3f, 0x41, 0x45, 0x49, 0x45, 0x4d, 0x4a, 0x59,
  0x5e, 0x6c, 0x5c, 0x67, 0x66, 0x72, 0x6e, 0x73, 0x6e, 0x74, 0x71, 0x7f,
  0x72, 0x65, 0x65, 0x4f, 0x83, 0x16, 0xc1, 0x91, 0xcf, 0xc5, 0xc0, 0xba,
  0xaf, 0xcf, 0xc8, 0xc5, 0xbd, 0xa1, 0xbe, 0xac, 0x8f, 0xd7, 0xb3, 0xa9,
  0xae, 0xa0, 0xcc, 0xc4, 0xd7, 0xda, 0xf4, 0x30, 0x2e, 0x55, 0x1e, 0x29,
  0x27, 0x27, 0x29, 0x0a, 0x01, 0xff, 0x3e, 0x37, 0x2b, 0x3f, 0x3b, 0x17,
  0x24, 0x26, 0x1b, 0x06, 0x27, 0x1c, 0xf9, 0x0b, 0x7a, 0x7f, 0x63, 0x19,
  0x13, 0x0f, 0x13, 0x1a, 0x22, 0x20, 0x34, 0x37, 0xfe, 0x1a, 0x0c, 0x0e,
  0x2c, 0x0c, 0x22, 0x27, 0x2d, 0x54, 0x0e, 0x19, 0x2a, 0x17, 0xe7, 0xe7,
  0x03, 0x16, 0x1b, 0x21, 0x18, 0x39, 0x20, 0x13, 0x45, 0x1f, 0x48, 0x39,
  0x47, 0x57, 0x42, 0x42, 0x55, 0x4f, 0x4e, 0x19, 0x2a, 0x1f, 0x34, 0x0a,
  0xe5, 0xe3, 0xfd, 0x04, 0x09, 0x15, 0xf8, 0xf5, 0x07, 0x21, 0xef, 0xde,
  0x00, 0x17, 0x38, 0xf8, 0x1c, 0x0b, 0xf4, 0xf9, 0x20, 0xc9, 0xe4, 0xc8,
  0x03, 0xd4, 0x2e, 0x38, 0xfd, 0xe3, 0xda, 0xc7, 0xee, 0xcc, 0xd8, 0xc9,
  0xc5, 0x05, 0xb1, 0xb3, 0x81, 0xb1, 0x9f, 0xb1, 0xb4, 0xb8, 0x89, 0x1f,
  0xec, 0x18, 0xc1, 0x16, 0xf5, 0xcd, 0xd5, 0xe1, 0x08, 0x02, 0x2c, 0x4c,
  0x4d, 0x2b, 0xf8, 0xc5, 0xd9, 0xcc, 0x98, 0xd8, 0xce, 0xbc, 0x97, 0x81,
  0xd0, 0xa8, 0xb5, 0xfe, 0x66, 0x2c, 0x1b, 0x36, 0x20, 0xf7, 0xcb, 0xed,
  0xe1, 0x37, 0x3b, 0x05, 0xf5, 0x31, 0xe7, 0xe1, 0x22, 0xe4, 0x01, 0x33,
  0x22, 0x22, 0x0b, 0x1f, 0x1c, 0x4f, 0x54, 0x64, 0xc4, 0xbd, 0xce, 0xfb,
  0xf5, 0xeb, 0xe9, 0x0c, 0x52, 0x0c, 0xe0, 0xc5, 0xf3, 0xe3, 0xcc, 0xe5,
  0xd8, 0xbc, 0xb9, 0xcc, 0xcc, 0xd2, 0xe3, 0xd6, 0x45, 0xe4, 0x40, 0x37,
  0x41, 0x3e, 0x3a, 0x38, 0x3d, 0x41, 0x3a, 0x44, 0x4c, 0x54, 0x47, 0x4c,
  0x4e, 0x51, 0x4e, 0x57, 0x58, 0x5b, 0x5e, 0x60, 0x5f, 0x61, 0x53, 0x4b,
  0xed, 0x01, 0x08, 0x05, 0x03, 0x06, 0x0a, 0x02, 0x04, 0x09, 0x0f, 0x10,
  0x14, 0x16, 0x0b, 0x0e, 0x13, 0x1b, 0x15, 0x13, 0x12, 0x19, 0x1a, 0x13,
  0x07, 0x02, 0xa9, 0xc7, 0xb8, 0xbd, 0xb6, 0xaf, 0xad, 0xaa, 0xb6, 0xa2,
  0x92, 0x87, 0x9c, 0x94, 0x9b, 0x98, 0x9c, 0x94, 0x92, 0x8f, 0x95, 0x85,
  0x81, 0x89, 0x9d, 0x9e, 0x19, 0x20, 0x29, 0x36, 0x31, 0x3a, 0x2f, 0x32,
  0x3e, 0x42, 0x45, 0x4f, 0x3e, 0x41, 0x59, 0x52, 0x57, 0x54, 0x4b, 0x56,
  0x58, 0x65, 0x50, 0x51, 0x4d, 0x36, 0x13, 0x15, 0x12, 0x0c, 0x11, 0x09,
  0x13, 0x0c, 0x10, 0x0e, 0x07, 0x18, 0x11, 0x10, 0x0d, 0x05, 0x0c, 0x19,
  0x14, 0x0c, 0x19, 0x17, 0x11, 0x0c, 0x0e, 0x15, 0xd1, 0xc9, 0xc3, 0xbd,
  0xbc, 0xba, 0xbc, 0xc0, 0xb0, 0xad, 0xb1, 0x97, 0xaf, 0xac, 0x98, 0xa6,
  0x9b, 0x90, 0x9f, 0x9b, 0x8d, 0x81, 0x9d, 0xa1, 0xa3, 0xb0, 0xe6, 0xe0,
  0xd5, 0xcc, 0xcf, 0xc7, 0xcd, 0xca, 0xc5, 0xbf, 0xb9, 0xb0, 0xc1, 0xb4,
  0xad, 0xae, 0xa6, 0xad, 0xac, 0xa6, 0xa8, 0x9d, 0xac, 0xb0, 0xb1, 0xc8,
  0xec, 0xeb, 0xeb, 0xf1, 0xec, 0xf2, 0xf0, 0xef, 0xef, 0xf1, 0xeb, 0xed,
  0xe9, 0xeb, 0xf0, 0xe9, 0xf1, 0xe6, 0xeb, 0xea, 0xea, 0xe7, 0xe6, 0xec,
  0xee, 0xed, 0x31, 0x38, 0x41, 0x45, 0x47, 0x4a, 0x46, 0x49, 0x4f, 0x53,
  0x5e, 0x65, 0x59, 0x64, 0x65, 0x6b, 0x6b, 0x6f, 0x6c, 0x72, 0x71, 0x7f,
  0x70, 0x67, 0x64, 0x51, 0xf9, 0xf2, 0xda, 0xea, 0xf1, 0xf3, 0x0a, 0x16,
  0x19, 0x06, 0x1a, 0x22, 0x15, 0x28, 0x27, 0x22, 0x26, 0x27, 0x31, 0x10,
  0x20, 0x24, 0x1d, 0x16, 0x05, 0x07, 0x2b, 0x2d, 0x2e, 0x3f, 0x48, 0x4c,
  0x4d, 0x3f, 0x45, 0x4a, 0x5d, 0x5f, 0x57, 0x48, 0x51, 0x4e, 0x47, 0x46,
  0x30, 0x38, 0x33, 0x33, 0x30, 0x23, 0x1f, 0x11, 0x5b, 0x34, 0xf4, 0xd5,
  0xc6, 0xc2, 0xa9, 0xab, 0xa4, 0xb0, 0x8a, 0x81, 0x95, 0x92, 0x8a, 0x93,
  0x94, 0x94, 0xa1, 0xb9, 0xaf, 0xae, 0xb6, 0xc7, 0xe2, 0xea, 0x85, 0x8f,
  0xa3, 0xa7, 0x90, 0x96, 0xb2, 0xaf, 0xb1, 0xab, 0xa2, 0x97, 0xa6, 0xa7,
  0x97, 0xac, 0x8e, 0xa3, 0x88, 0x92, 0x8d, 0x9b, 0x8a, 0x9b, 0xa4, 0x81,
  0x05, 0xfa, 0xef, 0xf4, 0xf5, 0xe8, 0xe9, 0xf3, 0xe6, 0xf6, 0xf2, 0xf7,
  0xf7, 0x00, 0x09, 0xeb, 0x02, 0x05, 0xf7, 0x0b, 0xf4, 0xfa, 0x0f, 0xf8,
  0xf8, 0xf4, 0x6c, 0x27, 0x28, 0x27, 0x2f, 0x31, 0x2c, 0x2a, 0x27, 0x26,
  0x2d, 0x31, 0x24, 0x31, 0x2e, 0x2e, 0x2f, 0x27, 0x3a, 0x2a, 0x36, 0x34,
  0x24, 0x29, 0x27, 0x2b, 0xe7, 0xe0, 0xd5, 0xcc, 0xce, 0xc7, 0xcd, 0xca,
  0xc5, 0xbe, 0xba, 0xb1, 0xc0, 0xb5, 0xad, 0xb0, 0xa6, 0xad, 0xad, 0xa6,
  0xa8, 0x9d, 0xac, 0xb0, 0xb1, 0xc8, 0xec, 0xea, 0xeb, 0xf1, 0xec, 0xf2,
  0xf0, 0xef, 0xee, 0xf1, 0xeb, 0xed, 0xe9, 0xeb, 0xf1, 0xe9, 0xf1, 0xe6,
  0xea, 0xea, 0xea, 0xe7, 0xe7, 0xec, 0xed, 0xed, 0x31, 0x38, 0x41, 0x45,
  0x48, 0x49, 0x45, 0x49, 0x4f, 0x53, 0x5d, 0x65, 0x59, 0x63, 0x64, 0x69,
  0x6a, 0x6f, 0x6b, 0x72, 0x70, 0x7f, 0x6f, 0x66, 0x64, 0x51, 0xe0, 0xdc,
  0xd1, 0xc7, 0xca, 0xc4, 0xca, 0xc6, 0xc1, 0xbb, 0xb8, 0xac, 0xbc, 0xb0,
  0xa8, 0xac, 0x9f, 0xa8, 0xa7, 0xa0, 0xa1, 0x97, 0xa6, 0xa9, 0xaa, 0xc3,
  0xeb, 0xeb, 0xec, 0xf2, 0xed, 0xf2, 0xf1, 0xf3, 0xf0, 0xf4, 0xed, 0xf2,
  0xea, 0xef, 0xf5, 0xec, 0xfb, 0xe9, 0xf0, 0xf1, 0xf0, 0xed, 0xeb, 0xf0,
  0xf4, 0xf0, 0x34, 0x3b, 0x44, 0x48, 0x4a, 0x4c, 0x47, 0x48, 0x51, 0x53,
  0x5d, 0x64, 0x5c, 0x63, 0x64, 0x69, 0x68, 0x71, 0x6b, 0x72, 0x71, 0x7f,
  0x72, 0x68, 0x64, 0x52, 0x14, 0xc9, 0xe6, 0x0a, 0x1a, 0x3b, 0xe9, 0x19,
  0x0a, 0x5b, 0x2c, 0x51, 0x2f, 0x52, 0x3b, 0x2f, 0x51, 0x1f, 0x34, 0x33,
  0x53, 0x51, 0x3e, 0x40, 0x43, 0x47, 0xdb, 0xfc, 0x0b, 0x22, 0x18, 0x29,
  0x4a, 0x4e, 0x48, 0x3f, 0x6f, 0x3d, 0x5c, 0x2f, 0x3e, 0x54, 0x1c, 0x31,
  0x3a, 0x04, 0x04, 0xcb, 0xde, 0xdf, 0xba, 0xf3, 0x36, 0x4d, 0x2f, 0xec,
  0xec, 0xb6, 0xea, 0xb6, 0xca, 0x81, 0x83, 0x8c, 0x94, 0x9e, 0xa7, 0x9d,
  0xae, 0xce, 0xb1, 0xe1, 0xcb, 0xfe, 0x08, 0xfd, 0x1d, 0x15, 0xd6, 0x9c,
  0xd6, 0xd7, 0xcb, 0xd7, 0xe4, 0xfb, 0xde, 0xdb, 0xc8, 0xda, 0xb9, 0xb5,
  0xb6, 0xb5, 0x9d, 0xb0, 0xfe, 0x3c, 0xba, 0xd3, 0xb6, 0xd2, 0xc6, 0xe8,
  0xf5, 0x05, 0x09, 0x0d, 0x09, 0x26, 0x08, 0x2d, 0x13, 0x25, 0x2c, 0x37,
  0x12, 0x2d, 0x14, 0x36, 0x41, 0x3c, 0x7f, 0x49, 0x10, 0xf3, 0x43, 0x0b,
  0xf6, 0xe5, 0x22, 0x32, 0x0f, 0x0a, 0x14, 0xec, 0x00, 0xc4, 0xf9, 0xeb,
  0xf2, 0xd4, 0x19, 0x02, 0x0b, 0xfa, 0x06, 0x0b, 0x5e, 0x73, 0x36, 0x1f,
  0xed, 0xfd, 0x30, 0xf5, 0x10, 0x26, 0x12, 0x15, 0x12, 0x02, 0x20, 0x2b,
  0x12, 0x2b, 0x10, 0x1a, 0x31, 0x44, 0x19, 0x18, 0x17, 0x40, 0x13, 0x30,
  0x28, 0x2b, 0x10, 0x49, 0xf8, 0x31, 0xff, 0x25, 0xe5, 0x15, 0xe3, 0xf1,
  0x0f, 0x02, 0xf6, 0xe1, 0xe1, 0xec, 0x01, 0x0a, 0x12, 0xf0, 0x1a, 0x09,
  0x14, 0x11, 0xb7, 0xe0, 0x06, 0x30, 0xb5, 0xf7, 0xf3, 0xb3, 0x0c, 0xd4,
  0x0b, 0x0d, 0xd0, 0xd2, 0xf8, 0xf3, 0x0f, 0xf9, 0xcd, 0xb1, 0xd4, 0xf8,
  0xcf, 0xb5, 0xda, 0xbd, 0x21, 0xf3, 0xeb, 0x81, 0x55, 0xd4, 0xf4, 0xcb,
  0xc0, 0xcc, 0xe1, 0xe8, 0xf1, 0xf9, 0xcc, 0xea, 0xc5, 0xea, 0xe6, 0x2c,
  0x16, 0xc3, 0xbe, 0xc7, 0xaf, 0xa4, 0xbd, 0x99, 0xb1, 0xd2, 0xc0, 0xc6,
  0xe1, 0xf2, 0x07, 0x05, 0xea, 0xed, 0xe7, 0xdf, 0x00, 0xf1, 0x1b, 0xe3,
  0xf7, 0x49, 0x64, 0x02, 0xf3, 0x01, 0xf9, 0x0a, 0xf6, 0xff, 0xfb, 0xee,
  0xfa, 0xea, 0x21, 0x27, 0x29, 0x20, 0x24, 0x18, 0x16, 0x19, 0x22, 0x0a,
  0x11, 0x25, 0x21, 0x62, 0x7f, 0x35, 0x3a, 0x24, 0x2d, 0x35, 0x30, 0x49,
  0x3d, 0x2d, 0x2d, 0x1f, 0x42, 0x40, 0x3b, 0x39, 0x2d, 0x14, 0xdd, 0xc7,
  0xfe, 0x1d, 0x14, 0xfa, 0x28, 0x2a, 0x1b, 0x33, 0x32, 0xdf, 0x76, 0x37,
  0x7f, 0x33, 0x32, 0x04, 0x09, 0xe6, 0xe1, 0xc4, 0x07, 0xf1, 0x03, 0xec,
  0xf5, 0xfe, 0xe5, 0x01, 0xf9, 0xfd, 0xc8, 0xff, 0xf6, 0xb6, 0x9d, 0x09,
  0xcc, 0x19, 0xe3, 0x0c, 0xf1, 0x2b, 0x3c, 0x0e, 0xea, 0xd7, 0xba, 0xd4,
  0xc6, 0xf0, 0x23, 0x38, 0x0c, 0xd3, 0xed, 0xf9, 0x09, 0xd5, 0xea, 0x0d,
  0x26, 0x14, 0xb5, 0xb1, 0x99, 0xb2, 0xd6, 0xc7, 0xa8, 0xe7, 0x19, 0x20,
  0x2a, 0x32, 0x31, 0x39, 0x35, 0x35, 0x39, 0x3f, 0x47, 0x50, 0x3d, 0x51,
  0x4d, 0x4c, 0x5c, 0x4f, 0x54, 0x5d, 0x54, 0x62, 0x52, 0x4e, 0x50, 0x37,
  0x14, 0x16, 0x14, 0x10, 0x15, 0x0d, 0x0d, 0x13, 0x10, 0x0e, 0x18, 0x0d,
  0x18, 0x19, 0x0c, 0x1c, 0x0f, 0x13, 0x14, 0x1e, 0x0e, 0x1a, 0x18, 0x17,
  0x14, 0x12, 0xcf, 0xc8, 0xc0, 0xbd, 0xb8, 0xb8, 0xbc, 0xb5, 0xb5, 0xb1,
  0x9f, 0xa0, 0xa9, 0x94, 0xa6, 0x96, 0x93, 0x9b, 0x95, 0x83, 0x9c, 0x81,
  0x93, 0x99, 0x9b, 0xb2, 0xdd, 0xce, 0xc0, 0xbd, 0xb6, 0xb6, 0xb0, 0xaa,
  0xa3, 0xa9, 0x91, 0x97, 0x96, 0x93, 0x8a, 0x85, 0x89, 0x81, 0x8e, 0x8e,
  0x91, 0x8e, 0x9b, 0xa7, 0xad, 0xc2, 0x09, 0x08, 0x12, 0x17, 0x1f, 0x1d,
  0x21, 0x21, 0x24, 0x21, 0x24, 0x27, 0x21, 0x21, 0x21, 0x21, 0x23, 0x24,
  0x1f, 0x20, 0x18, 0x1b, 0x15, 0x14, 0x11, 0x11, 0x20, 0x27, 0x33, 0x31,
  0x32, 0x35, 0x36, 0x3a, 0x41, 0x3b, 0x4f, 0x48, 0x4c, 0x51, 0x58, 0x5d,
  0x58, 0x5e, 0x57, 0x56, 0x5a, 0x5d, 0x54, 0x48, 0x49, 0x38, 0x8b, 0xa0,
  0xad, 0xae, 0xa9, 0xa6, 0x92, 0x98, 0x98, 0x90, 0x97, 0x82, 0x89, 0x97,
  0x8a, 0x81, 0x90, 0x92, 0x99, 0x8c, 0x8e, 0x86, 0x91, 0x8e, 0x8f, 0x82,
  0x32, 0x15, 0x1f, 0x27, 0x1f, 0x21, 0x2b, 0x24, 0x2f, 0x2c, 0x22, 0x31,
  0x30, 0x2e, 0x39, 0x31, 0x2f, 0x2e, 0x2e, 0x35, 0x28, 0x2d, 0x23, 0x2d,
  0x23, 0x21, 0x5f, 0x22, 0x0c, 0x09, 0x18, 0x11, 0x09, 0x0d, 0x10, 0x0f,
  0x15, 0x11, 0x11, 0x1a, 0x17, 0x19, 0x19, 0x15, 0x19, 0x1c, 0x1c, 0x1d,
  0x1b, 0x0f, 0x18, 0x1a, 0xe6, 0xf7, 0xff, 0xff, 0x04, 0x00, 0x00, 0x00,
  0x60, 0x00, 0x00, 0x00, 0xae, 0x04, 0x00, 0x00, 0x69, 0x9b, 0xff, 0xff,
  0xdf, 0xd1, 0xff, 0xff, 0xd2, 0x38, 0xff, 0xff, 0xdf, 0xdb, 0xff, 0xff,
  0x2e, 0xd4, 0xff, 0xff, 0x55, 0x8f, 0xff, 0xff, 0x74, 0x3d, 0x00, 0x00,
  0x9c, 0xd6, 0x00, 0x00, 0x4f, 0xa2, 0xff, 0xff, 0x8e, 0x2d, 0x00, 0x00,
  0x46, 0xd5, 0xff, 0xff, 0x79, 0x34, 0xff, 0xff, 0xc7, 0xff, 0xff, 0xff,
  0x38, 0xd5, 0xff, 0xff, 0x7d, 0xde, 0xff, 0xff, 0xcd, 0xb6, 0xfd, 0xff,
  0x8f, 0x46, 0x00, 0x00, 0x75, 0x08, 0x00, 0x00, 0x0e, 0xf7, 0xff, 0xff,
  0x14, 0x8d, 0x00, 0x00, 0xfc, 0x2f, 0x00, 0x00, 0x64, 0x9e, 0xff, 0xff,
  0xfb, 0xff, 0xff, 0xff, 0x52, 0xf8, 0xff, 0xff, 0x04, 0x00, 0x00, 0x00,
  0xc0, 0x06, 0x00, 0x00, 0x25, 0x08, 0x1a, 0x19, 0x05, 0x06, 0x07, 0x0f,
  0xf7, 0xca, 0x0e, 0xfa, 0x00, 0xa3, 0x09, 0x00, 0x00, 0xf8, 0x25, 0xf8,
  0x12, 0x10, 0x03, 0xb7, 0x18, 0x01, 0x0d, 0x1a, 0x05, 0xce, 0x04, 0xff,
  0x07, 0xbc, 0x16, 0xbd, 0x02, 0xd9, 0x81, 0xd0, 0x14, 0xf8, 0x12, 0xdb,
  0x08, 0x1d, 0x15, 0xd9, 0x26, 0xff, 0xf0, 0x13, 0xfe, 0xfe, 0x0e, 0xef,
  0x11, 0xdf, 0x03, 0xf5, 0xf0, 0xbc, 0x04, 0xfe, 0xf3, 0x03, 0x14, 0x12,
  0x0f, 0x06, 0xc2, 0xa9, 0x00, 0x00, 0x03, 0x01, 0xfe, 0x02, 0x00, 0x00,
  0x00, 0xff, 0x01, 0xe6, 0x01, 0x01, 0xdb, 0xf6, 0x02, 0xff, 0x00, 0x00,
  0x00, 0xff, 0xf9, 0xfb, 0xff, 0x01, 0x06, 0x01, 0x01, 0xea, 0xfe, 0x00,
  0x01, 0x00, 0xf9, 0x97, 0x03, 0x00, 0x81, 0xac, 0x01, 0x00, 0x00, 0xff,
  0x00, 0xf7, 0xee, 0x0f, 0x02, 0x02, 0x03, 0x00, 0x01, 0x00, 0x02, 0x02,
  0xff, 0xf4, 0xef, 0x00, 0xf7, 0xe3, 0x00, 0x00, 0xfe, 0x02, 0x05, 0x01,
  0x01, 0xea, 0x00, 0xe9, 0xff, 0x01, 0xfe, 0x00, 0x01, 0xff, 0x00, 0x00,
  0x01, 0xfe, 0x01, 0xfc, 0x01, 0xf7, 0xfb, 0xfc, 0x03, 0x01, 0xff, 0x00,
  0x00, 0x01, 0x0a, 0xf4, 0xfe, 0x01, 0xfe, 0x00, 0xfe, 0xe4, 0xfd, 0xff,
  0x00, 0xfe, 0x02, 0xaf, 0x02, 0xfe, 0x81, 0xb8, 0x05, 0x00, 0xfe, 0xff,
  0xff, 0x01, 0xf9, 0x02, 0x01, 0x03, 0x03, 0xff, 0xff, 0x01, 0x01, 0x05,
  0x00, 0xf3, 0xfe, 0x01, 0xf9, 0xf7, 0x01, 0x01, 0xff, 0x01, 0x04, 0x01,
  0x01, 0xf6, 0xfe, 0xf6, 0xfb, 0x00, 0xf6, 0x01, 0x00, 0xfd, 0x01, 0xff,
  0x04, 0xfe, 0xfb, 0xbb, 0xff, 0xea, 0x81, 0xe8, 0x04, 0x03, 0xfe, 0x02,
  0xff, 0xf9, 0xfd, 0xe6, 0xdd, 0x01, 0xfe, 0x00, 0x03, 0x00, 0x01, 0xfc,
  0x01, 0xf5, 0xae, 0x00, 0x04, 0xe6, 0x01, 0xff, 0x03, 0x00, 0xf6, 0x00,
  0xfe, 0x97, 0xfe, 0xe5, 0xed, 0x01, 0x01, 0xfd, 0xff, 0x01, 0x02, 0xfb,
  0xfe, 0xfe, 0x01, 0x02, 0x03, 0xe9, 0x04, 0x02, 0x01, 0x01, 0xf2, 0x01,
  0xfb, 0x03, 0x02, 0xe7, 0x02, 0x01, 0x00, 0x00, 0xfe, 0x00, 0xff, 0x00,
  0x00, 0xfe, 0x01, 0xfd, 0x01, 0xec, 0x01, 0xfe, 0x02, 0x01, 0x01, 0x00,
  0x00, 0x00, 0x05, 0xf1, 0x00, 0x01, 0xfd, 0x00, 0x02, 0xe5, 0xfd, 0xff,
  0x00, 0xf0, 0x01, 0xa8, 0x02, 0x00, 0x81, 0xb4, 0x06, 0x00, 0xff, 0xff,
  0xff, 0x00, 0x03, 0xfa, 0x02, 0x02, 0x02, 0xff, 0x02, 0x01, 0x01, 0x02,
  0x01, 0xf4, 0xfb, 0x01, 0xfb, 0xf7, 0x01, 0x01, 0x01, 0x01, 0x01, 0x01,
  0x00, 0xfc, 0xfd, 0xf6, 0xeb, 0x00, 0x04, 0x00, 0x01, 0x01, 0x04, 0xf9,
  0x00, 0xf1, 0x94, 0x02, 0xfd, 0xe7, 0x02, 0x01, 0xf6, 0x03, 0xf9, 0x02,
  0xfe, 0x81, 0xf7, 0xee, 0xfa, 0x01, 0xff, 0x01, 0xff, 0x00, 0x01, 0x03,
  0x01, 0xee, 0xfd, 0x00, 0x01, 0x02, 0x00, 0x00, 0xfd, 0x01, 0xff, 0x02,
  0xff, 0xfd, 0x04, 0xf3, 0xff, 0x01, 0xfe, 0x03, 0x02, 0xfe, 0xff, 0x03,
  0x01, 0xf4, 0x02, 0xff, 0x03, 0x03, 0xff, 0xfe, 0x01, 0x01, 0x02, 0x00,
  0xff, 0x00, 0xff, 0xf4, 0x27, 0x03, 0x05, 0x15, 0x03, 0xfe, 0xef, 0x0c,
  0xf9, 0xcb, 0x25, 0xfb, 0x0a, 0x08, 0xf7, 0xfd, 0x18, 0xee, 0x14, 0xef,
  0x03, 0x14, 0xfe, 0x11, 0x04, 0x03, 0x08, 0xfa, 0x05, 0xfc, 0xfc, 0xfd,
  0xfa, 0xbd, 0x08, 0xf6, 0xe1, 0xfd, 0xf7, 0xf7, 0x06, 0xf4, 0x05, 0xed,
  0x04, 0x09, 0xff, 0xf4, 0xfa, 0xfd, 0xc1, 0x09, 0xfe, 0xbb, 0xdb, 0xe7,
  0xf7, 0xf5, 0x19, 0x90, 0xf6, 0xf6, 0x81, 0xa0, 0x0c, 0xe6, 0xf3, 0xee,
  0x05, 0x21, 0xa9, 0xed, 0xfb, 0x00, 0xf6, 0x00, 0x04, 0x01, 0x03, 0xfd,
  0x01, 0xff, 0xfa, 0xac, 0x00, 0xfd, 0x81, 0xe8, 0x04, 0x03, 0xfb, 0x02,
  0xff, 0xfd, 0x02, 0xf9, 0xdd, 0x00, 0xfe, 0x01, 0xfc, 0x00, 0x00, 0xfb,
  0x00, 0xf7, 0xa0, 0xff, 0x05, 0xef, 0x00, 0x00, 0x03, 0x00, 0xf3, 0x01,
  0xfe, 0x86, 0x01, 0xe9, 0xec, 0x00, 0x01, 0xfd, 0x01, 0x02, 0x02, 0xfc,
  0x00, 0xfc, 0xfe, 0x03, 0x03, 0xf1, 0x01, 0x03, 0x01, 0x00, 0xee, 0x00,
  0xf9, 0x04, 0x01, 0xea, 0x0a, 0x01, 0x0e, 0x02, 0xfb, 0x08, 0xfa, 0xfd,
  0xfb, 0xcb, 0xe2, 0x26, 0xfb, 0x81, 0x43, 0x21, 0xfc, 0xf7, 0x00, 0xfe,
  0xfe, 0x0f, 0xe2, 0x9c, 0x22, 0xff, 0xe8, 0x06, 0xfe, 0x00, 0xfa, 0x0e,
  0xfb, 0xbe, 0x2b, 0x00, 0xec, 0xbd, 0x01, 0x00, 0x06, 0xfc, 0x11, 0xff,
  0x03, 0x38, 0x03, 0xba, 0x23, 0xf8, 0xfb, 0x0d, 0xfd, 0xfa, 0xf7, 0xd7,
  0x03, 0xb6, 0x0a, 0xf9, 0xe7, 0xe9, 0xfa, 0xfa, 0x07, 0x00, 0x03, 0xfd,
  0x00, 0x11, 0xfe, 0xcb, 0x07, 0x0f, 0xed, 0x0a, 0x09, 0x15, 0x08, 0x11,
  0xfe, 0xe6, 0xff, 0x18, 0xfa, 0xea, 0x56, 0x1f, 0xfa, 0x01, 0x09, 0xfd,
  0x09, 0xfd, 0x28, 0xcd, 0x20, 0x08, 0x20, 0x02, 0x02, 0xf4, 0xfa, 0x11,
  0x02, 0x0a, 0x39, 0xf3, 0xed, 0x12, 0xed, 0xf5, 0x03, 0xfa, 0x17, 0xf0,
  0x17, 0x41, 0x0e, 0xd9, 0x2e, 0x0d, 0xfb, 0x08, 0xff, 0xea, 0x04, 0x0f,
  0xf7, 0x81, 0x1f, 0xe8, 0xec, 0xf0, 0xea, 0xec, 0x05, 0xf7, 0x1c, 0xf9,
  0x0c, 0x30, 0xe1, 0x00, 0x37, 0x09, 0x6b, 0xf7, 0xfe, 0xf6, 0xe2, 0x18,
  0xf8, 0x9a, 0x07, 0xe3, 0x01, 0x81, 0xee, 0x02, 0xf8, 0xef, 0x24, 0xf9,
  0x06, 0x20, 0x41, 0xe2, 0x34, 0xfe, 0xe8, 0xfb, 0x03, 0xe0, 0xe9, 0x00,
  0xf6, 0x8d, 0x27, 0xc4, 0xf1, 0x0c, 0xba, 0xd0, 0x19, 0xf9, 0x1e, 0xfe,
  0x00, 0x3d, 0x23, 0xd1, 0x18, 0x06, 0xc9, 0xf4, 0x0e, 0xd6, 0xf8, 0xf9,
  0xf9, 0x84, 0x2f, 0xd4, 0xe1, 0xc2, 0xd9, 0xd4, 0x04, 0xfd, 0xe9, 0x01,
  0xf4, 0x6c, 0xbe, 0xc6, 0x04, 0x01, 0x12, 0xf1, 0xfe, 0x11, 0x08, 0xff,
  0x00, 0xf8, 0x02, 0xcc, 0xf8, 0xe4, 0xb7, 0x0a, 0xf9, 0x02, 0x04, 0x09,
  0xfe, 0x03, 0xf0, 0xe3, 0xf6, 0xff, 0x0b, 0xdb, 0x01, 0x01, 0x01, 0xff,
  0x01, 0xf5, 0xa3, 0x00, 0xfd, 0xef, 0xff, 0xff, 0xff, 0x01, 0x0a, 0xfe,
  0xfe, 0x81, 0x03, 0xf1, 0xc1, 0xfe, 0xfd, 0xd9, 0x00, 0xff, 0x02, 0xe4,
  0xff, 0xf7, 0xe3, 0xff, 0x0b, 0xfe, 0xff, 0xff, 0xfc, 0x00, 0xe9, 0x04,
  0xf6, 0xec, 0x02, 0xfd, 0x10, 0x20, 0x16, 0x29, 0x17, 0x36, 0x1e, 0x0e,
  0x16, 0xc6, 0x10, 0x47, 0x28, 0xde, 0x27, 0x37, 0x0a, 0x22, 0xff, 0x19,
  0x11, 0x1b, 0x0f, 0xbd, 0x21, 0x38, 0x7f, 0xf1, 0xfc, 0xdc, 0xeb, 0x3f,
  0x1b, 0x0c, 0x3b, 0xd3, 0xb9, 0x2a, 0xd7, 0xde, 0xda, 0xfb, 0x43, 0xe8,
  0x30, 0x4d, 0x18, 0xfe, 0x0f, 0x21, 0xb5, 0xfb, 0xf8, 0xc5, 0xed, 0x3f,
  0xed, 0xe9, 0x25, 0xbc, 0x22, 0xc5, 0xba, 0xc8, 0x26, 0xe5, 0x2f, 0xe4,
  0x31, 0x18, 0xa5, 0xa7, 0x03, 0xf8, 0xfe, 0xdf, 0xfd, 0x1b, 0xec, 0x05,
  0x14, 0xfc, 0x04, 0x05, 0xfd, 0x9d, 0x0e, 0x1f, 0xef, 0x06, 0x03, 0x05,
  0x09, 0x04, 0xb6, 0x81, 0x02, 0xe4, 0xf1, 0xf9, 0x03, 0xff, 0xf0, 0x06,
  0x1c, 0x04, 0x03, 0xf7, 0xeb, 0xcd, 0xf8, 0xf9, 0x10, 0x0b, 0x00, 0x0a,
  0x04, 0x03, 0x0e, 0xc2, 0x1d, 0xfa, 0xf7, 0x13, 0xfb, 0xff, 0xf9, 0x09,
  0xc6, 0xce, 0x1b, 0xff, 0x16, 0xff, 0xff, 0xff, 0x05, 0x01, 0x13, 0xfe,
  0xdf, 0x24, 0xfe, 0x13, 0xbd, 0x00, 0x06, 0x00, 0x00, 0x01, 0x01, 0xfb,
  0xff, 0x07, 0x96, 0xfe, 0xfc, 0xeb, 0xfb, 0x00, 0xf9, 0xff, 0xfc, 0x00,
  0x00, 0x81, 0x01, 0xe9, 0xe8, 0x01, 0xff, 0x02, 0xff, 0x00, 0x02, 0xfc,
  0x00, 0x01, 0xdb, 0x00, 0x02, 0xff, 0x00, 0x00, 0xff, 0x01, 0xfd, 0x01,
  0x00, 0xd9, 0x01, 0xfe, 0xff, 0x01, 0xff, 0x02, 0xff, 0xff, 0xff, 0x01,
  0x01, 0x00, 0xff, 0xff, 0x00, 0xff, 0xff, 0xff, 0x01, 0xff, 0x01, 0xff,
  0x01, 0xfe, 0xff, 0x04, 0xf2, 0x00, 0xda, 0xff, 0x01, 0xee, 0x00, 0xfc,
  0x01, 0xf8, 0xf4, 0xaa, 0xfe, 0xeb, 0x81, 0xc4, 0x00, 0x02, 0xf4, 0x01,
  0xfe, 0xf5, 0xda, 0xec, 0xd4, 0x00, 0xe7, 0xff, 0xff, 0xff, 0xfe, 0xff,
  0xff, 0xf9, 0xf1, 0xfe, 0x06, 0xf1, 0xfe, 0xfe, 0x01, 0xff, 0xdd, 0x01,
  0xfc, 0xed, 0x08, 0xf2, 0xfd, 0x03, 0x08, 0xff, 0xfc, 0xfb, 0x00, 0x0a,
  0x01, 0xfa, 0x07, 0xfd, 0x01, 0xdd, 0xfd, 0xf8, 0xff, 0x01, 0xf8, 0xfd,
  0xfe, 0x0b, 0x03, 0xfd, 0xfe, 0x00, 0xfa, 0x02, 0xff, 0x04, 0x03, 0xfd,
  0x03, 0x03, 0xfd, 0xb2, 0x01, 0x04, 0x81, 0xe8, 0x01, 0x02, 0xfd, 0x01,
  0xff, 0xfe, 0xfa, 0x04, 0xeb, 0x01, 0x03, 0x01, 0xfe, 0x00, 0x00, 0xf9,
  0x02, 0x0a, 0xa6, 0x02, 0x05, 0xf3, 0x02, 0x02, 0x02, 0xff, 0xf8, 0x00,
  0xff, 0x91, 0xfe, 0xef, 0xe6, 0xff, 0x01, 0xff, 0xff, 0x00, 0x01, 0xf4,
  0xff, 0xfd, 0xf7, 0x00, 0xff, 0xff, 0x00, 0x00, 0x01, 0x00, 0xec, 0x00,
  0xf9, 0xfb, 0x01, 0xff, 0x07, 0xfd, 0xec, 0x05, 0xfc, 0xe6, 0xe9, 0x1d,
  0xfd, 0xed, 0x0c, 0xda, 0xea, 0x16, 0xbe, 0xdd, 0x0a, 0xe6, 0x13, 0xcb,
  0x11, 0xf2, 0xe5, 0x58, 0xf8, 0x1d, 0xad, 0x03, 0x02, 0xff, 0xf9, 0x1d,
  0xe3, 0xb1, 0x2a, 0xff, 0xd1, 0x37, 0x00, 0xff, 0xe3, 0xeb, 0x15, 0xf4,
  0x10, 0x3f, 0xfa, 0x4d, 0x77, 0x06, 0x09, 0xf8, 0x1b, 0xfa, 0xfd, 0x33,
  0x0d, 0xe9, 0xea, 0xfa, 0xe6, 0x0a, 0xfa, 0xfb, 0xfe, 0xf5, 0x7f, 0xea,
  0x25, 0xda, 0xfe, 0x0c, 0x01, 0xf7, 0x17, 0xdc, 0x05, 0x0f, 0xe8, 0x0f,
  0x2c, 0xfd, 0x00, 0x0b, 0xf2, 0xed, 0x29, 0x11, 0xda, 0xf5, 0x06, 0xeb,
  0x1c, 0xfe, 0x06, 0xe4, 0x01, 0xe3, 0x0c, 0xfe, 0xfa, 0xec, 0xf8, 0x1b,
  0x29, 0xe0, 0x1d, 0xe8, 0xfd, 0xff, 0xe1, 0xe9, 0x01, 0x0c, 0x1c, 0xed,
  0x2b, 0x2a, 0x28, 0x04, 0x2c, 0xe6, 0xf3, 0x3b, 0x07, 0x02, 0x05, 0xd2,
  0xcb, 0x81, 0x0b, 0x01, 0x1e, 0x08, 0x01, 0x01, 0x02, 0x03, 0x17, 0x05,
  0xf0, 0x0c, 0x01, 0xf9, 0xdc, 0x00, 0x07, 0x00, 0xff, 0x01, 0x03, 0xf7,
  0x00, 0x0f, 0x95, 0x00, 0xfb, 0xeb, 0x01, 0x00, 0xf6, 0x02, 0xf8, 0x01,
  0xff, 0x81, 0xf8, 0xed, 0xfc, 0x01, 0xff, 0x01, 0xfe, 0x01, 0x01, 0x02,
  0x01, 0xfd, 0xf9, 0x00, 0x01, 0xf2, 0x00, 0x00, 0xfe, 0x00, 0xfe, 0x01,
  0xff, 0xf7, 0x04, 0xf3, 0xff, 0x01, 0xfc, 0x03, 0x01, 0xfe, 0xff, 0x04,
  0x00, 0xff, 0x00, 0xff, 0x01, 0xfc, 0xff, 0xfe, 0x01, 0x00, 0x03, 0xff,
  0x00, 0x00, 0xff, 0xef, 0x15, 0x0a, 0x26, 0x04, 0xf9, 0x16, 0x1c, 0x00,
  0xfc, 0xe6, 0x0d, 0x0a, 0x08, 0x9c, 0x18, 0x18, 0xe5, 0xf9, 0x15, 0x0d,
  0x0d, 0x08, 0xc1, 0x96, 0x18, 0xfc, 0xfa, 0x0b, 0xfa, 0x04, 0x11, 0x04,
  0xfd, 0x81, 0x1e, 0x02, 0xff, 0xc4, 0xfb, 0x03, 0xf8, 0xff, 0x1e, 0xff,
  0x0b, 0x1f, 0x39, 0xb8, 0xff, 0x01, 0xe5, 0x05, 0xfc, 0xdb, 0x01, 0xed,
  0x0a, 0x88, 0xe9, 0xd8, 0xec, 0xde, 0xf9, 0xe9, 0xea, 0x03, 0x15, 0xf4,
  0x18, 0xe7, 0xc3, 0xb6, 0xfb, 0x00, 0xf4, 0xff, 0x02, 0x00, 0x02, 0xfd,
  0x01, 0xff, 0xfa, 0xaa, 0x00, 0xfa, 0x81, 0xe8, 0x04, 0x01, 0xfb, 0x02,
  0xff, 0xfb, 0x01, 0xf8, 0xdb, 0x01, 0xfd, 0x00, 0x01, 0x00, 0xff, 0xfc,
  0x00, 0xf5, 0xa5, 0x00, 0x04, 0xed, 0xff, 0x00, 0x02, 0x00, 0xf2, 0x01,
  0xfe, 0x89, 0x01, 0xe8, 0xed, 0x00, 0x02, 0xff, 0xfd, 0x03, 0x02, 0xfc,
  0x01, 0xfc, 0xff, 0x03, 0x03, 0xef, 0x02, 0x03, 0x01, 0x01, 0xef, 0x00,
  0xfa, 0x04, 0x00, 0xea, 0x16, 0x14, 0x1b, 0xfe, 0xf8, 0x07, 0x06, 0x02,
  0x0c, 0xdb, 0x18, 0x0e, 0x11, 0xef, 0x37, 0x0a, 0x09, 0x14, 0x08, 0x20,
  0x05, 0x08, 0xf1, 0xec, 0x1e, 0x13, 0x17, 0xf5, 0x05, 0xdf, 0xe8, 0x14,
  0x09, 0x04, 0x1a, 0xe3, 0xd1, 0xc8, 0xe1, 0xe3, 0xf0, 0x01, 0x26, 0xea,
  0x18, 0x0f, 0xf5, 0x3d, 0x05, 0x0f, 0xaf, 0x0b, 0x0a, 0xbc, 0xf5, 0x10,
  0xf1, 0xf8, 0x0a, 0xa3, 0x11, 0xe8, 0xa6, 0xb6, 0x14, 0xf8, 0x0c, 0xff,
  0x0f, 0x1e, 0x81, 0xb9, 0x05, 0x02, 0x09, 0x01, 0xfe, 0x03, 0x01, 0x01,
  0x00, 0xfa, 0x02, 0xff, 0x02, 0xe9, 0xf7, 0x02, 0x02, 0x00, 0x04, 0x01,
  0x01, 0x04, 0xfc, 0xf4, 0x03, 0x00, 0x05, 0x00, 0xfc, 0xe8, 0xfd, 0xff,
  0x00, 0xf9, 0xff, 0xb0, 0x02, 0x03, 0x81, 0xc4, 0x06, 0x00, 0x01, 0xfd,
  0xff, 0xff, 0xfd, 0x02, 0x05, 0x01, 0x01, 0xfc, 0x07, 0x00, 0xfe, 0xfb,
  0xff, 0xf9, 0xfd, 0xff, 0xf7, 0xf2, 0x00, 0x00, 0xfe, 0xff, 0xfe, 0xff,
  0xfd, 0xfe, 0xf8, 0xf7, 0x1e, 0xff, 0xff, 0xff, 0x04, 0x00, 0x00, 0x00,
  0x60, 0x00, 0x00, 0x00, 0x70, 0xfd, 0xff, 0xff, 0x51, 0x00, 0x00, 0x00,
  0x4d, 0x00, 0x00, 0x00, 0x8a, 0x00, 0x00, 0x00, 0x53, 0x00, 0x00, 0x00,
  0x4b, 0x00, 0x00, 0x00, 0xe3, 0x00, 0x00, 0x00, 0x91, 0x00, 0x00, 0x00,
  0xb5, 0x00, 0x00, 0x00, 0xe3, 0x02, 0x00, 0x00, 0x0a, 0x02, 0x00, 0x00,
  0x59, 0x00, 0x00, 0x00, 0xab, 0x06, 0x00, 0x00, 0x8a, 0xfe, 0xff, 0xff,
  0x4b, 0x00, 0x00, 0x00, 0x75, 0x00, 0x00, 0x00, 0x89, 0x00, 0x00, 0x00,
  0x6e, 0x00, 0x00, 0x00, 0x23, 0xfe, 0xff, 0xff, 0x4c, 0x00, 0x00, 0x00,
  0xba, 0xfe, 0xff, 0xff, 0x95, 0x00, 0x00, 0x00, 0x99, 0x03, 0x00, 0x00,
  0x60, 0x00, 0x00, 0x00, 0x8a, 0xff, 0xff, 0xff, 0x04, 0x00, 0x00, 0x00,
  0x18, 0x00, 0x00, 0x00, 0x26, 0x95, 0xbb, 0x1b, 0xb7, 0xa9, 0xdb, 0x1e,
  0xea, 0xf4, 0xe5, 0x2c, 0xf4, 0x14, 0x81, 0x35, 0x1e, 0xed, 0x0a, 0xae,
  0x1e, 0x1d, 0xf1, 0xbf, 0xae, 0xff, 0xff, 0xff, 0x04, 0x00, 0x00, 0x00,
  0x04, 0x00, 0x00, 0x00, 0xe7, 0xfe, 0xff, 0xff, 0xbe, 0xff, 0xff, 0xff,
  0x04, 0x00, 0x00, 0x00, 0x0c, 0x00, 0x00, 0x00, 0xff, 0xff, 0xff, 0xff,
  0x08, 0x00, 0x00, 0x00, 0x01, 0x00, 0x00, 0x00, 0xd6, 0xff, 0xff, 0xff,
  0x04, 0x00, 0x00, 0x00, 0x0c, 0x00, 0x00, 0x00, 0xff, 0xff, 0xff, 0xff,
  0x08, 0x00, 0x00, 0x00, 0x18, 0x00, 0x00, 0x00, 0xee, 0xff, 0xff, 0xff,
  0x04, 0x00, 0x00, 0x00, 0x04, 0x00, 0x00, 0x00, 0xfd, 0xff, 0xff, 0xff,
  0x00, 0x00, 0x06, 0x00, 0x08, 0x00, 0x04, 0x00, 0x06, 0x00, 0x00, 0x00,
  0x04, 0x00, 0x00, 0x00, 0x18, 0x00, 0x00, 0x00, 0x00, 0x00, 0x00, 0x00,
  0x00, 0x00, 0x00, 0x00, 0x02, 0x00, 0x00, 0x00, 0x00, 0x00, 0x00, 0x00,
  0x00, 0x00, 0x00, 0x00, 0x00, 0x00, 0x00, 0x00, 0xd0, 0xeb, 0xff, 0xff,
  0xd4, 0xeb, 0xff, 0xff, 0x0f, 0x00, 0x00, 0x00, 0x4d, 0x4c, 0x49, 0x52,
  0x20, 0x43, 0x6f, 0x6e, 0x76, 0x65, 0x72, 0x74, 0x65, 0x64, 0x2e, 0x00,
  0x01, 0x00, 0x00, 0x00, 0x14, 0x00, 0x00, 0x00, 0x00, 0x00, 0x0e, 0x00,
  0x18, 0x00, 0x14, 0x00, 0x10, 0x00, 0x0c, 0x00, 0x08, 0x00, 0x04, 0x00,
  0x0e, 0x00, 0x00, 0x00, 0x14, 0x00, 0x00, 0x00, 0x1c, 0x00, 0x00, 0x00,
  0xdc, 0x02, 0x00, 0x00, 0xe0, 0x02, 0x00, 0x00, 0xe4, 0x02, 0x00, 0x00,
  0x04, 0x00, 0x00, 0x00, 0x6d, 0x61, 0x69, 0x6e, 0x00, 0x00, 0x00, 0x00,
  0x0c, 0x00, 0x00, 0x00, 0x94, 0x02, 0x00, 0x00, 0x50, 0x02, 0x00, 0x00,
  0xec, 0x01, 0x00, 0x00, 0xc4, 0x01, 0x00, 0x00, 0x88, 0x01, 0x00, 0x00,
  0x54, 0x01, 0x00, 0x00, 0x0c, 0x01, 0x00, 0x00, 0xe4, 0x00, 0x00, 0x00,
  0xb0, 0x00, 0x00, 0x00, 0x60, 0x00, 0x00, 0x00, 0x2c, 0x00, 0x00, 0x00,
  0x04, 0x00, 0x00, 0x00, 0x6a, 0xfe, 0xff, 0xff, 0x0c, 0x00, 0x00, 0x00,
  0x10, 0x00, 0x00, 0x00, 0x03, 0x00, 0x00, 0x00, 0x01, 0x00, 0x00, 0x00,
  0x16, 0x00, 0x00, 0x00, 0x02, 0x00, 0x00, 0x00, 0x15, 0x00, 0x00, 0x00,
  0x04, 0x00, 0x00, 0x00, 0x8e, 0xfe, 0xff, 0xff, 0x0c, 0x00, 0x00, 0x00,
  0x10, 0x00, 0x00, 0x00, 0x04, 0x00, 0x00, 0x00, 0x01, 0x00, 0x00, 0x00,
  0x15, 0x00, 0x00, 0x00, 0x01, 0x00, 0x00, 0x00, 0x14, 0x00, 0x00, 0x00,
  0x00, 0x00, 0x0e, 0x00, 0x1a, 0x00, 0x14, 0x00, 0x10, 0x00, 0x0c, 0x00,
  0x0b, 0x00, 0x04, 0x00, 0x0e, 0x00, 0x00, 0x00, 0x20, 0x00, 0x00, 0x00,
  0x00, 0x00, 0x00, 0x01, 0x28, 0x00, 0x00, 0x00, 0x2c, 0x00, 0x00, 0x00,
  0x02, 0x00, 0x00, 0x00, 0x00, 0x00, 0x0a, 0x00, 0x10, 0x00, 0x0f, 0x00,
  0x08, 0x00, 0x04, 0x00, 0x0a, 0x00, 0x00, 0x00, 0x01, 0x00, 0x00, 0x00,
  0x01, 0x00, 0x00, 0x00, 0x00, 0x00, 0x00, 0x01, 0x01, 0x00, 0x00, 0x00,
  0x14, 0x00, 0x00, 0x00, 0x03, 0x00, 0x00, 0x00, 0x13, 0x00, 0x00, 0x00,
  0x06, 0x00, 0x00, 0x00, 0x05, 0x00, 0x00, 0x00, 0x8a, 0xfe, 0xff, 0xff,
  0x14, 0x00, 0x00, 0x00, 0x00, 0x00, 0x00, 0x34, 0x10, 0x00, 0x00, 0x00,
  0x14, 0x00, 0x00, 0x00, 0x01, 0x00, 0x00, 0x00, 0x14, 0xed, 0xff, 0xff,
  0x01, 0x00, 0x00, 0x00, 0x13, 0x00, 0x00, 0x00, 0x02, 0x00, 0x00, 0x00,
  0x12, 0x00, 0x00, 0x00, 0x02, 0x00, 0x00, 0x00, 0x3a, 0xff, 0xff, 0xff,
  0x0c, 0x00, 0x00, 0x00, 0x10, 0x00, 0x00, 0x00, 0x03, 0x00, 0x00, 0x00,
  0x01, 0x00, 0x00, 0x00, 0x12, 0x00, 0x00, 0x00, 0x02, 0x00, 0x00, 0x00,
  0x11, 0x00, 0x00, 0x00, 0x03, 0x00, 0x00, 0x00, 0xde, 0xfe, 0xff, 0xff,
  0x14, 0x00, 0x00, 0x00, 0x00, 0x00, 0x00, 0x01, 0x20, 0x00, 0x00, 0x00,
  0x24, 0x00, 0x00, 0x00, 0x02, 0x00, 0x00, 0x00, 0x30, 0xff, 0xff, 0xff,
  0x00, 0x00, 0x00, 0x01, 0x01, 0x00, 0x00, 0x00, 0x01, 0x00, 0x00, 0x00,
  0x00, 0x00, 0x00, 0x01, 0x01, 0x00, 0x00, 0x00, 0x11, 0x00, 0x00, 0x00,
  0x03, 0x00, 0x00, 0x00, 0x10, 0x00, 0x00, 0x00, 0x08, 0x00, 0x00, 0x00,
  0x07, 0x00, 0x00, 0x00, 0x22, 0xff, 0xff, 0xff, 0x14, 0x00, 0x00, 0x00,
  0x00, 0x00, 0x00, 0x34, 0x10, 0x00, 0x00, 0x00, 0x14, 0x00, 0x00, 0x00,
  0x01, 0x00, 0x00, 0x00, 0xac, 0xed, 0xff, 0xff, 0x01, 0x00, 0x00, 0x00,
  0x10, 0x00, 0x00, 0x00, 0x02, 0x00, 0x00, 0x00, 0x0f, 0x00, 0x00, 0x00,
  0x02, 0x00, 0x00, 0x00, 0x12, 0xff, 0xff, 0xff, 0x10, 0x00, 0x00, 0x00,
  0x00, 0x00, 0x00, 0x16, 0x0c, 0x00, 0x00, 0x00, 0x10, 0x00, 0x00, 0x00,
  0xd8, 0xed, 0xff, 0xff, 0x01, 0x00, 0x00, 0x00, 0x0f, 0x00, 0x00, 0x00,
  0x02, 0x00, 0x00, 0x00, 0x0e, 0x00, 0x00, 0x00, 0x01, 0x00, 0x00, 0x00,
  0x00, 0x00, 0x0a, 0x00, 0x10, 0x00, 0x0c, 0x00, 0x08, 0x00, 0x04, 0x00,
  0x0a, 0x00, 0x00, 0x00, 0x0c, 0x00, 0x00, 0x00, 0x10, 0x00, 0x00, 0x00,
  0x03, 0x00, 0x00, 0x00, 0x01, 0x00, 0x00, 0x00, 0x0e, 0x00, 0x00, 0x00,
  0x02, 0x00, 0x00, 0x00, 0x0d, 0x00, 0x00, 0x00, 0x03, 0x00, 0x00, 0x00,
  0xae, 0xff, 0xff, 0xff, 0x20, 0x00, 0x00, 0x00, 0x00, 0x00, 0x00, 0x01,
  0x2c, 0x00, 0x00, 0x00, 0x30, 0x00, 0x00, 0x00, 0x02, 0x00, 0x00, 0x00,
  0x0c, 0x00, 0x14, 0x00, 0x13, 0x00, 0x0c, 0x00, 0x08, 0x00, 0x07, 0x00,
  0x0c, 0x00, 0x00, 0x00, 0x00, 0x00, 0x00, 0x01, 0x01, 0x00, 0x00, 0x00,
  0x01, 0x00, 0x00, 0x00, 0x00, 0x00, 0x00, 0x01, 0x01, 0x00, 0x00, 0x00,
  0x0d, 0x00, 0x00, 0x00, 0x03, 0x00, 0x00, 0x00, 0x0c, 0x00, 0x00, 0x00,
  0x0a, 0x00, 0x00, 0x00, 0x09, 0x00, 0x00, 0x00, 0x00, 0x00, 0x0e, 0x00,
  0x18, 0x00, 0x14, 0x00, 0x10, 0x00, 0x0c, 0x00, 0x0b, 0x00, 0x04, 0x00,
  0x0e, 0x00, 0x00, 0x00, 0x14, 0x00, 0x00, 0x00, 0x00, 0x00, 0x00, 0x34,
  0x10, 0x00, 0x00, 0x00, 0x14, 0x00, 0x00, 0x00, 0x01, 0x00, 0x00, 0x00,
  0x98, 0xee, 0xff, 0xff, 0x01, 0x00, 0x00, 0x00, 0x0c, 0x00, 0x00, 0x00,
  0x02, 0x00, 0x00, 0x00, 0x0b, 0x00, 0x00, 0x00, 0x02, 0x00, 0x00, 0x00,
  0x00, 0x00, 0x0e, 0x00, 0x14, 0x00, 0x00, 0x00, 0x10, 0x00, 0x0c, 0x00,
  0x0b, 0x00, 0x04, 0x00, 0x0e, 0x00, 0x00, 0x00, 0x10, 0x00, 0x00, 0x00,
  0x00, 0x00, 0x00, 0x16, 0x0c, 0x00, 0x00, 0x00, 0x10, 0x00, 0x00, 0x00,
  0xd4, 0xee, 0xff, 0xff, 0x01, 0x00, 0x00, 0x00, 0x0b, 0x00, 0x00, 0x00,
  0x02, 0x00, 0x00, 0x00, 0x00, 0x00, 0x00, 0x00, 0x01, 0x00, 0x00, 0x00,
  0x01, 0x00, 0x00, 0x00, 0x16, 0x00, 0x00, 0x00, 0x01, 0x00, 0x00, 0x00,
  0x00, 0x00, 0x00, 0x00, 0x17, 0x00, 0x00, 0x00, 0x40, 0x11, 0x00, 0x00,
  0xe0, 0x10, 0x00, 0x00, 0x8c, 0x10, 0x00, 0x00, 0x4c, 0x10, 0x00, 0x00,
  0x0c, 0x10, 0x00, 0x00, 0xac, 0x0f, 0x00, 0x00, 0x40, 0x0f, 0x00, 0x00,
  0xcc, 0x0d, 0x00, 0x00, 0x48, 0x0c, 0x00, 0x00, 0xd4, 0x0a, 0x00, 0x00,
  0x50, 0x09, 0x00, 0x00, 0xc0, 0x08, 0x00, 0x00, 0x20, 0x08, 0x00, 0x00,
  0xfc, 0x06, 0x00, 0x00, 0xfc, 0x05, 0x00, 0x00, 0x68, 0x05, 0x00, 0x00,
  0xc8, 0x04, 0x00, 0x00, 0xd4, 0x03, 0x00, 0x00, 0x04, 0x03, 0x00, 0x00,
  0x64, 0x02, 0x00, 0x00, 0x78, 0x01, 0x00, 0x00, 0x8c, 0x00, 0x00, 0x00,
  0x04, 0x00, 0x00, 0x00, 0x32, 0xef, 0xff, 0xff, 0x00, 0x00, 0x00, 0x01,
  0x18, 0x00, 0x00, 0x00, 0x24, 0x00, 0x00, 0x00, 0x44, 0x00, 0x00, 0x00,
  0x17, 0x00, 0x00, 0x00, 0x00, 0x00, 0x00, 0x09, 0x58, 0x00, 0x00, 0x00,
  0x03, 0x00, 0x00, 0x00, 0xff, 0xff, 0xff, 0xff, 0x08, 0x00, 0x00, 0x00,
  0x01, 0x00, 0x00, 0x00, 0x1c, 0xef, 0xff, 0xff, 0x08, 0x00, 0x00, 0x00,
  0x14, 0x00, 0x00, 0x00, 0x01, 0x00, 0x00, 0x00, 0x80, 0xff, 0xff, 0xff,
  0xff, 0xff, 0xff, 0xff, 0x00, 0x00, 0x00, 0x00, 0x01, 0x00, 0x00, 0x00,
  0x00, 0x00, 0x80, 0x3b, 0x19, 0x00, 0x00, 0x00, 0x53, 0x74, 0x61, 0x74,
  0x65, 0x66, 0x75, 0x6c, 0x50, 0x61, 0x72, 0x74, 0x69, 0x74, 0x69, 0x6f,
  0x6e, 0x65, 0x64, 0x43, 0x61, 0x6c, 0x6c, 0x3a, 0x30, 0x00, 0x00, 0x00,
  0x03, 0x00, 0x00, 0x00, 0x01, 0x00, 0x00, 0x00, 0x08, 0x00, 0x00, 0x00,
  0x01, 0x00, 0x00, 0x00, 0xb6, 0xef, 0xff, 0xff, 0x00, 0x00, 0x00, 0x01,
  0x18, 0x00, 0x00, 0x00, 0x28, 0x00, 0x00, 0x00, 0x44, 0x00, 0x00, 0x00,
  0x16, 0x00, 0x00, 0x00, 0x00, 0x00, 0x00, 0x09, 0xb8, 0x00, 0x00, 0x00,
  0x04, 0x00, 0x00, 0x00, 0xff, 0xff, 0xff, 0xff, 0x01, 0x00, 0x00, 0x00,
  0x08, 0x00, 0x00, 0x00, 0x01, 0x00, 0x00, 0x00, 0xa4, 0xef, 0xff, 0xff,
  0x08, 0x00, 0x00, 0x00, 0x10, 0x00, 0x00, 0x00, 0x01, 0x00, 0x00, 0x00,
  0x80, 0xff, 0xff, 0xff, 0xff, 0xff, 0xff, 0xff, 0x01, 0x00, 0x00, 0x00,
  0x00, 0x00, 0x80, 0x3b, 0x79, 0x00, 0x00, 0x00, 0x66, 0x72, 0x61, 0x6d,
  0x65, 0x5f, 0x62, 0x65, 0x61, 0x74, 0x5f, 0x63, 0x6f, 0x6e, 0x76, 0x31,
  0x64, 0x2f, 0x6f, 0x75, 0x74, 0x70, 0x75, 0x74, 0x5f, 0x63, 0x6f, 0x6e,
  0x76, 0x2f, 0x53, 0x69, 0x67, 0x6d, 0x6f, 0x69, 0x64, 0x3b, 0x66, 0x72,
  0x61, 0x6d, 0x65, 0x5f, 0x62, 0x65, 0x61, 0x74, 0x5f, 0x63, 0x6f, 0x6e,
  0x76, 0x31, 0x64, 0x2f, 0x6f, 0x75, 0x74, 0x70, 0x75, 0x74, 0x5f, 0x63,
  0x6f, 0x6e, 0x76, 0x2f, 0x42, 0x69, 0x61, 0x73, 0x41, 0x64, 0x64, 0x3b,
  0x66, 0x72, 0x61, 0x6d, 0x65, 0x5f, 0x62, 0x65, 0x61, 0x74, 0x5f, 0x63,
  0x6f, 0x6e, 0x76, 0x31, 0x64, 0x2f, 0x6f, 0x75, 0x74, 0x70, 0x75, 0x74,
  0x5f, 0x63, 0x6f, 0x6e, 0x76, 0x2f, 0x43, 0x6f, 0x6e, 0x76, 0x31, 0x44,
  0x2f, 0x53, 0x71, 0x75, 0x65, 0x65, 0x7a, 0x65, 0x3b, 0x00, 0x00, 0x00,
  0x04, 0x00, 0x00, 0x00, 0x01, 0x00, 0x00, 0x00, 0x01, 0x00, 0x00, 0x00,
  0x08, 0x00, 0x00, 0x00, 0x01, 0x00, 0x00, 0x00, 0x9e, 0xf0, 0xff, 0xff,
  0x00, 0x00, 0x00, 0x01, 0x18, 0x00, 0x00, 0x00, 0x28, 0x00, 0x00, 0x00,
  0x44, 0x00, 0x00, 0x00, 0x15, 0x00, 0x00, 0x00, 0x00, 0x00, 0x00, 0x09,
  0xb8, 0x00, 0x00, 0x00, 0x04, 0x00, 0x00, 0x00, 0xff, 0xff, 0xff, 0xff,
  0x01, 0x00, 0x00, 0x00, 0x08, 0x00, 0x00, 0x00, 0x01, 0x00, 0x00, 0x00,
  0x8c, 0xf0, 0xff, 0xff, 0x08, 0x00, 0x00, 0x00, 0x10, 0x00, 0x00, 0x00,
  0x01, 0x00, 0x00, 0x00, 0x50, 0x00, 0x00, 0x00, 0x00, 0x00, 0x00, 0x00,
  0x01, 0x00, 0x00, 0x00, 0x11, 0x15, 0xff, 0x3c, 0x78, 0x00, 0x00, 0x00,
  0x66, 0x72, 0x61, 0x6d, 0x65, 0x5f, 0x62, 0x65, 0x61, 0x74, 0x5f, 0x63,
  0x6f, 0x6e, 0x76, 0x31, 0x64, 0x2f, 0x6f, 0x75, 0x74, 0x70, 0x75, 0x74,
  0x5f, 0x63, 0x6f, 0x6e, 0x76, 0x2f, 0x42, 0x69, 0x61, 0x73, 0x41, 0x64,
  0x64, 0x3b, 0x66, 0x72, 0x61, 0x6d, 0x65, 0x5f, 0x62, 0x65, 0x61, 0x74,
  0x5f, 0x63, 0x6f, 0x6e, 0x76, 0x31, 0x64, 0x2f, 0x6f, 0x75, 0x74, 0x70,
  0x75, 0x74, 0x5f, 0x63, 0x6f, 0x6e, 0x76, 0x2f, 0x43, 0x6f, 0x6e, 0x76,
  0x31, 0x44, 0x2f, 0x53, 0x71, 0x75, 0x65, 0x65, 0x7a, 0x65, 0x3b, 0x3b,
  0x66, 0x72, 0x61, 0x6d, 0x65, 0x5f, 0x62, 0x65, 0x61, 0x74, 0x5f, 0x63,
  0x6f, 0x6e, 0x76, 0x31, 0x64, 0x2f, 0x6f, 0x75, 0x74, 0x70, 0x75, 0x74,
  0x5f, 0x63, 0x6f, 0x6e, 0x76, 0x2f, 0x43, 0x6f, 0x6e, 0x76, 0x31, 0x44,
  0x00, 0x00, 0x00, 0x00, 0x04, 0x00, 0x00, 0x00, 0x01, 0x00, 0x00, 0x00,
  0x01, 0x00, 0x00, 0x00, 0x08, 0x00, 0x00, 0x00, 0x01, 0x00, 0x00, 0x00,
  0x86, 0xf1, 0xff, 0xff, 0x00, 0x00, 0x00, 0x01, 0x18, 0x00, 0x00, 0x00,
  0x28, 0x00, 0x00, 0x00, 0x44, 0x00, 0x00, 0x00, 0x14, 0x00, 0x00, 0x00,
  0x00, 0x00, 0x00, 0x09, 0x6c, 0x00, 0x00, 0x00, 0x04, 0x00, 0x00, 0x00,
  0xff, 0xff, 0xff, 0xff, 0x01, 0x00, 0x00, 0x00, 0x08, 0x00, 0x00, 0x00,
  0x18, 0x00, 0x00, 0x00, 0x74, 0xf1, 0xff, 0xff, 0x08, 0x00, 0x00, 0x00,
  0x10, 0x00, 0x00, 0x00, 0x01, 0x00, 0x00, 0x00, 0x80, 0xff, 0xff, 0xff,
  0xff, 0xff, 0xff, 0xff, 0x01, 0x00, 0x00, 0x00, 0xa5, 0x01, 0xda, 0x3c,
  0x2f, 0x00, 0x00, 0x00, 0x66, 0x72, 0x61, 0x6d, 0x65, 0x5f, 0x62, 0x65,
  0x61, 0x74, 0x5f, 0x63, 0x6f, 0x6e, 0x76, 0x31, 0x64, 0x2f, 0x6f, 0x75,
  0x74, 0x70, 0x75, 0x74, 0x5f, 0x63, 0x6f, 0x6e, 0x76, 0x2f, 0x43, 0x6f,
  0x6e, 0x76, 0x31, 0x44, 0x2f, 0x45, 0x78, 0x70, 0x61, 0x6e, 0x64, 0x44,
  0x69, 0x6d, 0x73, 0x00, 0x04, 0x00, 0x00, 0x00, 0x01, 0x00, 0x00, 0x00,
  0x01, 0x00, 0x00, 0x00, 0x08, 0x00, 0x00, 0x00, 0x18, 0x00, 0x00, 0x00,
  0x22, 0xf2, 0xff, 0xff, 0x00, 0x00, 0x00, 0x01, 0x18, 0x00, 0x00, 0x00,
  0x24, 0x00, 0x00, 0x00, 0x40, 0x00, 0x00, 0x00, 0x13, 0x00, 0x00, 0x00,
  0x00, 0x00, 0x00, 0x09, 0xa0, 0x00, 0x00, 0x00, 0x03, 0x00, 0x00, 0x00,
  0xff, 0xff, 0xff, 0xff, 0x08, 0x00, 0x00, 0x00, 0x18, 0x00, 0x00, 0x00,
  0x0c, 0xf2, 0xff, 0xff, 0x08, 0x00, 0x00, 0x00, 0x10, 0x00, 0x00, 0x00,
  0x01, 0x00, 0x00, 0x00, 0x80, 0xff, 0xff, 0xff, 0xff, 0xff, 0xff, 0xff,
  0x01, 0x00, 0x00, 0x00, 0xa5, 0x01, 0xda, 0x3c, 0x64, 0x00, 0x00, 0x00,
  0x66, 0x72, 0x61, 0x6d, 0x65, 0x5f, 0x62, 0x65, 0x61, 0x74, 0x5f, 0x63,
  0x6f, 0x6e, 0x76, 0x31, 0x64, 0x2f, 0x63, 0x6f, 0x6e, 0x76, 0x32, 0x2f,
  0x52, 0x65, 0x6c, 0x75, 0x3b, 0x66, 0x72, 0x61, 0x6d, 0x65, 0x5f, 0x62,
  0x65, 0x61, 0x74, 0x5f, 0x63, 0x6f, 0x6e, 0x76, 0x31, 0x64, 0x2f, 0x63,
  0x6f, 0x6e, 0x76, 0x32, 0x2f, 0x42, 0x69, 0x61, 0x73, 0x41, 0x64, 0x64,
  0x3b, 0x66, 0x72, 0x61, 0x6d, 0x65, 0x5f, 0x62, 0x65, 0x61, 0x74, 0x5f,
  0x63, 0x6f, 0x6e, 0x76, 0x31, 0x64, 0x2f, 0x63, 0x6f, 0x6e, 0x76, 0x32,
  0x2f, 0x43, 0x6f, 0x6e, 0x76, 0x31, 0x44, 0x2f, 0x53, 0x71, 0x75, 0x65,
  0x65, 0x7a, 0x65, 0x3b, 0x00, 0x00, 0x00, 0x00, 0x03, 0x00, 0x00, 0x00,
  0x01, 0x00, 0x00, 0x00, 0x08, 0x00, 0x00, 0x00, 0x18, 0x00, 0x00, 0x00,
  0xee, 0xf2, 0xff, 0xff, 0x00, 0x00, 0x00, 0x01, 0x18, 0x00, 0x00, 0x00,
  0x28, 0x00, 0x00, 0x00, 0x44, 0x00, 0x00, 0x00, 0x12, 0x00, 0x00, 0x00,
  0x00, 0x00, 0x00, 0x09, 0xc0, 0x00, 0x00, 0x00, 0x04, 0x00, 0x00, 0x00,
  0xff, 0xff, 0xff, 0xff, 0x01, 0x00, 0x00, 0x00, 0x08, 0x00, 0x00, 0x00,
  0x18, 0x00, 0x00, 0x00, 0xdc, 0xf2, 0xff, 0xff, 0x08, 0x00, 0x00, 0x00,
  0x10, 0x00, 0x00, 0x00, 0x01, 0x00, 0x00, 0x00, 0x80, 0xff, 0xff, 0xff,
  0xff, 0xff, 0xff, 0xff, 0x01, 0x00, 0x00, 0x00, 0xa5, 0x01, 0xda, 0x3c,
  0x83, 0x00, 0x00, 0x00, 0x66, 0x72, 0x61, 0x6d, 0x65, 0x5f, 0x62, 0x65,
  0x61, 0x74, 0x5f, 0x63, 0x6f, 0x6e, 0x76, 0x31, 0x64, 0x2f, 0x63, 0x6f,
  0x6e, 0x76, 0x32, 0x2f, 0x52, 0x65, 0x6c, 0x75, 0x3b, 0x66, 0x72, 0x61,
  0x6d, 0x65, 0x5f, 0x62, 0x65, 0x61, 0x74, 0x5f, 0x63, 0x6f, 0x6e, 0x76,
  0x31, 0x64, 0x2f, 0x63, 0x6f, 0x6e, 0x76, 0x32, 0x2f, 0x42, 0x69, 0x61,
  0x73, 0x41, 0x64, 0x64, 0x3b, 0x66, 0x72, 0x61, 0x6d, 0x65, 0x5f, 0x62,
  0x65, 0x61, 0x74, 0x5f, 0x63, 0x6f, 0x6e, 0x76, 0x31, 0x64, 0x2f, 0x63,
  0x6f, 0x6e, 0x76, 0x32, 0x2f, 0x43, 0x6f, 0x6e, 0x76, 0x31, 0x44, 0x2f,
  0x53, 0x71, 0x75, 0x65, 0x65, 0x7a, 0x65, 0x3b, 0x3b, 0x66, 0x72, 0x61,
  0x6d, 0x65, 0x5f, 0x62, 0x65, 0x61, 0x74, 0x5f, 0x63, 0x6f, 0x6e, 0x76,
  0x31, 0x64, 0x2f, 0x63, 0x6f, 0x6e, 0x76, 0x32, 0x2f, 0x43, 0x6f, 0x6e,
  0x76, 0x31, 0x44, 0x00, 0x04, 0x00, 0x00, 0x00, 0x01, 0x00, 0x00, 0x00,
  0x01, 0x00, 0x00, 0x00, 0x08, 0x00, 0x00, 0x00, 0x18, 0x00, 0x00, 0x00,
  0xde, 0xf3, 0xff, 0xff, 0x00, 0x00, 0x00, 0x01, 0x18, 0x00, 0x00, 0x00,
  0x28, 0x00, 0x00, 0x00, 0x48, 0x00, 0x00, 0x00, 0x11, 0x00, 0x00, 0x00,
  0x00, 0x00, 0x00, 0x09, 0x6c, 0x00, 0x00, 0x00, 0x04, 0x00, 0x00, 0x00,
  0xff, 0xff, 0xff, 0xff, 0x01, 0x00, 0x00, 0x00, 0x0a, 0x00, 0x00, 0x00,
  0x18, 0x00, 0x00, 0x00, 0xcc, 0xf3, 0xff, 0xff, 0x08, 0x00, 0x00, 0x00,
  0x14, 0x00, 0x00, 0x00, 0x01, 0x00, 0x00, 0x00, 0x80, 0xff, 0xff, 0xff,
  0xff, 0xff, 0xff, 0xff, 0x00, 0x00, 0x00, 0x00, 0x01, 0x00, 0x00, 0x00,
  0xdc, 0xa6, 0x46, 0x3d, 0x29, 0x00, 0x00, 0x00, 0x66, 0x72, 0x61, 0x6d,
  0x65, 0x5f, 0x62, 0x65, 0x61, 0x74, 0x5f, 0x63, 0x6f, 0x6e, 0x76, 0x31,
  0x64, 0x2f, 0x63, 0x6f, 0x6e, 0x76, 0x32, 0x2f, 0x43, 0x6f, 0x6e, 0x76,
  0x31, 0x44, 0x2f, 0x45, 0x78, 0x70, 0x61, 0x6e, 0x64, 0x44, 0x69, 0x6d,
  0x73, 0x00, 0x00, 0x00, 0x04, 0x00, 0x00, 0x00, 0x01, 0x00, 0x00, 0x00,
  0x01, 0x00, 0x00, 0x00, 0x0a, 0x00, 0x00, 0x00, 0x18, 0x00, 0x00, 0x00,
  0x7a, 0xf4, 0xff, 0xff, 0x00, 0x00, 0x00, 0x01, 0x18, 0x00, 0x00, 0x00,
  0x24, 0x00, 0x00, 0x00, 0x44, 0x00, 0x00, 0x00, 0x10, 0x00, 0x00, 0x00,
  0x00, 0x00, 0x00, 0x09, 0x64, 0x00, 0x00, 0x00, 0x03, 0x00, 0x00, 0x00,
  0xff, 0xff, 0xff, 0xff, 0x0a, 0x00, 0x00, 0x00, 0x18, 0x00, 0x00, 0x00,
  0x64, 0xf4, 0xff, 0xff, 0x08, 0x00, 0x00, 0x00, 0x14, 0x00, 0x00, 0x00,
  0x01, 0x00, 0x00, 0x00, 0x80, 0xff, 0xff, 0xff, 0xff, 0xff, 0xff, 0xff,
  0x00, 0x00, 0x00, 0x00, 0x01, 0x00, 0x00, 0x00, 0xdc, 0xa6, 0x46, 0x3d,
  0x26, 0x00, 0x00, 0x00, 0x66, 0x72, 0x61, 0x6d, 0x65, 0x5f, 0x62, 0x65,
  0x61, 0x74, 0x5f, 0x63, 0x6f, 0x6e, 0x76, 0x31, 0x64, 0x2f, 0x7a, 0x65,
  0x72, 0x6f, 0x5f, 0x70, 0x61, 0x64, 0x64, 0x69, 0x6e, 0x67, 0x31, 0x64,
  0x5f, 0x31, 0x2f, 0x50, 0x61, 0x64, 0x00, 0x00, 0x03, 0x00, 0x00, 0x00,
  0x01, 0x00, 0x00, 0x00, 0x0a, 0x00, 0x00, 0x00, 0x18, 0x00, 0x00, 0x00,
  0x0a, 0xf5, 0xff, 0xff, 0x00, 0x00, 0x00, 0x01, 0x18, 0x00, 0x00, 0x00,
  0x24, 0x00, 0x00, 0x00, 0x44, 0x00, 0x00, 0x00, 0x0f, 0x00, 0x00, 0x00,
  0x00, 0x00, 0x00, 0x09, 0xd0, 0x00, 0x00, 0x00, 0x03, 0x00, 0x00, 0x00,
  0xff, 0xff, 0xff, 0xff, 0x08, 0x00, 0x00, 0x00, 0x18, 0x00, 0x00, 0x00,
  0xf4, 0xf4, 0xff, 0xff, 0x08, 0x00, 0x00, 0x00, 0x14, 0x00, 0x00, 0x00,
  0x01, 0x00, 0x00, 0x00, 0x80, 0xff, 0xff, 0xff, 0xff, 0xff, 0xff, 0xff,
  0x00, 0x00, 0x00, 0x00, 0x01, 0x00, 0x00, 0x00, 0xdc, 0xa6, 0x46, 0x3d,
  0x92, 0x00, 0x00, 0x00, 0x66, 0x72, 0x61, 0x6d, 0x65, 0x5f, 0x62, 0x65,
  0x61, 0x74, 0x5f, 0x63, 0x6f, 0x6e, 0x76, 0x31, 0x64, 0x2f, 0x63, 0x6f,
  0x6e, 0x76, 0x31, 0x2f, 0x52, 0x65, 0x6c, 0x75, 0x3b, 0x66, 0x72, 0x61,
  0x6d, 0x65, 0x5f, 0x62, 0x65, 0x61, 0x74, 0x5f, 0x63, 0x6f, 0x6e, 0x76,
  0x31, 0x64, 0x2f, 0x63, 0x6f, 0x6e, 0x76, 0x31, 0x2f, 0x42, 0x69, 0x61,
  0x73, 0x41, 0x64, 0x64, 0x3b, 0x66, 0x72, 0x61, 0x6d, 0x65, 0x5f, 0x62,
  0x65, 0x61, 0x74, 0x5f, 0x63, 0x6f, 0x6e, 0x76, 0x31, 0x64, 0x2f, 0x63,
  0x6f, 0x6e, 0x76, 0x31, 0x2f, 0x43, 0x6f, 0x6e, 0x76, 0x31, 0x44, 0x2f,
  0x53, 0x71, 0x75, 0x65, 0x65, 0x7a, 0x65, 0x3b, 0x66, 0x72, 0x61, 0x6d,
  0x65, 0x5f, 0x62, 0x65, 0x61, 0x74, 0x5f, 0x63, 0x6f, 0x6e, 0x76, 0x31,
  0x64, 0x2f, 0x63, 0x6f, 0x6e, 0x76, 0x31, 0x2f, 0x42, 0x69, 0x61, 0x73,
  0x41, 0x64, 0x64, 0x2f, 0x52, 0x65, 0x61, 0x64, 0x56, 0x61, 0x72, 0x69,
  0x61, 0x62, 0x6c, 0x65, 0x4f, 0x70, 0x00, 0x00, 0x03, 0x00, 0x00, 0x00,
  0x01, 0x00, 0x00, 0x00, 0x08, 0x00, 0x00, 0x00, 0x18, 0x00, 0x00, 0x00,
  0x06, 0xf6, 0xff, 0xff, 0x00, 0x00, 0x00, 0x01, 0x18, 0x00, 0x00, 0x00,
  0x28, 0x00, 0x00, 0x00, 0x44, 0x00, 0x00, 0x00, 0x0e, 0x00, 0x00, 0x00,
  0x00, 0x00, 0x00, 0x09, 0xf0, 0x00, 0x00, 0x00, 0x04, 0x00, 0x00, 0x00,
  0xff, 0xff, 0xff, 0xff, 0x01, 0x00, 0x00, 0x00, 0x08, 0x00, 0x00, 0x00,
  0x18, 0x00, 0x00, 0x00, 0xf4, 0xf5, 0xff, 0xff, 0x08, 0x00, 0x00, 0x00,
  0x10, 0x00, 0x00, 0x00, 0x01, 0x00, 0x00, 0x00, 0x80, 0xff, 0xff, 0xff,
  0xff, 0xff, 0xff, 0xff, 0x01, 0x00, 0x00, 0x00, 0xdc, 0xa6, 0x46, 0x3d,
  0xb1, 0x00, 0x00, 0x00, 0x66, 0x72, 0x61, 0x6d, 0x65, 0x5f, 0x62, 0x65,
  0x61, 0x74, 0x5f, 0x63, 0x6f, 0x6e, 0x76, 0x31, 0x64, 0x2f, 0x63, 0x6f,
  0x6e, 0x76, 0x31, 0x2f, 0x52, 0x65, 0x6c, 0x75, 0x3b, 0x66, 0x72, 0x61,
  0x6d, 0x65, 0x5f, 0x62, 0x65, 0x61, 0x74, 0x5f, 0x63, 0x6f, 0x6e, 0x76,
  0x31, 0x64, 0x2f, 0x63, 0x6f, 0x6e, 0x76, 0x31, 0x2f, 0x42, 0x69, 0x61,
  0x73, 0x41, 0x64, 0x64, 0x3b, 0x66, 0x72, 0x61, 0x6d, 0x65, 0x5f, 0x62,
  0x65, 0x61, 0x74, 0x5f, 0x63, 0x6f, 0x6e, 0x76, 0x31, 0x64, 0x2f, 0x63,
  0x6f, 0x6e, 0x76, 0x31, 0x2f, 0x43, 0x6f, 0x6e, 0x76, 0x31, 0x44, 0x2f,
  0x53, 0x71, 0x75, 0x65, 0x65, 0x7a, 0x65, 0x3b, 0x66, 0x72, 0x61, 0x6d,
  0x65, 0x5f, 0x62, 0x65, 0x61, 0x74, 0x5f, 0x63, 0x6f, 0x6e, 0x76, 0x31,
  0x64, 0x2f, 0x63, 0x6f, 0x6e, 0x76, 0x31, 0x2f, 0x42, 0x69, 0x61, 0x73,
  0x41, 0x64, 0x64, 0x2f, 0x52, 0x65, 0x61, 0x64, 0x56, 0x61, 0x72, 0x69,
  0x61, 0x62, 0x6c, 0x65, 0x4f, 0x70, 0x3b, 0x66, 0x72, 0x61, 0x6d, 0x65,
  0x5f, 0x62, 0x65, 0x61, 0x74, 0x5f, 0x63, 0x6f, 0x6e, 0x76, 0x31, 0x64,
  0x2f, 0x63, 0x6f, 0x6e, 0x76, 0x31, 0x2f, 0x43, 0x6f, 0x6e, 0x76, 0x31,
  0x44, 0x00, 0x00, 0x00, 0x04, 0x00, 0x00, 0x00, 0x01, 0x00, 0x00, 0x00,
  0x01, 0x00, 0x00, 0x00, 0x08, 0x00, 0x00, 0x00, 0x18, 0x00, 0x00, 0x00,
  0x26, 0xf7, 0xff, 0xff, 0x00, 0x00, 0x00, 0x01, 0x18, 0x00, 0x00, 0x00,
  0x28, 0x00, 0x00, 0x00, 0x48, 0x00, 0x00, 0x00, 0x0d, 0x00, 0x00, 0x00,
  0x00, 0x00, 0x00, 0x09, 0x6c, 0x00, 0x00, 0x00, 0x04, 0x00, 0x00, 0x00,
  0xff, 0xff, 0xff, 0xff, 0x01, 0x00, 0x00, 0x00, 0x0a, 0x00, 0x00, 0x00,
  0x1a, 0x00, 0x00, 0x00, 0x14, 0xf7, 0xff, 0xff, 0x08, 0x00, 0x00, 0x00,
  0x14, 0x00, 0x00, 0x00, 0x01, 0x00, 0x00, 0x00, 0x80, 0xff, 0xff, 0xff,
  0xff, 0xff, 0xff, 0xff, 0x00, 0x00, 0x00, 0x00, 0x01, 0x00, 0x00, 0x00,
  0x81, 0x80, 0x80, 0x3b, 0x29, 0x00, 0x00, 0x00, 0x66, 0x72, 0x61, 0x6d,
  0x65, 0x5f, 0x62, 0x65, 0x61, 0x74, 0x5f, 0x63, 0x6f, 0x6e, 0x76, 0x31,
  0x64, 0x2f, 0x63, 0x6f, 0x6e, 0x76, 0x31, 0x2f, 0x43, 0x6f, 0x6e, 0x76,
  0x31, 0x44, 0x2f, 0x45, 0x78, 0x70, 0x61, 0x6e, 0x64, 0x44, 0x69, 0x6d,
  0x73, 0x00, 0x00, 0x00, 0x04, 0x00, 0x00, 0x00, 0x01, 0x00, 0x00, 0x00,
  0x01, 0x00, 0x00, 0x00, 0x0a, 0x00, 0x00, 0x00, 0x1a, 0x00, 0x00, 0x00,
  0xc2, 0xf7, 0xff, 0xff, 0x00, 0x00, 0x00, 0x01, 0x18, 0x00, 0x00, 0x00,
  0x24, 0x00, 0x00, 0x00, 0x40, 0x00, 0x00, 0x00, 0x0c, 0x00, 0x00, 0x00,
  0x00, 0x00, 0x00, 0x09, 0x60, 0x00, 0x00, 0x00, 0x03, 0x00, 0x00, 0x00,
  0xff, 0xff, 0xff, 0xff, 0x0a, 0x00, 0x00, 0x00, 0x1a, 0x00, 0x00, 0x00,
  0xac, 0xf7, 0xff, 0xff, 0x08, 0x00, 0x00, 0x00, 0x10, 0x00, 0x00, 0x00,
  0x01, 0x00, 0x00, 0x00, 0x80, 0xff, 0xff, 0xff, 0xff, 0xff, 0xff, 0xff,
  0x01, 0x00, 0x00, 0x00, 0x81, 0x80, 0x80, 0x3b, 0x24, 0x00, 0x00, 0x00,
  0x66, 0x72, 0x61, 0x6d, 0x65, 0x5f, 0x62, 0x65, 0x61, 0x74, 0x5f, 0x63,
  0x6f, 0x6e, 0x76, 0x31, 0x64, 0x2f, 0x7a, 0x65, 0x72, 0x6f, 0x5f, 0x70,
  0x61, 0x64, 0x64, 0x69, 0x6e, 0x67, 0x31, 0x64, 0x2f, 0x50, 0x61, 0x64,
  0x00, 0x00, 0x00, 0x00, 0x03, 0x00, 0x00, 0x00, 0x01, 0x00, 0x00, 0x00,
  0x0a, 0x00, 0x00, 0x00, 0x1a, 0x00, 0x00, 0x00, 0xaa, 0xf8, 0xff, 0xff,
  0x00, 0x00, 0x00, 0x01, 0x14, 0x00, 0x00, 0x00, 0x48, 0x01, 0x00, 0x00,
  0x0b, 0x00, 0x00, 0x00, 0x00, 0x00, 0x00, 0x09, 0x54, 0x01, 0x00, 0x00,
  0x24, 0xf8, 0xff, 0xff, 0x08, 0x00, 0x00, 0x00, 0xcc, 0x00, 0x00, 0x00,
  0x18, 0x00, 0x00, 0x00, 0x00, 0x00, 0x00, 0x00, 0x00, 0x00, 0x00, 0x00,
  0x00, 0x00, 0x00, 0x00, 0x00, 0x00, 0x00, 0x00, 0x00, 0x00, 0x00, 0x00,
  0x00, 0x00, 0x00, 0x00, 0x00, 0x00, 0x00, 0x00, 0x00, 0x00, 0x00, 0x00,
  0x00, 0x00, 0x00, 0x00, 0x00, 0x00, 0x00, 0x00, 0x00, 0x00, 0x00, 0x00,
  0x00, 0x00, 0x00, 0x00, 0x00, 0x00, 0x00, 0x00, 0x00, 0x00, 0x00, 0x00,
  0x00, 0x00, 0x00, 0x00, 0x00, 0x00, 0x00, 0x00, 0x00, 0x00, 0x00, 0x00,
  0x00, 0x00, 0x00, 0x00, 0x00, 0x00, 0x00, 0x00, 0x00, 0x00, 0x00, 0x00,
  0x00, 0x00, 0x00, 0x00, 0x00, 0x00, 0x00, 0x00, 0x00, 0x00, 0x00, 0x00,
  0x00, 0x00, 0x00, 0x00, 0x00, 0x00, 0x00, 0x00, 0x00, 0x00, 0x00, 0x00,
  0x00, 0x00, 0x00, 0x00, 0x00, 0x00, 0x00, 0x00, 0x00, 0x00, 0x00, 0x00,
  0x00, 0x00, 0x00, 0x00, 0x00, 0x00, 0x00, 0x00, 0x00, 0x00, 0x00, 0x00,
  0x00, 0x00, 0x00, 0x00, 0x00, 0x00, 0x00, 0x00, 0x00, 0x00, 0x00, 0x00,
  0x00, 0x00, 0x00, 0x00, 0x00, 0x00, 0x00, 0x00, 0x00, 0x00, 0x00, 0x00,
  0x00, 0x00, 0x00, 0x00, 0x00, 0x00, 0x00, 0x00, 0x00, 0x00, 0x00, 0x00,
  0x00, 0x00, 0x00, 0x00, 0x00, 0x00, 0x00, 0x00, 0x00, 0x00, 0x00, 0x00,
  0x00, 0x00, 0x00, 0x00, 0x00, 0x00, 0x00, 0x00, 0x00, 0x00, 0x00, 0x00,
  0x00, 0x00, 0x00, 0x00, 0x00, 0x00, 0x00, 0x00, 0x18, 0x00, 0x00, 0x00,
  0x5c, 0xe2, 0x3e, 0x3b, 0x6e, 0x7c, 0xae, 0x3a, 0x29, 0xc0, 0x0b, 0x3b,
  0xc6, 0x1e, 0xe9, 0x3a, 0x7e, 0x10, 0x9d, 0x3a, 0x7c, 0x5b, 0x4e, 0x3b,
  0xf5, 0x5c, 0x9a, 0x3a, 0xf1, 0x6e, 0x00, 0x3b, 0xd5, 0x1f, 0xac, 0x3a,
  0x0b, 0xc0, 0xed, 0x3b, 0xc4, 0x7e, 0x27, 0x3b, 0x4e, 0x47, 0x4c, 0x3b,
  0x8e, 0x76, 0x27, 0x3b, 0xe8, 0x99, 0xbe, 0x3b, 0xc4, 0xa2, 0x52, 0x3b,
  0xeb, 0x04, 0x55, 0x3b, 0x0c, 0x20, 0xb2, 0x3a, 0x4a, 0xe8, 0xe9, 0x3a,
  0x5f, 0x23, 0x2d, 0x3b, 0xa7, 0xb7, 0xf6, 0x3a, 0xb4, 0x2c, 0xc6, 0x3a,
  0x99, 0x82, 0x1a, 0x3b, 0x92, 0x72, 0x29, 0x3b, 0x82, 0xaa, 0xf4, 0x3b,
  0x12, 0x00, 0x00, 0x00, 0x74, 0x66, 0x6c, 0x2e, 0x70, 0x73, 0x65, 0x75,
  0x64, 0x6f, 0x5f, 0x71, 0x63, 0x6f, 0x6e, 0x73, 0x74, 0x35, 0x00, 0x00,
  0x04, 0x00, 0x00, 0x00, 0x18, 0x00, 0x00, 0x00, 0x01, 0x00, 0x00, 0x00,
  0x03, 0x00, 0x00, 0x00, 0x1a, 0x00, 0x00, 0x00, 0x2a, 0xfa, 0xff, 0xff,
  0x00, 0x00, 0x00, 0x01, 0x14, 0x00, 0x00, 0x00, 0x44, 0x01, 0x00, 0x00,
  0x0a, 0x00, 0x00, 0x00, 0x00, 0x00, 0x00, 0x02, 0x50, 0x01, 0x00, 0x00,
  0xa4, 0xf9, 0xff, 0xff, 0x08, 0x00, 0x00, 0x00, 0xc8, 0x00, 0x00, 0x00,
  0x18, 0x00, 0x00, 0x00, 0x00, 0x00, 0x00, 0x00, 0x00, 0x00, 0x00, 0x00,
  0x00, 0x00, 0x00, 0x00, 0x00, 0x00, 0x00, 0x00, 0x00, 0x00, 0x00, 0x00,
  0x00, 0x00, 0x00, 0x00, 0x00, 0x00, 0x00, 0x00, 0x00, 0x00, 0x00, 0x00,
  0x00, 0x00, 0x00, 0x00, 0x00, 0x00, 0x00, 0x00, 0x00, 0x00, 0x00, 0x00,
  0x00, 0x00, 0x00, 0x00, 0x00, 0x00, 0x00, 0x00, 0x00, 0x00, 0x00, 0x00,
  0x00, 0x00, 0x00, 0x00, 0x00, 0x00, 0x00, 0x00, 0x00, 0x00, 0x00, 0x00,
  0x00, 0x00, 0x00, 0x00, 0x00, 0x00, 0x00, 0x00, 0x00, 0x00, 0x00, 0x00,
  0x00, 0x00, 0x00, 0x00, 0x00, 0x00, 0x00, 0x00, 0x00, 0x00, 0x00, 0x00,
  0x00, 0x00, 0x00, 0x00, 0x00, 0x00, 0x00, 0x00, 0x00, 0x00, 0x00, 0x00,
  0x00, 0x00, 0x00, 0x00, 0x00, 0x00, 0x00, 0x00, 0x00, 0x00, 0x00, 0x00,
  0x00, 0x00, 0x00, 0x00, 0x00, 0x00, 0x00, 0x00, 0x00, 0x00, 0x00, 0x00,
  0x00, 0x00, 0x00, 0x00, 0x00, 0x00, 0x00, 0x00, 0x00, 0x00, 0x00, 0x00,
  0x00, 0x00, 0x00, 0x00, 0x00, 0x00, 0x00, 0x00, 0x00, 0x00, 0x00, 0x00,
  0x00, 0x00, 0x00, 0x00, 0x00, 0x00, 0x00, 0x00, 0x00, 0x00, 0x00, 0x00,
  0x00, 0x00, 0x00, 0x00, 0x00, 0x00, 0x00, 0x00, 0x00, 0x00, 0x00, 0x00,
  0x00, 0x00, 0x00, 0x00, 0x00, 0x00, 0x00, 0x00, 0x00, 0x00, 0x00, 0x00,
  0x00, 0x00, 0x00, 0x00, 0x18, 0x00, 0x00, 0x00, 0xff, 0xa1, 0x3f, 0x37,
  0x9a, 0x2b, 0xaf, 0x36, 0x76, 0x4c, 0x0c, 0x37, 0xd0, 0x08, 0xea, 0x36,
  0x2d, 0xae, 0x9d, 0x36, 0xa7, 0x2a, 0x4f, 0x37, 0xee, 0xf7, 0x9a, 0x36,
  0xe1, 0xef, 0x00, 0x37, 0xa2, 0xcc, 0xac, 0x36, 0xbb, 0xae, 0xee, 0x37,
  0xec, 0x26, 0x28, 0x37, 0x63, 0x14, 0x4d, 0x37, 0xad, 0x1e, 0x28, 0x37,
  0x42, 0x59, 0xbf, 0x37, 0x3b, 0x76, 0x53, 0x37, 0xc7, 0xda, 0x55, 0x37,
  0xe0, 0xd2, 0xb2, 0x36, 0x1e, 0xd3, 0xea, 0x36, 0x31, 0xd1, 0x2d, 0x37,
  0x57, 0xaf, 0xf7, 0x36, 0xa8, 0xf3, 0xc6, 0x36, 0xb7, 0x1d, 0x1b, 0x37,
  0xaf, 0x1c, 0x2a, 0x37, 0x23, 0xa0, 0xf5, 0x37, 0x12, 0x00, 0x00, 0x00,
  0x74, 0x66, 0x6c, 0x2e, 0x70, 0x73, 0x65, 0x75, 0x64, 0x6f, 0x5f, 0x71,
  0x63, 0x6f, 0x6e, 0x73, 0x74, 0x34, 0x00, 0x00, 0x01, 0x00, 0x00, 0x00,
  0x18, 0x00, 0x00, 0x00, 0x9a, 0xfb, 0xff, 0xff, 0x00, 0x00, 0x00, 0x01,
  0x14, 0x00, 0x00, 0x00, 0x48, 0x01, 0x00, 0x00, 0x09, 0x00, 0x00, 0x00,
  0x00, 0x00, 0x00, 0x09, 0x54, 0x01, 0x00, 0x00, 0x14, 0xfb, 0xff, 0xff,
  0x08, 0x00, 0x00, 0x00, 0xcc, 0x00, 0x00, 0x00, 0x18, 0x00, 0x00, 0x00,
  0x00, 0x00, 0x00, 0x00, 0x00, 0x00, 0x00, 0x00, 0x00, 0x00, 0x00, 0x00,
  0x00, 0x00, 0x00, 0x00, 0x00, 0x00, 0x00, 0x00, 0x00, 0x00, 0x00, 0x00,
  0x00, 0x00, 0x00, 0x00, 0x00, 0x00, 0x00, 0x00, 0x00, 0x00, 0x00, 0x00,
  0x00, 0x00, 0x00, 0x00, 0x00, 0x00, 0x00, 0x00, 0x00, 0x00, 0x00, 0x00,
  0x00, 0x00, 0x00, 0x00, 0x00, 0x00, 0x00, 0x00, 0x00, 0x00, 0x00, 0x00,
  0x00, 0x00, 0x00, 0x00, 0x00, 0x00, 0x00, 0x00, 0x00, 0x00, 0x00, 0x00,
  0x00, 0x00, 0x00, 0x00, 0x00, 0x00, 0x00, 0x00, 0x00, 0x00, 0x00, 0x00,
  0x00, 0x00, 0x00, 0x00, 0x00, 0x00, 0x00, 0x00, 0x00, 0x00, 0x00, 0x00,
  0x00, 0x00, 0x00, 0x00, 0x00, 0x00, 0x00, 0x00, 0x00, 0x00, 0x00, 0x00,
  0x00, 0x00, 0x00, 0x00, 0x00, 0x00, 0x00, 0x00, 0x00, 0x00, 0x00, 0x00,
  0x00, 0x00, 0x00, 0x00, 0x00, 0x00, 0x00, 0x00, 0x00, 0x00, 0x00, 0x00,
  0x00, 0x00, 0x00, 0x00, 0x00, 0x00, 0x00, 0x00, 0x00, 0x00, 0x00, 0x00,
  0x00, 0x00, 0x00, 0x00, 0x00, 0x00, 0x00, 0x00, 0x00, 0x00, 0x00, 0x00,
  0x00, 0x00, 0x00, 0x00, 0x00, 0x00, 0x00, 0x00, 0x00, 0x00, 0x00, 0x00,
  0x00, 0x00, 0x00, 0x00, 0x00, 0x00, 0x00, 0x00, 0x00, 0x00, 0x00, 0x00,
  0x00, 0x00, 0x00, 0x00, 0x00, 0x00, 0x00, 0x00, 0x00, 0x00, 0x00, 0x00,
  0x00, 0x00, 0x00, 0x00, 0x18, 0x00, 0x00, 0x00, 0x77, 0xc9, 0x94, 0x3c,
  0x78, 0x57, 0x4e, 0x3d, 0xbe, 0xd3, 0x2e, 0x3d, 0x14, 0x4f, 0xf5, 0x3c,
  0xd2, 0x4d, 0x1d, 0x3d, 0xc6, 0x56, 0x12, 0x3d, 0x48, 0x31, 0xa5, 0x3c,
  0xc8, 0xe9, 0xe1, 0x3c, 0x00, 0x2f, 0x6b, 0x3c, 0x49, 0x9d, 0x0e, 0x3c,
  0xe0, 0xb3, 0x06, 0x3c, 0x99, 0x3c, 0x00, 0x3d, 0x09, 0x9e, 0x97, 0x3b,
  0x12, 0xcd, 0x7c, 0x3c, 0xab, 0xe6, 0x71, 0x3d, 0x93, 0x5d, 0x23, 0x3d,
  0x4f, 0x0c, 0x03, 0x3d, 0xa6, 0x30, 0x29, 0x3c, 0x31, 0x3a, 0x73, 0x3c,
  0x6c, 0xab, 0x38, 0x3d, 0xb3, 0x38, 0x84, 0x3c, 0x02, 0x64, 0xea, 0x3c,
  0x2d, 0xe4, 0x11, 0x3c, 0x54, 0xd1, 0x1d, 0x3d, 0x12, 0x00, 0x00, 0x00,
  0x74, 0x66, 0x6c, 0x2e, 0x70, 0x73, 0x65, 0x75, 0x64, 0x6f, 0x5f, 0x71,
  0x63, 0x6f, 0x6e, 0x73, 0x74, 0x33, 0x00, 0x00, 0x04, 0x00, 0x00, 0x00,
  0x18, 0x00, 0x00, 0x00, 0x01, 0x00, 0x00, 0x00, 0x03, 0x00, 0x00, 0x00,
  0x18, 0x00, 0x00, 0x00, 0x1a, 0xfd, 0xff, 0xff, 0x00, 0x00, 0x00, 0x01,
  0x14, 0x00, 0x00, 0x00, 0x44, 0x01, 0x00, 0x00, 0x08, 0x00, 0x00, 0x00,
  0x00, 0x00, 0x00, 0x02, 0x50, 0x01, 0x00, 0x00, 0x94, 0xfc, 0xff, 0xff,
  0x08, 0x00, 0x00, 0x00, 0xc8, 0x00, 0x00, 0x00, 0x18, 0x00, 0x00, 0x00,
  0x00, 0x00, 0x00, 0x00, 0x00, 0x00, 0x00, 0x00, 0x00, 0x00, 0x00, 0x00,
  0x00, 0x00, 0x00, 0x00, 0x00, 0x00, 0x00, 0x00, 0x00, 0x00, 0x00, 0x00,
  0x00, 0x00, 0x00, 0x00, 0x00, 0x00, 0x00, 0x00, 0x00, 0x00, 0x00, 0x00,
  0x00, 0x00, 0x00, 0x00, 0x00, 0x00, 0x00, 0x00, 0x00, 0x00, 0x00, 0x00,
  0x00, 0x00, 0x00, 0x00, 0x00, 0x00, 0x00, 0x00, 0x00, 0x00, 0x00, 0x00,
  0x00, 0x00, 0x00, 0x00, 0x00, 0x00, 0x00, 0x00, 0x00, 0x00, 0x00, 0x00,
  0x00, 0x00, 0x00, 0x00, 0x00, 0x00, 0x00, 0x00, 0x00, 0x00, 0x00, 0x00,
  0x00, 0x00, 0x00, 0x00, 0x00, 0x00, 0x00, 0x00, 0x00, 0x00, 0x00, 0x00,
  0x00, 0x00, 0x00, 0x00, 0x00, 0x00, 0x00, 0x00, 0x00, 0x00, 0x00, 0x00,
  0x00, 0x00, 0x00, 0x00, 0x00, 0x00, 0x00, 0x00, 0x00, 0x00, 0x00, 0x00,
  0x00, 0x00, 0x00, 0x00, 0x00, 0x00, 0x00, 0x00, 0x00, 0x00, 0x00, 0x00,
  0x00, 0x00, 0x00, 0x00, 0x00, 0x00, 0x00, 0x00, 0x00, 0x00, 0x00, 0x00,
  0x00, 0x00, 0x00, 0x00, 0x00, 0x00, 0x00, 0x00, 0x00, 0x00, 0x00, 0x00,
  0x00, 0x00, 0x00, 0x00, 0x00, 0x00, 0x00, 0x00, 0x00, 0x00, 0x00, 0x00,
  0x00, 0x00, 0x00, 0x00, 0x00, 0x00, 0x00, 0x00, 0x00, 0x00, 0x00, 0x00,
  0x00, 0x00, 0x00, 0x00, 0x00, 0x00, 0x00, 0x00, 0x00, 0x00, 0x00, 0x00,
  0x18, 0x00, 0x00, 0x00, 0x99, 0xe9, 0x66, 0x3a, 0x25, 0x1e, 0x20, 0x3b,
  0xb8, 0xa9, 0x07, 0x3b, 0x0e, 0x5b, 0xbe, 0x3a, 0x70, 0x21, 0xf4, 0x3a,
  0xfe, 0x1c, 0xe3, 0x3a, 0xca, 0x2f, 0x80, 0x3a, 0x10, 0x4e, 0xaf, 0x3a,
  0xa5, 0x7f, 0x36, 0x3a, 0x36, 0x55, 0xdd, 0x39, 0xd7, 0x0d, 0xd1, 0x39,
  0xe8, 0x04, 0xc7, 0x3a, 0x1b, 0x4e, 0x6b, 0x39, 0x62, 0x2b, 0x44, 0x3a,
  0x14, 0xb6, 0x3b, 0x3b, 0xb6, 0x89, 0xfd, 0x3a, 0xdf, 0x61, 0xcb, 0x3a,
  0xe7, 0x49, 0x03, 0x3a, 0x8b, 0xbd, 0x3c, 0x3a, 0xf3, 0x4c, 0x0f, 0x3b,
  0x12, 0x34, 0x4d, 0x3a, 0x20, 0xe2, 0xb5, 0x3a, 0x24, 0x6b, 0xe2, 0x39,
  0x89, 0xed, 0xf4, 0x3a, 0x12, 0x00, 0x00, 0x00, 0x74, 0x66, 0x6c, 0x2e,
  0x70, 0x73, 0x65, 0x75, 0x64, 0x6f, 0x5f, 0x71, 0x63, 0x6f, 0x6e, 0x73,
  0x74, 0x32, 0x00, 0x00, 0x01, 0x00, 0x00, 0x00, 0x18, 0x00, 0x00, 0x00,
  0x8a, 0xfe, 0xff, 0xff, 0x00, 0x00, 0x00, 0x01, 0x14, 0x00, 0x00, 0x00,
  0x30, 0x00, 0x00, 0x00, 0x07, 0x00, 0x00, 0x00, 0x00, 0x00, 0x00, 0x09,
  0x3c, 0x00, 0x00, 0x00, 0x04, 0xfe, 0xff, 0xff, 0x08, 0x00, 0x00, 0x00,
  0x10, 0x00, 0x00, 0x00, 0x01, 0x00, 0x00, 0x00, 0x00, 0x00, 0x00, 0x00,
  0x00, 0x00, 0x00, 0x00, 0x01, 0x00, 0x00, 0x00, 0xa6, 0x19, 0x0b, 0x3d,
  0x12, 0x00, 0x00, 0x00, 0x74, 0x66, 0x6c, 0x2e, 0x70, 0x73, 0x65, 0x75,
  0x64, 0x6f, 0x5f, 0x71, 0x63, 0x6f, 0x6e, 0x73, 0x74, 0x31, 0x00, 0x00,
  0x04, 0x00, 0x00, 0x00, 0x01, 0x00, 0x00, 0x00, 0x01, 0x00, 0x00, 0x00,
  0x01, 0x00, 0x00, 0x00, 0x18, 0x00, 0x00, 0x00, 0xf2, 0xfe, 0xff, 0xff,
  0x00, 0x00, 0x00, 0x01, 0x14, 0x00, 0x00, 0x00, 0x30, 0x00, 0x00, 0x00,
  0x06, 0x00, 0x00, 0x00, 0x00, 0x00, 0x00, 0x02, 0x3c, 0x00, 0x00, 0x00,
  0x6c, 0xfe, 0xff, 0xff, 0x08, 0x00, 0x00, 0x00, 0x10, 0x00, 0x00, 0x00,
  0x01, 0x00, 0x00, 0x00, 0x00, 0x00, 0x00, 0x00, 0x00, 0x00, 0x00, 0x00,
  0x01, 0x00, 0x00, 0x00, 0x78, 0xe9, 0x6c, 0x3a, 0x11, 0x00, 0x00, 0x00,
  0x74, 0x66, 0x6c, 0x2e, 0x70, 0x73, 0x65, 0x75, 0x64, 0x6f, 0x5f, 0x71,
  0x63, 0x6f, 0x6e, 0x73, 0x74, 0x00, 0x00, 0x00, 0x01, 0x00, 0x00, 0x00,
  0x01, 0x00, 0x00, 0x00, 0x4e, 0xff, 0xff, 0xff, 0x00, 0x00, 0x00, 0x01,
  0x14, 0x00, 0x00, 0x00, 0x14, 0x00, 0x00, 0x00, 0x05, 0x00, 0x00, 0x00,
  0x00, 0x00, 0x00, 0x02, 0x1c, 0x00, 0x00, 0x00, 0x38, 0xff, 0xff, 0xff,
  0x0f, 0x00, 0x00, 0x00, 0x61, 0x72, 0x69, 0x74, 0x68, 0x2e, 0x63, 0x6f,
  0x6e, 0x73, 0x74, 0x61, 0x6e, 0x74, 0x33, 0x00, 0x01, 0x00, 0x00, 0x00,
  0x03, 0x00, 0x00, 0x00, 0x8a, 0xff, 0xff, 0xff, 0x00, 0x00, 0x00, 0x01,
  0x14, 0x00, 0x00, 0x00, 0x14, 0x00, 0x00, 0x00, 0x04, 0x00, 0x00, 0x00,
  0x00, 0x00, 0x00, 0x02, 0x1c, 0x00, 0x00, 0x00, 0x74, 0xff, 0xff, 0xff,
  0x0f, 0x00, 0x00, 0x00, 0x61, 0x72, 0x69, 0x74, 0x68, 0x2e, 0x63, 0x6f,
  0x6e, 0x73, 0x74, 0x61, 0x6e, 0x74, 0x32, 0x00, 0x01, 0x00, 0x00, 0x00,
  0x03, 0x00, 0x00, 0x00, 0xc6, 0xff, 0xff, 0xff, 0x00, 0x00, 0x00, 0x01,
  0x14, 0x00, 0x00, 0x00, 0x14, 0x00, 0x00, 0x00, 0x03, 0x00, 0x00, 0x00,
  0x00, 0x00, 0x00, 0x02, 0x1c, 0x00, 0x00, 0x00, 0xb0, 0xff, 0xff, 0xff,
  0x0f, 0x00, 0x00, 0x00, 0x61, 0x72, 0x69, 0x74, 0x68, 0x2e, 0x63, 0x6f,
  0x6e, 0x73, 0x74, 0x61, 0x6e, 0x74, 0x31, 0x00, 0x00, 0x00, 0x00, 0x00,
  0x00, 0x00, 0x16, 0x00, 0x1c, 0x00, 0x18, 0x00, 0x17, 0x00, 0x10, 0x00,
  0x0c, 0x00, 0x08, 0x00, 0x00, 0x00, 0x00, 0x00, 0x00, 0x00, 0x07, 0x00,
  0x16, 0x00, 0x00, 0x00, 0x00, 0x00, 0x00, 0x01, 0x18, 0x00, 0x00, 0x00,
  0x18, 0x00, 0x00, 0x00, 0x02, 0x00, 0x00, 0x00, 0x00, 0x00, 0x00, 0x02,
  0x20, 0x00, 0x00, 0x00, 0x04, 0x00, 0x04, 0x00, 0x04, 0x00, 0x00, 0x00,
  0x0e, 0x00, 0x00, 0x00, 0x61, 0x72, 0x69, 0x74, 0x68, 0x2e, 0x63, 0x6f,
  0x6e, 0x73, 0x74, 0x61, 0x6e, 0x74, 0x00, 0x00, 0x02, 0x00, 0x00, 0x00,
  0x03, 0x00, 0x00, 0x00, 0x02, 0x00, 0x00, 0x00, 0x00, 0x00, 0x16, 0x00,
  0x20, 0x00, 0x1c, 0x00, 0x1b, 0x00, 0x14, 0x00, 0x10, 0x00, 0x0c, 0x00,
  0x00, 0x00, 0x00, 0x00, 0x08, 0x00, 0x07, 0x00, 0x16, 0x00, 0x00, 0x00,
  0x00, 0x00, 0x00, 0x01, 0x18, 0x00, 0x00, 0x00, 0x30, 0x00, 0x00, 0x00,
  0x4c, 0x00, 0x00, 0x00, 0x01, 0x00, 0x00, 0x00, 0x00, 0x00, 0x00, 0x09,
  0x60, 0x00, 0x00, 0x00, 0x03, 0x00, 0x00, 0x00, 0xff, 0xff, 0xff, 0xff,
  0x08, 0x00, 0x00, 0x00, 0x1a, 0x00, 0x00, 0x00, 0x0c, 0x00, 0x0c, 0x00,
  0x00, 0x00, 0x00, 0x00, 0x08, 0x00, 0x04, 0x00, 0x0c, 0x00, 0x00, 0x00,
  0x08, 0x00, 0x00, 0x00, 0x10, 0x00, 0x00, 0x00, 0x01, 0x00, 0x00, 0x00,
  0x80, 0xff, 0xff, 0xff, 0xff, 0xff, 0xff, 0xff, 0x01, 0x00, 0x00, 0x00,
  0x81, 0x80, 0x80, 0x3b, 0x1b, 0x00, 0x00, 0x00, 0x73, 0x65, 0x72, 0x76,
  0x69, 0x6e, 0x67, 0x5f, 0x64, 0x65, 0x66, 0x61, 0x75, 0x6c, 0x74, 0x5f,
  0x6d, 0x65, 0x6c, 0x5f, 0x69, 0x6e, 0x70, 0x75, 0x74, 0x3a, 0x30, 0x00,
  0x03, 0x00, 0x00, 0x00, 0x01, 0x00, 0x00, 0x00, 0x08, 0x00, 0x00, 0x00,
  0x1a, 0x00, 0x00, 0x00, 0x05, 0x00, 0x00, 0x00, 0x64, 0x00, 0x00, 0x00,
  0x48, 0x00, 0x00, 0x00, 0x28, 0x00, 0x00, 0x00, 0x18, 0x00, 0x00, 0x00,
  0x04, 0x00, 0x00, 0x00, 0xbc, 0xff, 0xff, 0xff, 0x0e, 0x00, 0x00, 0x00,
  0x02, 0x00, 0x00, 0x00, 0x00, 0x00, 0x00, 0x0e, 0xe4, 0xff, 0xff, 0xff,
  0x16, 0x00, 0x00, 0x00, 0x00, 0x00, 0x00, 0x16, 0xd8, 0xff, 0xff, 0xff,
  0x03, 0x00, 0x00, 0x00, 0x03, 0x00, 0x00, 0x00, 0x00, 0x00, 0x00, 0x03,
  0x0c, 0x00, 0x0c, 0x00, 0x0b, 0x00, 0x00, 0x00, 0x00, 0x00, 0x04, 0x00,
  0x0c, 0x00, 0x00, 0x00, 0x46, 0x00, 0x00, 0x00, 0x00, 0x00, 0x00, 0x46,
  0x0c, 0x00, 0x10, 0x00, 0x0f, 0x00, 0x00, 0x00, 0x08, 0x00, 0x04, 0x00,
  0x0c, 0x00, 0x00, 0x00, 0x22, 0x00, 0x00, 0x00, 0x02, 0x00, 0x00, 0x00,
  0x00, 0x00, 0x00, 0x22,
};

static const unsigned int onset_model_data_len = 10048;

#endif // ONSET_MODEL_DATA_H
